{"version":"1.0","truncation":null,"padding":null,"added_tokens":[{"id":0,"special":true,"content":"[UNK]","single_word":false,"lstrip":false,"rstrip":false,"normalized":false},{"id":1,"special":true,"content":"[CLS]","single_word":false,"lstrip":false,"rstrip":false,"normalized":false},{"id":2,"special":true,"content":"[SEP]","single_word":false,"lstrip":false,"rstrip":false,"normalized":false},{"id":3,"special":true,"content":"[PAD]","single_word":false,"lstrip":false,"rstrip":false,"normalized":false},{"id":4,"special":true,"content":"[MASK]","single_word":false,"lstrip":false,"rstrip":false,"normalized":false}],"normalizer":{"type":"Sequence","normalizers":[{"type":"NFD"},{"type":"StripAccents"}]},"pre_tokenizer":{"type":"Whitespace"},"post_processor":{"type":"TemplateProcessing","single":[{"SpecialToken":{"id":"[CLS]","type_id":0}},{"Sequence":{"id":"A","type_id":0}},{"SpecialToken":{"id":"[SEP]","type_id":0}}],"pair":[{"SpecialToken":{"id":"[CLS]","type_id":0}},{"Sequence":{"id":"A","type_id":0}},{"SpecialToken":{"id":"[SEP]","type_id":0}},{"Sequence":{"id":"B","type_id":1}},{"SpecialToken":{"id":"[SEP]","type_id":1}}],"special_tokens":{"[CLS]":{"id":"[CLS]","ids":[1],"tokens":["[CLS]"]},"[SEP]":{"id":"[SEP]","ids":[2],"tokens":["[SEP]"]}}},"decoder":null,"model":{"type":"WordPiece","unk_token":"[UNK]","continuing_subword_prefix":"##","max_input_chars_per_word":100,"vocab":{"[UNK]":0,"[CLS]":1,"[SEP]":2,"[PAD]":3,"[MASK]":4,"0":5,"1":6,"2":7,"3":8,"4":9,"5":10,"6":11,"7":12,"8":13,"9":14,"a":15,"b":16,"c":17,"d":18,"e":19,"f":20,"g":21,"h":22,"i":23,"j":24,"k":25,"l":26,"m":27,"n":28,"o":29,"p":30,"q":31,"r":32,"s":33,"t":34,"u":35,"v":36,"w":37,"x":38,"y":39,"z":40,"##o":41,"##c":42,"##i":43,"##a":44,"##l":45,"##9":46,"##8":47,"##e":48,"##p":49,"##t":50,"##r":51,"##b":52,"##n":53,"##2":54,"##0":55,"##1":56,"##6":57,"##u":58,"##s":59,"##m":60,"##x":61,"##k":62,"##d":63,"##g":64,"##f":65,"##z":66,"##h":67,"##y":68,"##v":69,"##3":70,"##4":71,"##w":72,"##5":73,"##7":74,"##j":75,"##q":76,"##ti":77,"##on":78,"##er":79,"##in":80,"##al":81,"##en":82,"##or":83,"##tion":84,"##an":85,"##es":86,"##ar":87,"##ing":88,"in":89,"##ic":90,"an":91,"of":92,"##ation":93,"##it":94,"##at":95,"##is":96,"##ed":97,"##ro":98,"##ec":99,"and":100,"##ur":101,"##ent":102,"##el":103,"##et":104,"##as":105,"th":106,"##ac":107,"##ol":108,"##om":109,"##em":110,"the":111,"##il":112,"for":113,"##st":114,"##ul":115,"##id":116,"st":117,"##ce":118,"##ra":119,"##od":120,"##ag":121,"##tic":122,"##ch":123,"##ve":124,"con":125,"##ear":126,"##us":127,"##am":128,"##ig":129,"##ter":130,"##le":131,"re":132,"##og":133,"on":134,"##ity":135,"##re":136,"##ect":137,"##ng":138,"##ess":139,"##os":140,"pro":141,"##ri":142,"ch":143,"de":144,"##ers":145,"to":146,"##th":147,"com":148,"##um":149,"##oc":150,"##uc":151,"##un":152,"##ab":153,"##ir":154,"##ati":155,"##ff":156,"##im":157,"##ith":158,"##pl":159,"##ut":160,"im":161,"##ning":162,"##ad":163,"##ion":164,"##ork":165,"##ment":166,"##ud":167,"lear":168,"##ap":169,"##ot":170,"##op":171,"or":172,"##ov":173,"##ial":174,"##iz":175,"learning":176,"##ia":177,"##ine":178,"with":179,"##ow":180,"ne":181,"##ure":182,"##etw":183,"ex":184,"en":185,"##ement":186,"##ting":187,"##for":188,"mod":189,"##ence":190,"##ical":191,"##and":192,"us":193,"##ys":194,"res":195,"##ang":196,"comp":197,"##ate":198,"##age":199,"sy":200,"ac":201,"sp":202,"##ep":203,"pr":204,"tr":205,"##etwork":206,"##ication":207,"network":208,"##per":209,"dis":210,"cl":211,"ad":212,"##ual":213,"##ach":214,"##ance":215,"al":216,"bas":217,"20":218,"##ph":219,"##olog":220,"eff":221,"as":222,"##ens":223,"##ans":224,"##if":225,"##ural":226,"##form":227,"##ob":228,"##ip":229,"##tive":230,"##ell":231,"un":232,"##ts":233,"##vi":234,"su":235,"ap":236,"stud":237,"##duc":238,"##ection":239,"##qu":240,"based":241,"model":242,"di":243,"##ak":244,"##act":245,"##ew":246,"##stem":247,"##ain":248,"ph":249,"inter":250,"met":251,"sh":252,"rec":253,"##ization":254,"ar":255,"##ech":256,"##ition":257,"system":258,"##ge":259,"per":260,"##ass":261,"cont":262,"##ution":263,"##rom":264,"anal":265,"##ay":266,"sc":267,"using":268,"str":269,"se":270,"##igh":271,"##our":272,"trans":273,"int":274,"##ist":275,"em":276,"man":277,"gen":278,"##ric":279,"##ust":280,"at":281,"##der":282,"##ory":283,"##iv":284,"##ies":285,"mul":286,"##anc":287,"dat":288,"det":289,"imp":290,"##ard":291,"co":292,"##ant":293,"##all":294,"19":295,"pl":296,"##ysis":297,"multi":298,"##ib":299,"le":300,"##vel":301,"##ort":302,"deep":303,"##enti":304,"##enc":305,"##ations":306,"te":307,"##ative":308,"##ign":309,"mar":310,"##ology":311,"##pr":312,"networks":313,"##ents":314,"analysis":315,"ind":316,"par":317,"effect":318,"be":319,"el":320,"cov":321,"##ide":322,"##ase":323,"ev":324,"he":325,"201":326,"neural":327,"##tim":328,"from":329,"##ary":330,"##ry":331,"##tiv":332,"##ous":333,"op":334,"gra":335,"tra":336,"##olution":337,"##ack":338,"##av":339,"is":340,"##ated":341,"by":342,"##rol":343,"soc":344,"data":345,"##ast":346,"rel":347,"##are":348,"##est":349,"##ou":350,"##ace":351,"##ly":352,"##end":353,"##ver":354,"##ill":355,"inf":356,"##ha":357,"cor":358,"##ong":359,"##ors":360,"des":361,"bi":362,"##ational":363,"##ility":364,"med":365,"##ath":366,"##earch":367,"ass":368,"pol":369,"##ug":370,"##ian":371,"am":372,"##erm":373,"covid":374,"##echn":375,"detection":376,"class":377,"study":378,"comm":379,"manag":380,"##ram":381,"meth":382,"##cess":383,"##bl":384,"##ism":385,"qu":386,"app":387,"##ult":388,"wh":389,"techn":390,"##tics":391,"ab":392,"##view":393,"image":394,"##ater":395,"##ogn":396,"sch":397,"gener":398,"ag":399,"sur":400,"social":401,"##action":402,"##eng":403,"##00":404,"##able":405,"col":406,"sel":407,"hy":408,"method":409,"##vers":410,"##und":411,"##ood":412,"me":413,"##ild":414,"management":415,"##lu":416,"##alu":417,"mic":418,"##tical":419,"appl":420,"##velop":421,"##ties":422,"##xt":423,"##ari":424,"##se":425,"control":426,"aut":427,"ob":428,"develop":429,"##ating":430,"##eg":431,"##tr":432,"##ice":433,"##ature":434,"##ject":435,"we":436,"##uct":437,"research":438,"##ification":439,"ec":440,"##yn":441,"##str":442,"review":443,"##erv":444,"##erg":445,"##alth":446,"fe":447,"##ish":448,"tim":449,"##ining":450,"educ":451,"vis":452,"##ular":453,"##ros":454,"att":455,"##ene":456,"##ention":457,"reg":458,"mo":459,"bl":460,"high":461,"perform":462,"lang":463,"mach":464,"##ics":465,"##nal":466,"appro":467,"##onom":468,"eng":469,"sem":470,"pre":471,"health":472,"##led":473,"rob":474,"##ert":475,"##ah":476,"##ability":477,"hum":478,"##pt":479,"po":480,"##ik":481,"so":482,"pred":483,"langu":484,"##fer":485,"car":486,"##gan":487,"##ron":488,"performance":489,"design":490,"mark":491,"gro":492,"##ession":493,"##io":494,"graph":495,"new":496,"cons":497,"process":498,"application":499,"##hip":500,"##ognition":501,"sm":502,"##ient":503,"kn":504,"##ale":505,"conv":506,"##atic":507,"pers":508,"predic":509,"##ital":510,"##line":511,"language":512,"##ive":513,"##vis":514,"##xx":515,"##ord":516,"development":517,"##ok":518,"diff":519,"##int":520,"##ering":521,"es":522,"commun":523,"##ulation":524,"##formation":525,"##ie":526,"##tit":527,"##havi":528,"##ines":529,"sim":530,"##ight":531,"fl":532,"##ern":533,"##ind":534,"##ile":535,"machine":536,"##ption":537,"time":538,"behavi":539,"##port":540,"##tin":541,"##rib":542,"recognition":543,"approach":544,"elect":545,"human":546,"##ures":547,"##ock":548,"##ency":549,"education":550,"##por":551,"dist":552,"sens":553,"dec":554,"##ery":555,"work":556,"struct":557,"##rop":558,"convolution":559,"##ective":560,"##ite":561,"##one":562,"id":563,"##gor":564,"bo":565,"##art":566,"impact":567,"systems":568,"know":569,"optim":570,"produc":571,"effects":572,"##unc":573,"organ":574,"non":575,"online":576,"200":577,"under":578,"##ann":579,"self":580,"sec":581,"##acter":582,"##ub":583,"##ft":584,"##king":585,"gl":586,"qual":587,"##ledge":588,"##oy":589,"acc":590,"classification":591,"child":592,"syn":593,"char":594,"##ynam":595,"##out":596,"##up":597,"##ological":598,"##ience":599,"##ond":600,"information":601,"evalu":602,"intern":603,"##sy":604,"##ithm":605,"##tis":606,"effic":607,"##yl":608,"knowledge":609,"##ee":610,"##uring":611,"super":612,"inv":613,"algor":614,"vide":615,"##iqu":616,"##ental":617,"mat":618,"teach":619,"##aw":620,"students":621,"fact":622,"##ne":623,"##ole":624,"prot":625,"algorithm":626,"##ax":627,"convolutional":628,"theory":629,"sup":630,"##emic":631,"##ateg":632,"##ward":633,"differ":634,"ed":635,"vi":636,"##acy":637,"##yp":638,"##ree":639,"##tif":640,"mon":641,"influ":642,"loc":643,"inc":644,"##vir":645,"##ple":646,"##riv":647,"fr":648,"##ome":649,"##ail":650,"cell":651,"imag":652,"##su":653,"##ore":654,"disc":655,"##uction":656,"fin":657,"##les":658,"impro":659,"##ium":660,"micro":661,"visual":662,"##ons":663,"##iness":664,"br":665,"##viron":666,"##unction":667,"exper":668,"compu":669,"extr":670,"strateg":671,"##tivity":672,"dynam":673,"ins":674,"sub":675,"##na":676,"##ower":677,"##ware":678,"##ination":679,"environ":680,"cr":681,"##ool":682,"ris":683,"gu":684,"surve":685,"real":686,"10":687,"##ier":688,"spe":689,"##ized":690,"econom":691,"##esent":692,"seman":693,"##mentation":694,"text":695,"environment":696,"##ina":697,"##arm":698,"cap":699,"quality":700,"do":701,"autom":702,"intell":703,"models":704,"##ings":705,"##eh":706,"##rain":707,"##lex":708,"seg":709,"##af":710,"##20":711,"##ential":712,"##pos":713,"##sych":714,"sk":715,"##iel":716,"ret":717,"##een":718,"##rim":719,"##ym":720,"##ration":721,"expl":722,"technology":723,"##vised":724,"##ness":725,"##esis":726,"##raph":727,"lin":728,"behavior":729,"tem":730,"##ise":731,"resp":732,"jour":733,"prog":734,"cy":735,"chang":736,"object":737,"video":738,"plan":739,"media":740,"##iter":741,"survey":742,"bus":743,"##erap":744,"##ral":745,"##ty":746,"dig":747,"mem":748,"##ension":749,"assess":750,"##blem":751,"function":752,"vari":753,"##ugh":754,"serv":755,"problem":756,"risk":757,"##tern":758,"##ates":759,"identi":760,"phys":761,"journal":762,"##onal":763,"modeling":764,"compar":765,"##ets":766,"jo":767,"repr":768,"psych":769,"use":770,"evaluation":771,"over":772,"intellig":773,"##reat":774,"meas":775,"how":776,"adap":777,"mob":778,"##iss":779,"##ix":780,"arch":781,"sol":782,"##eter":783,"##ren":784,"##ities":785,"##itive":786,"##ich":787,"##ber":788,"mus":789,"##fl":790,"##az":791,"impl":792,"betw":793,"##ung":794,"pat":795,"##atis":796,"pu":797,"##ox":798,"between":799,"fram":800,"are":801,"##ences":802,"represent":803,"indust":804,"training":805,"cult":806,"out":807,"relations":808,"##ash":809,"##ety":810,"school":811,"case":812,"advers":813,"ge":814,"improv":815,"##ergy":816,"lo":817,"semantic":818,"red":819,"##ivers":820,"af":821,"prediction":822,"estim":823,"##ank":824,"end":825,"##urr":826,"fil":827,"pos":828,"gam":829,"##usion":830,"nan":831,"def":832,"##aj":833,"##ask":834,"business":835,"##br":836,"pati":837,"tw":838,"pe":839,"bu":840,"##its":841,"##ev":842,"water":843,"##man":844,"power":845,"segmentation":846,"distrib":847,"##ross":848,"character":849,"prac":850,"mal":851,"##otion":852,"##ins":853,"##ai":854,"##lation":855,"##ator":856,"communication":857,"role":858,"##oth":859,"##arial":860,"##oring":861,"sing":862,"sal":863,"energy":864,"via":865,"##ograph":866,"##rough":867,"digital":868,"toward":869,"what":870,"scale":871,"del":872,"vir":873,"attention":874,"dom":875,"local":876,"##aus":877,"integ":878,"publ":879,"form":880,"##ars":881,"adversarial":882,"##ue":883,"##als":884,"rad":885,"rein":886,"coll":887,"anti":888,"##struction":889,"spec":890,"##echan":891,"##air":892,"##ere":893,"dr":894,"##old":895,"##ision":896,"##omm":897,"lab":898,"ser":899,"ep":900,"##forc":901,"level":902,"emb":903,"all":904,"no":905,"lif":906,"care":907,"##ane":908,"##oph":909,"sign":910,"assessment":911,"3d":912,"##ping":913,"dep":914,"##arge":915,"perce":916,"optimization":917,"##til":918,"nat":919,"##ex":920,"##itect":921,"grow":922,"methods":923,"##ework":924,"##ied":925,"univers":926,"##och":927,"low":928,"vol":929,"organization":930,"techniqu":931,"food":932,"dise":933,"##eness":934,"##urs":935,"soft":936,"reinforc":937,"##dition":938,"##mar":939,"##ield":940,"##osis":941,"gr":942,"eth":943,"##ancer":944,"you":945,"##ploy":946,"##urity":947,"architect":948,"##erapy":949,"ro":950,"mobile":951,"mechan":952,"engine":953,"##istic":954,"ear":955,"structure":956,"##etic":957,"international":958,"through":959,"generation":960,"relationship":961,"##agn":962,"liter":963,"corr":964,"##ein":965,"nor":966,"##ave":967,"children":968,"program":969,"applications":970,"hist":971,"framework":972,"min":973,"intelligence":974,"efficient":975,"##nn":976,"##ector":977,"##ld":978,"##icial":979,"sl":980,"cancer":981,"artif":982,"emotion":983,"xxx":984,"##pression":985,"##de":986,"consum":987,"aff":988,"identif":989,"##tor":990,"au":991,"##ode":992,"##estion":993,"##of":994,"stress":995,"glob":996,"##edd":997,"factors":998,"##cl":999,"##omet":1000,"##ices":1001,"cent":1002,"##uk":1003,"lead":1004,"sex":1005,"et":1006,"rem":1007,"dynamic":1008,"##esc":1009,"valu":1010,"##eting":1011,"hyd":1012,"typ":1013,"##ource":1014,"ur":1015,"sw":1016,"##urrent":1017,"treat":1018,"chall":1019,"##esh":1020,"##aking":1021,"prof":1022,"natural":1023,"##lish":1024,"sam":1025,"er":1026,"its":1027,"phil":1028,"##eric":1029,"##ma":1030,"##df":1031,"##acc":1032,"adv":1033,"polic":1034,"##anding":1035,"##oud":1036,"##unt":1037,"financ":1038,"estimation":1039,"##bo":1040,"can":1041,"##abil":1042,"map":1043,"science":1044,"proper":1045,"cross":1046,"conc":1047,"smart":1048,"dem":1049,"##ays":1050,"growth":1051,"##iti":1052,"##astic":1053,"##ick":1054,"global":1055,"##gen":1056,"##ey":1057,"enh":1058,"large":1059,"cal":1060,"mor":1061,"gre":1062,"synth":1063,"post":1064,"##ete":1065,"la":1066,"artificial":1067,"among":1068,"treatment":1069,"equ":1070,"nov":1071,"fir":1072,"##ference":1073,"mater":1074,"not":1075,"influence":1076,"coron":1077,"face":1078,"##oci":1079,"##ake":1080,"##ipp":1081,"computer":1082,"##ison":1083,"199":1084,"teaching":1085,"air":1086,"##ements":1087,"embedd":1088,"fac":1089,"li":1090,"it":1091,"bar":1092,"reinforcement":1093,"##inc":1094,"security":1095,"compos":1096,"employ":1097,"towards":1098,"during":1099,"##idence":1100,"##ae":1101,"translation":1102,"##nov":1103,"veh":1104,"chem":1105,"web":1106,"life":1107,"english":1108,"about":1109,"processing":1110,"vehic":1111,"underst":1112,"long":1113,"hand":1114,"transfer":1115,"financial":1116,"up":1117,"public":1118,"##oss":1119,"##cept":1120,"clust":1121,"##face":1122,"##erc":1123,"##ext":1124,"##asi":1125,"path":1126,"##he":1127,"change":1128,"decision":1129,"read":1130,"bre":1131,"##ectiv":1132,"domain":1133,"memory":1134,"##oid":1135,"robot":1136,"##ema":1137,"marketing":1138,"##ression":1139,"general":1140,"search":1141,"state":1142,"flow":1143,"transform":1144,"##ose":1145,"single":1146,"##rial":1147,"cam":1148,"service":1149,"phot":1150,"pap":1151,"task":1152,"disease":1153,"personal":1154,"feature":1155,"ox":1156,"speech":1157,"sequ":1158,"##ally":1159,"associ":1160,"recomm":1161,"##istics":1162,"patients":1163,"##izing":1164,"clin":1165,"##ler":1166,"question":1167,"dan":1168,"dir":1169,"2020":1170,"##duction":1171,"##row":1172,"enhanc":1173,"cloud":1174,"##son":1175,"ter":1176,"##ible":1177,"china":1178,"industry":1179,"wom":1180,"##inal":1181,"##amil":1182,"architecture":1183,"pdf":1184,"##eth":1185,"##te":1186,"extraction":1187,"images":1188,"##ost":1189,"##ress":1190,"enc":1191,"ul":1192,"word":1193,"wor":1194,"zh":1195,"gov":1196,"novel":1197,"understanding":1198,"##ership":1199,"robust":1200,"##ana":1201,"##ling":1202,"activity":1203,"pot":1204,"##itation":1205,"cust":1206,"top":1207,"context":1208,"go":1209,"engineering":1210,"##ases":1211,"acad":1212,"##atory":1213,"term":1214,"quan":1215,"##acking":1216,"spati":1217,"pattern":1218,"project":1219,"math":1220,"driv":1221,"open":1222,"supervised":1223,"##irus":1224,"culture":1225,"properties":1226,"policy":1227,"##ten":1228,"innov":1229,"custom":1230,"acid":1231,"rep":1232,"rand":1233,"log":1234,"##sc":1235,"##atures":1236,"##ner":1237,"spect":1238,"two":1239,"mov":1240,"material":1241,"##ying":1242,"physical":1243,"market":1244,"multiple":1245,"economic":1246,"representation":1247,"##ants":1248,"##tig":1249,"##ban":1250,"brain":1251,"university":1252,"##ronic":1253,"##pect":1254,"perception":1255,"##ire":1256,"cre":1257,"##iency":1258,"persp":1259,"dim":1260,"support":1261,"software":1262,"medical":1263,"##ples":1264,"block":1265,"production":1266,"tur":1267,"##ton":1268,"fre":1269,"##ta":1270,"##tice":1271,"carb":1272,"field":1273,"##ission":1274,"sensor":1275,"##iety":1276,"fast":1277,"##aly":1278,"therm":1279,"cur":1280,"##tual":1281,"challeng":1282,"automatic":1283,"fu":1284,"test":1285,"adaptive":1286,"##ound":1287,"##rad":1288,"light":1289,"interaction":1290,"techniques":1291,"priv":1292,"fib":1293,"ir":1294,"literature":1295,"##ones":1296,"##ecting":1297,"##avirus":1298,"##ography":1299,"student":1300,"complex":1301,"experim":1302,"##enz":1303,"determ":1304,"cost":1305,"therapy":1306,"govern":1307,"monit":1308,"##au":1309,"random":1310,"hyper":1311,"##ao":1312,"##ke":1313,"oper":1314,"computing":1315,"##els":1316,"exam":1317,"##tivation":1318,"ent":1319,"clinical":1320,"##ffic":1321,"##ms":1322,"##ages":1323,"mining":1324,"grad":1325,"cri":1326,"oc":1327,"##ize":1328,"comb":1329,"aud":1330,"studies":1331,"condition":1332,"philipp":1333,"##co":1334,"emp":1335,"##net":1336,"identification":1337,"cogn":1338,"build":1339,"mental":1340,"##vention":1341,"##ific":1342,"##ching":1343,"##ces":1344,"analy":1345,"off":1346,"world":1347,"##brid":1348,"##arch":1349,"distribution":1350,"conn":1351,"land":1352,"space":1353,"planning":1354,"tool":1355,"group":1356,"tes":1357,"val":1358,"ver":1359,"coronavirus":1360,"##oll":1361,"caus":1362,"challenges":1363,"##asc":1364,"sil":1365,"generative":1366,"measur":1367,"plant":1368,"##pervised":1369,"##ults":1370,"vacc":1371,"virtual":1372,"dev":1373,"##elling":1374,"sust":1375,"##outh":1376,"value":1377,"##u00":1378,"famil":1379,"import":1380,"neu":1381,"##idual":1382,"suppl":1383,"##par":1384,"their":1385,"sum":1386,"##ute":1387,"##lam":1388,"features":1389,"afric":1390,"back":1391,"##atisf":1392,"internet":1393,"filter":1394,"recommend":1395,"academic":1396,"oil":1397,"comparison":1398,"simulation":1399,"temper":1400,"##ected":1401,"ste":1402,"learn":1403,"unsu":1404,"hydro":1405,"cognitive":1406,"doc":1407,"##uted":1408,"synthesis":1409,"##mal":1410,"strategy":1411,"diagn":1412,"chines":1413,"sustain":1414,"##poral":1415,"sars":1416,"saf":1417,"india":1418,"unsupervised":1419,"##arg":1420,"imm":1421,"chinese":1422,"strategies":1423,"pres":1424,"drug":1425,"evidence":1426,"##ined":1427,"2019":1428,"point":1429,"respon":1430,"##irc":1431,"action":1432,"community":1433,"##ody":1434,"satisf":1435,"americ":1436,"ol":1437,"women":1438,"##ble":1439,"##fact":1440,"skill":1441,"concept":1442,"evolution":1443,"resolution":1444,"history":1445,"shar":1446,"##zz":1447,"num":1448,"fer":1449,"##onic":1450,"##hn":1451,"urban":1452,"sym":1453,"response":1454,"free":1455,"guid":1456,"factor":1457,"my":1458,"##ogy":1459,"##imate":1460,"related":1461,"different":1462,"problems":1463,"cnn":1464,"nurs":1465,"ben":1466,"##lin":1467,"##ument":1468,"partic":1469,"##rete":1470,"pop":1471,"carbon":1472,"art":1473,"monitoring":1474,"inves":1475,"green":1476,"tracking":1477,"hybrid":1478,"##cle":1479,"divers":1480,"clustering":1481,"press":1482,"##ators":1483,"lim":1484,"##han":1485,"view":1486,"epid":1487,"##ps":1488,"##cop":1489,"tour":1490,"dimension":1491,"satisfaction":1492,"##ativ":1493,"##iver":1494,"leadership":1495,"##ks":1496,"gender":1497,"intro":1498,"flu":1499,"pur":1500,"mechanism":1501,"stre":1502,"customer":1503,"attack":1504,"music":1505,"pand":1506,"eu":1507,"algorithms":1508,"induc":1509,"##cri":1510,"il":1511,"aug":1512,"statis":1513,"selection":1514,"feed":1515,"##ull":1516,"##ibility":1517,"soil":1518,"second":1519,"dens":1520,"mot":1521,"lay":1522,"har":1523,"south":1524,"##ham":1525,"construction":1526,"##ada":1527,"##active":1528,"region":1529,"temperature":1530,"fut":1531,"princ":1532,"solution":1533,"meta":1534,"prim":1535,"job":1536,"const":1537,"cat":1538,"##ape":1539,"add":1540,"##land":1541,"cry":1542,"pen":1543,"bel":1544,"mol":1545,"improving":1546,"##bi":1547,"##osp":1548,"##ris":1549,"investig":1550,"environmental":1551,"##com":1552,"that":1553,"bat":1554,"circ":1555,"adapt":1556,"game":1557,"linear":1558,"neg":1559,"##ude":1560,"dav":1561,"set":1562,"##lo":1563,"##oun":1564,"philippines":1565,"cop":1566,"implement":1567,"poly":1568,"reading":1569,"type":1570,"datas":1571,"vehicle":1572,"ic":1573,"peng":1574,"##order":1575,"thin":1576,"sci":1577,"unc":1578,"innovation":1579,"##ening":1580,"est":1581,"##val":1582,"chain":1583,"artic":1584,"organizational":1585,"##ange":1586,"her":1587,"ww":1588,"11":1589,"corpor":1590,"##ya":1591,"##ength":1592,"hel":1593,"dri":1594,"##olar":1595,"##rient":1596,"report":1597,"advanc":1598,"dynamics":1599,"##inary":1600,"##ule":1601,"loss":1602,"##ont":1603,"ans":1604,"big":1605,"##ki":1606,"small":1607,"effectiv":1608,"##oper":1609,"param":1610,"early":1611,"##ogen":1612,"consumer":1613,"shot":1614,"##asting":1615,"motion":1616,"temporal":1617,"spatial":1618,"compl":1619,"correl":1620,"wast":1621,"joint":1622,"series":1623,"perspective":1624,"aware":1625,"pain":1626,"##abor":1627,"law":1628,"prob":1629,"infer":1630,"making":1631,"##anking":1632,"max":1633,"mathema":1634,"biom":1635,"tri":1636,"product":1637,"mag":1638,"comput":1639,"adol":1640,"effectiveness":1641,"##ote":1642,"building":1643,"##ful":1644,"der":1645,"card":1646,"##ese":1647,"bal":1648,"hier":1649,"2018":1650,"##sp":1651,"bay":1652,"manu":1653,"las":1654,"##ury":1655,"plat":1656,"fem":1657,"##urn":1658,"surface":1659,"##aster":1660,"respons":1661,"##ality":1662,"integr":1663,"auth":1664,"agric":1665,"future":1666,"ling":1667,"vision":1668,"##oma":1669,"family":1670,"poli":1671,"##uit":1672,"mc":1673,"user":1674,"practice":1675,"ann":1676,"##ites":1677,"##ica":1678,"##ror":1679,"distributed":1680,"##ited":1681,"color":1682,"##sh":1683,"##ean":1684,"auto":1685,"climate":1686,"##ming":1687,"ang":1688,"exp":1689,"##acts":1690,"py":1691,"##ving":1692,"##own":1693,"traffic":1694,"systematic":1695,"bios":1696,"nut":1697,"##ason":1698,"protein":1699,"one":1700,"index":1701,"##eti":1702,"##19":1703,"attit":1704,"phase":1705,"ma":1706,"##ications":1707,"psychology":1708,"john":1709,"##overy":1710,"critical":1711,"recon":1712,"hierarch":1713,"tax":1714,"content":1715,"suc":1716,"contin":1717,"cells":1718,"representations":1719,"safety":1720,"need":1721,"contr":1722,"will":1723,"mass":1724,"2016":1725,"short":1726,"ped":1727,"tel":1728,"electric":1729,"##ior":1730,"##eless":1731,"agricult":1732,"##ani":1733,"relation":1734,"mil":1735,"issu":1736,"ai":1737,"resource":1738,"order":1739,"behaviour":1740,"body":1741,"net":1742,"##reh":1743,"age":1744,"adolesc":1745,"##ara":1746,"##etes":1747,"www":1748,"##rology":1749,"rate":1750,"##ully":1751,"av":1752,"bene":1753,"##ified":1754,"bio":1755,"##ata":1756,"##acion":1757,"##aling":1758,"2017":1759,"prom":1760,"##ople":1761,"edge":1762,"year":1763,"##era":1764,"frequ":1765,"coun":1766,"recurrent":1767,"retri":1768,"semi":1769,"##ogene":1770,"##chain":1771,"##omy":1772,"supply":1773,"##any":1774,"##eme":1775,"##oding":1776,"anim":1777,"introduction":1778,"embedding":1779,"bank":1780,"sep":1781,"##ek":1782,"diab":1783,"resist":1784,"chann":1785,"pharm":1786,"##ark":1787,"recommendation":1788,"forec":1789,"##orn":1790,"##eck":1791,"potential":1792,"##rab":1793,"##uss":1794,"black":1795,"accur":1796,"people":1797,"motor":1798,"adaptation":1799,"code":1800,"source":1801,"ext":1802,"intr":1803,"genetic":1804,"testing":1805,"importance":1806,"bert":1807,"malays":1808,"##osph":1809,"hear":1810,"characteristics":1811,"skills":1812,"collabor":1813,"2015":1814,"##eval":1815,"##hood":1816,"wir":1817,"lib":1818,"stock":1819,"##hi":1820,"paper":1821,"peri":1822,"##ometric":1823,"benef":1824,"depend":1825,"step":1826,"emerg":1827,"expression":1828,"brand":1829,"##reg":1830,"implementation":1831,"datab":1832,"senti":1833,"comparative":1834,"label":1835,"motivation":1836,"manufact":1837,"lat":1838,"compreh":1839,"##amin":1840,"quantit":1841,"inj":1842,"sensing":1843,"first":1844,"optical":1845,"experience":1846,"hyp":1847,"##put":1848,"##book":1849,"##ther":1850,"##oder":1851,"economy":1852,"##rag":1853,"emotional":1854,"after":1855,"fa":1856,"obs":1857,"##med":1858,"imaging":1859,"mix":1860,"##ources":1861,"##aces":1862,"privacy":1863,"pandemic":1864,"david":1865,"hom":1866,"autonom":1867,"cultural":1868,"##yt":1869,"##etric":1870,"stand":1871,"medic":1872,"measurement":1873,"heter":1874,"depression":1875,"##ci":1876,"##ancy":1877,"##olic":1878,"198":1879,"##ertain":1880,"##netic":1881,"sequence":1882,"tourism":1883,"corporate":1884,"stor":1885,"key":1886,"##mod":1887,"##ero":1888,"##quir":1889,"prec":1890,"dataset":1891,"iot":1892,"higher":1893,"effective":1894,"vaccination":1895,"##illance":1896,"blockchain":1897,"##enza":1898,"##yle":1899,"mac":1900,"pul":1901,"thermal":1902,"##emb":1903,"hosp":1904,"war":1905,"answ":1906,"disorder":1907,"ke":1908,"ref":1909,"##enn":1910,"empir":1911,"##ley":1912,"affect":1913,"part":1914,"##isation":1915,"##iting":1916,"wang":1917,"active":1918,"functional":1919,"epidemic":1920,"current":1921,"three":1922,"##iation":1923,"reality":1924,"nit":1925,"##oice":1926,"optimal":1927,"tom":1928,"teachers":1929,"structural":1930,"pa":1931,"well":1932,"event":1933,"##ike":1934,"##que":1935,"prop":1936,"##16":1937,"virology":1938,"anx":1939,"hot":1940,"chemical":1941,"sa":1942,"wind":1943,"efficiency":1944,"into":1945,"orient":1946,"##back":1947,"hospital":1948,"##pling":1949,"access":1950,"##room":1951,"##ections":1952,"fuzz":1953,"conf":1954,"##roph":1955,"vit":1956,"##ologies":1957,"minim":1958,"##ka":1959,"empirical":1960,"12":1961,"##tices":1962,"pan":1963,"##ived":1964,"cyber":1965,"xn":1966,"##ams":1967,"frequency":1968,"vers":1969,"##sor":1970,"bayes":1971,"##ensive":1972,"influenza":1973,"fish":1974,"stat":1975,"##gh":1976,"##eral":1977,"transport":1978,"distance":1979,"gas":1980,"##ade":1981,"##ict":1982,"services":1983,"weight":1984,"does":1985,"retrieval":1986,"##ino":1987,"##rix":1988,"home":1989,"sentiment":1990,"##10":1991,"mean":1992,"employee":1993,"nursing":1994,"##xic":1995,"##hy":1996,"rich":1997,"wireless":1998,"fusion":1999,"europ":2000,"experimental":2001,"anxiety":2002,"good":2003,"gene":2004,"ground":2005,"aer":2006,"bacter":2007,"intervention":2008,"calc":2009,"##eler":2010,"##uan":2011,"depth":2012,"##ds":2013,"assist":2014,"mapping":2015,"materials":2016,"##me":2017,"pal":2018,"africa":2019,"bro":2020,"##itt":2021,"mel":2022,"wave":2023,"##war":2024,"quant":2025,"load":2026,"colle":2027,"american":2028,"enter":2029,"success":2030,"conference":2031,"##lor":2032,"convers":2033,"##ainst":2034,"agg":2035,"composition":2036,"inference":2037,"driven":2038,"quantitative":2039,"concrete":2040,"diversity":2041,"electronic":2042,"inh":2043,"uncertain":2044,"ach":2045,"##ging":2046,"stoch":2047,"induced":2048,"why":2049,"molec":2050,"incre":2051,"quantum":2052,"young":2053,"port":2054,"book":2055,"platform":2056,"hous":2057,"##idd":2058,"##hael":2059,"stochastic":2060,"trust":2061,"mill":2062,"##position":2063,"##mon":2064,"##gn":2065,"##rome":2066,"immun":2067,"##ured":2068,"matrix":2069,"normal":2070,"noise":2071,"##ott":2072,"malaysia":2073,"##ef":2074,"fail":2075,"##ven":2076,"vs":2077,"##isis":2078,"surg":2079,"ber":2080,"dial":2081,"count":2082,"continu":2083,"fo":2084,"defin":2085,"kar":2086,"invest":2087,"patient":2088,"capital":2089,"automated":2090,"##vision":2091,"bet":2092,"pet":2093,"industrial":2094,"ren":2095,"manufacturing":2096,"hierarchical":2097,"van":2098,"improved":2099,"##iat":2100,"graphs":2101,"eg":2102,"##u000":2103,"##had":2104,"##way":2105,"electro":2106,"localization":2107,"##oor":2108,"road":2109,"proc":2110,"targ":2111,"##ries":2112,"characterization":2113,"pressure":2114,"government":2115,"standard":2116,"play":2117,"##inger":2118,"against":2119,"##ectional":2120,"blood":2121,"synd":2122,"document":2123,"diagnosis":2124,"##ids":2125,"signal":2126,"practices":2127,"laser":2128,"##arse":2129,"psychological":2130,"pass":2131,"heat":2132,"wal":2133,"bound":2134,"anom":2135,"michael":2136,"vector":2137,"metal":2138,"##12":2139,"hard":2140,"##ye":2141,"accoun":2142,"matching":2143,"##arc":2144,"inst":2145,"##aging":2146,"sle":2147,"gradient":2148,"##iger":2149,"##otic":2150,"##ends":2151,"band":2152,"personality":2153,"mut":2154,"##ink":2155,"leg":2156,"regular":2157,"autonomous":2158,"##ocol":2159,"##min":2160,"##itch":2161,"technique":2162,"##we":2163,"liqu":2164,"##idation":2165,"##ray":2166,"integrated":2167,"sn":2168,"mode":2169,"adver":2170,"polym":2171,"##uh":2172,"discrim":2173,"##itter":2174,"link":2175,"stability":2176,"descri":2177,"acceler":2178,"xnxx":2179,"reduction":2180,"##ato":2181,"nanop":2182,"channel":2183,"database":2184,"2013":2185,"mi":2186,"gan":2187,"hu":2188,"doi":2189,"tree":2190,"transm":2191,"teacher":2192,"##qual":2193,"exerc":2194,"2014":2195,"rou":2196,"summar":2197,"##ides":2198,"sched":2199,"waste":2200,"##iction":2201,"jur":2202,"##bal":2203,"differential":2204,"capac":2205,"##oul":2206,"dam":2207,"college":2208,"##artic":2209,"dual":2210,"investigation":2211,"##ias":2212,"associated":2213,"person":2214,"##berg":2215,"conver":2216,"##istry":2217,"##ider":2218,"org":2219,"##otyp":2220,"##orph":2221,"results":2222,"dimensional":2223,"##enet":2224,"primary":2225,"inform":2226,"##ometry":2227,"heart":2228,"##ura":2229,"competi":2230,"national":2231,"##ij":2232,"regression":2233,"chen":2234,"compon":2235,"hem":2236,"size":2237,"direct":2238,"##angl":2239,"association":2240,"den":2241,"##be":2242,"##ilar":2243,"##mented":2244,"farm":2245,"identity":2246,"remote":2247,"cardi":2248,"##her":2249,"2010":2250,"diabetes":2251,"dou":2252,"lip":2253,"statistical":2254,"tre":2255,"##ume":2256,"##riting":2257,"agent":2258,"organic":2259,"lu":2260,"micros":2261,"changes":2262,"tun":2263,"instit":2264,"fed":2265,"flex":2266,"ram":2267,"classroom":2268,"solar":2269,"strength":2270,"zhang":2271,"games":2272,"foc":2273,"cooper":2274,"##ervation":2275,"layer":2276,"fuzzy":2277,"accounting":2278,"overview":2279,"crow":2280,"##urve":2281,"integration":2282,"isol":2283,"tum":2284,"patterns":2285,"resistance":2286,"main":2287,"syndrome":2288,"sat":2289,"sustainable":2290,"reason":2291,"indiv":2292,"trade":2293,"sleep":2294,"infr":2295,"##agement":2296,"forecasting":2297,"modelling":2298,"##tism":2299,"##ights":2300,"si":2301,"metab":2302,"constrain":2303,"##bert":2304,"##ves":2305,"##round":2306,"##ters":2307,"##repr":2308,"speed":2309,"##linear":2310,"advertis":2311,"##tal":2312,"reconstruction":2313,"simple":2314,"##aran":2315,"banking":2316,"issues":2317,"parti":2318,"##erce":2319,"##ising":2320,"##pret":2321,"programming":2322,"##ger":2323,"##ules":2324,"protocol":2325,"deg":2326,"species":2327,"##urveillance":2328,"##uch":2329,"ess":2330,"definition":2331,"north":2332,"##rical":2333,"efficacy":2334,"improve":2335,"position":2336,"men":2337,"##pus":2338,"correlation":2339,"intention":2340,"mind":2341,"individual":2342,"ill":2343,"biosurveillance":2344,"line":2345,"metric":2346,"bayesian":2347,"arab":2348,"sparse":2349,"##iology":2350,"explor":2351,"molecular":2352,"sector":2353,"price":2354,"##care":2355,"forest":2356,"##app":2357,"jap":2358,"ont":2359,"jam":2360,"virus":2361,"##rist":2362,"earth":2363,"pack":2364,"##stm":2365,"sent":2366,"mechanical":2367,"feedback":2368,"scal":2369,"##ories":2370,"##emia":2371,"##ourse":2372,"classif":2373,"variational":2374,"thom":2375,"##ments":2376,"nonlinear":2377,"##ely":2378,"fund":2379,"##entif":2380,"predict":2381,"gh":2382,"2011":2383,"pp":2384,"interpret":2385,"skin":2386,"##mann":2387,"pri":2388,"bias":2389,"benefits":2390,"developing":2391,"simul":2392,"viol":2393,"transition":2394,"antib":2395,"##11":2396,"area":2397,"morph":2398,"##allel":2399,"negative":2400,"period":2401,"hor":2402,"##tra":2403,"##odes":2404,"products":2405,"maxim":2406,"some":2407,"##tian":2408,"profession":2409,"nanopartic":2410,"sun":2411,"processes":2412,"style":2413,"thinking":2414,"specific":2415,"breast":2416,"entrepr":2417,"requir":2418,"##aining":2419,"resil":2420,"residual":2421,"storage":2422,"pregn":2423,"phen":2424,"attrib":2425,"##vement":2426,"educational":2427,"anten":2428,"nutri":2429,"mig":2430,"voc":2431,"##tity":2432,"states":2433,"heterogene":2434,"fiber":2435,"liv":2436,"wa":2437,"achie":2438,"ah":2439,"##enting":2440,"diet":2441,"scre":2442,"poll":2443,"occ":2444,"answering":2445,"target":2446,"andre":2447,"##ots":2448,"dialog":2449,"##ini":2450,"intelligent":2451,"##ga":2452,"##itor":2453,"2012":2454,"functions":2455,"labor":2456,"rot":2457,"##li":2458,"regul":2459,"reduc":2460,"oral":2461,"modern":2462,"compression":2463,"driving":2464,"pose":2465,"##ollow":2466,"##water":2467,"vul":2468,"##pers":2469,"medi":2470,"population":2471,"##uce":2472,"##hol":2473,"##hadap":2474,"parallel":2475,"##tery":2476,"applied":2477,"common":2478,"liquid":2479,"sit":2480,"implications":2481,"lingu":2482,"##use":2483,"##oms":2484,"determin":2485,"approaches":2486,"stem":2487,"##ii":2488,"entity":2489,"whe":2490,"bur":2491,"islam":2492,"bil":2493,"thesis":2494,"##res":2495,"gold":2496,"exploring":2497,"fab":2498,"similar":2499,"collaborative":2500,"error":2501,"scene":2502,"head":2503,"magnetic":2504,"inhib":2505,"terhadap":2506,"##bial":2507,"sharing":2508,"attacks":2509,"summarization":2510,"four":2511,"hab":2512,"sus":2513,"##ita":2514,"positive":2515,"15":2516,"cer":2517,"city":2518,"##ena":2519,"##aph":2520,"##press":2521,"predicting":2522,"types":2523,"iee":2524,"exercise":2525,"wat":2526,"##ky":2527,"##igation":2528,"##atio":2529,"movement":2530,"near":2531,"##ano":2532,"##orders":2533,"dna":2534,"##ables":2535,"seed":2536,"enhanced":2537,"##icon":2538,"##vities":2539,"##ney":2540,"##to":2541,"controlled":2542,"##orts":2543,"governance":2544,"##icit":2545,"diss":2546,"plas":2547,"entreprene":2548,"##xim":2549,"##ense":2550,"pay":2551,"##arian":2552,"element":2553,"abd":2554,"##ocation":2555,"align":2556,"##struct":2557,"healthcare":2558,"18":2559,"util":2560,"separ":2561,"bir":2562,"##ding":2563,"nar":2564,"shape":2565,"more":2566,"##elect":2567,"##emical":2568,"stro":2569,"plants":2570,"princi":2571,"##cep":2572,"record":2573,"altern":2574,"ultr":2575,"nam":2576,"##rogen":2577,"videos":2578,"tradition":2579,"##ba":2580,"pak":2581,"tub":2582,"##red":2583,"kin":2584,"##ows":2585,"##ja":2586,"##itative":2587,"deliv":2588,"manip":2589,"##ru":2590,"mathematics":2591,"chronic":2592,"find":2593,"##ees":2594,"society":2595,"##mark":2596,"demand":2597,"prov":2598,"san":2599,"writing":2600,"##ea":2601,"anth":2602,"##place":2603,"##istration":2604,"japan":2605,"facial":2606,"##di":2607,"ens":2608,"robert":2609,"special":2610,"dc":2611,"##ella":2612,"indian":2613,"weak":2614,"##chron":2615,"anomaly":2616,"tan":2617,"##con":2618,"uncertainty":2619,"##comes":2620,"libr":2621,"versus":2622,"aust":2623,"magn":2624,"cryst":2625,"##rum":2626,"used":2627,"formation":2628,"attitude":2629,"working":2630,"jurnal":2631,"differences":2632,"failure":2633,"rap":2634,"radio":2635,"schedul":2636,"fat":2637,"nav":2638,"##bor":2639,"aspect":2640,"status":2641,"13":2642,"transformer":2643,"cos":2644,"##umar":2645,"acti":2646,"alex":2647,"pros":2648,"##oles":2649,"experi":2650,"##hu":2651,"strategic":2652,"structures":2653,"political":2654,"sar":2655,"##elet":2656,"outcomes":2657,"##stein":2658,"medicine":2659,"##ographic":2660,"enhancement":2661,"device":2662,"fore":2663,"##aya":2664,"les":2665,"prepar":2666,"cycle":2667,"reaction":2668,"ak":2669,"cu":2670,"disorders":2671,"ieee":2672,"delivery":2673,"indones":2674,"##ief":2675,"autism":2676,"bra":2677,"uav":2678,"continuous":2679,"##quis":2680,"nature":2681,"##ca":2682,"##po":2683,"##si":2684,"##ances":2685,"regulation":2686,"##jective":2687,"when":2688,"awar":2689,"trial":2690,"adults":2691,"##uck":2692,"mas":2693,"nuc":2694,"principles":2695,"##ios":2696,"##ender":2697,"lstm":2698,"##ze":2699,"stream":2700,"enterpr":2701,"zero":2702,"##gar":2703,"##pro":2704,"##ida":2705,"center":2706,"central":2707,"focus":2708,"bri":2709,"##atin":2710,"sexual":2711,"tal":2712,"extract":2713,"por":2714,"rh":2715,"liu":2716,"##ressive":2717,"cou":2718,"##ula":2719,"measuring":2720,"embeddings":2721,"shop":2722,"yang":2723,"##aneous":2724,"bangl":2725,"##asing":2726,"##raw":2727,"compet":2728,"##epend":2729,"environments":2730,"remov":2731,"engagement":2732,"od":2733,"things":2734,"numer":2735,"bench":2736,"##roid":2737,"hypert":2738,"##ions":2739,"ray":2740,"##eration":2741,"density":2742,"reasoning":2743,"##ulf":2744,"chris":2745,"qualitative":2746,"guided":2747,"down":2748,"##atan":2749,"neuro":2750,"foreign":2751,"few":2752,"##ali":2753,"##raft":2754,"internal":2755,"fine":2756,"##encing":2757,"##urance":2758,"advant":2759,"##ostic":2760,"augmented":2761,"##entific":2762,"##cin":2763,"ros":2764,"expos":2765,"##athy":2766,"##idad":2767,"##copy":2768,"##da":2769,"advanced":2770,"activities":2771,"bey":2772,"behavioral":2773,"purch":2774,"##aff":2775,"##ceed":2776,"technologies":2777,"##umin":2778,"resources":2779,"princip":2780,"tools":2781,"nutrition":2782,"germ":2783,"##ulum":2784,"detecting":2785,"impacts":2786,"heterogeneous":2787,"kh":2788,"uk":2789,"##15":2790,"##ats":2791,"##pu":2792,"consumption":2793,"lam":2794,"news":2795,"##itiz":2796,"awareness":2797,"without":2798,"evaluating":2799,"##lp":2800,"nano":2801,"refl":2802,"crim":2803,"##iang":2804,"commerce":2805,"scholar":2806,"##pa":2807,"niger":2808,"adult":2809,"film":2810,"##ended":2811,"computational":2812,"##mad":2813,"##ouse":2814,"semantics":2815,"similarity":2816,"aggreg":2817,"abstr":2818,"##verse":2819,"audit":2820,"##uel":2821,"confl":2822,"article":2823,"bor":2824,"multimod":2825,"bud":2826,"##aker":2827,"follow":2828,"thomas":2829,"##quisition":2830,"conduc":2831,"solutions":2832,"##iatric":2833,"##13":2834,"conditions":2835,"##less":2836,"base":2837,"transmission":2838,"rural":2839,"##ectives":2840,"ct":2841,"amb":2842,"concent":2843,"##ola":2844,"stroke":2845,"scheduling":2846,"trends":2847,"pada":2848,"na":2849,"##gb":2850,"##eters":2851,"##tine":2852,"electron":2853,"discovery":2854,"orig":2855,"197":2856,"daniel":2857,"surgery":2858,"rev":2859,"prevention":2860,"devices":2861,"##uation":2862,"ga":2863,"##enge":2864,"ho":2865,"gram":2866,"##14":2867,"##icing":2868,"##ift":2869,"##istan":2870,"prote":2871,"composite":2872,"##bas":2873,"##ints":2874,"electrical":2875,"predictive":2876,"ham":2877,"propag":2878,"beyond":2879,"company":2880,"distil":2881,"reli":2882,"##hen":2883,"16":2884,"like":2885,"initi":2886,"being":2887,"guide":2888,"volume":2889,"traditional":2890,"rice":2891,"2009":2892,"##ony":2893,"exch":2894,"decom":2895,"economics":2896,"scientific":2897,"autoenc":2898,"fully":2899,"adop":2900,"female":2901,"gir":2902,"contrib":2903,"willi":2904,"##ious":2905,"##18":2906,"vehicles":2907,"14":2908,"lung":2909,"ps":2910,"squ":2911,"accurate":2912,"2008":2913,"grid":2914,"##ather":2915,"schools":2916,"agriculture":2917,"hol":2918,"##ystem":2919,"##bers":2920,"investment":2921,"mechanisms":2922,"theore":2923,"admin":2924,"##000":2925,"fract":2926,"cred":2927,"perceptions":2928,"##ending":2929,"##abilities":2930,"wr":2931,"core":2932,"sampling":2933,"analytics":2934,"##ste":2935,"tex":2936,"interface":2937,"team":2938,"acous":2939,"incl":2940,"peer":2941,"your":2942,"acquisition":2943,"sustainability":2944,"fault":2945,"numerical":2946,"##ett":2947,"reference":2948,"mixed":2949,"du":2950,"dental":2951,"##time":2952,"austral":2953,"maj":2954,"##eu":2955,"united":2956,"biological":2957,"2005":2958,"antenna":2959,"##izer":2960,"relationships":2961,"steel":2962,"##ibration":2963,"location":2964,"meaning":2965,"da":2966,"##ope":2967,"oriented":2968,"practical":2969,"perceived":2970,"oxide":2971,"##oney":2972,"##zing":2973,"spr":2974,"##portun":2975,"challenge":2976,"particip":2977,"ine":2978,"sound":2979,"institution":2980,"##gu":2981,"emission":2982,"resilience":2983,"##cent":2984,"##uration":2985,"opportun":2986,"traject":2987,"pi":2988,"turb":2989,"but":2990,"##estic":2991,"determination":2992,"orth":2993,"advertising":2994,"##oling":2995,"transformation":2996,"reson":2997,"adj":2998,"fit":2999,"ion":3000,"ow":3001,"ts":3002,"solving":3003,"european":3004,"mu":3005,"veg":3006,"##oti":3007,"##etry":3008,"fri":3009,"ha":3010,"##aruh":3011,"##angan":3012,"secondary":3013,"multimodal":3014,"##oh":3015,"interactive":3016,"proceed":3017,"stage":3018,"mis":3019,"##aves":3020,"gap":3021,"elder":3022,"ensem":3023,"##eal":3024,"acute":3025,"differenti":3026,"##gin":3027,"##za":3028,"##rative":3029,"led":3030,"wall":3031,"##la":3032,"##wa":3033,"##erty":3034,"pc":3035,"##atal":3036,"camera":3037,"structured":3038,"ethical":3039,"##tile":3040,"brid":3041,"crisis":3042,"goog":3043,"dys":3044,"kim":3045,"less":3046,"##17":3047,"dop":3048,"stim":3049,"##aria":3050,"recent":3051,"recovery":3052,"yu":3053,"deb":3054,"finance":3055,"cycl":3056,"ethics":3057,"eeg":3058,"protection":3059,"productivity":3060,"ultras":3061,"curric":3062,"##ascular":3063,"indonesia":3064,"##itas":3065,"countries":3066,"has":3067,"##bs":3068,"##alam":3069,"##ico":3070,"white":3071,"mathematical":3072,"##lyc":3073,"om":3074,"tit":3075,"tis":3076,"##ira":3077,"mask":3078,"instruction":3079,"list":3080,"##electric":3081,"gast":3082,"##ala":3083,"agricultural":3084,"##udes":3085,"##ava":3086,"randomized":3087,"paul":3088,"17":3089,"phosph":3090,"nanoparticles":3091,"kern":3092,"independ":3093,"traum":3094,"employees":3095,"stere":3096,"chemistry":3097,"fertil":3098,"dry":3099,"ii":3100,"sports":3101,"examples":3102,"number":3103,"tumor":3104,"gar":3105,"diseases":3106,"deng":3107,"##50":3108,"methodology":3109,"##pir":3110,"##fe":3111,"christ":3112,"infection":3113,"adolescents":3114,"other":3115,"song":3116,"logic":3117,"african":3118,"technical":3119,"solid":3120,"comprehension":3121,"sentence":3122,"modular":3123,"spectral":3124,"conceptual":3125,"##play":3126,"contact":3127,"pengaruh":3128,"wel":3129,"##entic":3130,"exc":3131,"##ele":3132,"peter":3133,"scheme":3134,"cut":3135,"##osystem":3136,"2007":3137,"author":3138,"lee":3139,"encry":3140,"nur":3141,"improvement":3142,"fix":3143,"##oxid":3144,"##itis":3145,"discrimin":3146,"obes":3147,"wild":3148,"activ":3149,"hal":3150,"wide":3151,"private":3152,"learners":3153,"audio":3154,"##uls":3155,"modal":3156,"os":3157,"##iro":3158,"moham":3159,"youth":3160,"tissu":3161,"tol":3162,"##ns":3163,"radi":3164,"##ises":3165,"fra":3166,"##faces":3167,"ship":3168,"##tification":3169,"ultra":3170,"belief":3171,"coding":3172,"proceedings":3173,"##ball":3174,"look":3175,"bid":3176,"crop":3177,"sin":3178,"##ush":3179,"microbi":3180,"barri":3181,"##phone":3182,"absor":3183,"2006":3184,"routing":3185,"range":3186,"across":3187,"recep":3188,"##oo":3189,"repro":3190,"tens":3191,"park":3192,"sample":3193,"preserv":3194,"removal":3195,"##tions":3196,"ant":3197,"indic":3198,"workplace":3199,"##wave":3200,"present":3201,"edition":3202,"affecting":3203,"richard":3204,"##osa":3205,"parameters":3206,"##eline":3207,"literacy":3208,"ru":3209,"robots":3210,"probabil":3211,"found":3212,"reh":3213,"chat":3214,"detect":3215,"bond":3216,"##nam":3217,"alco":3218,"jun":3219,"##acement":3220,"measure":3221,"rom":3222,"##irectional":3223,"arm":3224,"##ori":3225,"##ado":3226,"cere":3227,"lid":3228,"mom":3229,"comprehensive":3230,"##ount":3231,"##los":3232,"exposure":3233,"fair":3234,"##ump":3235,"##ullying":3236,"##off":3237,"nigeria":3238,"description":3239,"best":3240,"##urb":3241,"glass":3242,"xxxx":3243,"conditional":3244,"box":3245,"particle":3246,"polymer":3247,"##read":3248,"toxic":3249,"james":3250,"voice":3251,"capacity":3252,"act":3253,"harm":3254,"##tt":3255,"##ander":3256,"latent":3257,"acoustic":3258,"mer":3259,"corpus":3260,"visualization":3261,"##nel":3262,"##ji":3263,"##struc":3264,"respir":3265,"##quality":3266,"##ground":3267,"accept":3268,"advances":3269,"intrusion":3270,"double":3271,"probabilistic":3272,"##ran":3273,"plastic":3274,"assisted":3275,"pakistan":3276,"eye":3277,"nas":3278,"##ges":3279,"##hyd":3280,"transl":3281,"secure":3282,"topic":3283,"exploration":3284,"##erated":3285,"firm":3286,"computation":3287,"pharmac":3288,"experiences":3289,"az":3290,"old":3291,"cho":3292,"##ora":3293,"injury":3294,"flexible":3295,"metabol":3296,"mri":3297,"##rating":3298,"invol":3299,"years":3300,"propos":3301,"martin":3302,"spectrum":3303,"interactions":3304,"connected":3305,"exchange":3306,"##let":3307,"sever":3308,"levels":3309,"conflict":3310,"decomposition":3311,"##ativity":3312,"professional":3313,"kore":3314,"childhood":3315,"##ved":3316,"sport":3317,"cle":3318,"##ochemical":3319,"filtering":3320,"elderly":3321,"matter":3322,"curriculum":3323,"fire":3324,"##ismic":3325,"preval":3326,"validation":3327,"animal":3328,"tor":3329,"##lab":3330,"requirements":3331,"##akes":3332,"cs":3333,"basic":3334,"accuracy":3335,"far":3336,"pars":3337,"pollution":3338,"lith":3339,"##ko":3340,"diffic":3341,"muscle":3342,"sympt":3343,"driver":3344,"alignment":3345,"##eph":3346,"##ube":3347,"vulner":3348,"##ford":3349,"##lear":3350,"##ops":3351,"finite":3352,"return":3353,"google":3354,"way":3355,"scen":3356,"civ":3357,"proced":3358,"##auss":3359,"##atives":3360,"prior":3361,"hypertension":3362,"generalized":3363,"threat":3364,"choice":3365,"assessing":3366,"observ":3367,"##iding":3368,"intra":3369,"finger":3370,"##rin":3371,"repor":3372,"prost":3373,"franc":3374,"ba":3375,"##ls":3376,"beam":3377,"consist":3378,"sv":3379,"##har":3380,"##30":3381,"100":3382,"bit":3383,"nlp":3384,"##bra":3385,"better":3386,"library":3387,"ca":3388,"##ama":3389,"difference":3390,"obesity":3391,"##ker":3392,"allocation":3393,"yield":3394,"responses":3395,"attitudes":3396,"cd":3397,"styl":3398,"income":3399,"foot":3400,"gi":3401,"wear":3402,"ontology":3403,"tab":3404,"##eli":3405,"neigh":3406,"2004":3407,"compan":3408,"kumar":3409,"##ova":3410,"shap":3411,"multic":3412,"pov":3413,"##mer":3414,"career":3415,"##ture":3416,"query":3417,"pel":3418,"ratio":3419,"robotic":3420,"measures":3421,"rac":3422,"restor":3423,"biology":3424,"##load":3425,"ecosystem":3426,"fluid":3427,"jos":3428,"mir":3429,"motiv":3430,"ath":3431,"binary":3432,"physics":3433,"essential":3434,"have":3435,"iron":3436,"ka":3437,"induction":3438,"biod":3439,"therap":3440,"total":3441,"cm":3442,"##rich":3443,"scalable":3444,"liver":3445,"may":3446,"speaking":3447,"objects":3448,"cluster":3449,"dense":3450,"sen":3451,"rock":3452,"##itz":3453,"compound":3454,"##yan":3455,"polar":3456,"##onia":3457,"##over":3458,"##va":3459,"rest":3460,"##ough":3461,"moral":3462,"diffusion":3463,"retail":3464,"explain":3465,"##ared":3466,"discrete":3467,"##oyal":3468,"volt":3469,"battery":3470,"authentic":3471,"alcohol":3472,"mah":3473,"machines":3474,"equations":3475,"achievement":3476,"raj":3477,"##ien":3478,"approxim":3479,"dependent":3480,"mort":3481,"cas":3482,"##ropy":3483,"##igen":3484,"variable":3485,"prevalence":3486,"experiment":3487,"determinants":3488,"lym":3489,"sea":3490,"who":3491,"statistics":3492,"projects":3493,"setting":3494,"pregnancy":3495,"midd":3496,"thr":3497,"ethn":3498,"ax":3499,"blu":3500,"satell":3501,"gal":3502,"hong":3503,"sand":3504,"side":3505,"antioxid":3506,"adoption":3507,"wood":3508,"##cal":3509,"chlor":3510,"root":3511,"##pled":3512,"histor":3513,"##iers":3514,"anat":3515,"equation":3516,"##ores":3517,"parameter":3518,"mit":3519,"##elines":3520,"component":3521,"past":3522,"##anol":3523,"concep":3524,"prin":3525,"2000":3526,"contextual":3527,"violence":3528,"river":3529,"##pe":3530,"input":3531,"shoul":3532,"sensors":3533,"nitrogen":3534,"chrom":3535,"##78":3536,"pricing":3537,"cooperative":3538,"propagation":3539,"##amp":3540,"synchron":3541,"2003":3542,"jus":3543,"indoor":3544,"abs":3545,"##iotic":3546,"kr":3547,"ken":3548,"neur":3549,"travel":3550,"relig":3551,"ast":3552,"##rian":3553,"pil":3554,"pip":3555,"clos":3556,"full":3557,"fraction":3558,"values":3559,"theoretical":3560,"xx":3561,"hep":3562,"pep":3563,"ra":3564,"##omic":3565,"spl":3566,"marine":3567,"cover":3568,"sav":3569,"ing":3570,"instr":3571,"inflam":3572,"annot":3573,"federated":3574,"alternative":3575,"##ooth":3576,"##bit":3577,"##kn":3578,"coord":3579,"mess":3580,"bacteria":3581,"##vide":3582,"subs":3583,"rapid":3584,"mr":3585,"mur":3586,"##ients":3587,"within":3588,"seismic":3589,"place":3590,"##astr":3591,"biomed":3592,"##come":3593,"##ique":3594,"delay":3595,"shopping":3596,"pac":3597,"##gl":3598,"pret":3599,"workers":3600,"twitter":3601,"articles":3602,"counter":3603,"constraints":3604,"##zym":3605,"antim":3606,"than":3607,"tasks":3608,"perspectives":3609,"occup":3610,"augmentation":3611,"brow":3612,"fung":3613,"fash":3614,"disaster":3615,"tissue":3616,"aid":3617,"##inking":3618,"##ami":3619,"radar":3620,"circuit":3621,"entrepreneurs":3622,"purchase":3623,"kernel":3624,"explan":3625,"concepts":3626,"##plas":3627,"invent":3628,"detector":3629,"vitamin":3630,"veget":3631,"rf":3632,"##band":3633,"reviews":3634,"emerging":3635,"rehabil":3636,"middle":3637,"##ench":3638,"##actic":3639,"story":3640,"##ota":3641,"jud":3642,"##uments":3643,"causes":3644,"lidar":3645,"##wan":3646,"resid":3647,"relational":3648,"##ogenic":3649,"gauss":3650,"##gi":3651,"coping":3652,"mixt":3653,"profit":3654,"survi":3655,"crypt":3656,"partial":3657,"##ulin":3658,"ampl":3659,"coc":3660,"pix":3661,"##iop":3662,"##aries":3663,"##idity":3664,"##ival":3665,"degrad":3666,"fashion":3667,"lymph":3668,"##den":3669,"blind":3670,"membr":3671,"##iance":3672,"##att":3673,"##oli":3674,"##ogram":3675,"##ateral":3676,"nurses":3677,"fron":3678,"##bu":3679,"##kan":3680,"transaction":3681,"enhancing":3682,"trajectory":3683,"dialogue":3684,"bone":3685,"##sa":3686,"independent":3687,"##get":3688,"invari":3689,"ban":3690,"wavel":3691,"phone":3692,"parad":3693,"photo":3694,"poverty":3695,"ranking":3696,"2001":3697,"damage":3698,"navigation":3699,"parents":3700,"##ishing":3701,"ensemble":3702,"ash":3703,"##encies":3704,"agents":3705,"monoc":3706,"variation":3707,"bidirectional":3708,"jac":3709,"##zation":3710,"death":3711,"programs":3712,"voltage":3713,"##ifer":3714,"##icro":3715,"bab":3716,"##ests":3717,"complexity":3718,"miss":3719,"##men":3720,"star":3721,"##igning":3722,"##anda":3723,"analys":3724,"toler":3725,"dalam":3726,"##ectivity":3727,"##ulus":3728,"credit":3729,"gest":3730,"hash":3731,"pair":3732,"##omb":3733,"modified":3734,"sources":3735,"deno":3736,"preserving":3737,"mes":3738,"fraud":3739,"call":3740,"md":3741,"see":3742,"universal":3743,"separation":3744,"enterprise":3745,"rank":3746,"##ists":3747,"theories":3748,"handbook":3749,"deriv":3750,"intens":3751,"insurance":3752,"sed":3753,"tag":3754,"##oders":3755,"defect":3756,"causal":3757,"quad":3758,"controller":3759,"sales":3760,"oste":3761,"unified":3762,"she":3763,"heav":3764,"wil":3765,"arg":3766,"synthetic":3767,"politics":3768,"ju":3769,"xia":3770,"##itivity":3771,"##acting":3772,"microwave":3773,"generalization":3774,"adolescent":3775,"fall":3776,"##iological":3777,"repl":3778,"bott":3779,"##itting":3780,"adh":3781,"landsc":3782,"satellite":3783,"communities":3784,"##yr":3785,"comple":3786,"classes":3787,"measurements":3788,"##oting":3789,"##otherapy":3790,"papers":3791,"encoder":3792,"isolation":3793,"five":3794,"pse":3795,"run":3796,"##cher":3797,"interp":3798,"generating":3799,"help":3800,"crystal":3801,"chap":3802,"##ourc":3803,"geor":3804,"bul":3805,"hr":3806,"##ez":3807,"signific":3808,"pem":3809,"fluor":3810,"luc":3811,"rain":3812,"##flow":3813,"##ercial":3814,"verification":3815,"inflamm":3816,"bh":3817,"interest":3818,"##aceu":3819,"upd":3820,"evolutionary":3821,"civil":3822,"##aka":3823,"constit":3824,"##heim":3825,"##copic":3826,"ele":3827,"mos":3828,"iv":3829,"##pc":3830,"##ocr":3831,"bad":3832,"196":3833,"sense":3834,"responsibility":3835,"major":3836,"exec":3837,"enzym":3838,"##sequ":3839,"biomedical":3840,"fp":3841,"nets":3842,"irr":3843,"distillation":3844,"expect":3845,"1016":3846,"america":3847,"vic":3848,"discourse":3849,"reinforced":3850,"pseud":3851,"if":3852,"##tioning":3853,"explo":3854,"vaccine":3855,"rehabilitation":3856,"##rement":3857,"anc":3858,"##rap":3859,"milk":3860,"due":3861,"rub":3862,"##sch":3863,"ecological":3864,"william":3865,"gaussian":3866,"pow":3867,"##estern":3868,"increase":3869,"##astruct":3870,"means":3871,"retention":3872,"loyal":3873,"ni":3874,"sor":3875,"ali":3876,"subject":3877,"maps":3878,"needs":3879,"##rick":3880,"imagery":3881,"contribution":3882,"fruit":3883,"recommender":3884,"anthrop":3885,"very":3886,"##ised":3887,"##urg":3888,"##iment":3889,"##ional":3890,"usa":3891,"screening":3892,"dog":3893,"east":3894,"kal":3895,"mad":3896,"sig":3897,"stabil":3898,"leaf":3899,"century":3900,"smartphone":3901,"words":3902,"##word":3903,"##anth":3904,"habit":3905,"bag":3906,"##the":3907,"commercial":3908,"questionna":3909,"older":3910,"symb":3911,"islamic":3912,"completion":3913,"mand":3914,"elements":3915,"##ras":3916,"dil":3917,"relev":3918,"criter":3919,"policies":3920,"regional":3921,"ict":3922,"cate":3923,"##cer":3924,"##odynam":3925,"asia":3926,"gran":3927,"##ct":3928,"##amine":3929,"##aching":3930,"mich":3931,"vocab":3932,"pm":3933,"sr":3934,"##plant":3935,"earthqu":3936,"21":3937,"cann":3938,"efl":3939,"unit":3940,"sequential":3941,"iter":3942,"rna":3943,"##agram":3944,"architectures":3945,"##fulness":3946,"ger":3947,"ner":3948,"transcri":3949,"##vely":3950,"firms":3951,"tensor":3952,"vel":3953,"linguistic":3954,"drop":3955,"roles":3956,"##iling":3957,"neut":3958,"users":3959,"lev":3960,"events":3961,"reliability":3962,"rates":3963,"##rens":3964,"cyt":3965,"##ria":3966,"encryption":3967,"ng":3968,"##olo":3969,"poss":3970,"oxy":3971,"creativity":3972,"russ":3973,"##ulary":3974,"##erson":3975,"usage":3976,"geometry":3977,"background":3978,"balance":3979,"opportunities":3980,"jan":3981,"hypoth":3982,"infrared":3983,"benchmark":3984,"companies":3985,"cour":3986,"##ycl":3987,"profile":3988,"ker":3989,"##rh":3990,"##22":3991,"asym":3992,"emergency":3993,"mainten":3994,"##34":3995,"correction":3996,"##ulations":3997,"##ception":3998,"enab":3999,"phyt":4000,"marc":4001,"##ila":4002,"communications":4003,"acceptance":4004,"##aceutical":4005,"categor":4006,"dar":4007,"inver":4008,"##ame":4009,"und":4010,"vitro":4011,"compress":4012,"je":4013,"wu":4014,"##ocial":4015,"##ading":4016,"migration":4017,"##eling":4018,"##ili":4019,"selective":4020,"##uits":4021,"##vent":4022,"mim":4023,"site":4024,"##uate":4025,"##rog":4026,"agile":4027,"objective":4028,"##onomy":4029,"slam":4030,"operation":4031,"regularization":4032,"symptoms":4033,"derm":4034,"##ss":4035,"alk":4036,"transformers":4037,"##olf":4038,"managing":4039,"##u0002":4040,"antioxidant":4041,"heavy":4042,"loyalty":4043,"banglad":4044,"maintenance":4045,"ef":4046,"eas":4047,"loop":4048,"organizations":4049,"consumers":4050,"male":4051,"##set":4052,"risks":4053,"radiation":4054,"codes":4055,"glyc":4056,"combined":4057,"infrastruct":4058,"##ylene":4059,"logistics":4060,"fields":4061,"entropy":4062,"silicon":4063,"components":4064,"burn":4065,"##ted":4066,"activation":4067,"markets":4068,"2002":4069,"##embly":4070,"trees":4071,"fundam":4072,"nurse":4073,"vocabulary":4074,"haz":4075,"jul":4076,"##ring":4077,"##osh":4078,"##rip":4079,"outcome":4080,"sulf":4081,"##by":4082,"##09":4083,"##alt":4084,"##aki":4085,"cereb":4086,"5g":4087,"ye":4088,"##ret":4089,"##mi":4090,"bacterial":4091,"mam":4092,"##isa":4093,"spir":4094,"output":4095,"own":4096,"dengan":4097,"aqu":4098,"manif":4099,"plate":4100,"synt":4101,"sd":4102,"##itary":4103,"this":4104,"exter":4105,"parsing":4106,"example":4107,"broad":4108,"denoising":4109,"osc":4110,"scan":4111,"hardware":4112,"lithium":4113,"cit":4114,"win":4115,"facebook":4116,"colon":4117,"cellular":4118,"embedded":4119,"inventory":4120,"dark":4121,"graphene":4122,"identifying":4123,"##icrobial":4124,"day":4125,"lap":4126,"combining":4127,"limit":4128,"casc":4129,"money":4130,"rules":4131,"##atch":4132,"array":4133,"conservation":4134,"expans":4135,"cul":4136,"happ":4137,"oce":4138,"pend":4139,"##cc":4140,"board":4141,"##38":4142,"##ritis":4143,"coh":4144,"guidelines":4145,"crime":4146,"avoid":4147,"hotel":4148,"bangladesh":4149,"ball":4150,"kid":4151,"##oe":4152,"##otics":4153,"gluc":4154,"sciences":4155,"europe":4156,"##otype":4157,"reducing":4158,"ip":4159,"##ni":4160,"##rot":4161,"suic":4162,"aging":4163,"##gence":4164,"##esti":4165,"markov":4166,"formal":4167,"addiction":4168,"bin":4169,"##ela":4170,"##ird":4171,"competence":4172,"restoration":4173,"pemb":4174,"rgb":4175,"arth":4176,"trading":4177,"mobility":4178,"groups":4179,"weakly":4180,"##tering":4181,"supervision":4182,"orientation":4183,"preparation":4184,"lock":4185,"chin":4186,"highly":4187,"carcin":4188,"##vant":4189,"##jection":4190,"maximum":4191,"kine":4192,"##tle":4193,"revis":4194,"composites":4195,"tak":4196,"##oon":4197,"##39":4198,"##eshold":4199,"reve":4200,"facil":4201,"force":4202,"track":4203,"domestic":4204,"competition":4205,"##utes":4206,"childrens":4207,"##awa":4208,"frame":4209,"webs":4210,"competitive":4211,"situ":4212,"adjust":4213,"hub":4214,"ms":4215,"##dis":4216,"hydrogen":4217,"tam":4218,"##ove":4219,"##atics":4220,"##umb":4221,"commit":4222,"behaviors":4223,"switch":4224,"banks":4225,"lact":4226,"##anch":4227,"areas":4228,"##u0000":4229,"##kin":4230,"vent":4231,"cong":4232,"##ials":4233,"inequality":4234,"ov":4235,"right":4236,"##ips":4237,"##ytes":4238,"ultrasound":4239,"respiratory":4240,"fundamental":4241,"trop":4242,"che":4243,"manipulation":4244,"transportation":4245,"plasma":4246,"hiv":4247,"son":4248,"sist":4249,"simult":4250,"fati":4251,"##entive":4252,"##agen":4253,"##occ":4254,"##aps":4255,"##ased":4256,"##ophy":4257,"balanc":4258,"antimicrobial":4259,"25":4260,"fm":4261,"##oz":4262,"2d":4263,"ci":4264,"mang":4265,"mak":4266,"##pal":4267,"##metric":4268,"##arb":4269,"electrom":4270,"legal":4271,"questionnaire":4272,"kom":4273,"##wor":4274,"diagnostic":4275,"living":4276,"christian":4277,"##omorph":4278,"##obacter":4279,"abuse":4280,"account":4281,"imagenet":4282,"macro":4283,"22":4284,"##adi":4285,"hall":4286,"##cs":4287,"##verage":4288,"boundary":4289,"following":4290,"ti":4291,"strain":4292,"spread":4293,"##ighting":4294,"##ortex":4295,"relax":4296,"landscape":4297,"oxygen":4298,"course":4299,"##ml":4300,"##eman":4301,"##ident":4302,"##raf":4303,"fis":4304,"##tik":4305,"train":4306,"reduce":4307,"weighted":4308,"##lan":4309,"##2o":4310,"##gg":4311,"##32":4312,"android":4313,"stack":4314,"div":4315,"iso":4316,"sensitive":4317,"buying":4318,"administration":4319,"24":4320,"socio":4321,"##ungan":4322,"robustness":4323,"barriers":4324,"don":4325,"los":4326,"table":4327,"##ehold":4328,"learned":4329,"external":4330,"cognition":4331,"cities":4332,"mid":4333,"##bot":4334,"##asa":4335,"forward":4336,"variability":4337,"operations":4338,"drugs":4339,"entrepreneurship":4340,"##udi":4341,"##udinal":4342,"emotions":4343,"##itig":4344,"equity":4345,"street":4346,"issue":4347,"designing":4348,"ide":4349,"ten":4350,"strong":4351,"instance":4352,"##ql":4353,"##iles":4354,"signals":4355,"examination":4356,"interventions":4357,"##craft":4358,"##uth":4359,"prefer":4360,"fresh":4361,"infrastructure":4362,"ocean":4363,"ability":4364,"australia":4365,"which":4366,"##agnetic":4367,"assembly":4368,"king":4369,"western":4370,"alz":4371,"atm":4372,"implicit":4373,"corona":4374,"constrained":4375,"gel":4376,"alumin":4377,"linking":4378,"##weight":4379,"andrew":4380,"christoph":4381,"make":4382,"##ormal":4383,"##therapy":4384,"musc":4385,"shared":4386,"##illus":4387,"registration":4388,"communic":4389,"##neum":4390,"##oids":4391,"##monary":4392,"wheel":4393,"neighbor":4394,"ek":4395,"ss":4396,"##rosion":4397,"simultaneous":4398,"kep":4399,"mesh":4400,"##ypt":4401,"##icity":4402,"##ulator":4403,"impair":4404,"coating":4405,"que":4406,"discrimination":4407,"ell":4408,"pig":4409,"##iy":4410,"##ua":4411,"rule":4412,"tac":4413,"perf":4414,"approximation":4415,"threshold":4416,"medium":4417,"##ariate":4418,"sensitivity":4419,"philos":4420,"advantage":4421,"length":4422,"consider":4423,"volati":4424,"decisions":4425,"analyzing":4426,"pharmaceutical":4427,"aggregation":4428,"cad":4429,"##anal":4430,"##usive":4431,"cold":4432,"wheat":4433,"meng":4434,"##02":4435,"##ament":4436,"microbial":4437,"questions":4438,"ceram":4439,"##36":4440,"unt":4441,"longit":4442,"classifier":4443,"concentration":4444,"should":4445,"##onomic":4446,"increment":4447,"fuel":4448,"##grad":4449,"genome":4450,"##print":4451,"important":4452,"receptor":4453,"expansion":4454,"##idae":4455,"##oto":4456,"participation":4457,"hair":4458,"som":4459,"##rit":4460,"##ster":4461,"##amb":4462,"pert":4463,"##porary":4464,"crowds":4465,"module":4466,"cause":4467,"property":4468,"femin":4469,"cardiac":4470,"smith":4471,"variables":4472,"intensity":4473,"consequ":4474,"moder":4475,"adsor":4476,"depart":4477,"employment":4478,"injection":4479,"hop":4480,"##35":4481,"reward":4482,"##oster":4483,"epidem":4484,"autoencoder":4485,"integrating":4486,"finding":4487,"cosm":4488,"##no":4489,"##organ":4490,"##ultural":4491,"sod":4492,"transplant":4493,"roman":4494,"degradation":4495,"mitig":4496,"##rium":4497,"mexic":4498,"cha":4499,"coff":4500,"mortality":4501,"membrane":4502,"longitudinal":4503,"cases":4504,"##des":4505,"##zil":4506,"##eries":4507,"robotics":4508,"##xxx":4509,"err":4510,"therapeu":4511,"attach":4512,"##ika":4513,"pixel":4514,"manual":4515,"flood":4516,"pyth":4517,"##encia":4518,"##ployment":4519,"##idden":4520,"nucle":4521,"bim":4522,"vulnerability":4523,"invariant":4524,"pin":4525,"##cn":4526,"pneum":4527,"compens":4528,"extreme":4529,"conversational":4530,"coupled":4531,"bib":4532,"bullying":4533,"##bre":4534,"anton":4535,"##ache":4536,"##ulty":4537,"various":4538,"hydrox":4539,"nuclear":4540,"historical":4541,"print":4542,"covid19":4543,"metabolism":4544,"west":4545,"##effic":4546,"regen":4547,"alzheim":4548,"healthy":4549,"##inding":4550,"aspects":4551,"incremental":4552,"rod":4553,"chi":4554,"opin":4555,"##ramid":4556,"panel":4557,"origin":4558,"bern":4559,"pv":4560,"rum":4561,"##rey":4562,"display":4563,"##ensis":4564,"commitment":4565,"tut":4566,"xu":4567,"##rate":4568,"##fol":4569,"span":4570,"avail":4571,"gall":4572,"parent":4573,"##iento":4574,"couns":4575,"grammar":4576,"kidney":4577,"ta":4578,"##asive":4579,"adam":4580,"many":4581,"##well":4582,"##odon":4583,"##vex":4584,"reform":4585,"flight":4586,"tests":4587,"magnet":4588,"##oral":4589,"##itors":4590,"moment":4591,"lower":4592,"genes":4593,"purpos":4594,"promotion":4595,"converter":4596,"laboratory":4597,"ce":4598,"rights":4599,"##sm":4600,"##qa":4601,"construc":4602,"##ayer":4603,"abstract":4604,"rail":4605,"##athan":4606,"viet":4607,"speaker":4608,"saliency":4609,"creative":4610,"egypt":4611,"##ourcing":4612,"earthquake":4613,"frag":4614,"##met":4615,"##eding":4616,"##illing":4617,"progress":4618,"##66":4619,"##hao":4620,"reth":4621,"swarm":4622,"calibration":4623,"encoding":4624,"mutual":4625,"porn":4626,"##rous":4627,"##ario":4628,"most":4629,"defic":4630,"pulse":4631,"housing":4632,"fractional":4633,"30":4634,"##pan":4635,"##una":4636,"kl":4637,"viv":4638,"##nia":4639,"next":4640,"##ewater":4641,"influencing":4642,"##house":4643,"##work":4644,"##orpor":4645,"##roc":4646,"rele":4647,"##clusion":4648,"collaboration":4649,"named":4650,"##ester":4651,"##asis":4652,"only":4653,"changing":4654,"jon":4655,"pra":4656,"panc":4657,"station":4658,"analisis":4659,"grained":4660,"records":4661,"ly":4662,"##ovascular":4663,"oxid":4664,"##gue":4665,"static":4666,"upper":4667,"lik":4668,"##21":4669,"##fa":4670,"##tial":4671,"start":4672,"##ream":4673,"modulation":4674,"##riction":4675,"smooth":4676,"proteins":4677,"criteria":4678,"han":4679,"grade":4680,"technological":4681,"innovative":4682,"bah":4683,"gain":4684,"hidden":4685,"sets":4686,"chick":4687,"shift":4688,"clean":4689,"##eem":4690,"extended":4691,"mediated":4692,"underwater":4693,"labeling":4694,"aerial":4695,"avi":4696,"##rone":4697,"immune":4698,"fake":4699,"ana":4700,"##elle":4701,"##ogical":4702,"elastic":4703,"intellect":4704,"advantages":4705,"relaxation":4706,"nic":4707,"##rase":4708,"##edia":4709,"crowd":4710,"brown":4711,"mm":4712,"##inf":4713,"trig":4714,"scaling":4715,"teen":4716,"##rosp":4717,"huang":4718,"trauma":4719,"oscill":4720,"ech":4721,"##40":4722,"##ima":4723,"##ologi":4724,"##oxide":4725,"factorization":4726,"cataly":4727,"pediatric":4728,"affects":4729,"reproduc":4730,"fpga":4731,"##inity":4732,"critic":4733,"styles":4734,"##ilib":4735,"spaces":4736,"co2":4737,"frank":4738,"geometric":4739,"nanoc":4740,"defense":4741,"standards":4742,"chapter":4743,"node":4744,"##wal":4745,"forens":4746,"##ulos":4747,"##atitis":4748,"prem":4749,"methyl":4750,"generator":4751,"quanti":4752,"pyramid":4753,"military":4754,"proposal":4755,"hd":4756,"ij":4757,"lag":4758,"cloth":4759,"surfaces":4760,"cris":4761,"derived":4762,"monocular":4763,"tang":4764,"##oking":4765,"implant":4766,"##lands":4767,"wastewater":4768,"survival":4769,"26":4770,"faster":4771,"every":4772,"presence":4773,"normalization":4774,"fixed":4775,"authentication":4776,"##acing":4777,"##char":4778,"cla":4779,"albert":4780,"coeffic":4781,"probability":4782,"metrics":4783,"##personal":4784,"jacob":4785,"hen":4786,"um":4787,"##yc":4788,"##ways":4789,"ecology":4790,"##ynth":4791,"house":4792,"nm":4793,"tet":4794,"ze":4795,"##graph":4796,"##ulated":4797,"great":4798,"##ho":4799,"##57":4800,"##oni":4801,"##aily":4802,"inspir":4803,"herit":4804,"##go":4805,"coast":4806,"break":4807,"spectros":4808,"precision":4809,"narrative":4810,"brazil":4811,"humans":4812,"love":4813,"japanese":4814,"sti":4815,"##opter":4816,"##ologic":4817,"traits":4818,"manager":4819,"turbine":4820,"##ematic":4821,"alph":4822,"##elli":4823,"formulation":4824,"cement":4825,"mun":4826,"persist":4827,"collection":4828,"##box":4829,"discuss":4830,"texture":4831,"calcium":4832,"consequences":4833,"therapeutic":4834,"vietnam":4835,"intellectual":4836,"automation":4837,"pedag":4838,"carcinoma":4839,"hi":4840,"kel":4841,"pict":4842,"##49":4843,"##ister":4844,"phyl":4845,"relative":4846,"movie":4847,"connection":4848,"conversion":4849,"citiz":4850,"dose":4851,"pad":4852,"##rid":4853,"##ometer":4854,"perm":4855,"coal":4856,"creation":4857,"copper":4858,"##eleton":4859,"anatomy":4860,"atmosph":4861,"##tain":4862,"##oly":4863,"check":4864,"cav":4865,"master":4866,"##etch":4867,"sensory":4868,"compliance":4869,"interpretable":4870,"principle":4871,"29":4872,"cand":4873,"##dm":4874,"##zan":4875,"##entang":4876,"##iler":4877,"uses":4878,"contem":4879,"amaz":4880,"breath":4881,"cardiovascular":4882,"printing":4883,"##akan":4884,"trained":4885,"phenom":4886,"utilization":4887,"rethinking":4888,"york":4889,"##sen":4890,"anne":4891,"##tica":4892,"##veraging":4893,"infant":4894,"esc":4895,"comparing":4896,"1999":4897,"blue":4898,"fog":4899,"tv":4900,"yout":4901,"patch":4902,"personalized":4903,"cath":4904,"mn":4905,"##obic":4906,"##erman":4907,"malware":4908,"spatio":4909,"fatigue":4910,"##bility":4911,"##yer":4912,"##itching":4913,"they":4914,"##rif":4915,"multiv":4916,"##lingual":4917,"turk":4918,"refr":4919,"microf":4920,"substr":4921,"additive":4922,"resonance":4923,"bec":4924,"rab":4925,"##dc":4926,"##aman":4927,"##ectors":4928,"office":4929,"lingual":4930,"girl":4931,"bol":4932,"lon":4933,"##sk":4934,"##vier":4935,"drive":4936,"pedest":4937,"stereo":4938,"rig":4939,"prosp":4940,"surgical":4941,"absorption":4942,"bear":4943,"##yg":4944,"##eta":4945,"##etal":4946,"##asp":4947,"prun":4948,"python":4949,"##ectomy":4950,"points":4951,"organis":4952,"metabolic":4953,"compounds":4954,"era":4955,"##ffer":4956,"##advant":4957,"##eller":4958,"diverse":4959,"pulmonary":4960,"linguistics":4961,"discriminative":4962,"##u0000u0000":4963,"cb":4964,"sab":4965,"##otive":4966,"##42":4967,"##jo":4968,"##otechn":4969,"arabic":4970,"cf":4971,"gate":4972,"clouds":4973,"recommendations":4974,"wavelet":4975,"##usc":4976,"fracture":4977,"hypothesis":4978,"cot":4979,"##xiv":4980,"##dy":4981,"matth":4982,"disclos":4983,"##inson":4984,"equilib":4985,"esteem":4986,"bridge":4987,"joseph":4988,"cin":4989,"eric":4990,"disadvant":4991,"carlo":4992,"salient":4993,"packaging":4994,"constitu":4995,"aes":4996,"ok":4997,"##ians":4998,"##zo":4999,"alge":5000,"contain":5001,"lex":5002,"##tives":5003,"daily":5004,"gis":5005,"##down":5006,"there":5007,"##ically":5008,"resta":5009,"aircraft":5010,"tele":5011,"george":5012,"##thers":5013,"modification":5014,"distr":5015,"mari":5016,"wei":5017,"boost":5018,"estimating":5019,"##rought":5020,"item":5021,"iran":5022,"fabric":5023,"cash":5024,"race":5025,"third":5026,"##omes":5027,"decent":5028,"films":5029,"confidence":5030,"exploiting":5031,"ven":5032,"##hua":5033,"coffee":5034,"bot":5035,"##sts":5036,"##cholar":5037,"##igu":5038,"##opath":5039,"multilingual":5040,"descent":5041,"##normal":5042,"##idi":5043,"recogn":5044,"simpl":5045,"influences":5046,"salt":5047,"ethiop":5048,"birth":5049,"preference":5050,"singh":5051,"documents":5052,"reporting":5053,"ku":5054,"six":5055,"tin":5056,"bip":5057,"rating":5058,"tod":5059,"##zi":5060,"##ensus":5061,"coher":5062,"publish":5063,"minimal":5064,"attribute":5065,"rout":5066,"##37":5067,"selected":5068,"insect":5069,"captioning":5070,"errors":5071,"oz":5072,"##emy":5073,"##ils":5074,"express":5075,"restaur":5076,"hind":5077,"mobil":5078,"iterative":5079,"attachment":5080,"contemporary":5081,"rat":5082,"##ei":5083,"##ona":5084,"##ito":5085,"prel":5086,"##ologia":5087,"healing":5088,"languages":5089,"pregnant":5090,"mixture":5091,"ko":5092,"our":5093,"##isy":5094,"theor":5095,"progressive":5096,"earning":5097,"justice":5098,"arom":5099,"vac":5100,"##opathy":5101,"pron":5102,"dispers":5103,"##ikasi":5104,"insights":5105,"silver":5106,"entrepreneur":5107,"cerebral":5108,"##60":5109,"##uption":5110,"##59":5111,"##ulate":5112,"disabilities":5113,"transpar":5114,"pathway":5115,"moving":5116,"indicators":5117,"fal":5118,"kes":5119,"pun":5120,"inverse":5121,"##chool":5122,"##utation":5123,"tea":5124,"tomography":5125,"powder":5126,"##cd":5127,"##tors":5128,"neon":5129,"shad":5130,"animals":5131,"hypers":5132,"denti":5133,"##ols":5134,"parental":5135,"##rained":5136,"taxonomy":5137,"interpretation":5138,"ty":5139,"vo":5140,"##iform":5141,"##ny":5142,"##ales":5143,"agency":5144,"explaining":5145,"handw":5146,"combination":5147,"batch":5148,"contract":5149,"fly":5150,"##activity":5151,"networking":5152,"domin":5153,"semanticscholar":5154,"fertilizer":5155,"tropical":5156,"ble":5157,"rational":5158,"##48":5159,"##atus":5160,"scler":5161,"incorpor":5162,"tomato":5163,"horm":5164,"elementary":5165,"##elihood":5166,"department":5167,"cast":5168,"mouse":5169,"##function":5170,"compact":5171,"schiz":5172,"##ether":5173,"household":5174,"sant":5175,"##isms":5176,"ambient":5177,"listening":5178,"occupational":5179,"relevance":5180,"##ulose":5181,"##board":5182,"connectivity":5183,"##ogenesis":5184,"books":5185,"dos":5186,"gps":5187,"attr":5188,"filters":5189,"positioning":5190,"athl":5191,"##ocracy":5192,"vib":5193,"yog":5194,"##rations":5195,"##nas":5196,"interpersonal":5197,"repair":5198,"extension":5199,"platforms":5200,"alexander":5201,"instrument":5202,"nik":5203,"sap":5204,"##ecti":5205,"##ulating":5206,"poor":5207,"stef":5208,"beliefs":5209,"involvement":5210,"svm":5211,"paradig":5212,"ancient":5213,"veloc":5214,"50":5215,"vl":5216,"##illa":5217,"corn":5218,"monte":5219,"##flo":5220,"switching":5221,"##pectral":5222,"stephen":5223,"dielectric":5224,"regard":5225,"portfol":5226,"sodium":5227,"00":5228,"dur":5229,"vibration":5230,"##fall":5231,"asian":5232,"obst":5233,"investigating":5234,"brief":5235,"bangla":5236,"suicide":5237,"youtube":5238,"gut":5239,"hip":5240,"ib":5241,"taking":5242,"##kat":5243,"##isi":5244,"##ifying":5245,"share":5246,"where":5247,"release":5248,"pancre":5249,"28":5250,"zinc":5251,"##win":5252,"##rik":5253,"mice":5254,"revolution":5255,"cannab":5256,"eating":5257,"convex":5258,"deform":5259,"spin":5260,"marri":5261,"address":5262,"answer":5263,"emissions":5264,"decentral":5265,"drought":5266,"fan":5267,"convergence":5268,"cv":5269,"ri":5270,"##ashi":5271,"samples":5272,"contras":5273,"palm":5274,"wound":5275,"abnormal":5276,"muse":5277,"1998":5278,"datasets":5279,"##cious":5280,"institutional":5281,"jean":5282,"kon":5283,"rog":5284,"basis":5285,"rece":5286,"maria":5287,"goal":5288,"##mo":5289,"##imb":5290,"suppor":5291,"fel":5292,"alb":5293,"##ifi":5294,"arxiv":5295,"##ontal":5296,"dietary":5297,"tolerance":5298,"bac":5299,"live":5300,"##iate":5301,"##47":5302,"##emporal":5303,"colum":5304,"mineral":5305,"minimum":5306,"morphology":5307,"kenya":5308,"prospective":5309,"cortex":5310,"##rication":5311,"##asion":5312,"stra":5313,"dependency":5314,"website":5315,"vivo":5316,"ay":5317,"ja":5318,"prag":5319,"tail":5320,"##penti":5321,"##ulties":5322,"score":5323,"automotive":5324,"complement":5325,"prospect":5326,"iner":5327,"isolated":5328,"wearable":5329,"warm":5330,"##itus":5331,"##ily":5332,"prod":5333,"weather":5334,"alloy":5335,"mindfulness":5336,"payment":5337,"korea":5338,"kong":5339,"##yte":5340,"##ratic":5341,"chip":5342,"##ifier":5343,"##iversity":5344,"biomass":5345,"multivariate":5346,"##ades":5347,"##iotics":5348,"increasing":5349,"initial":5350,"doped":5351,"manifold":5352,"vid":5353,"##ruit":5354,"##nd":5355,"controll":5356,"buildings":5357,"irrigation":5358,"fear":5359,"gab":5360,"##ux":5361,"##kh":5362,"##ermal":5363,"surveillance":5364,"telec":5365,"beta":5366,"electromagnetic":5367,"philosophy":5368,"pedestrian":5369,"beng":5370,"diction":5371,"##arth":5372,"##anger":5373,"##escence":5374,"sequences":5375,"tuning":5376,"tuberc":5377,"##so":5378,"##45":5379,"##entia":5380,"applying":5381,"##insic":5382,"angle":5383,"country":5384,"pier":5385,"##ues":5386,"##omics":5387,"prices":5388,"beh":5389,"germany":5390,"foundations":5391,"consistency":5392,"contrastive":5393,"binding":5394,"host":5395,"rc":5396,"para":5397,"##ulture":5398,"gaming":5399,"analytical":5400,"mell":5401,"tong":5402,"seas":5403,"apple":5404,"##version":5405,"neuros":5406,"views":5407,"lar":5408,"##ette":5409,"##based":5410,"christopher":5411,"##cor":5412,"##yb":5413,"##arin":5414,"##etary":5415,"leak":5416,"matlab":5417,"physic":5418,"renew":5419,"autoencoders":5420,"difficulties":5421,"heritage":5422,"##dp":5423,"##asan":5424,"##ikan":5425,"##operative":5426,"prelim":5427,"kam":5428,"ved":5429,"yan":5430,"##osting":5431,"phon":5432,"grass":5433,"directed":5434,"toxicity":5435,"spectroscopy":5436,"lens":5437,"ment":5438,"##46":5439,"nepal":5440,"biof":5441,"sliding":5442,"affective":5443,"1997":5444,"##opsis":5445,"opinion":5446,"rah":5447,"##eb":5448,"##onym":5449,"##emen":5450,"##otrop":5451,"charge":5452,"##olding":5453,"circular":5454,"amazon":5455,"eb":5456,"##chi":5457,"##earance":5458,"diam":5459,"caps":5460,"server":5461,"##media":5462,"northern":5463,"cerv":5464,"rnn":5465,"##kar":5466,"lean":5467,"##pres":5468,"##enda":5469,"adjustment":5470,"##pentier":5471,"##dd":5472,"##ares":5473,"store":5474,"##onald":5475,"passive":5476,"classifiers":5477,"principal":5478,"coordin":5479,"wet":5480,"##arma":5481,"benefit":5482,"lessons":5483,"bow":5484,"fur":5485,"late":5486,"##eet":5487,"##dom":5488,"acet":5489,"##ardi":5490,"evol":5491,"noisy":5492,"norm":5493,"attributes":5494,"museum":5495,"rol":5496,"was":5497,"heur":5498,"subst":5499,"customers":5500,"diagnos":5501,"degree":5502,"habitat":5503,"hazard":5504,"sistem":5505,"disclosure":5506,"##nostic":5507,"##aga":5508,"##ives":5509,"apps":5510,"hydrog":5511,"conversation":5512,"27":5513,"ring":5514,"##oj":5515,"##mm":5516,"placement":5517,"semicon":5518,"##tina":5519,"topology":5520,"channels":5521,"possible":5522,"ket":5523,"##26":5524,"##ilt":5525,"stan":5526,"proof":5527,"multis":5528,"distric":5529,"lightweight":5530,"stimulation":5531,"update":5532,"bis":5533,"any":5534,"nerve":5535,"regeneration":5536,"preliminary":5537,"get":5538,"jack":5539,"native":5540,"##wood":5541,"disability":5542,"diagram":5543,"soci":5544,"democracy":5545,"zhou":5546,"neurop":5547,"config":5548,"renal":5549,"adsorption":5550,"dh":5551,"tai":5552,"##ken":5553,"##ago":5554,"grav":5555,"##ahan":5556,"maternal":5557,"camp":5558,"prostate":5559,"untuk":5560,"##ococc":5561,"enhance":5562,"morphological":5563,"explanations":5564,"nd":5565,"nick":5566,"##nt":5567,"##teries":5568,"##ocal":5569,"sugar":5570,"calculation":5571,"let":5572,"##ember":5573,"prol":5574,"##luid":5575,"korean":5576,"annotation":5577,"rr":5578,"##80":5579,"##ortion":5580,"##esp":5581,"##ingual":5582,"forests":5583,"tooth":5584,"creating":5585,"experiments":5586,"coupling":5587,"dro":5588,"##uli":5589,"##idth":5590,"##ectal":5591,"##otox":5592,"peru":5593,"##ardo":5594,"lipid":5595,"institutions":5596,"pump":5597,"wash":5598,"##top":5599,"##25":5600,"thor":5601,"##ulosis":5602,"##ductor":5603,"medication":5604,"##ajaran":5605,"labour":5606,"1995":5607,"zhu":5608,"terms":5609,"precip":5610,"miller":5611,"chatbot":5612,"procedure":5613,"dor":5614,"jord":5615,"mood":5616,"tib":5617,"var":5618,"##iana":5619,"##olation":5620,"embry":5621,"safe":5622,"raw":5623,"tech":5624,"##2v":5625,"##ximate":5626,"##onics":5627,"offlo":5628,"reverse":5629,"##imm":5630,"mother":5631,"canada":5632,"dementia":5633,"gait":5634,"drying":5635,"##video":5636,"preferences":5637,"ethiopia":5638,"das":5639,"ey":5640,"##tia":5641,"##ovol":5642,"clay":5643,"consensus":5644,"##tination":5645,"hydra":5646,"summ":5647,"lou":5648,"merg":5649,"##99":5650,"##emes":5651,"arc":5652,"decoder":5653,"expert":5654,"costs":5655,"nutrient":5656,"pilot":5657,"portfolio":5658,"rib":5659,"##do":5660,"stev":5661,"interview":5662,"charpentier":5663,"layout":5664,"streaming":5665,"cmos":5666,"pseudo":5667,"glucose":5668,"##sn":5669,"dimensions":5670,"individuals":5671,"##yu":5672,"analog":5673,"developmental":5674,"worksh":5675,"charles":5676,"negoti":5677,"debt":5678,"ware":5679,"##hr":5680,"metam":5681,"filip":5682,"collective":5683,"operating":5684,"title":5685,"velocity":5686,"##rel":5687,"trace":5688,"mount":5689,"##aire":5690,"did":5691,"jer":5692,"##ptive":5693,"##fs":5694,"overl":5695,"refin":5696,"benchmar":5697,"fmri":5698,"drone":5699,"nec":5700,"preschool":5701,"ghana":5702,"enterprises":5703,"pruning":5704,"gans":5705,"his":5706,"scat":5707,"goals":5708,"forecast":5709,"exploratory":5710,"reduced":5711,"findings":5712,"32":5713,"sg":5714,"waves":5715,"##vin":5716,"spo":5717,"arr":5718,"parenting":5719,"predictions":5720,"##nover":5721,"cnns":5722,"severe":5723,"transcription":5724,"inspired":5725,"dram":5726,"hed":5727,"nad":5728,"##len":5729,"##itual":5730,"alg":5731,"##ensi":5732,"optimized":5733,"ahmed":5734,"transactions":5735,"##iar":5736,"##bar":5737,"##uran":5738,"refer":5739,"projection":5740,"##tish":5741,"significance":5742,"mexico":5743,"bed":5744,"hill":5745,"##opl":5746,"##urch":5747,"left":5748,"colour":5749,"meat":5750,"match":5751,"cyberb":5752,"##erior":5753,"##ecurity":5754,"metaph":5755,"least":5756,"consistent":5757,"chinas":5758,"compensation":5759,"offloading":5760,"lind":5761,"##enberg":5762,"##apor":5763,"metals":5764,"##ynchron":5765,"##ophys":5766,"equip":5767,"italy":5768,"turn":5769,"bilingual":5770,"##ski":5771,"edu":5772,"corruption":5773,"acids":5774,"distributions":5775,"vertical":5776,"complete":5777,"fairness":5778,"pacific":5779,"##edom":5780,"moist":5781,"horiz":5782,"##eletal":5783,"avoidance":5784,"equilibrium":5785,"apl":5786,"uv":5787,"unem":5788,"asset":5789,"note":5790,"southern":5791,"protocols":5792,"dy":5793,"jones":5794,"##adian":5795,"assign":5796,"visualizing":5797,"maize":5798,"lexical":5799,"pic":5800,"##rs":5801,"##rd":5802,"##jan":5803,"##ece":5804,"##ogl":5805,"##oscopic":5806,"alert":5807,"##rolysis":5808,"amino":5809,"works":5810,"##renia":5811,"growing":5812,"saudi":5813,"rats":5814,"wolf":5815,"##cy":5816,"antic":5817,"teams":5818,"cord":5819,"##aze":5820,"topological":5821,"regions":5822,"biodiversity":5823,"jenn":5824,"lines":5825,"ming":5826,"##field":5827,"##enth":5828,"flav":5829,"flows":5830,"diabetic":5831,"##eliness":5832,"##acchar":5833,"shah":5834,"visc":5835,"##argeting":5836,"identify":5837,"guidance":5838,"missing":5839,"gun":5840,"##ocytes":5841,"bioc":5842,"classical":5843,"insp":5844,"parametric":5845,"coverage":5846,"burnout":5847,"pembel":5848,"schizoph":5849,"neck":5850,"##aut":5851,"##ille":5852,"##rosis":5853,"esp":5854,"convolutions":5855,"##oxy":5856,"turnover":5857,"differentiation":5858,"forensic":5859,"kir":5860,"tay":5861,"##fare":5862,"recip":5863,"studying":5864,"collision":5865,"room":5866,"curve":5867,"drivers":5868,"##otypes":5869,"nutritional":5870,"francis":5871,"inflammatory":5872,"regarding":5873,"##ococcus":5874,"cob":5875,"draw":5876,"duration":5877,"mt":5878,"pav":5879,"##osity":5880,"limited":5881,"circuits":5882,"analyses":5883,"kur":5884,"lake":5885,"ple":5886,"sah":5887,"feas":5888,"smes":5889,"##manuel":5890,"supplement":5891,"annual":5892,"linked":5893,"marriage":5894,"##ovolta":5895,"citation":5896,"fak":5897,"ml":5898,"trib":5899,"##lim":5900,"##amination":5901,"signaling":5902,"mechanics":5903,"globalization":5904,"monitor":5905,"electricity":5906,"##rophic":5907,"saving":5908,"ji":5909,"lond":5910,"pid":5911,"##overing":5912,"shock":5913,"multipl":5914,"oxidation":5915,"medicinal":5916,"##ulsive":5917,"scenes":5918,"substrate":5919,"gated":5920,"sis":5921,"##fish":5922,"##55":5923,"eco":5924,"segment":5925,"situation":5926,"citizens":5927,"cotton":5928,"vag":5929,"##ius":5930,"##zh":5931,"edward":5932,"universities":5933,"validity":5934,"farming":5935,"microscopy":5936,"fatty":5937,"entrepreneurial":5938,"##lic":5939,"##28":5940,"##che":5941,"trend":5942,"##ayan":5943,"##arios":5944,"convention":5945,"singap":5946,"cohort":5947,"cervical":5948,"jin":5949,"##phen":5950,"##pted":5951,"aeros":5952,"farmers":5953,"paradigm":5954,"fig":5955,"had":5956,"ot":5957,"ole":5958,"wik":5959,"##cience":5960,"##isting":5961,"diver":5962,"whole":5963,"promoting":5964,"antibacter":5965,"cutting":5966,"explainable":5967,"aided":5968,"file":5969,"friction":5970,"##70":5971,"presc":5972,"conscious":5973,"nanof":5974,"domains":5975,"constra":5976,"walk":5977,"traumatic":5978,"java":5979,"staff":5980,"##ife":5981,"shu":5982,"flor":5983,"incidence":5984,"serum":5985,"1996":5986,"analytic":5987,"fabrication":5988,"habits":5989,"activated":5990,"jeff":5991,"##graduate":5992,"district":5993,"dend":5994,"khan":5995,"##sis":5996,"##ilm":5997,"depress":5998,"##ione":5999,"inters":6000,"metode":6001,"sha":6002,"shell":6003,"leveraging":6004,"variations":6005,"observation":6006,"susp":6007,"drag":6008,"fus":6009,"pt":6010,"page":6011,"pall":6012,"##ses":6013,"##dr":6014,"##emistry":6015,"##sten":6016,"##ello":6017,"boosting":6018,"capture":6019,"photovolta":6020,"gastric":6021,"synchronous":6022,"enzyme":6023,"eastern":6024,"cn":6025,"god":6026,"##part":6027,"##tz":6028,"##3d":6029,"##atum":6030,"##otemporal":6031,"displ":6032,"counting":6033,"resistant":6034,"precipitation":6035,"40":6036,"bod":6037,"zone":6038,"anch":6039,"##rof":6040,"aden":6041,"leaves":6042,"mary":6043,"accum":6044,"successful":6045,"##odynamic":6046,"##estinal":6047,"ovarian":6048,"shadow":6049,"hass":6050,"##rup":6051,"##gs":6052,"##itos":6053,"chest":6054,"suit":6055,"##aks":6056,"##iko":6057,"minimization":6058,"##being":6059,"alzheimers":6060,"loneliness":6061,"algebra":6062,"jordan":6063,"ari":6064,"fill":6065,"ice":6066,"rhe":6067,"##elf":6068,"##acle":6069,"arbit":6070,"quasi":6071,"carri":6072,"batteries":6073,"rfid":6074,"argument":6075,"kinetics":6076,"purpose":6077,"pub":6078,"disch":6079,"##tinc":6080,"physiological":6081,"direction":6082,"breathing":6083,"tuberculosis":6084,"kol":6085,"lack":6086,"wen":6087,"##fr":6088,"usability":6089,"interference":6090,"police":6091,"particles":6092,"##space":6093,"##owski":6094,"administ":6095,"workshop":6096,"##ril":6097,"##rus":6098,"##kins":6099,"revers":6100,"multit":6101,"soccer":6102,"optimizing":6103,"databases":6104,"partn":6105,"loading":6106,"phenomen":6107,"singapore":6108,"mp":6109,"tc":6110,"##eur":6111,"##ementing":6112,"##rak":6113,"##ript":6114,"export":6115,"shear":6116,"paras":6117,"coli":6118,"simulations":6119,"friend":6120,"front":6121,"happiness":6122,"london":6123,"l2":6124,"ug":6125,"##edy":6126,"##fore":6127,"careg":6128,"going":6129,"cooperation":6130,"coordination":6131,"message":6132,"##omorphic":6133,"nag":6134,"##oft":6135,"##utive":6136,"##mail":6137,"proxim":6138,"blended":6139,"womens":6140,"popular":6141,"profitability":6142,"1016j":6143,"cache":6144,"hay":6145,"zhao":6146,"##cion":6147,"##eed":6148,"##din":6149,"##iture":6150,"conj":6151,"emmanuel":6152,"minor":6153,"combin":6154,"ahmad":6155,"inhibition":6156,"##ih":6157,"##ipl":6158,"##ket":6159,"##53":6160,"touch":6161,"timing":6162,"inclusion":6163,"gastro":6164,"tutor":6165,"lig":6166,"##bn":6167,"##aro":6168,"##edic":6169,"##idine":6170,"##iving":6171,"multimedia":6172,"meh":6173,"##urrence":6174,"leaders":6175,"mutation":6176,"balancing":6177,"aluminum":6178,"##hard":6179,"inp":6180,"imper":6181,"##ador":6182,"neo":6183,"##ellular":6184,"rise":6185,"hospitality":6186,"alpha":6187,"##otechnology":6188,"sri":6189,"sud":6190,"wine":6191,"##29":6192,"##fo":6193,"stak":6194,"basin":6195,"influenc":6196,"demon":6197,"biomark":6198,"reflection":6199,"adhd":6200,"neighborhood":6201,"television":6202,"renewable":6203,"around":6204,"ein":6205,"lem":6206,"sites":6207,"##tur":6208,"##ustion":6209,"immig":6210,"tm":6211,"##oir":6212,"##rant":6213,"##hann":6214,"##anium":6215,"##enter":6216,"##actor":6217,"containing":6218,"##iano":6219,"obj":6220,"percept":6221,"pembelajaran":6222,"bub":6223,"kat":6224,"lect":6225,"targeting":6226,"##56":6227,"schm":6228,"meg":6229,"logistic":6230,"descript":6231,"institute":6232,"illness":6233,"simulated":6234,"returns":6235,"crowdsourcing":6236,"theorem":6237,"antibacterial":6238,"hus":6239,"jia":6240,"thick":6241,"stop":6242,"##chemical":6243,"##uma":6244,"visible":6245,"french":6246,"soils":6247,"##ennis":6248,"nanoparticle":6249,"rotation":6250,"reproductive":6251,"mik":6252,"put":6253,"section":6254,"vary":6255,"##88":6256,"cham":6257,"##dering":6258,"marg":6259,"##tiveness":6260,"grain":6261,"accident":6262,"explicit":6263,"##ethyl":6264,"interpre":6265,"aw":6266,"lateral":6267,"##zed":6268,"##wise":6269,"##iton":6270,"##idal":6271,"##leg":6272,"cheng":6273,"##bles":6274,"improves":6275,"twin":6276,"equival":6277,"movements":6278,"verbal":6279,"tunnel":6280,"budget":6281,"constraint":6282,"made":6283,"ut":6284,"##las":6285,"##door":6286,"##oreg":6287,"readiness":6288,"melan":6289,"ethnic":6290,"perturb":6291,"matthew":6292,"mellitus":6293,"perceptual":6294,"pit":6295,"##eri":6296,"##enia":6297,"##level":6298,"asynchron":6299,"cooling":6300,"##arities":6301,"##ernand":6302,"plane":6303,"spatiotemporal":6304,"quantization":6305,"decentralized":6306,"rd":6307,"##ault":6308,"##lity":6309,"##acial":6310,"chao":6311,"editing":6312,"integral":6313,"specification":6314,"potato":6315,"british":6316,"cyberbullying":6317,"bak":6318,"lor":6319,"tip":6320,"pooling":6321,"disturb":6322,"##tifying":6323,"families":6324,"religion":6325,"judg":6326,"banana":6327,"mimo":6328,"yeast":6329,"border":6330,"gpu":6331,"kan":6332,"##urement":6333,"##emat":6334,"##pler":6335,"##iah":6336,"##forest":6337,"addition":6338,"generic":6339,"viral":6340,"1994":6341,"chains":6342,"stabilization":6343,"berg":6344,"night":6345,"##ataly":6346,"##omon":6347,"cond":6348,"truth":6349,"disp":6350,"simon":6351,"charging":6352,"labels":6353,"leader":6354,"empower":6355,"spring":6356,"##analysis":6357,"mitigation":6358,"equipment":6359,"sad":6360,"##omp":6361,"stable":6362,"sug":6363,"prevent":6364,"musical":6365,"1992":6366,"1993":6367,"layers":6368,"intrinsic":6369,"wellbeing":6370,"regularized":6371,"racial":6372,"hashing":6373,"bell":6374,"##77":6375,"##ju":6376,"deformation":6377,"reserv":6378,"dependence":6379,"screen":6380,"girls":6381,"mohammad":6382,"observations":6383,"gesture":6384,"coefficient":6385,"neonatal":6386,"furn":6387,"##nes":6388,"though":6389,"##tered":6390,"reti":6391,"interfer":6392,"sociology":6393,"approximate":6394,"textual":6395,"##ajar":6396,"##ommun":6397,"##ochond":6398,"predictors":6399,"csr":6400,"##2vec":6401,"##pp":6402,"##jay":6403,"##tique":6404,"##inter":6405,"##eland":6406,"##ulic":6407,"sharma":6408,"island":6409,"infants":6410,"biometric":6411,"extrem":6412,"concern":6413,"1990":6414,"directions":6415,"think":6416,"##ontrol":6417,"anomal":6418,"##iasis":6419,"momentum":6420,"coastal":6421,"photovoltaic":6422,"gear":6423,"##metry":6424,"##onin":6425,"tow":6426,"##fort":6427,"appearance":6428,"cybers":6429,"nanos":6430,"defined":6431,"forms":6432,"freedom":6433,"contrast":6434,"cow":6435,"lew":6436,"now":6437,"tap":6438,"##isal":6439,"##emann":6440,"##plan":6441,"syl":6442,"locally":6443,"repe":6444,"pharmacy":6445,"reactions":6446,"mohamed":6447,"derivatives":6448,"compressed":6449,"pod":6450,"##nan":6451,"uniform":6452,"attentive":6453,"##pta":6454,"mont":6455,"operational":6456,"sympos":6457,"animation":6458,"mediating":6459,"amplifier":6460,"seasonal":6461,"must":6462,"##hma":6463,"##vic":6464,"##omatic":6465,"imbal":6466,"ord":6467,"skeleton":6468,"pepti":6469,"restaurant":6470,"dong":6471,"mission":6472,"ve":6473,"##du":6474,"thy":6475,"##idikan":6476,"##cha":6477,"exist":6478,"spinal":6479,"polyn":6480,"templ":6481,"erp":6482,"##head":6483,"penet":6484,"chicken":6485,"vr":6486,"##amiento":6487,"##ime":6488,"interc":6489,"##asser":6490,"both":6491,"integrity":6492,"hearing":6493,"williams":6494,"crops":6495,"actu":6496,"inertial":6497,"symposium":6498,"sak":6499,"wire":6500,"yam":6501,"seq":6502,"options":6503,"biop":6504,"feeding":6505,"electronics":6506,"ultrasonic":6507,"presentation":6508,"football":6509,"incorporating":6510,"dictionary":6511,"semiconductor":6512,"gon":6513,"nich":6514,"##eras":6515,"times":6516,"knee":6517,"slow":6518,"curv":6519,"expon":6520,"assistance":6521,"texts":6522,"seeking":6523,"facilit":6524,"earnings":6525,"hun":6526,"hans":6527,"just":6528,"pag":6529,"##ovic":6530,"profiles":6531,"faculty":6532,"catal":6533,"##cipl":6534,"players":6535,"crystall":6536,"senior":6537,"epidemiology":6538,"haw":6539,"oh":6540,"tend":6541,"##omial":6542,"##ilities":6543,"alf":6544,"indigen":6545,"adverse":6546,"lesion":6547,"reports":6548,"prospects":6549,"merc":6550,"##can":6551,"##fc":6552,"##79":6553,"stein":6554,"enrich":6555,"recruit":6556,"##ause":6557,"epil":6558,"oct":6559,"estab":6560,"mcc":6561,"harmonic":6562,"enabled":6563,"considerations":6564,"ross":6565,"##86":6566,"##uri":6567,"dee":6568,"##iber":6569,"insulin":6570,"volunt":6571,"tube":6572,"symbolic":6573,"scanning":6574,"pendidikan":6575,"bon":6576,"terap":6577,"deposition":6578,"##uda":6579,"arts":6580,"##rices":6581,"##estr":6582,"##oke":6583,"handling":6584,"pdfs":6585,"accelerating":6586,"##odynamics":6587,"ownership":6588,"heuristic":6589,"bp":6590,"##33":6591,"##elial":6592,"forces":6593,"shi":6594,"show":6595,"leon":6596,"volum":6597,"myth":6598,"aque":6599,"pestic":6600,"sectional":6601,"vas":6602,"vill":6603,"intermed":6604,"plug":6605,"multil":6606,"##illary":6607,"marker":6608,"german":6609,"fitness":6610,"closed":6611,"##worth":6612,"atmospheric":6613,"din":6614,"mouth":6615,"nil":6616,"nerv":6617,"##matic":6618,"recurs":6619,"controlling":6620,"physio":6621,"harv":6622,"colorectal":6623,"antibiotic":6624,"welding":6625,"##giene":6626,"bibli":6627,"##otes":6628,"same":6629,"introduc":6630,"procurement":6631,"porous":6632,"australian":6633,"phosphor":6634,"fungi":6635,"impairment":6636,"transplantation":6637,"jian":6638,"von":6639,"##200":6640,"##economic":6641,"##idering":6642,"##raining":6643,"union":6644,"detail":6645,"before":6646,"solub":6647,"estimates":6648,"movies":6649,"connections":6650,"fermentation":6651,"populations":6652,"cattle":6653,"package":6654,"dip":6655,"hur":6656,"iii":6657,"rare":6658,"##zen":6659,"##eld":6660,"units":6661,"agre":6662,"fred":6663,"faces":6664,"quantification":6665,"36":6666,"kem":6667,"lep":6668,"wise":6669,"##idopsis":6670,"##ours":6671,"intensive":6672,"##aving":6673,"isot":6674,"corrosion":6675,"preven":6676,"sequencing":6677,"##rospective":6678,"asynchronous":6679,"latin":6680,"##qi":6681,"##osocial":6682,"##ioni":6683,"alm":6684,"unkn":6685,"scott":6686,"##airy":6687,"##ochemistry":6688,"##uki":6689,"examining":6690,"fourier":6691,"centered":6692,"picture":6693,"refinement":6694,"benchmarking":6695,"indigenous":6696,"##zer":6697,"them":6698,"onc":6699,"phd":6700,"##health":6701,"trials":6702,"polarization":6703,"printed":6704,"feasibility":6705,"gur":6706,"kenn":6707,"pd":6708,"pear":6709,"##cr":6710,"##ride":6711,"##alah":6712,"option":6713,"generated":6714,"worker":6715,"##posit":6716,"fibers":6717,"focused":6718,"bottom":6719,"##ynthesis":6720,"establish":6721,"##lier":6722,"##yen":6723,"##54":6724,"##alg":6725,"##etti":6726,"reb":6727,"##imension":6728,"##obl":6729,"shif":6730,"##anced":6731,"##bling":6732,"extracting":6733,"outbre":6734,"lifest":6735,"photos":6736,"nearest":6737,"bearing":6738,"distress":6739,"deformable":6740,"demonstr":6741,"dairy":6742,"ting":6743,"##sl":6744,"##andra":6745,"leuk":6746,"blo":6747,"flash":6748,"decre":6749,"eds":6750,"signature":6751,"groundwater":6752,"waterm":6753,"bridging":6754,"victor":6755,"##uting":6756,"##ested":6757,"##0000":6758,"architectural":6759,"numbers":6760,"pcr":6761,"dropout":6762,"ceramic":6763,"unemployment":6764,"##tl":6765,"##national":6766,"##fig":6767,"##atur":6768,"##chair":6769,"##iaz":6770,"modality":6771,"##pert":6772,"metall":6773,"heating":6774,"hygiene":6775,"cellulose":6776,"implementing":6777,"coronary":6778,"estate":6779,"window":6780,"prepared":6781,"syntax":6782,"pts":6783,"##prop":6784,"##olith":6785,"systemic":6786,"##anne":6787,"##scale":6788,"offic":6789,"obser":6790,"increased":6791,"##point":6792,"download":6793,"defects":6794,"significant":6795,"kons":6796,"tro":6797,"venti":6798,"##76":6799,"##odic":6800,"##pher":6801,"margin":6802,"##oken":6803,"idea":6804,"salmon":6805,"limb":6806,"lattice":6807,"restric":6808,"adhes":6809,"enabling":6810,"jennifer":6811,"fid":6812,"lub":6813,"ways":6814,"yolo":6815,"##cut":6816,"##rec":6817,"##hz":6818,"##ritic":6819,"intel":6820,"desc":6821,"##iley":6822,"##anka":6823,"constant":6824,"tanzan":6825,"substit":6826,"stefan":6827,"complementary":6828,"filipino":6829,"assignment":6830,"sql":6831,"##cast":6832,"##via":6833,"##isc":6834,"##une":6835,"##atif":6836,"##eption":6837,"##ugg":6838,"whats":6839,"pathways":6840,"actions":6841,"limits":6842,"##ogenetic":6843,"##structure":6844,"##discipl":6845,"moisture":6846,"schizophrenia":6847,"unknown":6848,"bart":6849,"dm":6850,"anter":6851,"##olas":6852,"ster":6853,"##rie":6854,"##ady":6855,"phill":6856,"multilevel":6857,"biog":6858,"moh":6859,"extracts":6860,"inductive":6861,"keyword":6862,"reliable":6863,"instructional":6864,"aqueous":6865,"bou":6866,"last":6867,"pasc":6868,"##titis":6869,"##rod":6870,"thail":6871,"##izers":6872,"oxford":6873,"woman":6874,"purchasing":6875,"alkal":6876,"disadvantages":6877,"lic":6878,"pest":6879,"vert":6880,"##itude":6881,"##olym":6882,"##omer":6883,"##essel":6884,"asph":6885,"metast":6886,"##okine":6887,"malaria":6888,"empathy":6889,"##quiry":6890,"arabidopsis":6891,"execution":6892,"##ritten":6893,"cosmetic":6894,"hydroxy":6895,"athletes":6896,"buck":6897,"##oa":6898,"##olov":6899,"infections":6900,"##param":6901,"steam":6902,"epilep":6903,"thailand":6904,"##58":6905,"anis":6906,"anderson":6907,"##chlor":6908,"reas":6909,"party":6910,"##roll":6911,"directional":6912,"snow":6913,"informal":6914,"siam":6915,"birds":6916,"container":6917,"faktor":6918,"hoc":6919,"hir":6920,"pages":6921,"##bc":6922,"##uf":6923,"##ectic":6924,"proces":6925,"perme":6926,"##hai":6927,"sexy":6928,"barb":6929,"version":6930,"genetics":6931,"immunity":6932,"acceleration":6933,"mirror":6934,"dogs":6935,"supporting":6936,"nickel":6937,"##espond":6938,"varying":6939,"cpu":6940,"##him":6941,"##inform":6942,"##alian":6943,"ammon":6944,"monetary":6945,"chemotherapy":6946,"helic":6947,"waters":6948,"categorization":6949,"limitations":6950,"ale":6951,"dw":6952,"gil":6953,"lign":6954,"##aine":6955,"##rat":6956,"church":6957,"imitation":6958,"##ptake":6959,"correspond":6960,"terr":6961,"contracts":6962,"walking":6963,"treated":6964,"foundation":6965,"asthma":6966,"pneumonia":6967,"steven":6968,"inspection":6969,"pup":6970,"##atri":6971,"##ensen":6972,"imped":6973,"smoking":6974,"capability":6975,"adolescence":6976,"inhibitors":6977,"aggregate":6978,"mitochond":6979,"explanation":6980,"average":6981,"dut":6982,"tec":6983,"##role":6984,"dead":6985,"schol":6986,"considering":6987,"profiling":6988,"1991":6989,"deepl":6990,"gy":6991,"##map":6992,"##inear":6993,"##alan":6994,"##aled":6995,"anna":6996,"##atively":6997,"die":6998,"appar":6999,"meeting":7000,"pref":7001,"##anna":7002,"slot":7003,"determining":7004,"harves":7005,"angi":7006,"cascade":7007,"column":7008,"gri":7009,"jing":7010,"##kit":7011,"tracing":7012,"contamination":7013,"deeper":7014,"undergraduate":7015,"outs":7016,"synthes":7017,"combustion":7018,"raman":7019,"textile":7020,"chromat":7021,"aviation":7022,"organisational":7023,"scattering":7024,"cod":7025,"rao":7026,"vascular":7027,"wifi":7028,"##oys":7029,"##ku":7030,"##anes":7031,"##ided":7032,"##obia":7033,"interfaces":7034,"managers":7035,"subjective":7036,"links":7037,"searching":7038,"terminal":7039,"fibre":7040,"playing":7041,"informatics":7042,"intentions":7043,"regulatory":7044,"abdul":7045,"##gbt":7046,"racism":7047,"revisiting":7048,"jonathan":7049,"maritime":7050,"handwritten":7051,"cass":7052,"##mission":7053,"##ince":7054,"##enko":7055,"inquiry":7056,"##uld":7057,"cohen":7058,"invasive":7059,"matrices":7060,"cali":7061,"vehicular":7062,"laws":7063,"axis":7064,"clothing":7065,"summary":7066,"anterior":7067,"dol":7068,"kill":7069,"lie":7070,"laz":7071,"muc":7072,"nak":7073,"##nut":7074,"##oda":7075,"ideal":7076,"retrospective":7077,"ethanol":7078,"##cope":7079,"inhibitor":7080,"tanzania":7081,"mild":7082,"roy":7083,"take":7084,"##thal":7085,"cook":7086,"##afa":7087,"##evin":7088,"terti":7089,"johnson":7090,"##rophy":7091,"lapar":7092,"cannabis":7093,"consciousness":7094,"recruitment":7095,"fol":7096,"rid":7097,"tao":7098,"zak":7099,"##uz":7100,"##day":7101,"##gun":7102,"##hib":7103,"##inting":7104,"spain":7105,"artery":7106,"seaw":7107,"##title":7108,"variance":7109,"##manent":7110,"flux":7111,"dougl":7112,"syntactic":7113,"teenag":7114,"sclerosis":7115,"kle":7116,"zeal":7117,"##90":7118,"##rane":7119,"##usa":7120,"##essive":7121,"spot":7122,"##akis":7123,"##ante":7124,"urinary":7125,"topics":7126,"thermo":7127,"wavegu":7128,"targets":7129,"fractures":7130,"barrier":7131,"sediment":7132,"neutral":7133,"wheelchair":7134,"hydraulic":7135,"hole":7136,"nc":7137,"ns":7138,"stig":7139,"vectors":7140,"##uum":7141,"##mp":7142,"##phones":7143,"##reek":7144,"##till":7145,"preservation":7146,"authors":7147,"hemat":7148,"friends":7149,"phosphate":7150,"spiritual":7151,"oxidative":7152,"aerosol":7153,"bang":7154,"learner":7155,"result":7156,"##ques":7157,"contamin":7158,"##bridge":7159,"kinder":7160,"cuc":7161,"much":7162,"##24":7163,"##hed":7164,"##31":7165,"##thes":7166,"##force":7167,"acm":7168,"pla":7169,"commons":7170,"sketch":7171,"expend":7172,"descriptive":7173,"prosth":7174,"hubungan":7175,"available":7176,"taiwan":7177,"friendly":7178,"zealand":7179,"bill":7180,"cab":7181,"tion":7182,"##inder":7183,"retin":7184,"##iza":7185,"evaluate":7186,"peel":7187,"interpolation":7188,"discussion":7189,"##otropic":7190,"##imensional":7191,"lan":7192,"##ocard":7193,"interior":7194,"atlan":7195,"processor":7196,"organisation":7197,"branch":7198,"archae":7199,"periph":7200,"split":7201,"washing":7202,"citizenship":7203,"accumulation":7204,"interpreting":7205,"ig":7206,"lac":7207,"ses":7208,"##nis":7209,"##erts":7210,"##eda":7211,"##oline":7212,"conform":7213,"##iva":7214,"behavio":7215,"realistic":7216,"outdoor":7217,"radical":7218,"conditioning":7219,"rubber":7220,"bipolar":7221,"lifestyle":7222,"hid":7223,"kind":7224,"kaz":7225,"##kle":7226,"##jar":7227,"##emi":7228,"##plet":7229,"transist":7230,"##ards":7231,"##aceae":7232,"appra":7233,"##itted":7234,"procedures":7235,"bitco":7236,"inverter":7237,"trigger":7238,"microfluid":7239,"warehouse":7240,"ptsd":7241,"benz":7242,"kas":7243,"mening":7244,"##rill":7245,"##27":7246,"##plastic":7247,"##eping":7248,"queries":7249,"mothers":7250,"##ichi":7251,"##urring":7252,"philip":7253,"neurom":7254,"dysfunction":7255,"inflammation":7256,"spanish":7257,"conventional":7258,"discharge":7259,"io":7260,"kit":7261,"##pass":7262,"##ompos":7263,"##earning":7264,"compass":7265,"diode":7266,"indices":7267,"prototype":7268,"psychiatric":7269,"advertisement":7270,"residential":7271,"pick":7272,"ric":7273,"sul":7274,"##osing":7275,"##ovsk":7276,"multid":7277,"assem":7278,"polyp":7279,"##inton":7280,"geo":7281,"greg":7282,"clinic":7283,"statement":7284,"##wei":7285,"conductivity":7286,"mixtures":7287,"fundamentals":7288,"volatility":7289,"turkey":7290,"route":7291,"tertiary":7292,"douglas":7293,"cp":7294,"db":7295,"lum":7296,"##sky":7297,"stages":7298,"height":7299,"agro":7300,"autoreg":7301,"losses":7302,"##ogenous":7303,"promote":7304,"electrode":7305,"accelerator":7306,"informed":7307,"microsoft":7308,"cyclic":7309,"microbiota":7310,"21st":7311,"fun":7312,"vin":7313,"##rated":7314,"##isl":7315,"chec":7316,"##irm":7317,"##ires":7318,"##irect":7319,"spars":7320,"baseline":7321,"##geting":7322,"hex":7323,"organizing":7324,"month":7325,"incenti":7326,"journals":7327,"laur":7328,"understand":7329,"compositional":7330,"illum":7331,"utility":7332,"taylor":7333,"thickness":7334,"equal":7335,"gard":7336,"jose":7337,"tell":7338,"yun":7339,"##araj":7340,"##eto":7341,"attend":7342,"schedule":7343,"talent":7344,"##odontic":7345,"deficiency":7346,"published":7347,"multitask":7348,"gao":7349,"him":7350,"honey":7351,"rs":7352,"##rig":7353,"##mas":7354,"##amy":7355,"multiscale":7356,"crack":7357,"nanot":7358,"philippine":7359,"connect":7360,"oils":7361,"flexibility":7362,"fried":7363,"bacillus":7364,"60":7365,"ht":7366,"herm":7367,"sag":7368,"session":7369,"u000":7370,"uptake":7371,"##mic":7372,"spoken":7373,"recycl":7374,"arter":7375,"lexic":7376,"parts":7377,"decon":7378,"##othy":7379,"publication":7380,"transformational":7381,"attribution":7382,"name":7383,"rhiz":7384,"budgeting":7385,"welfare":7386,"##organic":7387,"likelihood":7388,"empowerment":7389,"fdi":7390,"pine":7391,"tian":7392,"yong":7393,"##pur":7394,"resnet":7395,"actor":7396,"cart":7397,"markers":7398,"incom":7399,"characteristic":7400,"delta":7401,"publishing":7402,"##ophil":7403,"caused":7404,"herbal":7405,"correlates":7406,"massive":7407,"##cepti":7408,"##borne":7409,"bonding":7410,"moderating":7411,"overlap":7412,"cele":7413,"tension":7414,"##uries":7415,"##mental":7416,"bases":7417,"scoring":7418,"teeth":7419,"isch":7420,"incentive":7421,"##itization":7422,"abstractive":7423,"fluorescence":7424,"persistent":7425,"yoga":7426,"bron":7427,"erosion":7428,"ira":7429,"sic":7430,"sos":7431,"##oint":7432,"uns":7433,"sme":7434,"planar":7435,"streams":7436,"springer":7437,"elev":7438,"##optera":7439,"##itosan":7440,"tutorial":7441,"ace":7442,"jar":7443,"jiang":7444,"lot":7445,"peg":7446,"pasi":7447,"tu":7448,"##ortic":7449,"##urable":7450,"##ominal":7451,"conserv":7452,"discipl":7453,"##2020":7454,"gamma":7455,"sweet":7456,"lymphocytes":7457,"bitcoin":7458,"curr":7459,"gad":7460,"##burg":7461,"forget":7462,"permanent":7463,"##tration":7464,"optimisation":7465,"inside":7466,"gupta":7467,"##escent":7468,"sentences":7469,"ecosystems":7470,"synchronization":7471,"pipe":7472,"managerial":7473,"ki":7474,"ll":7475,"##volution":7476,"##ente":7477,"##ograf":7478,"##umab":7479,"##imeter":7480,"##aterial":7481,"esl":7482,"glut":7483,"##ographical":7484,"associations":7485,"##ittle":7486,"religious":7487,"asymmetric":7488,"counseling":7489,"neuroscience":7490,"reservoir":7491,"37":7492,"##oter":7493,"##uary":7494,"##ycle":7495,"##itarian":7496,"##asia":7497,"compare":7498,"##ellow":7499,"unmann":7500,"scr":7501,"##io2":7502,"discre":7503,"characters":7504,"formula":7505,"histogram":7506,"trip":7507,"malaysian":7508,"lesions":7509,"atlantic":7510,"23":7511,"bug":7512,"jung":7513,"kw":7514,"narc":7515,"pec":7516,"rip":7517,"td":7518,"##auc":7519,"##ged":7520,"##orb":7521,"comment":7522,"##uman":7523,"patent":7524,"gradients":7525,"ocular":7526,"goods":7527,"bounds":7528,"squares":7529,"differentiable":7530,"balanced":7531,"multilayer":7532,"unmanned":7533,"eti":7534,"gib":7535,"jay":7536,"selling":7537,"##iri":7538,"##tio":7539,"##icum":7540,"##icate":7541,"##eced":7542,"##acin":7543,"##stan":7544,"##abeth":7545,"spine":7546,"tract":7547,"disru":7548,"seb":7549,"benj":7550,"stacked":7551,"candid":7552,"cra":7553,"fernand":7554,"ran":7555,"really":7556,"disentang":7557,"##phal":7558,"persu":7559,"##ophyl":7560,"posterior":7561,"ulcer":7562,"graduate":7563,"aggression":7564,"concentrations":7565,"transcript":7566,"impedance":7567,"lec":7568,"sut":7569,"yi":7570,"##east":7571,"##nik":7572,"##ubl":7573,"##idents":7574,"##aku":7575,"##rological":7576,"##trans":7577,"cyan":7578,"gamification":7579,"supported":7580,"wilson":7581,"cultiv":7582,"evolving":7583,"hung":7584,"ny":7585,"##jun":7586,"reactive":7587,"##uding":7588,"##ryst":7589,"distant":7590,"frameworks":7591,"myocard":7592,"microbiome":7593,"contextualized":7594,"ellip":7595,"gaze":7596,"hp":7597,"lighting":7598,"tar":7599,"##tition":7600,"##esium":7601,"##oscopy":7602,"##adder":7603,"##aper":7604,"emitting":7605,"agnostic":7606,"capabilities":7607,"epith":7608,"clusters":7609,"herb":7610,"abdel":7611,"replacement":7612,"kinetic":7613,"depressive":7614,"pasien":7615,"ngu":7616,"pom":7617,"ub":7618,"##oqu":7619,"##nm":7620,"##asts":7621,"##ancing":7622,"matters":7623,"suppression":7624,"microc":7625,"brun":7626,"demographic":7627,"operator":7628,"offline":7629,"reproduction":7630,"severity":7631,"tagging":7632,"phytochemical":7633,"typh":7634,"spoof":7635,"arbitr":7636,"recursive":7637,"fi":7638,"hil":7639,"hamil":7640,"jen":7641,"sir":7642,"##enes":7643,"##aged":7644,"sph":7645,"##romb":7646,"agenda":7647,"psycho":7648,"rough":7649,"hepat":7650,"juven":7651,"executive":7652,"rigid":7653,"pf":7654,"yar":7655,"##itten":7656,"##agh":7657,"clar":7658,"muslim":7659,"estimate":7660,"faced":7661,"photoc":7662,"olive":7663,"symmetric":7664,"complications":7665,"##aciones":7666,"obsessive":7667,"focal":7668,"talk":7669,"califor":7670,"kap":7671,"##itance":7672,"##ilation":7673,"##odi":7674,"reven":7675,"##osome":7676,"##ologie":7677,"##ifera":7678,"##asty":7679,"leading":7680,"strept":7681,"mixing":7682,"##paign":7683,"muham":7684,"settings":7685,"musculos":7686,"dentist":7687,"##disciplinary":7688,"incentives":7689,"eigen":7690,"fro":7691,"lane":7692,"nod":7693,"sob":7694,"tank":7695,"##pi":7696,"##keletal":7697,"construct":7698,"devi":7699,"modules":7700,"resol":7701,"compulsive":7702,"plann":7703,"gray":7704,"##aste":7705,"##xxxx":7706,"fruits":7707,"write":7708,"suitability":7709,"behavioural":7710,"illumination":7711,"dont":7712,"fes":7713,"hpl":7714,"voting":7715,"##bing":7716,"##44":7717,"##acet":7718,"starch":7719,"chan":7720,"chun":7721,"##ads":7722,"marco":7723,"beet":7724,"##ismo":7725,"##aterials":7726,"microg":7727,"serious":7728,"occlusion":7729,"immers":7730,"reconfig":7731,"latency":7732,"palsy":7733,"diamond":7734,"gym":7735,"mine":7736,"nir":7737,"pas":7738,"pie":7739,"##uter":7740,"##oshi":7741,"compressive":7742,"api":7743,"##timate":7744,"inflation":7745,"methane":7746,"accord":7747,"instagram":7748,"lux":7749,"vocational":7750,"encrypted":7751,"osteo":7752,"cybersecurity":7753,"peripheral":7754,"recycling":7755,"juan":7756,"naf":7757,"ras":7758,"uter":7759,"wing":7760,"##carb":7761,"##98":7762,"##ono":7763,"##olec":7764,"##ido":7765,"##opt":7766,"division":7767,"mush":7768,"geography":7769,"grand":7770,"expressions":7771,"##hyth":7772,"grounded":7773,"brian":7774,"1007":7775,"colonial":7776,"tactile":7777,"false":7778,"dendritic":7779,"harvesting":7780,"nguyen":7781,"lun":7782,"##ped":7783,"##tc":7784,"##kol":7785,"##db":7786,"##eno":7787,"inception":7788,"##iciency":7789,"##ogonal":7790,"phrase":7791,"transient":7792,"ecomm":7793,"physiology":7794,"singular":7795,"allen":7796,"computers":7797,"angel":7798,"odometry":7799,"inclusive":7800,"indicator":7801,"pretraining":7802,"cavity":7803,"curvature":7804,"dance":7805,"hart":7806,"kang":7807,"##lets":7808,"##van":7809,"##with":7810,"##icious":7811,"##olin":7812,"##ulators":7813,"##ims":7814,"##otomy":7815,"enti":7816,"spray":7817,"alan":7818,"dioxide":7819,"##ains":7820,"perovsk":7821,"cool":7822,"polys":7823,"##arium":7824,"##eva":7825,"pathology":7826,"jointly":7827,"hierarchy":7828,"neighb":7829,"krish":7830,"sdn":7831,"##auty":7832,"agreement":7833,"outbreak":7834,"waveguide":7835,"gift":7836,"mg":7837,"##light":7838,"##97":7839,"##ht":7840,"tox":7841,"##opor":7842,"cars":7843,"dynamical":7844,"##azole":7845,"auditing":7846,"triang":7847,"injuries":7848,"1989":7849,"sigma":7850,"chaos":7851,"availability":7852,"tongue":7853,"cub":7854,"cyl":7855,"fiction":7856,"kor":7857,"##iff":7858,"##kes":7859,"##alia":7860,"anak":7861,"##istive":7862,"beauty":7863,"england":7864,"automata":7865,"##berry":7866,"academy":7867,"belt":7868,"funds":7869,"periodic":7870,"suscepti":7871,"victim":7872,"contributions":7873,"kalman":7874,"000":7875,"beck":7876,"cro":7877,"date":7878,"gord":7879,"hors":7880,"xin":7881,"##rans":7882,"##arter":7883,"anonym":7884,"tekn":7885,"floor":7886,"patrick":7887,"loan":7888,"drinking":7889,"reputation":7890,"essay":7891,"targeted":7892,"titanium":7893,"detectors":7894,"antonio":7895,"chromatography":7896,"2nd":7897,"feng":7898,"kun":7899,"##born":7900,"##enger":7901,"microp":7902,"graphical":7903,"decoding":7904,"programm":7905,"liang":7906,"##oidal":7907,"antibody":7908,"burden":7909,"province":7910,"derivative":7911,"henry":7912,"asphalt":7913,"va":7914,"##ois":7915,"##ects":7916,"chitosan":7917,"##apse":7918,"spher":7919,"transduc":7920,"assurance":7921,"while":7922,"schw":7923,"brass":7924,"cultures":7925,"triple":7926,"arabia":7927,"libraries":7928,"criminal":7929,"opportunity":7930,"plateau":7931,"volatile":7932,"feminism":7933,"rrl":7934,"lgbt":7935,"pb":7936,"rose":7937,"uw":7938,"##43":7939,"resin":7940,"intake":7941,"france":7942,"extrac":7943,"industries":7944,"throughput":7945,"ern":7946,"terror":7947,"olig":7948,"seeds":7949,"wideband":7950,"revisited":7951,"reveals":7952,"3rd":7953,"hipp":7954,"za":7955,"##kel":7956,"##kov":7957,"##orrh":7958,"##aca":7959,"bean":7960,"schemes":7961,"flo":7962,"peace":7963,"lifel":7964,"campaign":7965,"##uchi":7966,"ontologies":7967,"lockdown":7968,"ecommerce":7969,"gig":7970,"jav":7971,"kath":7972,"lav":7973,"rach":7974,"roll":7975,"##col":7976,"disinf":7977,"dies":7978,"coup":7979,"elim":7980,"##unciation":7981,"malign":7982,"epist":7983,"valuation":7984,"cambridge":7985,"##aux":7986,"andrea":7987,"fingerpr":7988,"dye":7989,"##zy":7990,"##hs":7991,"##acer":7992,"##iders":7993,"trap":7994,"##erma":7995,"boy":7996,"gli":7997,"##tified":7998,"hydrop":7999,"financing":8000,"valve":8001,"angular":8002,"dispersion":8003,"thyroid":8004,"aur":8005,"dream":8006,"##td":8007,"##nets":8008,"##nosis":8009,"##ui":8010,"##ods":8011,"##agg":8012,"##iveness":8013,"##aryng":8014,"##egrad":8015,"developments":8016,"##arten":8017,"compared":8018,"outlier":8019,"peo":8020,"literary":8021,"encoders":8022,"spectrom":8023,"trajectories":8024,"scenarios":8025,"baby":8026,"appraisal":8027,"narciss":8028,"dent":8029,"daw":8030,"dnn":8031,"##rants":8032,"##network":8033,"##ston":8034,"##osom":8035,"##opoul":8036,"##oui":8037,"##tite":8038,"affected":8039,"assistant":8040,"bird":8041,"##olester":8042,"garlic":8043,"anteced":8044,"winter":8045,"pierre":8046,"##dh":8047,"##amide":8048,"shr":8049,"mediter":8050,"fever":8051,"carlos":8052,"##ategory":8053,"redund":8054,"cameras":8055,"quantifying":8056,"ferr":8057,"biomechan":8058,"egg":8059,"accelerated":8060,"auditory":8061,"neurons":8062,"bottlen":8063,"viscosity":8064,"equality":8065,"hos":8066,"say":8067,"##52":8068,"##51":8069,"##eria":8070,"##ored":8071,"##iao":8072,"click":8073,"metac":8074,"carl":8075,"##atorial":8076,"determine":8077,"extra":8078,"autonomy":8079,"square":8080,"theoretic":8081,"looking":8082,"transparency":8083,"autoregressive":8084,"kaw":8085,"pes":8086,"veter":8087,"##hal":8088,"anemia":8089,"stone":8090,"proj":8091,"##otor":8092,"##obile":8093,"graphics":8094,"consol":8095,"flat":8096,"psychosocial":8097,"swed":8098,"rendering":8099,"manipulator":8100,"origins":8101,"turbul":8102,"translating":8103,"cryptography":8104,"coherence":8105,"configuration":8106,"partnership":8107,"siamese":8108,"osteoarth":8109,"casting":8110,"dj":8111,"gang":8112,"##max":8113,"##ened":8114,"##roup":8115,"thai":8116,"##older":8117,"##ulant":8118,"##aded":8119,"##ands":8120,"##aint":8121,"destination":8122,"generate":8123,"workload":8124,"framing":8125,"facility":8126,"maximization":8127,"occurrence":8128,"dilem":8129,"vacuum":8130,"lyn":8131,"##rp":8132,"##deh":8133,"##width":8134,"##onn":8135,"##thetic":8136,"educacion":8137,"supercon":8138,"linn":8139,"cyc":8140,"aux":8141,"centric":8142,"zheng":8143,"randomised":8144,"doctor":8145,"potentials":8146,"physiotherapy":8147,"musculoskeletal":8148,"bic":8149,"category":8150,"dun":8151,"fetal":8152,"tah":8153,"semin":8154,"designs":8155,"protective":8156,"##matical":8157,"homes":8158,"dissert":8159,"##process":8160,"##ulsion":8161,"shapes":8162,"symbol":8163,"coherent":8164,"emmanuelle":8165,"benjamin":8166,"cum":8167,"dust":8168,"gc":8169,"tentang":8170,"v2":8171,"##oplas":8172,"deployment":8173,"exact":8174,"interv":8175,"eliz":8176,"aged":8177,"insider":8178,"create":8179,"##shore":8180,"polymorph":8181,"capacitor":8182,"achieving":8183,"khal":8184,"crispr":8185,"##ranean":8186,"bull":8187,"kab":8188,"xiang":8189,"##alk":8190,"##agation":8191,"##atern":8192,"##onomics":8193,"boot":8194,"complexes":8195,"hotels":8196,"cues":8197,"vegetable":8198,"railway":8199,"phylogenetic":8200,"##partum":8201,"carrier":8202,"##tinction":8203,"##atalytic":8204,"arbitrary":8205,"california":8206,"hat":8207,"kad":8208,"nv":8209,"obl":8210,"##uge":8211,"##anz":8212,"##opy":8213,"##opic":8214,"asper":8215,"indirect":8216,"optics":8217,"textbook":8218,"##2019":8219,"collagen":8220,"##ipped":8221,"susan":8222,"##ariants":8223,"neuron":8224,"compassion":8225,"checking":8226,"58":8227,"aj":8228,"cel":8229,"dots":8230,"jr":8231,"riz":8232,"yas":8233,"##cv":8234,"##py":8235,"##pson":8236,"##anan":8237,"thi":8238,"##aba":8239,"##aptic":8240,"##allow":8241,"atten":8242,"poison":8243,"final":8244,"##aje":8245,"businesses":8246,"##olds":8247,"treatments":8248,"notes":8249,"silica":8250,"##otyping":8251,"scales":8252,"andreas":8253,"storyt":8254,"sheet":8255,"facilities":8256,"hyperspectral":8257,"hydrogel":8258,"gravity":8259,"juvenile":8260,"brad":8261,"greek":8262,"##gent":8263,"##abi":8264,"clear":8265,"sho":8266,"##ricular":8267,"maturity":8268,"implants":8269,"gras":8270,"canadian":8271,"grey":8272,"backprop":8273,"calculus":8274,"orthogonal":8275,"paradox":8276,"siswa":8277,"revenue":8278,"tb":8279,"yolov":8280,"##omo":8281,"##vey":8282,"beams":8283,"controls":8284,"capt":8285,"integrative":8286,"##esco":8287,"smartphones":8288,"italian":8289,"transformations":8290,"intrac":8291,"emergence":8292,"pulp":8293,"polymers":8294,"bilateral":8295,"subjects":8296,"arthritis":8297,"stiff":8298,"chaotic":8299,"myocardial":8300,"peoples":8301,"bure":8302,"still":8303,"tick":8304,"##pri":8305,"##67":8306,"##osk":8307,"basket":8308,"transf":8309,"email":8310,"##iesel":8311,"myc":8312,"drift":8313,"##aphyl":8314,"magnesium":8315,"horizontal":8316,"schmid":8317,"kinderg":8318,"mall":8319,"sz":8320,"saw":8321,"vital":8322,"wasser":8323,"##fi":8324,"##essing":8325,"modes":8326,"shen":8327,"##ibular":8328,"infecti":8329,"##isme":8330,"##ocking":8331,"epis":8332,"laun":8333,"curc":8334,"harris":8335,"belajar":8336,"##label":8337,"difficulty":8338,"pairs":8339,"xiao":8340,"expectations":8341,"asympt":8342,"elliptic":8343,"##aa":8344,"##uates":8345,"##sr":8346,"##oric":8347,"debl":8348,"##iments":8349,"interval":8350,"been":8351,"schema":8352,"##ilding":8353,"editor":8354,"centers":8355,"operators":8356,"fourth":8357,"pipeline":8358,"pm2":8359,"aquatic":8360,"ceramics":8361,"warming":8362,"gabri":8363,"observer":8364,"expenditure":8365,"multidimensional":8366,"ery":8367,"foss":8368,"gor":8369,"tat":8370,"vein":8371,"wan":8372,"wis":8373,"yuan":8374,"##tu":8375,"##2d":8376,"##mc":8377,"##ered":8378,"client":8379,"##elly":8380,"sher":8381,"##assium":8382,"##rosoph":8383,"alloys":8384,"etz":8385,"erg":8386,"grading":8387,"accessibility":8388,"regulated":8389,"fungal":8390,"bulk":8391,"refriger":8392,"muhammad":8393,"hplc":8394,"gpt":8395,"hv":8396,"pent":8397,"##23":8398,"##fet":8399,"##oming":8400,"compati":8401,"atomic":8402,"trait":8403,"##ega":8404,"timothy":8405,"##ylic":8406,"useful":8407,"mini":8408,"valley":8409,"layered":8410,"descriptions":8411,"phosphorus":8412,"storytelling":8413,"38":8414,"euc":8415,"fint":8416,"##o4":8417,"##pet":8418,"##ener":8419,"once":8420,"comfort":8421,"recomb":8422,"electroc":8423,"sarah":8424,"russian":8425,"congestion":8426,"constituent":8427,"hindi":8428,"suspension":8429,"mediterranean":8430,"31":8431,"bov":8432,"little":8433,"nel":8434,"sang":8435,"##isch":8436,"##ulo":8437,"stri":8438,"##raz":8439,"chim":8440,"##ellar":8441,"plus":8442,"developed":8443,"curves":8444,"transitions":8445,"pedagogy":8446,"transparent":8447,"pancreatic":8448,"reasons":8449,"according":8450,"bach":8451,"gem":8452,"hend":8453,"qa":8454,"##mond":8455,"##dep":8456,"##icts":8457,"##rio":8458,"dex":8459,"##ansi":8460,"highway":8461,"produced":8462,"##othermal":8463,"fuzzing":8464,"##metics":8465,"including":8466,"choosing":8467,"courses":8468,"dermat":8469,"fiscal":8470,"nanocompos":8471,"hormone":8472,"##oglob":8473,"##informatics":8474,"commonsense":8475,"39":8476,"aids":8477,"kual":8478,"lc":8479,"rud":8480,"##bach":8481,"##arking":8482,"inversion":8483,"##isons":8484,"##uler":8485,"cher":8486,"##uta":8487,"respond":8488,"##ematics":8489,"irrad":8490,"pursu":8491,"anthony":8492,"constitution":8493,"describ":8494,"##ophyll":8495,"mushroom":8496,"pale":8497,"##wide":8498,"##73":8499,"##icip":8500,"tob":8501,"##ocene":8502,"computed":8503,"prison":8504,"clim":8505,"manage":8506,"paraph":8507,"insight":8508,"foods":8509,"increases":8510,"snap":8511,"partitioning":8512,"professionals":8513,"excitation":8514,"fingerprint":8515,"shaping":8516,"broadband":8517,"constructing":8518,"cinema":8519,"pronunciation":8520,"drama":8521,"objectives":8522,"susceptibility":8523,"gordon":8524,"diesel":8525,"osteoarthritis":8526,"infectious":8527,"aph":8528,"dl":8529,"ian":8530,"lob":8531,"rang":8532,"tp":8533,"##pen":8534,"##rea":8535,"resc":8536,"unp":8537,"such":8538,"##ainting":8539,"##ego":8540,"visibility":8541,"paths":8542,"entry":8543,"screw":8544,"pepper":8545,"cleaning":8546,"hate":8547,"kevin":8548,"qing":8549,"##itan":8550,"##idis":8551,"##agent":8552,"adher":8553,"along":8554,"apr":8555,"contex":8556,"coaching":8557,"##strual":8558,"discovering":8559,"##uke":8560,"competency":8561,"shoulder":8562,"freshwater":8563,"template":8564,"elizabeth":8565,"##o2":8566,"inn":8567,"##elo":8568,"##ampling":8569,"proph":8570,"sperm":8571,"diar":8572,"plac":8573,"autoc":8574,"electrol":8575,"distortion":8576,"guo":8577,"members":8578,"serial":8579,"postpartum":8580,"##videos":8581,"persistence":8582,"lewis":8583,"##olymer":8584,"gross":8585,"sale":8586,"##olia":8587,"##andro":8588,"alter":8589,"fluct":8590,"humanoid":8591,"secret":8592,"subspace":8593,"##eholder":8594,"buy":8595,"utilizing":8596,"abstraction":8597,"threats":8598,"bubble":8599,"exponential":8600,"lanka":8601,"ral":8602,"sativ":8603,"vessel":8604,"##cap":8605,"##low":8606,"##bell":8607,"##tise":8608,"##oria":8609,"##iran":8610,"orange":8611,"sham":8612,"ecg":8613,"##artz":8614,"caption":8615,"practition":8616,"salinity":8617,"labeled":8618,"##structured":8619,"cosmetics":8620,"reflective":8621,"gestational":8622,"substance":8623,"marginal":8624,"forgetting":8625,"kot":8626,"##2b":8627,"##ontin":8628,"##inus":8629,"chart":8630,"##obi":8631,"##vious":8632,"##akh":8633,"poetry":8634,"graphic":8635,"charger":8636,"greece":8637,"purification":8638,"sepsis":8639,"kerja":8640,"citrus":8641,"divor":8642,"retinal":8643,"assembl":8644,"##olesterol":8645,"vapor":8646,"##lines":8647,"##oning":8648,"##anum":8649,"antis":8650,"dehyd":8651,"##iral":8652,"optic":8653,"supervis":8654,"factory":8655,"crm":8656,"round":8657,"tourist":8658,"millenn":8659,"simulator":8660,"grammatical":8661,"negotiation":8662,"thought":8663,"penetration":8664,"bing":8665,"cc":8666,"canc":8667,"drain":8668,"naz":8669,"wi":8670,"##bb":8671,"##omas":8672,"marx":8673,"parking":8674,"biochemical":8675,"##integ":8676,"locom":8677,"worlds":8678,"exercises":8679,"lives":8680,"fixation":8681,"parkins":8682,"scenario":8683,"anthropology":8684,"russia":8685,"municip":8686,"obstacle":8687,"terapi":8688,"##dehy":8689,"etzioni":8690,"dennis":8691,"kah":8692,"lumb":8693,"makes":8694,"rear":8695,"rect":8696,"##ediation":8697,"##uncture":8698,"johann":8699,"concurrent":8700,"breeding":8701,"republ":8702,"##factual":8703,"uncon":8704,"investor":8705,"tolerant":8706,"manifest":8707,"watermarking":8708,"uwb":8709,"aus":8710,"bif":8711,"vinc":8712,"##yi":8713,"##enium":8714,"##edi":8715,"forc":8716,"##iman":8717,"envi":8718,"##ify":8719,"isra":8720,"coral":8721,"##tinct":8722,"workflow":8723,"forming":8724,"remove":8725,"laura":8726,"automatically":8727,"davis":8728,"distilling":8729,"mohammed":8730,"microbiology":8731,"torque":8732,"michel":8733,"communicative":8734,"tiny":8735,"ozone":8736,"prescrib":8737,"displacement":8738,"inpainting":8739,"epilepsy":8740,"parkinsons":8741,"bam":8742,"destr":8743,"mast":8744,"sara":8745,"##wr":8746,"##eds":8747,"requ":8748,"##ugal":8749,"guar":8750,"##coming":8751,"massage":8752,"puls":8753,"reflect":8754,"ambigu":8755,"neuronal":8756,"##building":8757,"cic":8758,"estr":8759,"htt":8760,"mend":8761,"sew":8762,"vine":8763,"zo":8764,"zn":8765,"##eor":8766,"##eros":8767,"stain":8768,"onset":8769,"##izes":8770,"trich":8771,"##ishment":8772,"caries":8773,"predictor":8774,"##azine":8775,"photonic":8776,"1985":8777,"plasm":8778,"lamb":8779,"##brahim":8780,"chloride":8781,"smoothing":8782,"metaphor":8783,"jeffrey":8784,"leukemia":8785,"tecn":8786,"eug":8787,"mans":8788,"qi":8789,"vik":8790,"##itiv":8791,"##2c":8792,"##100":8793,"##mt":8794,"##oro":8795,"stu":8796,"script":8797,"colony":8798,"subt":8799,"proficiency":8800,"democ":8801,"potassium":8802,"fibrosis":8803,"diversification":8804,"scienti":8805,"periodontal":8806,"coreference":8807,"relevant":8808,"efek":8809,"mamm":8810,"aluminium":8811,"cvpr":8812,"pragmatic":8813,"capsule":8814,"anchor":8815,"stakeholder":8816,"imbalanced":8817,"45":8818,"bos":8819,"mb":8820,"nin":8821,"rl":8822,"sib":8823,"##cale":8824,"##lip":8825,"##03":8826,"##hl":8827,"##vc":8828,"##anti":8829,"metod":8830,"##tivitas":8831,"ecu":8832,"newborn":8833,"doud":8834,"##gener":8835,"topical":8836,"jobs":8837,"peny":8838,"millimeter":8839,"foam":8840,"microserv":8841,"abdominal":8842,"rainfall":8843,"sulfur":8844,"salmonella":8845,"##cutaneous":8846,"fintech":8847,"contexts":8848,"nu":8849,"##car":8850,"##pea":8851,"##69":8852,"##inite":8853,"##omi":8854,"##amic":8855,"tran":8856,"adc":8857,"apopt":8858,"##acco":8859,"advance":8860,"mcg":8861,"precise":8862,"karl":8863,"instability":8864,"regulations":8865,"respiration":8866,"biodiesel":8867,"hrm":8868,"##yclop":8869,"catalyst":8870,"today":8871,"hassan":8872,"oncology":8873,"entities":8874,"34":8875,"fif":8876,"ging":8877,"tog":8878,"##agon":8879,"##ocyte":8880,"##unan":8881,"adul":8882,"scaff":8883,"##tron":8884,"geographic":8885,"logical":8886,"partially":8887,"requirement":8888,"##prof":8889,"initiative":8890,"proposed":8891,"observational":8892,"vegetation":8893,"running":8894,"vedio":8895,"volumetric":8896,"dentistry":8897,"ori":8898,"were":8899,"##rases":8900,"##kt":8901,"##orec":8902,"##ici":8903,"##econd":8904,"atlas":8905,"dimensionality":8906,"harness":8907,"nitride":8908,"windows":8909,"butter":8910,"fertility":8911,"ideas":8912,"behind":8913,"intermediate":8914,"##opoulos":8915,"ds":8916,"jew":8917,"ky":8918,"kids":8919,"##raction":8920,"##bage":8921,"##64":8922,"##75":8923,"##erning":8924,"orb":8925,"sebas":8926,"teori":8927,"appropri":8928,"skip":8929,"nanotechnology":8930,"powered":8931,"##acci":8932,"landmark":8933,"##lamps":8934,"luis":8935,"ghz":8936,"##basis":8937,"squee":8938,"daun":8939,"counterfactual":8940,"feminist":8941,"multispectral":8942,"arrang":8943,"einstein":8944,"correspondence":8945,"deconvolution":8946,"wasserstein":8947,"doudna":8948,"aa":8949,"gcn":8950,"nation":8951,"nap":8952,"yin":8953,"yao":8954,"##iet":8955,"##gers":8956,"##eses":8957,"##aram":8958,"##rays":8959,"comun":8960,"##ensor":8961,"##forming":8962,"could":8963,"whit":8964,"built":8965,"malicious":8966,"depriv":8967,"photography":8968,"1984":8969,"##iatry":8970,"electrochemical":8971,"interpretability":8972,"omn":8973,"delayed":8974,"everyday":8975,"brazilian":8976,"cfd":8977,"leakage":8978,"intercultural":8979,"piezo":8980,"poisoning":8981,"gm":8982,"hope":8983,"jak":8984,"kris":8985,"pill":8986,"sac":8987,"##eo":8988,"##ners":8989,"##uhan":8990,"##jee":8991,"reuse":8992,"chile":8993,"commod":8994,"colomb":8995,"blast":8996,"##tistic":8997,"digit":8998,"memb":8999,"##azz":9000,"characterizing":9001,"attentional":9002,"termin":9003,"myel":9004,"liberal":9005,"warning":9006,"milling":9007,"boundaries":9008,"personnel":9009,"lamp":9010,"sounds":9011,"cascaded":9012,"##worm":9013,"permeability":9014,"spoofing":9015,"cable":9016,"row":9017,"sik":9018,"til":9019,"##tiab":9020,"thal":9021,"##using":9022,"##uctive":9023,"##ovirus":9024,"spill":9025,"interf":9026,"amyl":9027,"applic":9028,"algorithmic":9029,"explos":9030,"defining":9031,"signs":9032,"lifetime":9033,"drives":9034,"hyperb":9035,"correlated":9036,"indonesian":9037,"conduct":9038,"resonant":9039,"independence":9040,"involved":9041,"enzymes":9042,"cultivation":9043,"accountability":9044,"bahasa":9045,"algae":9046,"hippoc":9047,"dissertation":9048,"dic":9049,"hao":9050,"##cence":9051,"##itives":9052,"##rence":9053,"##tier":9054,"thromb":9055,"straw":9056,"oren":9057,"recall":9058,"poult":9059,"virgin":9060,"programme":9061,"hands":9062,"tunable":9063,"packet":9064,"deterministic":9065,"weld":9066,"eleph":9067,"oscillator":9068,"telecommun":9069,"preventing":9070,"stigma":9071,"bootst":9072,"craw":9073,"kul":9074,"wage":9075,"##01":9076,"##inos":9077,"##eni":9078,"##emics":9079,"##osi":9080,"##abolic":9081,"enforc":9082,"spont":9083,"asd":9084,"##ensing":9085,"genomic":9086,"plag":9087,"cortical":9088,"##athi":9089,"meets":9090,"deficit":9091,"breaking":9092,"spectra":9093,"indexing":9094,"steps":9095,"definitions":9096,"heterogeneity":9097,"##conn":9098,"credibility":9099,"pretrained":9100,"vegetables":9101,"##2o3":9102,"menggun":9103,"caregiver":9104,"gastroint":9105,"divorce":9106,"poultry":9107,"kec":9108,"mec":9109,"nash":9110,"##rhe":9111,"##uo":9112,"##yar":9113,"##vo":9114,"##esthes":9115,"##urt":9116,"##tha":9117,"##uca":9118,"##plac":9119,"##enses":9120,"election":9121,"abund":9122,"##00m":9123,"##nett":9124,"carbonate":9125,"contrac":9126,"1980":9127,"1987":9128,"refuge":9129,"waveform":9130,"sinus":9131,"court":9132,"impaired":9133,"alzheimer":9134,"riemann":9135,"hamilton":9136,"stiffness":9137,"##lampsia":9138,"65":9139,"##life":9140,"##dl":9141,"##esa":9142,"##asional":9143,"ther":9144,"##ulse":9145,"##idential":9146,"##plete":9147,"acquir":9148,"interle":9149,"##anto":9150,"march":9151,"biases":9152,"assay":9153,"##awatan":9154,"repres":9155,"valid":9156,"silva":9157,"correlations":9158,"hierarchies":9159,"1988":9160,"bandwidth":9161,"radiotherapy":9162,"combinatorial":9163,"mitochondrial":9164,"teenagers":9165,"adherence":9166,"48":9167,"having":9168,"nig":9169,"tn":9170,"want":9171,"wong":9172,"##95":9173,"##onut":9174,"##usi":9175,"reef":9176,"propor":9177,"quatern":9178,"decline":9179,"nanom":9180,"##ophag":9181,"reported":9182,"pyr":9183,"priors":9184,"doppler":9185,"sulfate":9186,"existence":9187,"spontaneous":9188,"menggunakan":9189,"hs":9190,"koh":9191,"ore":9192,"sf":9193,"xvideo":9194,"##cation":9195,"##path":9196,"##uous":9197,"staphyl":9198,"alle":9199,"##astoma":9200,"##ichia":9201,"embod":9202,"signatures":9203,"samuel":9204,"##itian":9205,"##ullah":9206,"responsible":9207,"##regation":9208,"##structive":9209,"instruments":9210,"sheep":9211,"replication":9212,"cheese":9213,"claud":9214,"thorac":9215,"wikip":9216,"proximal":9217,"##dehyde":9218,"bootstrap":9219,"ded":9220,"dot":9221,"gestion":9222,"hiro":9223,"nom":9224,"tl":9225,"trim":9226,"##cnn":9227,"##rt":9228,"##rison":9229,"##etooth":9230,"##thy":9231,"acup":9232,"unf":9233,"scar":9234,"marie":9235,"evans":9236,"amir":9237,"microstructure":9238,"frames":9239,"encyclop":9240,"continual":9241,"brands":9242,"rotor":9243,"difficult":9244,"administrative":9245,"nervous":9246,"4th":9247,"duc":9248,"dating":9249,"mitch":9250,"roth":9251,"##ioc":9252,"##pin":9253,"##bed":9254,"##agai":9255,"provision":9256,"depos":9257,"##egan":9258,"automobile":9259,"buffer":9260,"encoun":9261,"innovations":9262,"##auf":9263,"audi":9264,"ferro":9265,"motors":9266,"extending":9267,"partner":9268,"nitrate":9269,"loaded":9270,"portable":9271,"halal":9272,"##learning":9273,"tablet":9274,"annealing":9275,"nilai":9276,"kindergarten":9277,"bog":9278,"bath":9279,"jor":9280,"lamin":9281,"rust":9282,"sax":9283,"##bur":9284,"##uy":9285,"ink":9286,"acl":9287,"aless":9288,"shin":9289,"mars":9290,"isa":9291,"mediation":9292,"mooc":9293,"decay":9294,"progression":9295,"salud":9296,"causality":9297,"federal":9298,"plasticity":9299,"nasal":9300,"motivational":9301,"bluetooth":9302,"coconut":9303,"constituents":9304,"ventilation":9305,"gastrointestinal":9306,"fen":9307,"gian":9308,"gdp":9309,"ryan":9310,"##wm":9311,"##elity":9312,"chal":9313,"##ados":9314,"string":9315,"intent":9316,"manaj":9317,"multinational":9318,"##awan":9319,"doing":9320,"solve":9321,"##tility":9322,"densely":9323,"homomorphic":9324,"translate":9325,"ivan":9326,"categories":9327,"##opathology":9328,"jes":9329,"joy":9330,"junction":9331,"rhyth":9332,"sov":9333,"sou":9334,"tamil":9335,"##mn":9336,"##amel":9337,"neph":9338,"extinction":9339,"genus":9340,"beverage":9341,"trad":9342,"##001":9343,"##ertz":9344,"##awi":9345,"mems":9346,"epig":9347,"offshore":9348,"maur":9349,"##structures":9350,"kiner":9351,"##hui":9352,"rhet":9353,"perfect":9354,"anaer":9355,"recognizing":9356,"conjug":9357,"lexicon":9358,"ischemic":9359,"eryth":9360,"70":9361,"bund":9362,"dub":9363,"filling":9364,"np":9365,"tik":9366,"wiley":9367,"##guna":9368,"##icle":9369,"antiv":9370,"##asm":9371,"##tick":9372,"##atient":9373,"meteor":9374,"atom":9375,"##ieu":9376,"##ptions":9377,"##pora":9378,"##ubes":9379,"##issa":9380,"publications":9381,"volley":9382,"norms":9383,"hospitals":9384,"berbasis":9385,"##inkler":9386,"regularity":9387,"##orphic":9388,"narrow":9389,"tibet":9390,"33":9391,"fle":9392,"garc":9393,"pitch":9394,"push":9395,"##alis":9396,"##urface":9397,"strip":9398,"##agan":9399,"reactor":9400,"##imming":9401,"existing":9402,"recre":9403,"transgen":9404,"opt":9405,"##titude":9406,"##inescence":9407,"##arta":9408,"##anner":9409,"crude":9410,"##ommod":9411,"irreg":9412,"##rophys":9413,"documentation":9414,"illust":9415,"antibiotics":9416,"alexand":9417,"boron":9418,"psic":9419,"dilated":9420,"ssd":9421,"hydrogels":9422,"perovskite":9423,"cycles":9424,"cz":9425,"jess":9426,"nob":9427,"pca":9428,"ying":9429,"##eer":9430,"##mitt":9431,"spike":9432,"sugg":9433,"seven":9434,"cooking":9435,"preec":9436,"insom":9437,"##hani":9438,"##omyces":9439,"kinase":9440,"vulnerabilities":9441,"necess":9442,"biomarker":9443,"sparsity":9444,"spherical":9445,"republic":9446,"wikipedia":9447,"cir":9448,"upl":9449,"vox":9450,"zno":9451,"##valu":9452,"congen":9453,"##adium":9454,"exhib":9455,"close":9456,"ads":9457,"deepf":9458,"weights":9459,"newton":9460,"grasp":9461,"hydrochlor":9462,"particulate":9463,"expand":9464,"tumors":9465,"livelihood":9466,"focusing":9467,"ensembles":9468,"osm":9469,"biodegrad":9470,"expectation":9471,"cucum":9472,"antecedents":9473,"kinerja":9474,"46":9475,"prad":9476,"qos":9477,"rash":9478,"##xy":9479,"##wer":9480,"##tist":9481,"inorganic":9482,"##rah":9483,"##rav":9484,"##raj":9485,"##imetric":9486,"dipl":9487,"shallow":9488,"cox":9489,"amin":9490,"##sey":9491,"weap":9492,"##nea":9493,"crash":9494,"speak":9495,"economies":9496,"##pose":9497,"campus":9498,"empire":9499,"connecting":9500,"responsive":9501,"emergent":9502,"holistic":9503,"inequal":9504,"shaped":9505,"placebo":9506,"glycol":9507,"iraq":9508,"backpropagation":9509,"apoptosis":9510,"dup":9511,"hone":9512,"hinton":9513,"jane":9514,"mish":9515,"nand":9516,"nike":9517,"##icz":9518,"##acles":9519,"##raine":9520,"rejection":9521,"##umi":9522,"reser":9523,"##phys":9524,"metas":9525,"scope":9526,"infarc":9527,"##orship":9528,"extractive":9529,"journey":9530,"##ethylene":9531,"opening":9532,"fitting":9533,"pharmacological":9534,"arterial":9535,"lifelong":9536,"superconduc":9537,"preeclampsia":9538,"55":9539,"caff":9540,"fox":9541,"iod":9542,"ibrahim":9543,"lars":9544,"##bf":9545,"##ems":9546,"##amm":9547,"como":9548,"spp":9549,"covari":9550,"##eger":9551,"carol":9552,"##oks":9553,"##ropol":9554,"##brity":9555,"peak":9556,"radial":9557,"hydrol":9558,"airport":9559,"toolkit":9560,"guideline":9561,"willing":9562,"##ogeneous":9563,"macroph":9564,"nitric":9565,"##iosity":9566,"hepatitis":9567,"surviv":9568,"communicate":9569,"produk":9570,"##tzmann":9571,"minority":9572,"##aryngeal":9573,"##osomal":9574,"encyclopedia":9575,"anaerobic":9576,"pure":9577,"soph":9578,"variants":9579,"zones":9580,"##lings":9581,"##racy":9582,"##bank":9583,"##key":9584,"##fast":9585,"##jud":9586,"stay":9587,"##athic":9588,"persons":9589,"vijay":9590,"visually":9591,"memories":9592,"define":9593,"##oringa":9594,"fibro":9595,"stories":9596,"keyp":9597,"fisher":9598,"##meas":9599,"investors":9600,"breastfe":9601,"##olingu":9602,"roger":9603,"reversible":9604,"volleyball":9605,"hm":9606,"pon":9607,"rt":9608,"rav":9609,"##rang":9610,"##bel":9611,"##tera":9612,"##imi":9613,"##imiento":9614,"distinct":9615,"suz":9616,"metad":9617,"percent":9618,"atrial":9619,"##ivity":9620,"##ively":9621,"coated":9622,"plain":9623,"##enced":9624,"##acea":9625,"whey":9626,"insulator":9627,"ethylene":9628,"centre":9629,"cream":9630,"sharp":9631,"player":9632,"viruses":9633,"axial":9634,"keseh":9635,"controllable":9636,"drawing":9637,"harvard":9638,"wid":9639,"##list":9640,"##93":9641,"##bean":9642,"##gy":9643,"##hm":9644,"##yo":9645,"##tional":9646,"##esi":9647,"##etta":9648,"##aco":9649,"##ilia":9650,"##odies":9651,"reposit":9652,"##uddin":9653,"pras":9654,"also":9655,"arn":9656,"strugg":9657,"trav":9658,"superior":9659,"brit":9660,"##ymal":9661,"servo":9662,"##matics":9663,"airborne":9664,"distributional":9665,"corpora":9666,"reflex":9667,"competencies":9668,"choices":9669,"quadratic":9670,"boltzmann":9671,"rheum":9672,"descriptors":9673,"disturbance":9674,"kenneth":9675,"pascal":9676,"##roleum":9677,"http":9678,"fd":9679,"gary":9680,"kand":9681,"kai":9682,"lup":9683,"packing":9684,"wol":9685,"##bes":9686,"##fly":9687,"##information":9688,"##icus":9689,"##opes":9690,"excess":9691,"true":9692,"coarse":9693,"graft":9694,"move":9695,"patric":9696,"posture":9697,"liquidity":9698,"sanitation":9699,"specialist":9700,"authority":9701,"messages":9702,"komun":9703,"aromath":9704,"mergers":9705,"sgd":9706,"uganda":9707,"descriptor":9708,"##omonas":9709,"furnace":9710,"incomplete":9711,"reconfigurable":9712,"grasping":9713,"harnessing":9714,"manajemen":9715,"56":9716,"arim":9717,"dd":9718,"gay":9719,"kos":9720,"nw":9721,"wax":9722,"width":9723,"yo":9724,"##dal":9725,"##wen":9726,"##tir":9727,"ofdm":9728,"##rov":9729,"##rade":9730,"chand":9731,"##forward":9732,"relay":9733,"accommod":9734,"invasion":9735,"softmax":9736,"artifacts":9737,"bark":9738,"august":9739,"manuel":9740,"bioinformatics":9741,"##acional":9742,"stephan":9743,"written":9744,"anatom":9745,"perturbations":9746,"pesticides":9747,"deprivation":9748,"##00mhz":9749,"kesehatan":9750,"01":9751,"caching":9752,"muk":9753,"pg":9754,"sick":9755,"triv":9756,"##08":9757,"##menting":9758,"##dynam":9759,"##je":9760,"##anet":9761,"chu":9762,"##phy":9763,"##enson":9764,"shang":9765,"##illo":9766,"meditation":9767,"cole":9768,"flipped":9769,"bright":9770,"##deep":9771,"afford":9772,"laplac":9773,"investigations":9774,"trafficking":9775,"1986":9776,"sunny":9777,"multicultural":9778,"osteopor":9779,"intersection":9780,"anomalies":9781,"ubiqu":9782,"##oskeleton":9783,"rescue":9784,"ecuador":9785,"aar":9786,"hold":9787,"jet":9788,"moringa":9789,"ron":9790,"##nat":9791,"##inant":9792,"cholesterol":9793,"ask":9794,"shield":9795,"##ryl":9796,"weighting":9797,"##axis":9798,"psychiatry":9799,"##escu":9800,"reduces":9801,"vulgar":9802,"conducting":9803,"participatory":9804,"##ocrine":9805,"mammal":9806,"coefficients":9807,"aromatic":9808,"addressing":9809,"supplementation":9810,"polynomial":9811,"actuator":9812,"brassica":9813,"consolidation":9814,"hyperbolic":9815,"cant":9816,"dal":9817,"mys":9818,"nl":9819,"zah":9820,"zirc":9821,"##iol":9822,"##iant":9823,"##ser":9824,"##izi":9825,"clark":9826,"##ifa":9827,"transc":9828,"multiview":9829,"##lying":9830,"assets":9831,"abilities":9832,"obstructive":9833,"adapting":9834,"xxxxx":9835,"##bound":9836,"reader":9837,"verb":9838,"penal":9839,"probe":9840,"biosynthesis":9841,"petroleum":9842,"##ijing":9843,"resilient":9844,"##puter":9845,"piec":9846,"masks":9847,"inputs":9848,"ingred":9849,"wavelength":9850,"sediments":9851,"echo":9852,"##otoxicity":9853,"concerns":9854,"demonstration":9855,"transistor":9856,"photocatalytic":9857,"##esthesia":9858,"insomnia":9859,"35":9860,"49":9861,"aortic":9862,"baker":9863,"larg":9864,"masc":9865,"nodes":9866,"##2p":9867,"##gang":9868,"##tium":9869,"##urus":9870,"##asy":9871,"forum":9872,"##iming":9873,"comport":9874,"club":9875,"als":9876,"alv":9877,"##ologist":9878,"phones":9879,"paran":9880,"amph":9881,"soyb":9882,"prognosis":9883,"##exual":9884,"zhong":9885,"mcd":9886,"expatri":9887,"walker":9888,"classrooms":9889,"classifying":9890,"livest":9891,"odor":9892,"orthodontic":9893,"occupancy":9894,"stationary":9895,"receiver":9896,"biomarkers":9897,"gifted":9898,"soybean":9899,"certain":9900,"rati":9901,"ward":9902,"##tw":9903,"##rys":9904,"##bin":9905,"##bil":9906,"##mesh":9907,"##igar":9908,"##umann":9909,"counc":9910,"islands":9911,"command":9912,"quick":9913,"escher":9914,"workforce":9915,"endomet":9916,"##ofem":9917,"blocks":9918,"ireland":9919,"##atherine":9920,"pelvic":9921,"##iliary":9922,"expressive":9923,"biofilm":9924,"deblurring":9925,"guarant":9926,"hack":9927,"ls":9928,"nos":9929,"others":9930,"raz":9931,"vae":9932,"##iative":9933,"##pn":9934,"##taining":9935,"##71":9936,"##inance":9937,"##stone":9938,"##strained":9939,"##osine":9940,"too":9941,"comments":9942,"##utan":9943,"##adic":9944,"energ":9945,"clock":9946,"shrim":9947,"##ancia":9948,"coil":9949,"##antes":9950,"lei":9951,"quarter":9952,"##ergic":9953,"blog":9954,"deception":9955,"edible":9956,"microst":9957,"microorgan":9958,"psychotherapy":9959,"##aja":9960,"antigen":9961,"epoxy":9962,"##arga":9963,"artem":9964,"telem":9965,"sept":9966,"bernard":9967,"turkish":9968,"##u0000u0000u0000u0000":9969,"dragon":9970,"repeat":9971,"peptide":9972,"shifting":9973,"restricted":9974,"barbara":9975,"planned":9976,"shrink":9977,"laplacian":9978,"bd":9979,"give":9980,"holog":9981,"len":9982,"xi":9983,"##pon":9984,"##west":9985,"##acillus":9986,"##idium":9987,"##amous":9988,"reach":9989,"##oso":9990,"##iae":9991,"enamel":9992,"unifying":9993,"phrases":9994,"##haw":9995,"bioch":9996,"linux":9997,"singing":9998,"grown":9999,"repeti":10000,"hydrocarb":10001,"1109":10002,"xnx":10003,"entertain":10004,"##appa":10005,"thompson":10006,"resonator":10007,"songs":10008,"discriminant":10009,"##plasia":10010,"dermatitis":10011,"easy":10012,"kingdom":10013,"mountain":10014,"anisotropic":10015,"celebrity":10016,"epithelial":10017,"breastfeeding":10018,"bm":10019,"gill":10020,"hai":10021,"kay":10022,"kant":10023,"##ck":10024,"##lie":10025,"##nx":10026,"##sim":10027,"##kl":10028,"##gmail":10029,"##group":10030,"##fram":10031,"conting":10032,"come":10033,"intestinal":10034,"genre":10035,"multiagent":10036,"##endra":10037,"amy":10038,"amorph":10039,"##velopment":10040,"bladder":10041,"##rones":10042,"##annel":10043,"accidents":10044,"localized":10045,"transforming":10046,"costa":10047,"neurological":10048,"greenhouse":10049,"behaviours":10050,"promotes":10051,"conflicts":10052,"##ceptions":10053,"phenomenon":10054,"luxury":10055,"irregular":10056,"inequalities":10057,"90":10058,"later":10059,"mw":10060,"mud":10061,"rape":10062,"sacc":10063,"##mel":10064,"##det":10065,"##vol":10066,"##atonin":10067,"##isia":10068,"##retion":10069,"##thermal":10070,"neil":10071,"bass":10072,"##aver":10073,"agar":10074,"subm":10075,"1982":10076,"naive":10077,"stimuli":10078,"nasa":10079,"closure":10080,"granite":10081,"romantic":10082,"produce":10083,"rolling":10084,"lubric":10085,"biogas":10086,"proceso":10087,"sosial":10088,"bottleneck":10089,"mitchell":10090,"garcia":10091,"80":10092,"aper":10093,"glu":10094,"sid":10095,"##wick":10096,"##onate":10097,"inner":10098,"##icion":10099,"##ulas":10100,"##agi":10101,"##agic":10102,"##chen":10103,"##thing":10104,"##umen":10105,"##ionic":10106,"enf":10107,"spam":10108,"sung":10109,"##alli":10110,"issn":10111,"feel":10112,"prev":10113,"suppress":10114,"challenging":10115,"entail":10116,"hydroph":10117,"##zzle":10118,"retriev":10119,"##erald":10120,"broiler":10121,"competitiveness":10122,"##baum":10123,"rocket":10124,"absol":10125,"##enchymal":10126,"sorting":10127,"catalytic":10128,"##going":10129,"gonz":10130,"scholars":10131,"##labeled":10132,"aprend":10133,"infarction":10134,"each":10135,"erik":10136,"fc":10137,"gol":10138,"lit":10139,"rut":10140,"##62":10141,"##uer":10142,"##hd":10143,"##72":10144,"##arrol":10145,"metropol":10146,"bee":10147,"quin":10148,"wein":10149,"surveys":10150,"urine":10151,"photon":10152,"zhen":10153,"multiplex":10154,"iris":10155,"inher":10156,"inhibit":10157,"dissol":10158,"teamwork":10159,"giant":10160,"frontal":10161,"georg":10162,"venture":10163,"ceo":10164,"##ycled":10165,"pedagogical":10166,"schmidt":10167,"abundance":10168,"escherichia":10169,"ions":10170,"##eas":10171,"##hon":10172,"##vs":10173,"##qing":10174,"##stra":10175,"##umping":10176,"##unk":10177,"##adeh":10178,"##apia":10179,"##eps":10180,"methodologies":10181,"regret":10182,"machin":10183,"##erapan":10184,"joints":10185,"overload":10186,"salic":10187,"valued":10188,"terrain":10189,"silk":10190,"americans":10191,"feedforward":10192,"pengguna":10193,"county":10194,"melatonin":10195,"egyp":10196,"roads":10197,"mutations":10198,"dissoci":10199,"##obacteria":10200,"##uscular":10201,"campbell":10202,"equivalent":10203,"auction":10204,"mangan":10205,"psor":10206,"##lar":10207,"##neg":10208,"##vest":10209,"##esion":10210,"##esting":10211,"##aris":10212,"antif":10213,"clut":10214,"recycled":10215,"graf":10216,"week":10217,"##uez":10218,"dimit":10219,"polyethylene":10220,"expanding":10221,"vocal":10222,"tsun":10223,"half":10224,"several":10225,"mandibular":10226,"sistema":10227,"rcnn":10228,"lecture":10229,"transducer":10230,"livestock":10231,"bry":10232,"cup":10233,"dyn":10234,"hit":10235,"nemat":10236,"pang":10237,"quran":10238,"send":10239,"tern":10240,"##oi":10241,"##1a":10242,"##68":10243,"##f2":10244,"##orm":10245,"##aten":10246,"##rocess":10247,"##acous":10248,"##empl":10249,"unique":10250,"seiz":10251,"emily":10252,"elite":10253,"abortion":10254,"register":10255,"newsp":10256,"consult":10257,"overcoming":10258,"roots":10259,"swot":10260,"facts":10261,"catast":10262,"penis":10263,"pyrolysis":10264,"##rophot":10265,"fisheries":10266,"pharmacology":10267,"motivations":10268,"pictures":10269,"punishment":10270,"sebagai":10271,"sphere":10272,"tobacco":10273,"stainless":10274,"colombia":10275,"aromatherapy":10276,"dow":10277,"lisa":10278,"ronald":10279,"##pat":10280,"##uro":10281,"##sal":10282,"##fd":10283,"##alo":10284,"##aru":10285,"##rotor":10286,"fort":10287,"##static":10288,"stom":10289,"##osomes":10290,"##tingu":10291,"adip":10292,"##quency":10293,"contour":10294,"season":10295,"##estrial":10296,"managment":10297,"sof":10298,"distancing":10299,"branding":10300,"prognostic":10301,"##inski":10302,"norway":10303,"canal":10304,"airline":10305,"analyze":10306,"summer":10307,"##ould":10308,"essays":10309,"##thetics":10310,"switched":10311,"atmosphere":10312,"aesthetic":10313,"flavon":10314,"##olithic":10315,"overlapping":10316,"nafld":10317,"israel":10318,"allevi":10319,"acupuncture":10320,"entertainment":10321,"cue":10322,"dre":10323,"gum":10324,"horn":10325,"save":10326,"##yang":10327,"##iltration":10328,"##ersen":10329,"##atile":10330,"##plication":10331,"unlabeled":10332,"arb":10333,"peril":10334,"researchers":10335,"performances":10336,"carib":10337,"##rivast":10338,"tempor":10339,"comparisons":10340,"buff":10341,"format":10342,"associative":10343,"critique":10344,"landsl":10345,"southeast":10346,"grounding":10347,"password":10348,"stereotypes":10349,"glasses":10350,"disadvantage":10351,"pragmatics":10352,"bengio":10353,"palliative":10354,"equivalence":10355,"bloom":10356,"klein":10357,"fasting":10358,"gent":10359,"hang":10360,"hollow":10361,"ionic":10362,"mhealth":10363,"oph":10364,"pond":10365,"pyl":10366,"xl":10367,"##loc":10368,"##rine":10369,"##bd":10370,"##yah":10371,"##onial":10372,"##icill":10373,"##aton":10374,"##iser":10375,"##acl":10376,"rek":10377,"##owing":10378,"supr":10379,"scand":10380,"##enders":10381,"amount":10382,"realism":10383,"reddy":10384,"miner":10385,"bread":10386,"combat":10387,"steering":10388,"oli":10389,"fluency":10390,"ordering":10391,"quantity":10392,"watson":10393,"pakist":10394,"hoff":10395,"tissues":10396,"absorber":10397,"citations":10398,"##osterone":10399,"counselling":10400,"microfluidic":10401,"himal":10402,"fingerprinting":10403,"fossil":10404,"willingness":10405,"metadata":10406,"vulgaris":10407,"aprendiz":10408,"og":10409,"sys":10410,"ya":10411,"##bee":10412,"##ription":10413,"##apa":10414,"spark":10415,"shelf":10416,"leave":10417,"##encias":10418,"assim":10419,"meal":10420,"robin":10421,"consomm":10422,"##raphy":10423,"functioning":10424,"##isson":10425,"deliver":10426,"##aired":10427,"correct":10428,"pathogenesis":10429,"##ethane":10430,"##coma":10431,"polyg":10432,"transmit":10433,"converters":10434,"informasi":10435,"determinant":10436,"differentially":10437,"pharmacokine":10438,"observed":10439,"muscles":10440,"constructiv":10441,"neuropsych":10442,"##usaha":10443,"couple":10444,"malignant":10445,"irradiation":10446,"pursuit":10447,"enviro":10448,"born":10449,"fang":10450,"gd":10451,"nested":10452,"pam":10453,"sae":10454,"yosh":10455,"##eve":10456,"##06":10457,"##tization":10458,"##inging":10459,"##road":10460,"##etz":10461,"##amoto":10462,"##than":10463,"##occo":10464,"##ably":10465,"##imen":10466,"##opo":10467,"shaw":10468,"beijing":10469,"amel":10470,"expertise":10471,"canon":10472,"##ittee":10473,"##holder":10474,"kernels":10475,"june":10476,"keper":10477,"##ectively":10478,"francisco":10479,"condens":10480,"uterine":10481,"bureauc":10482,"locomotion":10483,"arima":10484,"42":10485,"bour":10486,"donald":10487,"hull":10488,"lati":10489,"lut":10490,"luk":10491,"nico":10492,"wool":10493,"yellow":10494,"##gram":10495,"##ville":10496,"##asil":10497,"##igence":10498,"tough":10499,"##uns":10500,"algin":10501,"dias":10502,"transpor":10503,"plur":10504,"begin":10505,"performing":10506,"##rontal":10507,"##anni":10508,"crust":10509,"##2018":10510,"geology":10511,"calib":10512,"enhances":10513,"immed":10514,"lawrence":10515,"1983":10516,"farmer":10517,"watch":10518,"##rupt":10519,"choi":10520,"membranes":10521,"rodrig":10522,"fragmentation":10523,"criticism":10524,"fidelity":10525,"nanotubes":10526,"lunar":10527,"floating":10528,"bent":10529,"bci":10530,"ew":10531,"kil":10532,"lanc":10533,"xen":10534,"##cas":10535,"##05":10536,"##fu":10537,"##onation":10538,"##onacci":10539,"##arity":10540,"##rose":10541,"##elman":10542,"##oderma":10543,"##rition":10544,"chic":10545,"deal":10546,"exha":10547,"alt":10548,"rectif":10549,"ardu":10550,"manus":10551,"##onomi":10552,"predator":10553,"##onso":10554,"geoff":10555,"radiology":10556,"engineers":10557,"slope":10558,"##class":10559,"zhi":10560,"oliver":10561,"teleph":10562,"faith":10563,"calculations":10564,"biased":10565,"nutrients":10566,"germination":10567,"bonds":10568,"##rotein":10569,"purposes":10570,"premature":10571,"alberto":10572,"items":10573,"gregory":10574,"asperg":10575,"sebastian":10576,"##rhea":10577,"shrimp":10578,"##rivastava":10579,"cai":10580,"kitch":10581,"lok":10582,"lcd":10583,"##yd":10584,"these":10585,"##olet":10586,"theat":10587,"##ulatory":10588,"stew":10589,"##ratives":10590,"##ocyt":10591,"##atite":10592,"##izable":10593,"spik":10594,"aspir":10595,"appr":10596,"arrays":10597,"perin":10598,"emg":10599,"emitter":10600,"grating":10601,"predicts":10602,"evaluations":10603,"explore":10604,"journalism":10605,"patel":10606,"potenti":10607,"polyphen":10608,"telesc":10609,"karen":10610,"fractal":10611,"wright":10612,"stimulus":10613,"mesenchymal":10614,"pneumatic":10615,"##rification":10616,"athlete":10617,"eyes":10618,"louis":10619,"##forestation":10620,"metallic":10621,"cylind":10622,"municipal":10623,"democratic":10624,"representing":10625,"congenital":10626,"covariance":10627,"05":10628,"astr":10629,"dari":10630,"foll":10631,"hig":10632,"ik":10633,"kub":10634,"ld":10635,"lal":10636,"lud":10637,"maz":10638,"tables":10639,"##ll":10640,"##74":10641,"##tie":10642,"##strom":10643,"##ulative":10644,"##igan":10645,"deaf":10646,"pren":10647,"truck":10648,"networked":10649,"intermitt":10650,"contents":10651,"empres":10652,"plural":10653,"leone":10654,"socialization":10655,"##tru":10656,"wealth":10657,"weiss":10658,"producing":10659,"supers":10660,"bruce":10661,"##ichen":10662,"##anker":10663,"##arsh":10664,"canine":10665,"transferable":10666,"fermented":10667,"symmetry":10668,"painting":10669,"probing":10670,"taxi":10671,"molecules":10672,"gaps":10673,"debate":10674,"since":10675,"receptors":10676,"chlorophyll":10677,"proximity":10678,"sugarc":10679,"anomalous":10680,"voluntary":10681,"helicopter":10682,"triggered":10683,"staphylococcus":10684,"epigene":10685,"komunikasi":10686,"shrinkage":10687,"##arrollo":10688,"02":10689,"ara":10690,"dag":10691,"jag":10692,"jim":10693,"lak":10694,"noc":10695,"niv":10696,"naj":10697,"sized":10698,"tung":10699,"taste":10700,"##oic":10701,"##bots":10702,"chak":10703,"##imetry":10704,"orch":10705,"enroll":10706,"acne":10707,"disamb":10708,"effort":10709,"shel":10710,"arist":10711,"scores":10712,"prejud":10713,"##oked":10714,"gui":10715,"realtime":10716,"##issance":10717,"solv":10718,"endors":10719,"endoth":10720,"upon":10721,"spectrophot":10722,"penel":10723,"instant":10724,"linkage":10725,"dyslex":10726,"disasters":10727,"analyse":10728,"ideology":10729,"hunting":10730,"recombinant":10731,"unconstrained":10732,"piezoelectric":10733,"cucumber":10734,"amorphous":10735,"arduino":10736,"99":10737,"bun":10738,"cows":10739,"eh":10740,"hog":10741,"lad":10742,"lte":10743,"nn":10744,"tight":10745,"vortex":10746,"##tp":10747,"##mium":10748,"##xia":10749,"##anian":10750,"##icated":10751,"##entes":10752,"##stream":10753,"mart":10754,"##verbal":10755,"committee":10756,"agility":10757,"variety":10758,"implication":10759,"##other":10760,"airbn":10761,"keu":10762,"microscopic":10763,"maintain":10764,"certification":10765,"sanitiz":10766,"texas":10767,"splitting":10768,"criterion":10769,"ventricular":10770,"mango":10771,"mitigating":10772,"simplified":10773,"ratings":10774,"diagnostics":10775,"dilemma":10776,"auxiliary":10777,"unpaired":10778,"aperture":10779,"egyptian":10780,"airbnb":10781,"bes":10782,"cort":10783,"lis":10784,"riv":10785,"tg":10786,"ud":10787,"vene":10788,"xie":10789,"zi":10790,"##pes":10791,"##hat":10792,"##oglu":10793,"##imo":10794,"##utsch":10795,"##udge":10796,"##obacillus":10797,"interd":10798,"meter":10799,"metform":10800,"##illi":10801,"hymen":10802,"machining":10803,"##ahl":10804,"designed":10805,"idi":10806,"glove":10807,"##tify":10808,"monop":10809,"crise":10810,"philippe":10811,"supplier":10812,"catch":10813,"penerapan":10814,"belong":10815,"hetero":10816,"vitam":10817,"luo":10818,"rosen":10819,"pcb":10820,"hepatic":10821,"expected":10822,"##obacterium":10823,"mastering":10824,"mnist":10825,"acetyl":10826,"jackson":10827,"influencer":10828,"introducing":10829,"narcissism":10830,"basketball":10831,"entailment":10832,"ej":10833,"foster":10834,"lending":10835,"rans":10836,"sund":10837,"ung":10838,"wai":10839,"##eon":10840,"##bp":10841,"##idor":10842,"replay":10843,"##ried":10844,"##ucle":10845,"##plane":10846,"nex":10847,"biotechnology":10848,"asses":10849,"assum":10850,"##ugu":10851,"preprint":10852,"geop":10853,"personalization":10854,"offset":10855,"##link":10856,"contraction":10857,"anime":10858,"bounded":10859,"org10":10860,"crown":10861,"mindset":10862,"alternatives":10863,"cycling":10864,"garbage":10865,"beamforming":10866,"missile":10867,"##ourced":10868,"mandarin":10869,"##rhiz":10870,"revealed":10871,"breakdown":10872,"pavement":10873,"rebec":10874,"seawater":10875,"council":10876,"intermittent":10877,"sugarcane":10878,"cep":10879,"cao":10880,"danger":10881,"jp":10882,"nr":10883,"would":10884,"##cel":10885,"##jin":10886,"##atter":10887,"conduction":10888,"##imaging":10889,"##plasty":10890,"##apes":10891,"##opia":10892,"spending":10893,"ade":10894,"##anta":10895,"##ibilities":10896,"assistive":10897,"moon":10898,"pointer":10899,"underground":10900,"##awat":10901,"cruc":10902,"##ajo":10903,"grace":10904,"roof":10905,"fluids":10906,"magic":10907,"uncertainties":10908,"siw":10909,"providers":10910,"lesson":10911,"essentials":10912,"dosage":10913,"prolif":10914,"immigration":10915,"html":10916,"elephant":10917,"embodied":10918,"jesus":10919,"dissolved":10920,"keperawatan":10921,"64":10922,"978":10923,"aure":10924,"gly":10925,"gnn":10926,"lov":10927,"lett":10928,"lactic":10929,"sas":10930,"##oen":10931,"##flu":10932,"##array":10933,"##iga":10934,"##ocy":10935,"##oven":10936,"exoskeleton":10937,"disrup":10938,"alarm":10939,"##obil":10940,"unet":10941,"##actors":10942,"stretch":10943,"hein":10944,"##arya":10945,"infl":10946,"prey":10947,"flower":10948,"nonc":10949,"experts":10950,"serge":10951,"##abilidad":10952,"investing":10953,"politic":10954,"shortest":10955,"dependencies":10956,"strengthening":10957,"nigerian":10958,"##centric":10959,"hasan":10960,"happy":10961,"nucleus":10962,"startup":10963,"cbt":10964,"iranian":10965,"obstacles":10966,"manifolds":10967,"divergence":10968,"bodies":10969,"biometrics":10970,"ammonium":10971,"terrestrial":10972,"plaque":10973,"meningkat":10974,"discipline":10975,"360":10976,"cem":10977,"fav":10978,"gw":10979,"hess":10980,"iq":10981,"litter":10982,"mech":10983,"ou":10984,"vad":10985,"##83":10986,"##63":10987,"##wi":10988,"ankle":10989,"##rost":10990,"##elastic":10991,"forg":10992,"##idirectional":10993,"##ames":10994,"##iguation":10995,"##ogens":10996,"##thood":10997,"##under":10998,"restr":10999,"spac":11000,"aliment":11001,"##akter":11002,"peroxide":11003,"scop":11004,"margar":11005,"elic":11006,"cortic":11007,"abb":11008,"slav":11009,"measured":11010,"inferring":11011,"hypox":11012,"keeping":11013,"aerobic":11014,"passage":11015,"treating":11016,"manipulators":11017,"strains":11018,"prak":11019,"redundancy":11020,"##processing":11021,"ambiguity":11022,"caffe":11023,"penelitian":11024,"metformin":11025,"bible":11026,"cis":11027,"ding":11028,"dick":11029,"ful":11030,"jas":11031,"jason":11032,"sell":11033,"xing":11034,"xix":11035,"##uity":11036,"##enty":11037,"##olip":11038,"##odal":11039,"cone":11040,"actin":11041,"##vian":11042,"##akat":11043,"impulse":11044,"##rying":11045,"relief":11046,"infected":11047,"##uber":11048,"synerg":11049,"protect":11050,"econometric":11051,"lost":11052,"drink":11053,"morb":11054,"ready":11055,"carbox":11056,"steve":11057,"urbanization":11058,"##ksi":11059,"primer":11060,"added":11061,"##hiro":11062,"keith":11063,"conversations":11064,"##u0004":11065,"##ranial":11066,"coco":11067,"inverted":11068,"philosoph":11069,"microfinance":11070,"insects":11071,"mobilenet":11072,"handwriting":11073,"attraction":11074,"nicholas":11075,"##aturated":11076,"microgrid":11077,"elimination":11078,"projections":11079,"bovine":11080,"nelson":11081,"arrangement":11082,"ratios":11083,"hon":11084,"mail":11085,"moll":11086,"tt":11087,"tio2":11088,"wit":11089,"##cg":11090,"##rish":11091,"##bt":11092,"##bow":11093,"##ulting":11094,"##agin":11095,"##umer":11096,"spar":11097,"##achi":11098,"basal":11099,"shan":11100,"marsh":11101,"bior":11102,"selecting":11103,"carp":11104,"carn":11105,"internasional":11106,"crf":11107,"##ographs":11108,"barr":11109,"spatially":11110,"icu":11111,"colorization":11112,"provider":11113,"excell":11114,"##itzer":11115,"unders":11116,"cipher":11117,"clothes":11118,"##imbing":11119,"physicochemical":11120,"preparedness":11121,"ammonia":11122,"hpv":11123,"festiv":11124,"lumbar":11125,"enrollment":11126,"fec":11127,"fate":11128,"mong":11129,"qr":11130,"wake":11131,"##lass":11132,"##pot":11133,"##n1":11134,"##alism":11135,"chol":11136,"##ocent":11137,"##opa":11138,"##aches":11139,"##ensin":11140,"micron":11141,"smoke":11142,"##ribution":11143,"underlying":11144,"solvent":11145,"salv":11146,"drilling":11147,"affinity":11148,"##edding":11149,"estud":11150,"golden":11151,"centrality":11152,"reflections":11153,"meaningful":11154,"sprinkler":11155,"ruth":11156,"annotated":11157,"earthquakes":11158,"situational":11159,"nmr":11160,"hormones":11161,"vaginal":11162,"cnc":11163,"dutch":11164,"bambo":11165,"plasmonic":11166,"stuart":11167,"thoracic":11168,"britain":11169,"absolute":11170,"perinatal":11171,"keuangan":11172,"03":11173,"abl":11174,"cys":11175,"cip":11176,"hour":11177,"haj":11178,"nish":11179,"overs":11180,"raf":11181,"##sel":11182,"##mu":11183,"##vas":11184,"##abe":11185,"##izz":11186,"dispar":11187,"altru":11188,"##entina":11189,"##iani":11190,"soy":11191,"carbo":11192,"##okes":11193,"##inda":11194,"decou":11195,"optimize":11196,"memor":11197,"peels":11198,"delhi":11199,"leads":11200,"##ethanol":11201,"turning":11202,"circle":11203,"##embangan":11204,"legacy":11205,"hortic":11206,"prosocial":11207,"pso":11208,"mosqu":11209,"tensorflow":11210,"coatings":11211,"##olytic":11212,"telecom":11213,"##zhou":11214,"adhesion":11215,"scratch":11216,"neighbour":11217,"spectrometry":11218,"adulthood":11219,"commodity":11220,"rebecca":11221,"aim":11222,"dans":11223,"nether":11224,"punc":11225,"rus":11226,"tors":11227,"yus":11228,"##np":11229,"##dar":11230,"##3c":11231,"##ogel":11232,"##inea":11233,"##angi":11234,"actual":11235,"unstructured":11236,"##echt":11237,"impression":11238,"##alling":11239,"indica":11240,"amp":11241,"micror":11242,"##iki":11243,"##erner":11244,"brush":11245,"##bris":11246,"percep":11247,"##boost":11248,"facing":11249,"novelty":11250,"polyc":11251,"##ghz":11252,"standardization":11253,"capacitance":11254,"antennas":11255,"ahp":11256,"pollut":11257,"plasmon":11258,"separable":11259,"crystals":11260,"murray":11261,"russell":11262,"mexican":11263,"metamaterial":11264,"repeated":11265,"guru":11266,"polysacchar":11267,"turbulence":11268,"johannes":11269,"honeyp":11270,"repository":11271,"september":11272,"caribbean":11273,"pakistani":11274,"disambiguation":11275,"proliferation":11276,"bots":11277,"fold":11278,"kaj":11279,"lass":11280,"lah":11281,"mason":11282,"xue":11283,"##my":11284,"##feng":11285,"##inet":11286,"##anas":11287,"##acia":11288,"##ulates":11289,"##idin":11290,"##ager":11291,"##osexual":11292,"chess":11293,"chair":11294,"tok":11295,"##atika":11296,"compacting":11297,"alger":11298,"strand":11299,"##ista":11300,"emo":11301,"##entin":11302,"##timacy":11303,"agu":11304,"surrog":11305,"##arians":11306,"knn":11307,"##away":11308,"protected":11309,"discontin":11310,"##reatment":11311,"integer":11312,"gru":11313,"calidad":11314,"ups":11315,"##oides":11316,"auditor":11317,"angela":11318,"walter":11319,"antibodies":11320,"demands":11321,"navig":11322,"wrong":11323,"symptom":11324,"abscess":11325,"michelle":11326,"##olytica":11327,"coordinate":11328,"puberty":11329,"enrichment":11330,"laparoscopic":11331,"bruno":11332,"kualitas":11333,"plagiar":11334,"penggunaan":11335,"psoriasis":11336,"bamboo":11337,"5th":11338,"eight":11339,"hern":11340,"nations":11341,"##oin":11342,"##cp":11343,"##iances":11344,"##89":11345,"##eties":11346,"##psych":11347,"##bul":11348,"##inas":11349,"##enets":11350,"##enstein":11351,"##oran":11352,"##icin":11353,"##aculture":11354,"##strak":11355,"##ospor":11356,"##osecond":11357,"deutsch":11358,"##ovis":11359,"adams":11360,"##phere":11361,"efflu":11362,"studi":11363,"interconn":11364,"quaran":11365,"simil":11366,"nonverbal":11367,"##evolution":11368,"characterisation":11369,"temperatures":11370,"polyur":11371,"tradeoff":11372,"partition":11373,"annotations":11374,"##yrene":11375,"broadcast":11376,"websites":11377,"divid":11378,"further":11379,"##edicine":11380,"melanoma":11381,"pesticide":11382,"immersive":11383,"epistem":11384,"episodic":11385,"##ofemoral":11386,"meningkatkan":11387,"7th":11388,"dod":11389,"eis":11390,"eur":11391,"ign":11392,"kp":11393,"kri":11394,"lys":11395,"tier":11396,"##rass":11397,"##65":11398,"##gets":11399,"##feld":11400,"##ecraft":11401,"##osus":11402,"##uto":11403,"##apan":11404,"trick":11405,"distingu":11406,"phases":11407,"atrous":11408,"amid":11409,"roberts":11410,"nanow":11411,"worldwide":11412,"silic":11413,"mycor":11414,"circum":11415,"1111":11416,"helping":11417,"keb":11418,"hemorrh":11419,"required":11420,"alternating":11421,"tanah":11422,"scholarly":11423,"##otid":11424,"masked":11425,"1002":11426,"restriction":11427,"fluorescent":11428,"controllers":11429,"letters":11430,"aplikasi":11431,"soluble":11432,"##parametric":11433,"friendship":11434,"disentangled":11435,"##kolah":11436,"appropriate":11437,"accommodation":11438,"osteoporosis":11439,"quarterly":11440,"enferm":11441,"alginate":11442,"43":11443,"averaging":11444,"dock":11445,"gulf":11446,"jie":11447,"mist":11448,"mack":11449,"sacchar":11450,"u00":11451,"##local":11452,"##eets":11453,"##mia":11454,"##vd":11455,"##vasive":11456,"##erge":11457,"##etah":11458,"##etching":11459,"chron":11460,"##atia":11461,"##api":11462,"admission":11463,"meet":11464,"regime":11465,"blank":11466,"flour":11467,"varieties":11468,"patell":11469,"default":11470,"grids":11471,"##auge":11472,"audience":11473,"steady":11474,"paint":11475,"maxillary":11476,"syndrom":11477,"kinematics":11478,"magnitude":11479,"acquisitions":11480,"chatbots":11481,"##eholders":11482,"forensics":11483,"santos":11484,"perturbation":11485,"##oblastoma":11486,"decrease":11487,"prefrontal":11488,"together":11489,"microstrip":11490,"manganese":11491,"gf":11492,"hide":11493,"nail":11494,"rak":11495,"tone":11496,"xvideos":11497,"##pear":11498,"##fect":11499,"##atz":11500,"##atosis":11501,"##ecd":11502,"##rable":11503,"revision":11504,"##itha":11505,"ence":11506,"disab":11507,"asr":11508,"select":11509,"moore":11510,"robinson":11511,"discover":11512,"##oxacin":11513,"grant":11514,"##clr":11515,"##rows":11516,"word2vec":11517,"fibonacci":11518,"##auer":11519,"magne":11520,"aggressive":11521,"molecule":11522,"##anglement":11523,"payments":11524,"akunt":11525,"odont":11526,"miscon":11527,"shipping":11528,"mrna":11529,"amplification":11530,"amplitude":11531,"cadmium":11532,"rewards":11533,"aesthetics":11534,"stakeholders":11535,"watershed":11536,"cassava":11537,"asymptotic":11538,"kitchen":11539,"prejudice":11540,"75":11541,"hell":11542,"oy":11543,"penc":11544,"vor":11545,"##cery":11546,"##tiles":11547,"##oman":11548,"retic":11549,"##atial":11550,"syst":11551,"arithm":11552,"contro":11553,"seal":11554,"leverage":11555,"mario":11556,"parabolic":11557,"desk":11558,"obtain":11559,"researches":11560,"humor":11561,"supercap":11562,"brach":11563,"insulation":11564,"notification":11565,"assessments":11566,"slag":11567,"##pected":11568,"operative":11569,"grades":11570,"settl":11571,"latest":11572,"panor":11573,"normalized":11574,"ego":11575,"narratives":11576,"rosa":11577,"1979":11578,"countermeas":11579,"phenomena":11580,"embryonic":11581,"cobalt":11582,"isotope":11583,"craig":11584,"canonical":11585,"aspergillus":11586,"98":11587,"euler":11588,"gp":11589,"ginger":11590,"mate":11591,"nt":11592,"pus":11593,"pore":11594,"pension":11595,"sind":11596,"tect":11597,"##aug":11598,"##pace":11599,"##bir":11600,"##1b":11601,"##holic":11602,"offer":11603,"##enta":11604,"deha":11605,"debris":11606,"enough":11607,"##acher":11608,"##ipe":11609,"beat":11610,"abu":11611,"humidity":11612,"##ront":11613,"grocery":11614,"##anny":11615,"incident":11616,"subgraph":11617,"guy":11618,"##2016":11619,"skeletal":11620,"geographical":11621,"##ankar":11622,"ethere":11623,"typology":11624,"thermodynamics":11625,"vera":11626,"##factory":11627,"induces":11628,"##bias":11629,"copd":11630,"platelet":11631,"taxation":11632,"frequent":11633,"procras":11634,"recording":11635,"preparing":11636,"##rawal":11637,"##hydro":11638,"traveling":11639,"juice":11640,"mimic":11641,"##omorphism":11642,"##odontics":11643,"physician":11644,"dasar":11645,"traceability":11646,"aplic":11647,"polynom":11648,"practitioners":11649,"aprendizaje":11650,"assimilation":11651,"immediate":11652,"patellofemoral":11653,"kra":11654,"pwm":11655,"tari":11656,"##bus":11657,"##mat":11658,"##mus":11659,"revised":11660,"##ucks":11661,"orbit":11662,"##izacion":11663,"alone":11664,"##ellulose":11665,"##violet":11666,"##romy":11667,"##haus":11668,"##ermann":11669,"##blog":11670,"psychometric":11671,"##azi":11672,"defenses":11673,"drum":11674,"dressing":11675,"camb":11676,"thermodynamic":11677,"pedro":11678,"homeless":11679,"minimizing":11680,"saturation":11681,"aligned":11682,"provide":11683,"original":11684,"prioritization":11685,"retailing":11686,"ethnicity":11687,"pairwise":11688,"quadrotor":11689,"alkali":11690,"suicidal":11691,"critically":11692,"citizen":11693,"divergent":11694,"judgment":11695,"lignin":11696,"1007s":11697,"##networks":11698,"sweden":11699,"##oglobin":11700,"microservices":11701,"08":11702,"iz":11703,"jal":11704,"tennis":11705,"##rates":11706,"##base":11707,"##kumar":11708,"##ders":11709,"##far":11710,"##wall":11711,"##arum":11712,"##ately":11713,"sta":11714,"stars":11715,"##reen":11716,"##ocin":11717,"##imoto":11718,"trast":11719,"adren":11720,"##ensory":11721,"##ipation":11722,"##ellation":11723,"divide":11724,"rech":11725,"recession":11726,"paris":11727,"evapor":11728,"desarrollo":11729,"surfact":11730,"markus":11731,"##ieties":11732,"mats":11733,"cru":11734,"cracking":11735,"roh":11736,"slab":11737,"swimming":11738,"extensive":11739,"illusion":11740,"funding":11741,"periodon":11742,"specificity":11743,"phenolic":11744,"migrant":11745,"fertilization":11746,"ultraviolet":11747,"tensile":11748,"##osaic":11749,"mahm":11750,"socioeconomic":11751,"restaurants":11752,"linda":11753,"nanofib":11754,"almost":11755,"attendance":11756,"discrep":11757,"plagiarism":11758,"ethereum":11759,"250":11760,"zimb":11761,"##cz":11762,"##rr":11763,"##bm":11764,"##eres":11765,"##orf":11766,"##edo":11767,"##economics":11768,"##omod":11769,"##umental":11770,"phishing":11771,"mann":11772,"trab":11773,"weber":11774,"feeling":11775,"educators":11776,"twist":11777,"globally":11778,"copy":11779,"needle":11780,"ageing":11781,"bioactive":11782,"panels":11783,"rotating":11784,"regulating":11785,"footprint":11786,"residents":11787,"because":11788,"embryo":11789,"caregivers":11790,"village":11791,"alkaline":11792,"angiot":11793,"transcriptome":11794,"voxel":11795,"##acoustic":11796,"quarantine":11797,"afl":11798,"cec":11799,"dac":11800,"done":11801,"holl":11802,"jain":11803,"kob":11804,"mf":11805,"ost":11806,"##gas":11807,"##ghan":11808,"##hil":11809,"##wana":11810,"##ertion":11811,"##inge":11812,"##edes":11813,"##olum":11814,"##ilis":11815,"##ulti":11816,"##imer":11817,"##encephal":11818,"pran":11819,"asi":11820,"diri":11821,"deterior":11822,"commission":11823,"microm":11824,"productive":11825,"matem":11826,"guang":11827,"realization":11828,"twenty":11829,"slip":11830,"dirich":11831,"limitation":11832,"negl":11833,"mcm":11834,"stocks":11835,"snake":11836,"##berger":11837,"lipolytica":11838,"violent":11839,"1975":11840,"dengue":11841,"vibr":11842,"bengal":11843,"figure":11844,"chamber":11845,"alfred":11846,"archaeology":11847,"scientists":11848,"acquired":11849,"patricia":11850,"microorganisms":11851,"perilaku":11852,"angiotensin":11853,"eut":11854,"gos":11855,"kent":11856,"kelly":11857,"l1":11858,"nancy":11859,"pile":11860,"till":11861,"##bits":11862,"##mir":11863,"##ych":11864,"##atar":11865,"##elin":11866,"##activation":11867,"##ches":11868,"chung":11869,"comorb":11870,"##unting":11871,"##open":11872,"advis":11873,"alum":11874,"sekolah":11875,"datac":11876,"parag":11877,"amyg":11878,"##ahertz":11879,"##neider":11880,"monot":11881,"guest":11882,"howard":11883,"archive":11884,"industri":11885,"sludge":11886,"mapp":11887,"postoperative":11888,"pathological":11889,"fibrill":11890,"manufactur":11891,"million":11892,"roadmap":11893,"##market":11894,"providing":11895,"buddh":11896,"initiation":11897,"dopamine":11898,"nasoph":11899,"##yclic":11900,"moderate":11901,"stir":11902,"stefano":11903,"substitution":11904,"##islav":11905,"bronch":11906,"lecun":11907,"teknologi":11908,"tsunami":11909,"020":11910,"41":11911,"aki":11912,"gyn":11913,"hw":11914,"rend":11915,"rick":11916,"tilt":11917,"##uar":11918,"##atoid":11919,"proposition":11920,"##atid":11921,"exclusion":11922,"compiler":11923,"prest":11924,"disney":11925,"clo":11926,"##phase":11927,"##actory":11928,"perc":11929,"emph":11930,"teens":11931,"beef":11932,"elena":11933,"motif":11934,"pool":11935,"##ports":11936,"optimum":11937,"##raphic":11938,"archives":11939,"solanum":11940,"endocrine":11941,"##urrency":11942,"practic":11943,"##marks":11944,"swine":11945,"occl":11946,"hybridization":11947,"tourists":11948,"copyr":11949,"implemented":11950,"##spec":11951,"1981":11952,"keyph":11953,"compositionality":11954,"continuum":11955,"hui":11956,"parkinson":11957,"junior":11958,"tablets":11959,"savings":11960,"ancest":11961,"aquaculture":11962,"midw":11963,"coalition":11964,"filled":11965,"extremely":11966,"washington":11967,"yarrow":11968,"eigenvalu":11969,"schwartz":11970,"terrorism":11971,"mosquito":11972,"polynomials":11973,"bending":11974,"ces":11975,"dang":11976,"giving":11977,"lp":11978,"netw":11979,"pir":11980,"rw":11981,"u0000":11982,"ves":11983,"##lock":11984,"##peng":11985,"##hart":11986,"##estine":11987,"exempl":11988,"trat":11989,"diat":11990,"shim":11991,"cola":11992,"processed":11993,"protecting":11994,"##afe":11995,"employing":11996,"##taut":11997,"vaccines":11998,"advancement":11999,"aerosp":12000,"investments":12001,"bandit":12002,"accelerometer":12003,"##ucker":12004,"listed":12005,"fertilizers":12006,"wildlife":12007,"transactional":12008,"arthur":12009,"ekonomi":12010,"columns":12011,"shuff":12012,"crystalline":12013,"bibliometric":12014,"outsourcing":12015,"yolov3":12016,"antifung":12017,"olivier":12018,"theatre":12019,"prenatal":12020,"dirichlet":12021,"bob":12022,"cau":12023,"grip":12024,"jump":12025,"otitis":12026,"turing":12027,"##92":12028,"##nic":12029,"##don":12030,"##hel":12031,"##hop":12032,"##icular":12033,"thing":12034,"##rage":12035,"##used":12036,"##rees":12037,"##adores":12038,"##udy":12039,"una":12040,"metap":12041,"multiob":12042,"poland":12043,"eccentric":12044,"##stract":12045,"nonparametric":12046,"evaluative":12047,"##system":12048,"variant":12049,"harass":12050,"kinematic":12051,"weakness":12052,"porter":12053,"holly":12054,"doping":12055,"activism":12056,"francesco":12057,"geriatric":12058,"congress":12059,"opinions":12060,"tetra":12061,"attrac":12062,"ibm":12063,"tingkat":12064,"vincent":12065,"pulsed":12066,"refugee":12067,"rhetoric":12068,"excessive":12069,"dyslexia":12070,"belonging":12071,"emoji":12072,"polyurethane":12073,"yarrowia":12074,"bs":12075,"dp":12076,"func":12077,"giv":12078,"mum":12079,"tsu":12080,"vern":12081,"wrist":12082,"xyl":12083,"##ounc":12084,"##96":12085,"##bone":12086,"##kas":12087,"##dam":12088,"##tid":12089,"##acon":12090,"##oglyc":12091,"proactive":12092,"##abel":12093,"surf":12094,"surge":12095,"socially":12096,"methodological":12097,"##ioid":12098,"##ernet":12099,"optimizer":12100,"nonneg":12101,"locus":12102,"strategi":12103,"##ochrom":12104,"##uktur":12105,"morgan":12106,"##inalis":12107,"hypergraph":12108,"ocr":12109,"corporation":12110,"triplet":12111,"lingk":12112,"taxes":12113,"promoter":12114,"##modern":12115,"tomas":12116,"inhal":12117,"berry":12118,"simulating":12119,"maximizing":12120,"murphy":12121,"preterm":12122,"cryptoc":12123,"exploitation":12124,"regener":12125,"rogers":12126,"harvest":12127,"disinfection":12128,"drainage":12129,"anatomical":12130,"aureus":12131,"netherlands":12132,"arithmetic":12133,"500":12134,"dung":12135,"fon":12136,"hag":12137,"hak":12138,"ipo":12139,"qian":12140,"tld":12141,"xa":12142,"##cam":12143,"##tes":12144,"##tec":12145,"##bent":12146,"thread":12147,"##ocyan":12148,"disk":12149,"adrian":12150,"alice":12151,"##obot":12152,"##vies":12153,"interacting":12154,"shakes":12155,"arriv":12156,"leis":12157,"electrosp":12158,"diges":12159,"member":12160,"improvements":12161,"##ankton":12162,"delays":12163,"ethic":12164,"sla":12165,"morocco":12166,"##heets":12167,"supplements":12168,"olfactory":12169,"myan":12170,"compliant":12171,"homogeneous":12172,"wellness":12173,"passing":12174,"hemis":12175,"stereotype":12176,"procedural":12177,"invariance":12178,"granular":12179,"reveal":12180,"lactobacillus":12181,"ekstrak":12182,"elasticity":12183,"become":12184,"simplification":12185,"getting":12186,"##ayanan":12187,"bioge":12188,"wisdom":12189,"compatibility":12190,"fluctu":12191,"prescribed":12192,"##yarakat":12193,"salicylic":12194,"##usahaan":12195,"geoffrey":12196,"supercapac":12197,"06":12198,"47":12199,"ferm":12200,"lans":12201,"ping":12202,"wav":12203,"##etics":12204,"##uana":12205,"##dan":12206,"##vae":12207,"##jas":12208,"##jiang":12209,"##tious":12210,"##orous":12211,"##roach":12212,"thir":12213,"##agne":12214,"chrys":12215,"encl":12216,"##andon":12217,"##ateur":12218,"shak":12219,"sheng":12220,"atp":12221,"coch":12222,"##iba":12223,"else":12224,"##athering":12225,"##ished":12226,"known":12227,"secur":12228,"##floxacin":12229,"defence":12230,"##ausal":12231,"hyperparam":12232,"familiar":12233,"pengetah":12234,"females":12235,"confirm":12236,"statements":12237,"polymeric":12238,"microscope":12239,"phenol":12240,"watching":12241,"conductive":12242,"hasil":12243,"radius":12244,"shipbuilding":12245,"##plastics":12246,"enzymatic":12247,"subjected":12248,"macroeconomic":12249,"tutoring":12250,"rabbit":12251,"hedge":12252,"horizon":12253,"husk":12254,"mercury":12255,"pearson":12256,"phillips":12257,"rhythm":12258,"catastrophic":12259,"minerals":12260,"fibrillation":12261,"4d":12262,"brom":12263,"bao":12264,"dum":12265,"hours":12266,"leng":12267,"roc":12268,"sarc":12269,"srin":12270,"##lav":12271,"##rac":12272,"##inn":12273,"##alin":12274,"##iliation":12275,"sto":12276,"##atization":12277,"##otti":12278,"##ologists":12279,"##ewise":12280,"transit":12281,"plans":12282,"beau":12283,"bypass":12284,"previous":12285,"##alez":12286,"knowing":12287,"##ylation":12288,"locations":12289,"overf":12290,"outage":12291,"endoscopic":12292,"malay":12293,"lift":12294,"##ophobia":12295,"universe":12296,"papaya":12297,"statistic":12298,"futures":12299,"continental":12300,"loads":12301,"capitalism":12302,"farms":12303,"federic":12304,"strengths":12305,"##resolution":12306,"experiential":12307,"sexuality":12308,"instructions":12309,"involving":12310,"seeing":12311,"lucas":12312,"granul":12313,"haze":12314,"tracker":12315,"muscular":12316,"escape":12317,"becoming":12318,"coordinated":12319,"##ophysical":12320,"enriched":12321,"ncov":12322,"agroforest":12323,"histograms":12324,"etiology":12325,"fernando":12326,"persuasion":12327,"##olecular":12328,"squeeze":12329,"##ophagy":12330,"restruct":12331,"caffeine":12332,"carbohyd":12333,"nonnegative":12334,"pengetahuan":12335,"52":12336,"cigar":12337,"haptic":12338,"pab":12339,"pell":12340,"pms":12341,"tann":12342,"zhe":12343,"##itin":12344,"##tm":12345,"##body":12346,"##mes":12347,"##eron":12348,"anesthesia":12349,"##idental":12350,"choms":12351,"dealing":12352,"##abstract":12353,"##atik":12354,"perez":12355,"##ournal":12356,"multim":12357,"append":12358,"abor":12359,"##yne":12360,"1038":12361,"segregation":12362,"retard":12363,"digestion":12364,"serot":12365,"terahertz":12366,"##zzi":12367,"popul":12368,"constructions":12369,"belg":12370,"##ogeny":12371,"homo":12372,"paed":12373,"petri":12374,"masyarakat":12375,"##steine":12376,"consideration":12377,"coordinates":12378,"letter":12379,"solubility":12380,"adhesive":12381,"phillip":12382,"horse":12383,"capturing":12384,"##rosophila":12385,"estrateg":12386,"vinegar":12387,"mishra":12388,"masculin":12389,"biochar":12390,"##eastern":12391,"pylori":12392,"nexus":12393,"trastorn":12394,"copyright":12395,"harassment":12396,"cube":12397,"drosophila":12398,"haf":12399,"hough":12400,"kum":12401,"ln":12402,"tir":12403,"##85":12404,"##uv":12405,"##hong":12406,"##vm":12407,"##41":12408,"##jit":12409,"##icul":12410,"another":12411,"thym":12412,"##usal":12413,"entr":12414,"##ande":12415,"unex":12416,"april":12417,"perl":12418,"manure":12419,"atrophy":12420,"coag":12421,"plc":12422,"parasi":12423,"elabor":12424,"elmo":12425,"corne":12426,"schl":12427,"selenium":12428,"fei":12429,"engines":12430,"semiotic":12431,"##ypes":12432,"patri":12433,"locality":12434,"oxyt":12435,"##alypt":12436,"lands":12437,"backsc":12438,"ester":12439,"said":12440,"rena":12441,"##u0006":12442,"menop":12443,"simulink":12444,"migrants":12445,"roberta":12446,"uavs":12447,"choose":12448,"metabolites":12449,"priority":12450,"giov":12451,"multichann":12452,"bhatt":12453,"categorical":12454,"oscillation":12455,"dyes":12456,"vagina":12457,"##algia":12458,"metastatic":12459,"grief":12460,"##arajan":12461,"nanocomposites":12462,"##integration":12463,"antiviral":12464,"exhibition":12465,"percentage":12466,"##icillin":12467,"rodriguez":12468,"stewart":12469,"procrastination":12470,"multichannel":12471,"59":12472,"dap":12473,"dsm":12474,"drones":12475,"got":12476,"jaw":12477,"koch":12478,"utaut":12479,"vesti":12480,"yos":12481,"yad":12482,"##xin":12483,"##wear":12484,"##icas":12485,"##idia":12486,"##ears":12487,"chir":12488,"##umatic":12489,"##uci":12490,"##otec":12491,"##angu":12492,"##eptive":12493,"##ober":12494,"isbn":12495,"obese":12496,"undergoing":12497,"influential":12498,"insectic":12499,"crises":12500,"estimator":12501,"##bras":12502,"tweets":12503,"##generation":12504,"greedy":12505,"stores":12506,"migraine":12507,"principals":12508,"cyclone":12509,"subset":12510,"paced":12511,"##plasm":12512,"coca":12513,"pseudomonas":12514,"diagrams":12515,"jeremy":12516,"judgments":12517,"establishment":12518,"ventil":12519,"conservative":12520,"hvac":12521,"deposits":12522,"akuntansi":12523,"multiobjective":12524,"leisure":12525,"chomsky":12526,"09":12527,"arous":12528,"hf":12529,"hof":12530,"ibu":12531,"kre":12532,"nk":12533,"pull":12534,"ry":12535,"tale":12536,"urea":12537,"##lers":12538,"##rasi":12539,"##uasan":12540,"##gage":12541,"##4a":12542,"annal":12543,"##real":12544,"prok":12545,"##ineering":12546,"spor":12547,"alam":12548,"seam":12549,"##ancies":12550,"graham":12551,"abc":12552,"schneider":12553,"preprocessing":12554,"mono":12555,"guer":12556,"files":12557,"##ukin":12558,"helps":12559,"autoimm":12560,"perioperative":12561,"precurs":12562,"transmitter":12563,"##otypic":12564,"abdullah":12565,"hypertensive":12566,"wallace":12567,"##urgery":12568,"glycos":12569,"bibl":12570,"implantation":12571,"wolfgang":12572,"facilitating":12573,"pearl":12574,"fernandez":12575,"frozen":12576,"sobre":12577,"rectang":12578,"interfacial":12579,"##frame":12580,"gonzalez":12581,"landslide":12582,"spiking":12583,"ahead":12584,"cock":12585,"gust":12586,"kash":12587,"lived":12588,"psy":12589,"sour":12590,"##bic":12591,"##hous":12592,"then":12593,"##omen":12594,"##emination":12595,"confer":12596,"deploy":12597,"spelling":12598,"adm":12599,"dij":12600,"interdisciplinary":12601,"arsen":12602,"plot":12603,"multist":12604,"##ugging":12605,"generators":12606,"flip":12607,"boys":12608,"##2017":12609,"join":12610,"schooling":12611,"##echanical":12612,"swe":12613,"airplane":12614,"transforms":12615,"repell":12616,"##fficient":12617,"ordered":12618,"fishes":12619,"passenger":12620,"dissolution":12621,"christine":12622,"contribute":12623,"piper":12624,"haem":12625,"army":12626,"motives":12627,"rgbd":12628,"dominant":12629,"controllability":12630,"grassland":12631,"hazards":12632,"picking":12633,"tendon":12634,"vertex":12635,"##oquine":12636,"prophyl":12637,"destruction":12638,"fifth":12639,"pyrrol":12640,"trivia":12641,"newspaper":12642,"pharmacokinetics":12643,"attractiveness":12644,"myanmar":12645,"cg":12646,"dft":12647,"dash":12648,"fool":12649,"foli":12650,"hou":12651,"hann":12652,"kha":12653,"liz":12654,"nord":12655,"ton":12656,"##b2":12657,"##bon":12658,"##xi":12659,"##jian":12660,"##onium":12661,"##erk":12662,"##inate":12663,"##enic":12664,"##anu":12665,"##atology":12666,"##isha":12667,"##ische":12668,"##asure":12669,"##ulu":12670,"##ulis":12671,"stations":12672,"##agonal":12673,"proven":12674,"##rips":12675,"##owitz":12676,"2021":12677,"##estration":12678,"bike":12679,"weed":12680,"##ungs":12681,"##cler":12682,"postmodern":12683,"carbide":12684,"##archy":12685,"herz":12686,"intrigu":12687,"dcdc":12688,"radioactive":12689,"borne":12690,"1976":12691,"proposals":12692,"spiral":12693,"nanocryst":12694,"pedagog":12695,"pancreas":12696,"diameter":12697,"references":12698,"popularity":12699,"ligament":12700,"laparotomy":12701,"##titleabstract":12702,"currency":12703,"disruption":12704,"hepatoc":12705,"programmable":12706,"rachel":12707,"telecommunication":12708,"inhibitory":12709,"endothelial":12710,"nasopharyngeal":12711,"aerospace":12712,"tldr":12713,"fasc":12714,"hci":12715,"ist":12716,"jensen":12717,"kaf":12718,"mism":12719,"mint":12720,"sectors":12721,"tas":12722,"wars":12723,"##lenet":12724,"##87":12725,"##nar":12726,"##sson":12727,"##mos":12728,"intimate":12729,"##elia":12730,"##aser":12731,"##ilin":12732,"##odia":12733,"##ogan":12734,"enable":12735,"envelop":12736,"##formance":12737,"diana":12738,"analogy":12739,"##ayo":12740,"sek":12741,"intu":12742,"genomics":12743,"imputation":12744,"multidisciplinary":12745,"eva":12746,"##avan":12747,"whist":12748,"aber":12749,"##pture":12750,"gland":12751,"protest":12752,"edmod":12753,"guard":12754,"geomet":12755,"malt":12756,"adversarially":12757,"engineered":12758,"posts":12759,"pathogen":12760,"created":12761,"combine":12762,"causing":12763,"circulation":12764,"motions":12765,"paolo":12766,"##venous":12767,"names":12768,"neuroimaging":12769,"psik":12770,"turbines":12771,"##structing":12772,"falls":12773,"mosfet":12774,"epidemiological":12775,"nicolas":12776,"vlog":12777,"vlsi":12778,"initialization":12779,"disturbances":12780,"crystallization":12781,"establishing":12782,"microfluidics":12783,"roughness":12784,"kadar":12785,"eucalypt":12786,"enforcement":12787,"ferroelectric":12788,"transgender":12789,"iodine":12790,"disabled":12791,"mappings":12792,"shakespear":12793,"edmodo":12794,"53":12795,"802":12796,"bj":12797,"bind":12798,"bhar":12799,"doll":12800,"fant":12801,"hugh":12802,"hmm":12803,"kop":12804,"lai":12805,"naus":12806,"oly":12807,"sage":12808,"stit":12809,"tf":12810,"vign":12811,"zeng":12812,"##cov":12813,"##61":12814,"##tible":12815,"##ede":12816,"theology":12817,"rew":12818,"##essler":12819,"##rique":12820,"depres":12821,"##ocon":12822,"##iones":12823,"##uded":12824,"modulus":12825,"efforts":12826,"suff":12827,"shame":12828,"##asses":12829,"beer":12830,"elm":12831,"abiotic":12832,"attending":12833,"##essional":12834,"##ungen":12835,"##oxin":12836,"ulrich":12837,"conditioned":12838,"magazine":12839,"storm":12840,"nitro":12841,"colleges":12842,"portra":12843,"miguel":12844,"roberto":12845,"conductor":12846,"rocks":12847,"chromosome":12848,"neutron":12849,"queue":12850,"physicians":12851,"diagnosing":12852,"algebraic":12853,"furniture":12854,"podcast":12855,"imbalance":12856,"preventive":12857,"alkaloids":12858,"victims":12859,"rheumatoid":12860,"keyphrase":12861,"given":12862,"duct":12863,"eks":12864,"fuk":12865,"father":12866,"gha":12867,"rdf":12868,"sie":12869,"sne":12870,"yue":12871,"##oag":12872,"##tan":12873,"##04":12874,"##3n":12875,"##ald":12876,"anhyd":12877,"##educ":12878,"##edness":12879,"tobias":12880,"##adas":12881,"##ewski":12882,"interplay":12883,"scorec":12884,"stres":12885,"societies":12886,"##iller":12887,"infinite":12888,"schult":12889,"moz":12890,"poisson":12891,"newly":12892,"diffraction":12893,"humanities":12894,"##annon":12895,"retrof":12896,"respect":12897,"##flix":12898,"##agner":12899,"##torch":12900,"profess":12901,"pandemia":12902,"forecasts":12903,"ramesh":12904,"bridges":12905,"fluoride":12906,"ifrs":12907,"kepuasan":12908,"claims":12909,"kelu":12910,"catheter":12911,"vlad":12912,"##otoxic":12913,"florida":12914,"officinalis":12915,"pupils":12916,"disinfect":12917,"gabriel":12918,"arnold":12919,"mammalian":12920,"similarities":12921,"docker":12922,"restructuring":12923,"04":12924,"44":12925,"67":12926,"bf":12927,"folding":12928,"lda":12929,"ltd":12930,"mike":12931,"noma":12932,"sift":12933,"ties":12934,"uc":12935,"zig":12936,"##81":12937,"##hole":12938,"##h2o":12939,"##human":12940,"##ww":12941,"##inin":12942,"##atos":12943,"onion":12944,"##ococ":12945,"##imus":12946,"##overs":12947,"modulated":12948,"resting":12949,"clas":12950,"adalah":12951,"alve":12952,"aloe":12953,"##akov":12954,"metah":12955,"metagen":12956,"perk":12957,"scrum":12958,"##alline":12959,"corner":12960,"amit":12961,"##ognitive":12962,"##sex":12963,"prep":12964,"electrolysis":12965,"##eek":12966,"superp":12967,"edit":12968,"##sung":12969,"overall":12970,"##iedad":12971,"##ometh":12972,"##itively":12973,"morris":12974,"greater":12975,"encaps":12976,"testosterone":12977,"##ascript":12978,"##ativo":12979,"adding":12980,"##shot":12981,"accounts":12982,"bandura":12983,"nationalism":12984,"##entification":12985,"attributed":12986,"achieve":12987,"pollen":12988,"plastics":12989,"talking":12990,"1974":12991,"##ariah":12992,"stylistic":12993,"gius":12994,"historia":12995,"chromium":12996,"judith":12997,"iteration":12998,"gains":12999,"avian":13000,"nicola":13001,"organisations":13002,"boosted":13003,"straight":13004,"stanford":13005,"metastasis":13006,"zakhar":13007,"transistors":13008,"##zyk":13009,"veterinary":13010,"paraphrase":13011,"tibetan":13012,"survivors":13013,"coleoptera":13014,"aristot":13015,"altruism":13016,"zimbab":13017,"antifungal":13018,"intriguing":13019,"hepatocellular":13020,"nausea":13021,"6th":13022,"ae":13023,"craft":13024,"gangl":13025,"hiding":13026,"iclr":13027,"nah":13028,"serg":13029,"vqa":13030,"##ais":13031,"##rint":13032,"##var":13033,"##wh":13034,"##jie":13035,"##itous":13036,"##eder":13037,"##emediation":13038,"##odial":13039,"chond":13040,"##ocar":13041,"##ovich":13042,"nep":13043,"exogenous":13044,"##eppe":13045,"diseng":13046,"##ourism":13047,"##anco":13048,"multibox":13049,"leo":13050,"opioid":13051,"##iks":13052,"sms":13053,"##ieh":13054,"flora":13055,"proton":13056,"finn":13057,"solids":13058,"redes":13059,"endurance":13060,"barley":13061,"pathophys":13062,"backward":13063,"##ativa":13064,"helen":13065,"biomim":13066,"##u0003":13067,"ghost":13068,"achiev":13069,"dissection":13070,"closer":13071,"rumah":13072,"rumination":13073,"dentin":13074,"nikola":13075,"matched":13076,"catalog":13077,"frederic":13078,"polyprop":13079,"krishna":13080,"attenuation":13081,"eugene":13082,"toughness":13083,"datacenter":13084,"digestive":13085,"scorecard":13086,"07":13087,"aver":13088,"jab":13089,"mpc":13090,"tad":13091,"wmt":13092,"##pts":13093,"##run":13094,"##wu":13095,"##ulia":13096,"##uts":13097,"##otation":13098,"tryp":13099,"uniqu":13100,"##quin":13101,"php":13102,"scans":13103,"scada":13104,"##ouri":13105,"atari":13106,"martine":13107,"elast":13108,"surpr":13109,"semeval":13110,"dox":13111,"afghan":13112,"formed":13113,"collections":13114,"allium":13115,"poster":13116,"ultimate":13117,"offs":13118,"offenders":13119,"##onica":13120,"harry":13121,"dried":13122,"reconc":13123,"netflix":13124,"homosexual":13125,"hotsp":13126,"melting":13127,"passion":13128,"capacitive":13129,"informative":13130,"phenyl":13131,"exposed":13132,"1978":13133,"anthropogenic":13134,"levy":13135,"compressing":13136,"locked":13137,"congru":13138,"somatic":13139,"roller":13140,"edwards":13141,"town":13142,"license":13143,"seaweed":13144,"teknik":13145,"electrocardi":13146,"lambda":13147,"orbital":13148,"aaai":13149,"membership":13150,"perceptron":13151,"countermeasures":13152,"51":13153,"ather":13154,"cyp":13155,"lm":13156,"oecd":13157,"rasp":13158,"sidd":13159,"ui":13160,"vann":13161,"##kinson":13162,"##yam":13163,"##vy":13164,"##inated":13165,"##itar":13166,"##olysis":13167,"construal":13168,"##ocl":13169,"##abo":13170,"excl":13171,"##anges":13172,"trem":13173,"perusahaan":13174,"marij":13175,"induce":13176,"##idea":13177,"ish":13178,"##arez":13179,"medie":13180,"##ondo":13181,"##2015":13182,"usefulness":13183,"signalling":13184,"volcan":13185,"ethyl":13186,"correcting":13187,"##uka":13188,"hydrolysis":13189,"barc":13190,"photod":13191,"taxonomic":13192,"##osphere":13193,"##model":13194,"goodf":13195,"electrodes":13196,"bounding":13197,"routine":13198,"directly":13199,"regulates":13200,"##iropr":13201,"joshua":13202,"levine":13203,"##tikel":13204,"communicating":13205,"mnem":13206,"cbd":13207,"households":13208,"lorenz":13209,"gyros":13210,"apparatus":13211,"synthesized":13212,"synthesizing":13213,"sulph":13214,"suggestion":13215,"speakers":13216,"machinery":13217,"surrogate":13218,"corneal":13219,"##clerosis":13220,"metaheur":13221,"77":13222,"bile":13223,"ftir":13224,"hod":13225,"krist":13226,"lope":13227,"sanc":13228,"srivastava":13229,"tid":13230,"tesis":13231,"wagner":13232,"##iu":13233,"##avi":13234,"##etion":13235,"##mans":13236,"##fusion":13237,"##hou":13238,"##orption":13239,"insu":13240,"##atas":13241,"##ague":13242,"##usan":13243,"##igo":13244,"##thi":13245,"##udin":13246,"##oten":13247,"##andi":13248,"uso":13249,"scanner":13250,"genital":13251,"ever":13252,"methanol":13253,"sociales":13254,"##engineering":13255,"autophagy":13256,"blade":13257,"knot":13258,"##oka":13259,"noncon":13260,"prototyping":13261,"insertion":13262,"subc":13263,"##atism":13264,"antidep":13265,"noam":13266,"typical":13267,"encour":13268,"additives":13269,"probiotic":13270,"pytorch":13271,"intrusive":13272,"versatile":13273,"broken":13274,"##arcin":13275,"1972":13276,"initiatives":13277,"omega":13278,"presented":13279,"toxicology":13280,"lymphoma":13281,"expectancy":13282,"cytometry":13283,"july":13284,"stronger":13285,"inertia":13286,"prolong":13287,"drosten":13288,"candidate":13289,"triangle":13290,"javascript":13291,"biomechanics":13292,"constitutional":13293,"piecewise":13294,"comportement":13295,"eucalyptus":13296,"keluarga":13297,"medieval":13298,"96":13299,"curing":13300,"eri":13301,"ff":13302,"gong":13303,"h2":13304,"mold":13305,"oak":13306,"rp":13307,"sint":13308,"sink":13309,"tand":13310,"uh":13311,"vow":13312,"##lc":13313,"##lich":13314,"##ever":13315,"##dle":13316,"##zel":13317,"##hold":13318,"##tiers":13319,"##uru":13320,"those":13321,"##activ":13322,"stegan":13323,"##oge":13324,"##rien":13325,"deposit":13326,"##abl":13327,"##imes":13328,"##adh":13329,"##aden":13330,"competing":13331,"dispos":13332,"shale":13333,"armed":13334,"heg":13335,"above":13336,"socialism":13337,"robb":13338,"##ikh":13339,"caring":13340,"graphite":13341,"##oko":13342,"qualities":13343,"accent":13344,"discount":13345,"insecurity":13346,"##ughter":13347,"##azo":13348,"buch":13349,"powerful":13350,"##ostasis":13351,"worth":13352,"backbone":13353,"immobil":13354,"myers":13355,"polyph":13356,"nutr":13357,"manufacture":13358,"##hypert":13359,"failures":13360,"hemp":13361,"sieg":13362,"bilinear":13363,"removing":13364,"aggregated":13365,"baseball":13366,"##otide":13367,"intravenous":13368,"authenticity":13369,"prince":13370,"analysing":13371,"halluc":13372,"gallium":13373,"zebra":13374,"connectionist":13375,"todd":13376,"dominance":13377,"receiving":13378,"wetlands":13379,"museums":13380,"stanislav":13381,"displays":13382,"imperfect":13383,"steiner":13384,"details":13385,"konsep":13386,"folk":13387,"sesame":13388,"pectin":13389,"typhoid":13390,"##acetam":13391,"diplom":13392,"chicago":13393,"telephone":13394,"amygd":13395,"goodfellow":13396,"diaz":13397,"fas":13398,"gith":13399,"iw":13400,"mk":13401,"nb":13402,"nud":13403,"ott":13404,"prab":13405,"pink":13406,"ride":13407,"rome":13408,"sizing":13409,"tic":13410,"##iec":13411,"##pol":13412,"##text":13413,"##enh":13414,"##arcoma":13415,"##ecycle":13416,"##uria":13417,"##aci":13418,"##ulous":13419,"neol":13420,"basics":13421,"##former":13422,"ars":13423,"perfor":13424,"even":13425,"##rolog":13426,"infusion":13427,"methylene":13428,"##blast":13429,"schul":13430,"surround":13431,"meyer":13432,"flame":13433,"glauc":13434,"##iques":13435,"frust":13436,"dof":13437,"digitalization":13438,"labelling":13439,"complet":13440,"sentinel":13441,"chemicals":13442,"immunotherapy":13443,"cardiomy":13444,"jama":13445,"waq":13446,"regulator":13447,"tubes":13448,"cui":13449,"1973":13450,"##0002":13451,"davies":13452,"garment":13453,"excav":13454,"harmful":13455,"aster":13456,"argentina":13457,"bulle":13458,"updates":13459,"efect":13460,"klaus":13461,"teenage":13462,"substrates":13463,"substances":13464,"configur":13465,"tatto":13466,"efektivitas":13467,"biodegradable":13468,"transporter":13469,"sriniv":13470,"arousal":13471,"57":13472,"62":13473,"dors":13474,"epr":13475,"h1":13476,"hud":13477,"null":13478,"sif":13479,"vil":13480,"wah":13481,"wrap":13482,"##bour":13483,"##07":13484,"##glyc":13485,"##fre":13486,"##hir":13487,"##jab":13488,"##onit":13489,"##analy":13490,"anand":13491,"stones":13492,"##ameth":13493,"chandra":13494,"chiropr":13495,"##iak":13496,"spent":13497,"climbing":13498,"contag":13499,"transnational":13500,"places":13501,"##pred":13502,"beg":13503,"elections":13504,"##ryn":13505,"##avir":13506,"infan":13507,"polish":13508,"autop":13509,"##ocket":13510,"finland":13511,"microblog":13512,"guill":13513,"##ehe":13514,"joel":13515,"solomon":13516,"labview":13517,"internationalization":13518,"norman":13519,"autistic":13520,"centrif":13521,"##abilitas":13522,"computerized":13523,"photometric":13524,"##fficiency":13525,"virtualization":13526,"##spe":13527,"bankrupt":13528,"##modular":13529,"warping":13530,"propulsion":13531,"dialysis":13532,"costing":13533,"alexnet":13534,"##itized":13535,"harmony":13536,"closing":13537,"residue":13538,"starting":13539,"julie":13540,"##amento":13541,"claim":13542,"cathode":13543,"bowel":13544,"merger":13545,"merging":13546,"mounted":13547,"parasit":13548,"##legal":13549,"disentangling":13550,"dehydrogen":13551,"gingival":13552,"nanomaterials":13553,"lupus":13554,"spectrophotometric":13555,"##ovisual":13556,"fluctuations":13557,"lansia":13558,"lopez":13559,"bulletin":13560,"88":13561,"bc":13562,"cation":13563,"df":13564,"huk":13565,"pour":13566,"tack":13567,"wsn":13568,"xg":13569,"zer":13570,"##pre":13571,"##tory":13572,"##techn":13573,"##ship":13574,"##fire":13575,"##western":13576,"##rocal":13577,"##etri":13578,"##olite":13579,"##ampus":13580,"retina":13581,"token":13582,"##thus":13583,"##apping":13584,"##apatite":13585,"resistive":13586,"##anga":13587,"alp":13588,"##ainment":13589,"contacts":13590,"##ibil":13591,"paral":13592,"##aceous":13593,"agua":13594,"franz":13595,"bringing":13596,"subsequ":13597,"101":13598,"cyst":13599,"identities":13600,"overd":13601,"##flower":13602,"outp":13603,"geological":13604,"nanor":13605,"collins":13606,"mathematic":13607,"turner":13608,"prime":13609,"##comb":13610,"probiotics":13611,"keyboard":13612,"peters":13613,"##u0005":13614,"##u0007":13615,"legi":13616,"wafer":13617,"masking":13618,"exchanger":13619,"acoustics":13620,"participants":13621,"##olingual":13622,"justin":13623,"landscapes":13624,"neutrosoph":13625,"bleeding":13626,"phonological":13627,"rahman":13628,"neuropathy":13629,"prescription":13630,"parasite":13631,"influenced":13632,"detailed":13633,"mitochondria":13634,"ioann":13635,"friedman":13636,"unsaturated":13637,"elevated":13638,"beetles":13639,"extracellular":13640,"ernest":13641,"metacognition":13642,"ticket":13643,"nanocomposite":13644,"necessary":13645,"retrieved":13646,"inheritance":13647,"vestib":13648,"olymp":13649,"diplomacy":13650,"github":13651,"neutrosophic":13652,"catherine":13653,"jh":13654,"kav":13655,"kend":13656,"uji":13657,"zou":13658,"zamb":13659,"##iod":13660,"##power":13661,"##sd":13662,"##vili":13663,"##journal":13664,"##orov":13665,"##uling":13666,"##ulmonary":13667,"##leen":13668,"rever":13669,"deple":13670,"##oco":13671,"compost":13672,"trin":13673,"##pha":13674,"##alla":13675,"byzan":13676,"##vert":13677,"biob":13678,"##block":13679,"convection":13680,"optimism":13681,"##rime":13682,"filtration":13683,"##ophen":13684,"affair":13685,"equine":13686,"photonics":13687,"curiosity":13688,"grouping":13689,"silico":13690,"##regulation":13691,"mutant":13692,"converting":13693,"##traumatic":13694,"separate":13695,"rhod":13696,"muj":13697,"polarized":13698,"lactose":13699,"spreading":13700,"lagrang":13701,"cinnam":13702,"mobilization":13703,"dispersal":13704,"durability":13705,"pancreatitis":13706,"multiplication":13707,"lectures":13708,"tower":13709,"griff":13710,"thermoelectric":13711,"##jarah":13712,"tilapia":13713,"exhaust":13714,"rectifier":13715,"telescope":13716,"epigenetic":13717,"honeypot":13718,"discrepancy":13719,"##oluminescence":13720,"elsevier":13721,"agroforestry":13722,"antidepress":13723,"54":13724,"72":13725,"cun":13726,"dab":13727,"days":13728,"duck":13729,"sided":13730,"yous":13731,"yann":13732,"##benz":13733,"##sol":13734,"##zone":13735,"##hub":13736,"##hara":13737,"##tide":13738,"##inis":13739,"##ectin":13740,"##elium":13741,"##standing":13742,"##raham":13743,"##usual":13744,"##americ":13745,"toy":13746,"##uttering":13747,"##ader":13748,"##otrans":13749,"neumann":13750,"adel":13751,"asp":13752,"seat":13753,"##uster":13754,"##iberal":13755,"##encer":13756,"marina":13757,"paru":13758,"selectivity":13759,"##roscopic":13760,"distal":13761,"subg":13762,"bush":13763,"males":13764,"##insky":13765,"##ophage":13766,"##heet":13767,"official":13768,"hydrodynam":13769,"belie":13770,"portal":13771,"electroencephal":13772,"walks":13773,"liquids":13774,"miy":13775,"maintaining":13776,"ghosh":13777,"resonators":13778,"taboo":13779,"updated":13780,"cohesion":13781,"##works":13782,"methylation":13783,"checklist":13784,"acetate":13785,"droplet":13786,"immigrants":13787,"peptides":13788,"deeplab":13789,"##stantin":13790,"##professional":13791,"ubiquitous":13792,"consommateur":13793,"interdepend":13794,"margaret":13795,"dividend":13796,"obtained":13797,"oxytocin":13798,"cac":13799,"ficus":13800,"hari":13801,"kip":13802,"lakes":13803,"rm":13804,"rug":13805,"tz":13806,"##lett":13807,"##2se":13808,"##mund":13809,"##fen":13810,"##fan":13811,"##onas":13812,"##onian":13813,"##enk":13814,"##itax":13815,
[...]
