{"version":"1.0","truncation":null,"padding":null,"added_tokens":[{"id":0,"special":true,"content":"[UNK]","single_word":false,"lstrip":false,"rstrip":false,"normalized":false},{"id":1,"special":true,"content":"[CLS]","single_word":false,"lstrip":false,"rstrip":false,"normalized":false},{"id":2,"special":true,"content":"[SEP]","single_word":false,"lstrip":false,"rstrip":false,"normalized":false},{"id":3,"special":true,"content":"[PAD]","single_word":false,"lstrip":false,"rstrip":false,"normalized":false},{"id":4,"special":true,"content":"[MASK]","single_word":false,"lstrip":false,"rstrip":false,"normalized":false}],"normalizer":{"type":"Sequence","normalizers":[{"type":"NFD"},{"type":"StripAccents"}]},"pre_tokenizer":{"type":"Whitespace"},"post_processor":{"type":"TemplateProcessing","single":[{"SpecialToken":{"id":"[CLS]","type_id":0}},{"Sequence":{"id":"A","type_id":0}},{"SpecialToken":{"id":"[SEP]","type_id":0}}],"pair":[{"SpecialToken":{"id":"[CLS]","type_id":0}},{"Sequence":{"id":"A","type_id":0}},{"SpecialToken":{"id":"[SEP]","type_id":0}},{"Sequence":{"id":"B","type_id":1}},{"SpecialToken":{"id":"[SEP]","type_id":1}}],"special_tokens":{"[CLS]":{"id":"[CLS]","ids":[1],"tokens":["[CLS]"]},"[SEP]":{"id":"[SEP]","ids":[2],"tokens":["[SEP]"]}}},"decoder":null,"model":{"type":"WordPiece","unk_token":"[UNK]","continuing_subword_prefix":"##","max_input_chars_per_word":100,"vocab":{"[UNK]":0,"[CLS]":1,"[SEP]":2,"[PAD]":3,"[MASK]":4,"0":5,"1":6,"2":7,"3":8,"4":9,"5":10,"6":11,"7":12,"8":13,"9":14,"a":15,"b":16,"c":17,"d":18,"e":19,"f":20,"g":21,"h":22,"i":23,"j":24,"k":25,"l":26,"m":27,"n":28,"o":29,"p":30,"q":31,"r":32,"s":33,"t":34,"u":35,"v":36,"w":37,"x":38,"y":39,"z":40,"##i":41,"##h":42,"##s":43,"##b":44,"##o":45,"##d":46,"##u":47,"##a":48,"##e":49,"##m":50,"##n":51,"##4":52,"##5":53,"##9":54,"##z":55,"##l":56,"##y":57,"##c":58,"##r":59,"##f":60,"##v":61,"##k":62,"##p":63,"##2":64,"##3":65,"##6":66,"##t":67,"##g":68,"##x":69,"##0":70,"##j":71,"##w":72,"##7":73,"##1":74,"##8":75,"##q":76,"##ti":77,"##on":78,"##er":79,"##in":80,"##al":81,"##en":82,"##or":83,"##tion":84,"##an":85,"##es":86,"##ar":87,"##ing":88,"in":89,"##ic":90,"an":91,"of":92,"##ation":93,"##it":94,"##at":95,"##is":96,"##ed":97,"##ro":98,"##ec":99,"and":100,"##ur":101,"##ent":102,"##el":103,"##et":104,"##as":105,"th":106,"##ac":107,"##ol":108,"##om":109,"##em":110,"the":111,"##il":112,"for":113,"##st":114,"##ul":115,"##id":116,"st":117,"##ce":118,"##ra":119,"##od":120,"##ag":121,"##tic":122,"##ch":123,"##ve":124,"con":125,"##ear":126,"##us":127,"##am":128,"##ig":129,"##ter":130,"##le":131,"re":132,"##og":133,"on":134,"##ity":135,"##re":136,"##ng":137,"##ect":138,"##ess":139,"##os":140,"pro":141,"##ri":142,"ch":143,"de":144,"##ers":145,"to":146,"##th":147,"com":148,"##um":149,"##oc":150,"##uc":151,"##un":152,"##ab":153,"##ir":154,"##ati":155,"##ff":156,"##im":157,"##ith":158,"##pl":159,"##ut":160,"im":161,"##ning":162,"##ad":163,"##ion":164,"##ork":165,"##ment":166,"##ud":167,"lear":168,"##ap":169,"##ot":170,"##op":171,"or":172,"##ov":173,"##ial":174,"##iz":175,"learning":176,"##ia":177,"##ine":178,"with":179,"##ow":180,"ne":181,"##ure":182,"##etw":183,"ex":184,"en":185,"##ement":186,"##ting":187,"##for":188,"##ical":189,"mod":190,"##ence":191,"##and":192,"us":193,"##ys":194,"res":195,"##ang":196,"comp":197,"##ate":198,"sy":199,"##age":200,"ac":201,"sp":202,"##ep":203,"pr":204,"tr":205,"##etwork":206,"##ication":207,"network":208,"##per":209,"dis":210,"cl":211,"ad":212,"##ach":213,"##ual":214,"##ance":215,"al":216,"bas":217,"##ph":218,"20":219,"##olog":220,"eff":221,"as":222,"##ens":223,"##ans":224,"##if":225,"##ural":226,"##form":227,"##ob":228,"##ip":229,"##tive":230,"##ell":231,"un":232,"##vi":233,"##ts":234,"su":235,"ap":236,"stud":237,"##duc":238,"##ection":239,"##qu":240,"based":241,"model":242,"di":243,"##ak":244,"##act":245,"##ew":246,"##stem":247,"##ain":248,"ph":249,"inter":250,"met":251,"sh":252,"rec":253,"##ization":254,"ar":255,"##ech":256,"##ition":257,"system":258,"##ge":259,"per":260,"##ass":261,"cont":262,"##ution":263,"##rom":264,"anal":265,"##ay":266,"sc":267,"using":268,"str":269,"##igh":270,"se":271,"##our":272,"trans":273,"int":274,"##ist":275,"em":276,"man":277,"gen":278,"##ric":279,"##ust":280,"at":281,"##der":282,"##ory":283,"##iv":284,"##ies":285,"mul":286,"##anc":287,"dat":288,"det":289,"imp":290,"##ard":291,"co":292,"##ant":293,"##all":294,"19":295,"pl":296,"##ysis":297,"multi":298,"##ib":299,"le":300,"##vel":301,"##ort":302,"deep":303,"##enti":304,"##enc":305,"##ations":306,"te":307,"##ative":308,"##ign":309,"mar":310,"##ology":311,"networks":312,"##pr":313,"##ents":314,"analysis":315,"ind":316,"par":317,"effect":318,"be":319,"el":320,"cov":321,"##ide":322,"##ase":323,"ev":324,"he":325,"neural":326,"201":327,"##tim":328,"##ary":329,"from":330,"##ry":331,"##ous":332,"##tiv":333,"op":334,"gra":335,"tra":336,"##olution":337,"##ack":338,"##av":339,"is":340,"##ated":341,"by":342,"##rol":343,"soc":344,"data":345,"##ast":346,"##are":347,"rel":348,"##est":349,"##ou":350,"##ly":351,"##end":352,"##ace":353,"##ver":354,"##ill":355,"inf":356,"##ha":357,"cor":358,"##ong":359,"##ors":360,"des":361,"##ational":362,"bi":363,"##ility":364,"med":365,"##ath":366,"##earch":367,"ass":368,"##ug":369,"pol":370,"##erm":371,"covid":372,"am":373,"##ian":374,"##echn":375,"class":376,"detection":377,"study":378,"comm":379,"manag":380,"##ram":381,"meth":382,"##cess":383,"##bl":384,"##ism":385,"qu":386,"app":387,"wh":388,"##ult":389,"techn":390,"ab":391,"image":392,"##view":393,"##tics":394,"##ater":395,"##ogn":396,"sch":397,"gener":398,"ag":399,"sur":400,"social":401,"##action":402,"##eng":403,"col":404,"##able":405,"sel":406,"hy":407,"method":408,"##00":409,"##vers":410,"##und":411,"##ood":412,"me":413,"##ild":414,"management":415,"##lu":416,"##alu":417,"mic":418,"##tical":419,"appl":420,"##velop":421,"##xt":422,"##ties":423,"##ari":424,"##se":425,"control":426,"aut":427,"ob":428,"develop":429,"##ating":430,"##eg":431,"##tr":432,"##ice":433,"##ature":434,"##ject":435,"we":436,"##uct":437,"research":438,"##ification":439,"##yn":440,"##str":441,"ec":442,"review":443,"##erv":444,"##alth":445,"##erg":446,"fe":447,"##ish":448,"tim":449,"##ining":450,"educ":451,"##ular":452,"vis":453,"att":454,"##ros":455,"##ene":456,"##ention":457,"reg":458,"mo":459,"bl":460,"high":461,"perform":462,"lang":463,"mach":464,"##ics":465,"appro":466,"##nal":467,"##onom":468,"##led":469,"health":470,"pre":471,"eng":472,"rob":473,"##ert":474,"hum":475,"##ah":476,"##ability":477,"sem":478,"##pt":479,"po":480,"so":481,"##ik":482,"##edic":483,"langu":484,"##fer":485,"##gan":486,"car":487,"performance":488,"##ron":489,"design":490,"mark":491,"gro":492,"##ession":493,"graph":494,"new":495,"##io":496,"cons":497,"process":498,"application":499,"##hip":500,"##ognition":501,"sm":502,"##ient":503,"kn":504,"##ale":505,"conv":506,"##atic":507,"predic":508,"pers":509,"##ital":510,"language":511,"##line":512,"##vis":513,"##xx":514,"##ive":515,"##ord":516,"development":517,"##int":518,"##ok":519,"##ering":520,"diff":521,"commun":522,"es":523,"##ulation":524,"##formation":525,"##ie":526,"##tit":527,"##havi":528,"##ines":529,"sim":530,"##ight":531,"fl":532,"##ern":533,"##ile":534,"##ption":535,"machine":536,"##ind":537,"time":538,"behavi":539,"##port":540,"##rib":541,"approach":542,"##tin":543,"recognition":544,"human":545,"elect":546,"##ures":547,"education":548,"##ency":549,"##ock":550,"##por":551,"dist":552,"sens":553,"dec":554,"##ery":555,"work":556,"struct":557,"##rop":558,"convolution":559,"##ective":560,"##ite":561,"id":562,"##one":563,"##gor":564,"bo":565,"systems":566,"impact":567,"##art":568,"know":569,"optim":570,"produc":571,"effects":572,"##unc":573,"organ":574,"non":575,"online":576,"##ann":577,"under":578,"200":579,"self":580,"sec":581,"##acter":582,"##ub":583,"##ft":584,"##king":585,"gl":586,"qual":587,"##ledge":588,"acc":589,"##oy":590,"classification":591,"child":592,"syn":593,"char":594,"##ynam":595,"##out":596,"##ological":597,"##up":598,"##ond":599,"##ience":600,"evalu":601,"information":602,"intern":603,"##ithm":604,"##sy":605,"effic":606,"##yl":607,"##tis":608,"knowledge":609,"##uring":610,"super":611,"algor":612,"##ee":613,"inv":614,"vide":615,"##iqu":616,"teach":617,"mat":618,"##ental":619,"##aw":620,"students":621,"fact":622,"##ne":623,"algorithm":624,"##ole":625,"prot":626,"##ax":627,"convolutional":628,"theory":629,"sup":630,"##emic":631,"##ward":632,"##ateg":633,"ed":634,"differ":635,"##acy":636,"vi":637,"##ree":638,"mon":639,"##yp":640,"influ":641,"##tif":642,"loc":643,"##vir":644,"##ple":645,"inc":646,"cell":647,"##ome":648,"##riv":649,"##ail":650,"fr":651,"imag":652,"##su":653,"##ore":654,"disc":655,"impro":656,"##uction":657,"fin":658,"##les":659,"##ium":660,"micro":661,"##ons":662,"visual":663,"##iness":664,"br":665,"##viron":666,"##unction":667,"compu":668,"exper":669,"extr":670,"strateg":671,"dynam":672,"##tivity":673,"sub":674,"ins":675,"##na":676,"##ware":677,"##ower":678,"environ":679,"##ination":680,"cr":681,"##ool":682,"ris":683,"gu":684,"real":685,"surve":686,"spe":687,"##ier":688,"##ized":689,"econom":690,"##esent":691,"##mentation":692,"text":693,"environment":694,"##ina":695,"seman":696,"##arm":697,"cap":698,"quality":699,"autom":700,"models":701,"intell":702,"##ings":703,"##lex":704,"##eh":705,"##rain":706,"seg":707,"##sych":708,"##af":709,"##ential":710,"sk":711,"##pos":712,"##iel":713,"ret":714,"##ration":715,"##een":716,"technology":717,"##vised":718,"expl":719,"##ym":720,"##rim":721,"do":722,"##ness":723,"##20":724,"##raph":725,"##esis":726,"tem":727,"lin":728,"behavior":729,"10":730,"##ise":731,"resp":732,"prog":733,"jour":734,"cy":735,"chang":736,"video":737,"object":738,"media":739,"plan":740,"##iter":741,"survey":742,"##erap":743,"##ral":744,"##ty":745,"bus":746,"function":747,"mem":748,"dig":749,"vari":750,"##ension":751,"assess":752,"##blem":753,"##ugh":754,"serv":755,"risk":756,"problem":757,"##tern":758,"identi":759,"##ates":760,"##ets":761,"phys":762,"journal":763,"##onal":764,"jo":765,"repr":766,"compar":767,"modeling":768,"psych":769,"use":770,"evaluation":771,"over":772,"how":773,"adap":774,"##reat":775,"meas":776,"mob":777,"##iss":778,"intellig":779,"##ix":780,"sol":781,"arch":782,"##eter":783,"##ren":784,"##ities":785,"##itive":786,"##ich":787,"mus":788,"##az":789,"##fl":790,"impl":791,"pat":792,"##ber":793,"betw":794,"##ung":795,"##atis":796,"pu":797,"between":798,"are":799,"##ox":800,"fram":801,"##ences":802,"represent":803,"training":804,"indust":805,"cult":806,"out":807,"relations":808,"##ash":809,"##ety":810,"advers":811,"ge":812,"school":813,"improv":814,"case":815,"semantic":816,"lo":817,"##ergy":818,"##ivers":819,"red":820,"af":821,"prediction":822,"estim":823,"gam":824,"##urr":825,"##ank":826,"end":827,"fil":828,"pos":829,"##usion":830,"nan":831,"def":832,"##aj":833,"##ask":834,"##br":835,"business":836,"pati":837,"pe":838,"tw":839,"bu":840,"water":841,"##ev":842,"##man":843,"##its":844,"distrib":845,"segmentation":846,"power":847,"prac":848,"##ross":849,"mal":850,"character":851,"##otion":852,"##ins":853,"##lation":854,"##ai":855,"communication":856,"##ator":857,"role":858,"##oth":859,"##arial":860,"sing":861,"##oring":862,"##ograph":863,"via":864,"sal":865,"##rough":866,"energy":867,"digital":868,"what":869,"toward":870,"scale":871,"del":872,"vir":873,"attention":874,"dom":875,"local":876,"##aus":877,"integ":878,"publ":879,"form":880,"adversarial":881,"##ars":882,"##ue":883,"rad":884,"##als":885,"coll":886,"rein":887,"spec":888,"anti":889,"##ere":890,"##echan":891,"##struction":892,"##air":893,"dr":894,"##ision":895,"##old":896,"##omm":897,"lab":898,"ser":899,"ep":900,"level":901,"##forc":902,"no":903,"emb":904,"all":905,"lif":906,"##ane":907,"care":908,"##oph":909,"sign":910,"assessment":911,"3d":912,"dep":913,"##ping":914,"##arge":915,"perce":916,"optimization":917,"##til":918,"nat":919,"##itect":920,"methods":921,"##ework":922,"##och":923,"grow":924,"##ied":925,"##ex":926,"univers":927,"low":928,"vol":929,"dise":930,"food":931,"organization":932,"##eness":933,"techniqu":934,"##urs":935,"soft":936,"##dition":937,"##ield":938,"reinforc":939,"##mar":940,"##osis":941,"gr":942,"##ancer":943,"##urity":944,"eth":945,"you":946,"architect":947,"##ploy":948,"mobile":949,"ro":950,"##erapy":951,"mechan":952,"##istic":953,"engine":954,"##etic":955,"structure":956,"international":957,"through":958,"ear":959,"generation":960,"relationship":961,"##agn":962,"corr":963,"liter":964,"##ein":965,"nor":966,"##ave":967,"children":968,"hist":969,"program":970,"framework":971,"applications":972,"min":973,"efficient":974,"intelligence":975,"##nn":976,"##ld":977,"##ector":978,"xxx":979,"cancer":980,"sl":981,"emotion":982,"##pression":983,"##icial":984,"artif":985,"identif":986,"aff":987,"consum":988,"##de":989,"##tor":990,"##estion":991,"au":992,"##ode":993,"##of":994,"stress":995,"glob":996,"##edd":997,"##omet":998,"factors":999,"##cl":1000,"##ices":1001,"cent":1002,"lead":1003,"##uk":1004,"sex":1005,"et":1006,"dynamic":1007,"rem":1008,"##esc":1009,"##eting":1010,"valu":1011,"##ource":1012,"ur":1013,"typ":1014,"##urrent":1015,"hyd":1016,"chall":1017,"treat":1018,"sw":1019,"##esh":1020,"##aking":1021,"sam":1022,"##lish":1023,"prof":1024,"natural":1025,"phil":1026,"er":1027,"##ma":1028,"its":1029,"##eric":1030,"adv":1031,"##oud":1032,"##acc":1033,"polic":1034,"##anding":1035,"##unt":1036,"financ":1037,"estimation":1038,"##abil":1039,"map":1040,"can":1041,"science":1042,"cross":1043,"proper":1044,"smart":1045,"##bo":1046,"conc":1047,"##ays":1048,"dem":1049,"growth":1050,"##iti":1051,"##astic":1052,"global":1053,"##ey":1054,"##ick":1055,"##gen":1056,"enh":1057,"large":1058,"cal":1059,"gre":1060,"mor":1061,"synth":1062,"post":1063,"##ete":1064,"equ":1065,"among":1066,"treatment":1067,"nov":1068,"la":1069,"##ference":1070,"fir":1071,"artificial":1072,"not":1073,"influence":1074,"mater":1075,"##df":1076,"coron":1077,"computer":1078,"##ipp":1079,"##oci":1080,"##ake":1081,"##ison":1082,"teaching":1083,"199":1084,"face":1085,"##ements":1086,"embedd":1087,"air":1088,"li":1089,"fac":1090,"it":1091,"bar":1092,"reinforcement":1093,"security":1094,"towards":1095,"##inc":1096,"translation":1097,"compos":1098,"employ":1099,"during":1100,"chem":1101,"web":1102,"##ae":1103,"veh":1104,"##idence":1105,"##nov":1106,"english":1107,"processing":1108,"life":1109,"about":1110,"vehic":1111,"long":1112,"underst":1113,"hand":1114,"transfer":1115,"up":1116,"##oss":1117,"clust":1118,"public":1119,"financial":1120,"##cept":1121,"##face":1122,"##erc":1123,"##ext":1124,"path":1125,"##asi":1126,"change":1127,"read":1128,"decision":1129,"##he":1130,"bre":1131,"memory":1132,"domain":1133,"##oid":1134,"##ectiv":1135,"robot":1136,"##ression":1137,"##ema":1138,"search":1139,"marketing":1140,"general":1141,"flow":1142,"state":1143,"transform":1144,"single":1145,"##ose":1146,"service":1147,"cam":1148,"phot":1149,"##rial":1150,"task":1151,"speech":1152,"##ally":1153,"disease":1154,"personal":1155,"pap":1156,"feature":1157,"ox":1158,"sequ":1159,"##istics":1160,"recomm":1161,"patients":1162,"associ":1163,"##izing":1164,"clin":1165,"##ler":1166,"question":1167,"dan":1168,"dir":1169,"##duction":1170,"##row":1171,"2020":1172,"enhanc":1173,"cloud":1174,"##inal":1175,"##ible":1176,"wom":1177,"industry":1178,"ter":1179,"##son":1180,"##amil":1181,"china":1182,"architecture":1183,"##eth":1184,"extraction":1185,"images":1186,"##te":1187,"enc":1188,"##ost":1189,"##ress":1190,"wor":1191,"ul":1192,"word":1193,"zh":1194,"novel":1195,"understanding":1196,"##ership":1197,"gov":1198,"robust":1199,"##ling":1200,"##ana":1201,"activity":1202,"pot":1203,"##itation":1204,"context":1205,"cust":1206,"top":1207,"go":1208,"##ases":1209,"engineering":1210,"##atory":1211,"term":1212,"acad":1213,"pattern":1214,"quan":1215,"##acking":1216,"project":1217,"spati":1218,"math":1219,"supervised":1220,"open":1221,"##irus":1222,"driv":1223,"culture":1224,"properties":1225,"policy":1226,"acid":1227,"log":1228,"custom":1229,"pdf":1230,"rand":1231,"##ten":1232,"rep":1233,"innov":1234,"##atures":1235,"spect":1236,"##ner":1237,"##sc":1238,"mov":1239,"two":1240,"physical":1241,"representation":1242,"##ying":1243,"multiple":1244,"market":1245,"material":1246,"economic":1247,"##ban":1248,"##tig":1249,"##ants":1250,"##ronic":1251,"university":1252,"perception":1253,"brain":1254,"##iency":1255,"##pect":1256,"cre":1257,"medical":1258,"persp":1259,"##ire":1260,"support":1261,"software":1262,"dim":1263,"production":1264,"block":1265,"##ples":1266,"fre":1267,"##tice":1268,"tur":1269,"field":1270,"carb":1271,"##ta":1272,"##ton":1273,"fast":1274,"##ission":1275,"sensor":1276,"##iety":1277,"therm":1278,"cur":1279,"automatic":1280,"##tual":1281,"##aly":1282,"adaptive":1283,"challeng":1284,"test":1285,"fu":1286,"##ound":1287,"light":1288,"interaction":1289,"priv":1290,"##rad":1291,"techniques":1292,"##ecting":1293,"student":1294,"fib":1295,"complex":1296,"##avirus":1297,"##ography":1298,"##enz":1299,"ir":1300,"experim":1301,"literature":1302,"##ones":1303,"determ":1304,"monit":1305,"therapy":1306,"random":1307,"cost":1308,"hyper":1309,"govern":1310,"##au":1311,"computing":1312,"##ke":1313,"##ao":1314,"##els":1315,"exam":1316,"oper":1317,"##tivation":1318,"ent":1319,"##ffic":1320,"clinical":1321,"##ms":1322,"##ages":1323,"mining":1324,"oc":1325,"comb":1326,"##ize":1327,"grad":1328,"cri":1329,"condition":1330,"aud":1331,"studies":1332,"philipp":1333,"##co":1334,"identification":1335,"cogn":1336,"emp":1337,"##net":1338,"build":1339,"mental":1340,"analy":1341,"##vention":1342,"##ching":1343,"##ific":1344,"##ces":1345,"world":1346,"##arch":1347,"distribution":1348,"off":1349,"##brid":1350,"conn":1351,"tes":1352,"land":1353,"ver":1354,"space":1355,"group":1356,"val":1357,"tool":1358,"planning":1359,"caus":1360,"coronavirus":1361,"##oll":1362,"challenges":1363,"generative":1364,"##pervised":1365,"measur":1366,"##asc":1367,"##ults":1368,"plant":1369,"virtual":1370,"sil":1371,"vacc":1372,"dev":1373,"##elling":1374,"##u00":1375,"neu":1376,"value":1377,"sust":1378,"import":1379,"famil":1380,"##outh":1381,"##par":1382,"suppl":1383,"their":1384,"sum":1385,"##idual":1386,"##ute":1387,"##lam":1388,"features":1389,"afric":1390,"back":1391,"filter":1392,"recommend":1393,"internet":1394,"temper":1395,"oil":1396,"##ected":1397,"##atisf":1398,"unsu":1399,"academic":1400,"cognitive":1401,"simulation":1402,"ste":1403,"comparison":1404,"##uted":1405,"learn":1406,"strategy":1407,"hydro":1408,"chines":1409,"synthesis":1410,"##mal":1411,"diagn":1412,"##poral":1413,"doc":1414,"sustain":1415,"imm":1416,"saf":1417,"unsupervised":1418,"india":1419,"sars":1420,"##arg":1421,"chinese":1422,"drug":1423,"pres":1424,"point":1425,"respon":1426,"strategies":1427,"action":1428,"community":1429,"##ined":1430,"##irc":1431,"##ody":1432,"##fact":1433,"ol":1434,"2019":1435,"evidence":1436,"satisf":1437,"women":1438,"americ":1439,"##ble":1440,"evolution":1441,"skill":1442,"resolution":1443,"shar":1444,"concept":1445,"history":1446,"urban":1447,"##zz":1448,"fer":1449,"free":1450,"num":1451,"##onic":1452,"##hn":1453,"sym":1454,"response":1455,"factor":1456,"guid":1457,"related":1458,"##ogy":1459,"my":1460,"##imate":1461,"different":1462,"cnn":1463,"nurs":1464,"##ument":1465,"problems":1466,"ben":1467,"##lin":1468,"partic":1469,"##rete":1470,"pop":1471,"carbon":1472,"monitoring":1473,"tracking":1474,"art":1475,"lim":1476,"green":1477,"inves":1478,"clustering":1479,"##ators":1480,"##cle":1481,"hybrid":1482,"##han":1483,"##cop":1484,"divers":1485,"##iver":1486,"epid":1487,"press":1488,"##ks":1489,"leadership":1490,"flu":1491,"tour":1492,"dimension":1493,"##ps":1494,"satisfaction":1495,"##ativ":1496,"view":1497,"gender":1498,"intro":1499,"mechanism":1500,"pur":1501,"customer":1502,"stre":1503,"music":1504,"attack":1505,"eu":1506,"algorithms":1507,"##cri":1508,"pand":1509,"induc":1510,"il":1511,"aug":1512,"statis":1513,"soil":1514,"selection":1515,"##ibility":1516,"feed":1517,"##ull":1518,"second":1519,"mot":1520,"har":1521,"temperature":1522,"dens":1523,"##ham":1524,"##ada":1525,"lay":1526,"solution":1527,"##active":1528,"meta":1529,"region":1530,"south":1531,"construction":1532,"fut":1533,"princ":1534,"prim":1535,"const":1536,"add":1537,"job":1538,"##ape":1539,"cat":1540,"improving":1541,"pen":1542,"##land":1543,"cry":1544,"bel":1545,"##osp":1546,"that":1547,"environmental":1548,"game":1549,"##com":1550,"##ris":1551,"set":1552,"##bi":1553,"investig":1554,"adapt":1555,"mol":1556,"linear":1557,"bat":1558,"circ":1559,"neg":1560,"dav":1561,"##ude":1562,"##oun":1563,"implement":1564,"philippines":1565,"cop":1566,"##lo":1567,"reading":1568,"poly":1569,"type":1570,"thin":1571,"datas":1572,"vehicle":1573,"peng":1574,"##order":1575,"ic":1576,"unc":1577,"##ening":1578,"##ange":1579,"chain":1580,"est":1581,"sci":1582,"organizational":1583,"her":1584,"##val":1585,"dri":1586,"innovation":1587,"hel":1588,"##ya":1589,"##rient":1590,"corpor":1591,"report":1592,"##ength":1593,"advanc":1594,"##inary":1595,"dynamics":1596,"loss":1597,"ans":1598,"##ki":1599,"small":1600,"##ont":1601,"##ule":1602,"big":1603,"early":1604,"param":1605,"##asting":1606,"##ogen":1607,"effectiv":1608,"shot":1609,"consumer":1610,"temporal":1611,"##oper":1612,"artic":1613,"motion":1614,"correl":1615,"compl":1616,"wast":1617,"spatial":1618,"pain":1619,"aware":1620,"joint":1621,"##abor":1622,"series":1623,"perspective":1624,"law":1625,"prob":1626,"making":1627,"infer":1628,"##anking":1629,"mathema":1630,"11":1631,"product":1632,"max":1633,"##ote":1634,"comput":1635,"biom":1636,"mag":1637,"##ful":1638,"tri":1639,"adol":1640,"card":1641,"hier":1642,"##ese":1643,"effectiveness":1644,"der":1645,"manu":1646,"bal":1647,"##sp":1648,"building":1649,"bay":1650,"2018":1651,"ww":1652,"fem":1653,"##olar":1654,"plat":1655,"las":1656,"##ury":1657,"##aster":1658,"surface":1659,"respons":1660,"ling":1661,"##ality":1662,"integr":1663,"vision":1664,"auth":1665,"user":1666,"family":1667,"future":1668,"agric":1669,"##ited":1670,"##oma":1671,"poli":1672,"practice":1673,"mc":1674,"##ites":1675,"distributed":1676,"ang":1677,"color":1678,"ann":1679,"##ica":1680,"##uit":1681,"##ror":1682,"auto":1683,"##ean":1684,"##sh":1685,"##urn":1686,"climate":1687,"##ming":1688,"##acts":1689,"exp":1690,"##ving":1691,"nut":1692,"py":1693,"traffic":1694,"##own":1695,"systematic":1696,"##ason":1697,"##eti":1698,"protein":1699,"bios":1700,"attit":1701,"psychology":1702,"phase":1703,"john":1704,"one":1705,"recon":1706,"index":1707,"critical":1708,"##ications":1709,"hierarch":1710,"suc":1711,"tax":1712,"ma":1713,"##overy":1714,"cells":1715,"contr":1716,"contin":1717,"safety":1718,"will":1719,"need":1720,"content":1721,"tel":1722,"short":1723,"representations":1724,"mass":1725,"2016":1726,"##ior":1727,"##eless":1728,"electric":1729,"##ani":1730,"relation":1731,"agricult":1732,"body":1733,"issu":1734,"##19":1735,"mil":1736,"behaviour":1737,"##reh":1738,"resource":1739,"net":1740,"order":1741,"ai":1742,"age":1743,"##ara":1744,"##etes":1745,"adolesc":1746,"rate":1747,"##rology":1748,"av":1749,"##ully":1750,"##ified":1751,"bene":1752,"##ata":1753,"bio":1754,"##acion":1755,"edge":1756,"ped":1757,"year":1758,"##aling":1759,"frequ":1760,"prom":1761,"##ople":1762,"recurrent":1763,"coun":1764,"semi":1765,"##era":1766,"retri":1767,"supply":1768,"##any":1769,"##omy":1770,"2017":1771,"##ogene":1772,"introduction":1773,"##oding":1774,"resist":1775,"##ek":1776,"bank":1777,"##chain":1778,"embedding":1779,"recommendation":1780,"chann":1781,"sep":1782,"anim":1783,"diab":1784,"##ark":1785,"##eme":1786,"pharm":1787,"##uss":1788,"##orn":1789,"##eck":1790,"forec":1791,"testing":1792,"accur":1793,"black":1794,"code":1795,"potential":1796,"##rab":1797,"motor":1798,"people":1799,"adaptation":1800,"intr":1801,"importance":1802,"ext":1803,"source":1804,"genetic":1805,"characteristics":1806,"collabor":1807,"bert":1808,"##osph":1809,"2015":1810,"malays":1811,"##ometric":1812,"##eval":1813,"hear":1814,"stock":1815,"skills":1816,"wir":1817,"##hood":1818,"depend":1819,"lib":1820,"##hi":1821,"implementation":1822,"benef":1823,"expression":1824,"paper":1825,"peri":1826,"step":1827,"##reg":1828,"manufact":1829,"emerg":1830,"brand":1831,"senti":1832,"label":1833,"datab":1834,"compreh":1835,"www":1836,"comparative":1837,"motivation":1838,"lat":1839,"hyp":1840,"quantit":1841,"##amin":1842,"sensing":1843,"optical":1844,"inj":1845,"experience":1846,"first":1847,"fa":1848,"##put":1849,"##ther":1850,"##rag":1851,"##oder":1852,"obs":1853,"emotional":1854,"economy":1855,"mix":1856,"##aces":1857,"imaging":1858,"after":1859,"##ources":1860,"hom":1861,"david":1862,"autonom":1863,"privacy":1864,"##yt":1865,"pandemic":1866,"stand":1867,"cultural":1868,"##book":1869,"##etric":1870,"depression":1871,"measurement":1872,"##ancy":1873,"heter":1874,"##ci":1875,"##olic":1876,"medic":1877,"sequence":1878,"key":1879,"##ertain":1880,"##netic":1881,"##med":1882,"stor":1883,"198":1884,"tourism":1885,"##quir":1886,"##mod":1887,"prec":1888,"corporate":1889,"iot":1890,"dataset":1891,"effective":1892,"##ero":1893,"vaccination":1894,"higher":1895,"##yle":1896,"##emb":1897,"##illance":1898,"thermal":1899,"##enza":1900,"pul":1901,"blockchain":1902,"hosp":1903,"mac":1904,"answ":1905,"ke":1906,"war":1907,"ref":1908,"part":1909,"##iting":1910,"##enn":1911,"##isation":1912,"disorder":1913,"active":1914,"empir":1915,"affect":1916,"##ley":1917,"current":1918,"functional":1919,"##iation":1920,"##oice":1921,"three":1922,"epidemic":1923,"reality":1924,"wang":1925,"nit":1926,"optimal":1927,"event":1928,"teachers":1929,"tom":1930,"pa":1931,"well":1932,"structural":1933,"##ike":1934,"prop":1935,"##que":1936,"virology":1937,"anx":1938,"into":1939,"chemical":1940,"efficiency":1941,"sa":1942,"wind":1943,"hot":1944,"orient":1945,"hospital":1946,"##back":1947,"##room":1948,"##pling":1949,"conf":1950,"##ections":1951,"access":1952,"fuzz":1953,"vit":1954,"##eral":1955,"##ologies":1956,"vers":1957,"minim":1958,"xn":1959,"##roph":1960,"empirical":1961,"##ka":1962,"bayes":1963,"##tices":1964,"##ams":1965,"##gh":1966,"stat":1967,"frequency":1968,"pan":1969,"##sor":1970,"##ensive":1971,"##ived":1972,"fish":1973,"distance":1974,"influenza":1975,"cyber":1976,"transport":1977,"##ade":1978,"services":1979,"gas":1980,"does":1981,"##ino":1982,"mean":1983,"retrieval":1984,"weight":1985,"sentiment":1986,"##rix":1987,"home":1988,"##xic":1989,"europ":1990,"nursing":1991,"employee":1992,"wireless":1993,"##hy":1994,"rich":1995,"12":1996,"##eler":1997,"experimental":1998,"good":1999,"fusion":2000,"gene":2001,"depth":2002,"anxiety":2003,"intervention":2004,"ground":2005,"##ds":2006,"mapping":2007,"aer":2008,"##uan":2009,"bacter":2010,"assist":2011,"calc":2012,"africa":2013,"pal":2014,"##me":2015,"##war":2016,"quant":2017,"load":2018,"##itt":2019,"materials":2020,"wave":2021,"bro":2022,"success":2023,"mel":2024,"##ict":2025,"agg":2026,"colle":2027,"conference":2028,"enter":2029,"convers":2030,"composition":2031,"american":2032,"##lor":2033,"##ainst":2034,"inference":2035,"quantitative":2036,"stoch":2037,"electronic":2038,"driven":2039,"##16":2040,"diversity":2041,"concrete":2042,"why":2043,"##ging":2044,"ach":2045,"inh":2046,"uncertain":2047,"induced":2048,"port":2049,"stochastic":2050,"quantum":2051,"##idd":2052,"incre":2053,"platform":2054,"immun":2055,"molec":2056,"young":2057,"##hael":2058,"book":2059,"hous":2060,"trust":2061,"##position":2062,"mill":2063,"##gn":2064,"##ured":2065,"##mon":2066,"matrix":2067,"##10":2068,"##rome":2069,"normal":2070,"noise":2071,"malaysia":2072,"##ott":2073,"fail":2074,"##ven":2075,"ber":2076,"vs":2077,"automated":2078,"##isis":2079,"count":2080,"surg":2081,"continu":2082,"dial":2083,"fo":2084,"kar":2085,"defin":2086,"##ef":2087,"capital":2088,"manufacturing":2089,"bet":2090,"patient":2091,"##vision":2092,"invest":2093,"##iat":2094,"ren":2095,"pet":2096,"graphs":2097,"hierarchical":2098,"van":2099,"industrial":2100,"##u000":2101,"eg":2102,"##had":2103,"##way":2104,"improved":2105,"localization":2106,"electro":2107,"standard":2108,"targ":2109,"##ectional":2110,"pressure":2111,"##oor":2112,"proc":2113,"##ries":2114,"road":2115,"play":2116,"government":2117,"against":2118,"blood":2119,"synd":2120,"##ids":2121,"characterization":2122,"signal":2123,"diagnosis":2124,"pass":2125,"practices":2126,"psychological":2127,"bound":2128,"laser":2129,"##arse":2130,"##inger":2131,"wal":2132,"anom":2133,"heat":2134,"document":2135,"michael":2136,"##ye":2137,"vector":2138,"hard":2139,"inst":2140,"matching":2141,"metal":2142,"##otic":2143,"##arc":2144,"accoun":2145,"sle":2146,"##aging":2147,"##iger":2148,"##ink":2149,"gradient":2150,"band":2151,"liqu":2152,"##ends":2153,"autonomous":2154,"mut":2155,"##ocol":2156,"regular":2157,"##min":2158,"leg":2159,"##ray":2160,"personality":2161,"##itch":2162,"##idation":2163,"mode":2164,"integrated":2165,"technique":2166,"sn":2167,"##we":2168,"adver":2169,"xnxx":2170,"##uh":2171,"descri":2172,"polym":2173,"acceler":2174,"##itter":2175,"discrim":2176,"channel":2177,"reduction":2178,"stability":2179,"database":2180,"##ato":2181,"link":2182,"nanop":2183,"gan":2184,"mi":2185,"teacher":2186,"summar":2187,"##ides":2188,"exerc":2189,"hu":2190,"tree":2191,"##qual":2192,"transm":2193,"rou":2194,"sched":2195,"2013":2196,"##oul":2197,"waste":2198,"dam":2199,"2014":2200,"differential":2201,"capac":2202,"##ider":2203,"dual":2204,"college":2205,"jur":2206,"##bal":2207,"##12":2208,"##artic":2209,"##ias":2210,"person":2211,"results":2212,"conver":2213,"##otyp":2214,"##istry":2215,"##berg":2216,"associated":2217,"investigation":2218,"##orph":2219,"##ura":2220,"##enet":2221,"##ometry":2222,"dimensional":2223,"competi":2224,"heart":2225,"inform":2226,"size":2227,"primary":2228,"##ij":2229,"remote":2230,"national":2231,"regression":2232,"hem":2233,"compon":2234,"chen":2235,"##her":2236,"association":2237,"identity":2238,"den":2239,"2010":2240,"direct":2241,"tre":2242,"##mented":2243,"##angl":2244,"diabetes":2245,"lu":2246,"agent":2247,"farm":2248,"##ilar":2249,"##riting":2250,"dou":2251,"##iction":2252,"##ume":2253,"cardi":2254,"ram":2255,"lip":2256,"organic":2257,"changes":2258,"micros":2259,"statistical":2260,"fed":2261,"classroom":2262,"##ervation":2263,"instit":2264,"flex":2265,"##be":2266,"games":2267,"tum":2268,"solar":2269,"tun":2270,"overview":2271,"crow":2272,"foc":2273,"zhang":2274,"patterns":2275,"layer":2276,"strength":2277,"cooper":2278,"accounting":2279,"fuzzy":2280,"integration":2281,"##urve":2282,"isol":2283,"resistance":2284,"sat":2285,"main":2286,"trade":2287,"syndrome":2288,"reason":2289,"indiv":2290,"sleep":2291,"sustainable":2292,"infr":2293,"forecasting":2294,"##agement":2295,"##round":2296,"modelling":2297,"##tism":2298,"##ves":2299,"speed":2300,"##tal":2301,"##ights":2302,"##bert":2303,"advertis":2304,"metab":2305,"constrain":2306,"si":2307,"##ters":2308,"##repr":2309,"##linear":2310,"reconstruction":2311,"##aran":2312,"##ules":2313,"parti":2314,"simple":2315,"improve":2316,"issues":2317,"##erce":2318,"##pret":2319,"programming":2320,"banking":2321,"##ger":2322,"protocol":2323,"species":2324,"##uch":2325,"##ising":2326,"position":2327,"##pus":2328,"ess":2329,"definition":2330,"##urveillance":2331,"##rical":2332,"correlation":2333,"metric":2334,"efficacy":2335,"north":2336,"ill":2337,"mind":2338,"individual":2339,"men":2340,"intention":2341,"deg":2342,"arab":2343,"biosurveillance":2344,"bayesian":2345,"explor":2346,"sector":2347,"forest":2348,"line":2349,"sparse":2350,"##iology":2351,"##rist":2352,"jam":2353,"##care":2354,"##app":2355,"sent":2356,"price":2357,"molecular":2358,"pack":2359,"ont":2360,"virus":2361,"##stm":2362,"scal":2363,"jap":2364,"variational":2365,"mechanical":2366,"earth":2367,"##emia":2368,"classif":2369,"feedback":2370,"skin":2371,"##ourse":2372,"##itor":2373,"##ments":2374,"fund":2375,"##ely":2376,"thom":2377,"nonlinear":2378,"gh":2379,"pp":2380,"##mann":2381,"interpret":2382,"##entif":2383,"predict":2384,"pri":2385,"developing":2386,"##allel":2387,"transition":2388,"benefits":2389,"bias":2390,"area":2391,"simul":2392,"antib":2393,"viol":2394,"morph":2395,"##odes":2396,"2011":2397,"products":2398,"negative":2399,"some":2400,"maxim":2401,"hor":2402,"##tra":2403,"period":2404,"##tian":2405,"thinking":2406,"nutri":2407,"sun":2408,"breast":2409,"nanopartic":2410,"style":2411,"profession":2412,"requir":2413,"##aining":2414,"processes":2415,"resil":2416,"specific":2417,"attrib":2418,"residual":2419,"entrepr":2420,"phen":2421,"pregn":2422,"storage":2423,"##vement":2424,"educational":2425,"##enting":2426,"mig":2427,"voc":2428,"anten":2429,"wa":2430,"states":2431,"##tity":2432,"heterogene":2433,"functions":2434,"occ":2435,"liv":2436,"fiber":2437,"answering":2438,"achie":2439,"##ga":2440,"compression":2441,"diet":2442,"poll":2443,"andre":2444,"target":2445,"##ini":2446,"rot":2447,"##li":2448,"##ots":2449,"oral":2450,"scre":2451,"dialog":2452,"ah":2453,"vul":2454,"intelligent":2455,"##ories":2456,"2012":2457,"reduc":2458,"modern":2459,"parallel":2460,"pose":2461,"labor":2462,"driving":2463,"liquid":2464,"##water":2465,"##ollow":2466,"regul":2467,"sit":2468,"##11":2469,"##pers":2470,"population":2471,"lingu":2472,"medi":2473,"##uce":2474,"##hol":2475,"##tery":2476,"##hadap":2477,"##use":2478,"common":2479,"whe":2480,"applied":2481,"approaches":2482,"determin":2483,"stem":2484,"##oms":2485,"implications":2486,"entity":2487,"doi":2488,"bur":2489,"thesis":2490,"collaborative":2491,"bil":2492,"fab":2493,"islam":2494,"ii":2495,"head":2496,"similar":2497,"exploring":2498,"gold":2499,"scene":2500,"summarization":2501,"##res":2502,"error":2503,"magnetic":2504,"##bial":2505,"predicting":2506,"attacks":2507,"sus":2508,"terhadap":2509,"inhib":2510,"##di":2511,"cer":2512,"hab":2513,"wat":2514,"##ita":2515,"##press":2516,"four":2517,"##ables":2518,"sharing":2519,"exercise":2520,"##aph":2521,"positive":2522,"near":2523,"##ena":2524,"seed":2525,"types":2526,"##ky":2527,"##igation":2528,"movement":2529,"##ocation":2530,"##atio":2531,"city":2532,"dna":2533,"##ano":2534,"controlled":2535,"##orders":2536,"##vities":2537,"##ney":2538,"enhanced":2539,"##arian":2540,"##xim":2541,"##icit":2542,"##ense":2543,"element":2544,"##struct":2545,"##orts":2546,"diss":2547,"governance":2548,"pay":2549,"##to":2550,"entreprene":2551,"align":2552,"healthcare":2553,"plas":2554,"separ":2555,"more":2556,"util":2557,"record":2558,"bir":2559,"nar":2560,"stro":2561,"shape":2562,"iee":2563,"##emical":2564,"##ding":2565,"##icon":2566,"##elect":2567,"altern":2568,"ultr":2569,"tradition":2570,"plants":2571,"princi":2572,"##cep":2573,"15":2574,"nam":2575,"videos":2576,"##rogen":2577,"tub":2578,"##ows":2579,"##ru":2580,"pak":2581,"manip":2582,"kin":2583,"##ja":2584,"abd":2585,"deliv":2586,"mathematics":2587,"##ze":2588,"##itative":2589,"##istration":2590,"writing":2591,"##red":2592,"find":2593,"##ba":2594,"chronic":2595,"18":2596,"prov":2597,"society":2598,"special":2599,"##mark":2600,"san":2601,"##place":2602,"aust":2603,"anth":2604,"indian":2605,"robert":2606,"facial":2607,"##con":2608,"##chron":2609,"demand":2610,"anomaly":2611,"ens":2612,"weak":2613,"tan":2614,"used":2615,"versus":2616,"##ella":2617,"##comes":2618,"uncertainty":2619,"dc":2620,"magn":2621,"##rum":2622,"libr":2623,"japan":2624,"failure":2625,"formation":2626,"cryst":2627,"schedul":2628,"nav":2629,"attitude":2630,"##umar":2631,"differences":2632,"status":2633,"cos":2634,"##si":2635,"working":2636,"radio":2637,"transformer":2638,"fat":2639,"aspect":2640,"acti":2641,"jurnal":2642,"alex":2643,"rap":2644,"##bor":2645,"##oles":2646,"fore":2647,"structures":2648,"ide":2649,"##ographic":2650,"##stein":2651,"pros":2652,"experi":2653,"political":2654,"outcomes":2655,"##elet":2656,"enhancement":2657,"##hu":2658,"device":2659,"sar":2660,"prepar":2661,"strategic":2662,"##ees":2663,"reaction":2664,"les":2665,"##aya":2666,"cycle":2667,"medicine":2668,"##ief":2669,"bra":2670,"##quis":2671,"ak":2672,"##ances":2673,"autism":2674,"disorders":2675,"continuous":2676,"delivery":2677,"cu":2678,"uav":2679,"##po":2680,"##jective":2681,"regulation":2682,"awar":2683,"indones":2684,"##ca":2685,"##uck":2686,"trial":2687,"ieee":2688,"when":2689,"##ender":2690,"adults":2691,"##ios":2692,"13":2693,"nature":2694,"lstm":2695,"mas":2696,"nuc":2697,"center":2698,"enterpr":2699,"zero":2700,"##gar":2701,"##ida":2702,"stream":2703,"central":2704,"principles":2705,"focus":2706,"##atin":2707,"measuring":2708,"rh":2709,"liu":2710,"##ressive":2711,"bri":2712,"por":2713,"tal":2714,"##pro":2715,"##ula":2716,"sexual":2717,"cou":2718,"extract":2719,"environments":2720,"yang":2721,"shop":2722,"##aneous":2723,"embeddings":2724,"od":2725,"##raw":2726,"##epend":2727,"things":2728,"compet":2729,"##asing":2730,"engagement":2731,"numer":2732,"bangl":2733,"##roid":2734,"foreign":2735,"##ions":2736,"remov":2737,"bench":2738,"hypert":2739,"fine":2740,"##eration":2741,"##atan":2742,"density":2743,"reasoning":2744,"ray":2745,"##raft":2746,"##urance":2747,"##ulf":2748,"chris":2749,"internal":2750,"neuro":2751,"guided":2752,"few":2753,"qualitative":2754,"##ali":2755,"##encing":2756,"##ostic":2757,"advant":2758,"##cin":2759,"##copy":2760,"nutrition":2761,"down":2762,"augmented":2763,"advanced":2764,"##athy":2765,"##entific":2766,"##idad":2767,"ros":2768,"activities":2769,"##ceed":2770,"expos":2771,"resources":2772,"bey":2773,"purch":2774,"technologies":2775,"##umin":2776,"##aff":2777,"impacts":2778,"##ulum":2779,"org":2780,"tools":2781,"princip":2782,"behavioral":2783,"detecting":2784,"heterogeneous":2785,"germ":2786,"kh":2787,"##pu":2788,"uk":2789,"##da":2790,"news":2791,"evaluating":2792,"consumption":2793,"##itiz":2794,"awareness":2795,"lam":2796,"nano":2797,"crim":2798,"##ended":2799,"##lp":2800,"##ats":2801,"commerce":2802,"refl":2803,"without":2804,"computational":2805,"niger":2806,"##iang":2807,"adult":2808,"film":2809,"multimod":2810,"scholar":2811,"similarity":2812,"##mad":2813,"##pa":2814,"audit":2815,"aggreg":2816,"##uel":2817,"##iatric":2818,"##ouse":2819,"conditions":2820,"##quisition":2821,"abstr":2822,"conduc":2823,"confl":2824,"##verse":2825,"##aker":2826,"solutions":2827,"bor":2828,"bud":2829,"follow":2830,"thomas":2831,"base":2832,"##less":2833,"transmission":2834,"scheduling":2835,"##ectives":2836,"stroke":2837,"ct":2838,"rural":2839,"amb":2840,"##uation":2841,"##ola":2842,"na":2843,"concent":2844,"##gb":2845,"##eters":2846,"daniel":2847,"orig":2848,"trends":2849,"197":2850,"##tine":2851,"discovery":2852,"pada":2853,"prevention":2854,"devices":2855,"surgery":2856,"rev":2857,"electron":2858,"##enge":2859,"##icing":2860,"distil":2861,"ho":2862,"##ift":2863,"gram":2864,"prote":2865,"ham":2866,"##ints":2867,"electrical":2868,"ga":2869,"##istan":2870,"predictive":2871,"propag":2872,"company":2873,"##bas":2874,"reli":2875,"volume":2876,"article":2877,"composite":2878,"beyond":2879,"##hen":2880,"##ony":2881,"guide":2882,"like":2883,"autoenc":2884,"traditional":2885,"exch":2886,"being":2887,"squ":2888,"gir":2889,"decom":2890,"female":2891,"rice":2892,"initi":2893,"##13":2894,"scientific":2895,"##ious":2896,"2009":2897,"economics":2898,"fully":2899,"willi":2900,"lung":2901,"contrib":2902,"##ather":2903,"2008":2904,"grid":2905,"adop":2906,"core":2907,"vehicles":2908,"accurate":2909,"schools":2910,"##abilities":2911,"ps":2912,"wr":2913,"investment":2914,"agriculture":2915,"##15":2916,"theore":2917,"admin":2918,"cred":2919,"analytics":2920,"hol":2921,"##ste":2922,"##bers":2923,"##ending":2924,"fract":2925,"sampling":2926,"your":2927,"interface":2928,"perceptions":2929,"mechanisms":2930,"##ystem":2931,"fault":2932,"16":2933,"acquisition":2934,"austral":2935,"team":2936,"numerical":2937,"##eu":2938,"acous":2939,"tex":2940,"peer":2941,"reference":2942,"sustainability":2943,"dental":2944,"##ope":2945,"biological":2946,"da":2947,"mixed":2948,"du":2949,"2005":2950,"incl":2951,"practical":2952,"meaning":2953,"maj":2954,"##ett":2955,"##time":2956,"##izer":2957,"##ibration":2958,"steel":2959,"antenna":2960,"14":2961,"united":2962,"location":2963,"relationships":2964,"oxide":2965,"perceived":2966,"oriented":2967,"transformation":2968,"traject":2969,"##oney":2970,"challenge":2971,"pi":2972,"##zing":2973,"particip":2974,"ine":2975,"##portun":2976,"resilience":2977,"##pe":2978,"emission":2979,"sound":2980,"institution":2981,"##gu":2982,"##uration":2983,"determination":2984,"##cent":2985,"##ring":2986,"opportun":2987,"european":2988,"reson":2989,"multimodal":2990,"fit":2991,"semantics":2992,"advertising":2993,"ow":2994,"##estic":2995,"orth":2996,"##aves":2997,"ha":2998,"veg":2999,"proceed":3000,"adj":3001,"##14":3002,"##18":3003,"solving":3004,"turb":3005,"but":3006,"##etry":3007,"secondary":3008,"fri":3009,"##000":3010,"ion":3011,"##aruh":3012,"##oling":3013,"interactive":3014,"mu":3015,"##oti":3016,"##angan":3017,"ts":3018,"elder":3019,"##oh":3020,"differenti":3021,"ensem":3022,"mis":3023,"stage":3024,"gap":3025,"acute":3026,"##erty":3027,"structured":3028,"pc":3029,"##rative":3030,"less":3031,"##la":3032,"##gin":3033,"##wa":3034,"##za":3035,"##atal":3036,"led":3037,"brid":3038,"ethics":3039,"camera":3040,"stim":3041,"wall":3042,"##tile":3043,"goog":3044,"dop":3045,"crisis":3046,"ethical":3047,"curric":3048,"ultras":3049,"dys":3050,"kim":3051,"deb":3052,"eeg":3053,"##aria":3054,"recovery":3055,"white":3056,"diseases":3057,"yu":3058,"recent":3059,"finance":3060,"##ascular":3061,"##udes":3062,"cycl":3063,"mathematical":3064,"countries":3065,"tit":3066,"##ira":3067,"##alam":3068,"productivity":3069,"tumor":3070,"om":3071,"##lyc":3072,"paul":3073,"list":3074,"tis":3075,"indonesia":3076,"has":3077,"##bs":3078,"instruction":3079,"##itas":3080,"protection":3081,"kern":3082,"independ":3083,"##ava":3084,"##electric":3085,"mask":3086,"##ala":3087,"##ico":3088,"phosph":3089,"traum":3090,"gast":3091,"stere":3092,"employees":3093,"agricultural":3094,"dry":3095,"christ":3096,"chemistry":3097,"randomized":3098,"##pir":3099,"fertil":3100,"nanoparticles":3101,"deng":3102,"##ele":3103,"examples":3104,"##itis":3105,"infection":3106,"solid":3107,"sports":3108,"sentence":3109,"gar":3110,"comprehension":3111,"logic":3112,"number":3113,"##entic":3114,"methodology":3115,"lee":3116,"improvement":3117,"african":3118,"adolescents":3119,"other":3120,"song":3121,"technical":3122,"contact":3123,"spectral":3124,"##fe":3125,"modular":3126,"##play":3127,"scheme":3128,"conceptual":3129,"wel":3130,"pengaruh":3131,"cut":3132,"fix":3133,"exc":3134,"peter":3135,"encry":3136,"nur":3137,"17":3138,"hal":3139,"##osystem":3140,"##oxid":3141,"private":3142,"author":3143,"2007":3144,"activ":3145,"audio":3146,"wild":3147,"modal":3148,"obes":3149,"wide":3150,"moham":3151,"discrimin":3152,"##50":3153,"learners":3154,"##ises":3155,"radi":3156,"tissu":3157,"os":3158,"##iro":3159,"youth":3160,"##uls":3161,"belief":3162,"tol":3163,"##ns":3164,"##faces":3165,"proceedings":3166,"fra":3167,"##ball":3168,"##17":3169,"ship":3170,"##tification":3171,"barri":3172,"ultra":3173,"crop":3174,"coding":3175,"sin":3176,"##ush":3177,"across":3178,"repro":3179,"park":3180,"microbi":3181,"look":3182,"bid":3183,"range":3184,"##sorption":3185,"tens":3186,"##tions":3187,"##phone":3188,"2006":3189,"routing":3190,"##oo":3191,"recep":3192,"indic":3193,"sample":3194,"preserv":3195,"##ori":3196,"edition":3197,"affecting":3198,"ant":3199,"workplace":3200,"removal":3201,"mom":3202,"ru":3203,"##wave":3204,"present":3205,"literacy":3206,"##los":3207,"parameters":3208,"probabil":3209,"found":3210,"rom":3211,"alco":3212,"detect":3213,"richard":3214,"##eline":3215,"reh":3216,"cere":3217,"##ji":3218,"##acement":3219,"bond":3220,"arm":3221,"measure":3222,"chat":3223,"##nam":3224,"##irectional":3225,"robots":3226,"##osa":3227,"description":3228,"jun":3229,"lid":3230,"##off":3231,"##urb":3232,"##ullying":3233,"comprehensive":3234,"james":3235,"best":3236,"fair":3237,"##ount":3238,"nigeria":3239,"harm":3240,"box":3241,"##read":3242,"xxxx":3243,"toxic":3244,"particle":3245,"exposure":3246,"corpus":3247,"##struc":3248,"conditional":3249,"voice":3250,"##ado":3251,"glass":3252,"capacity":3253,"##ground":3254,"eye":3255,"accept":3256,"polymer":3257,"firm":3258,"acoustic":3259,"##nel":3260,"act":3261,"probabilistic":3262,"##ump":3263,"visualization":3264,"intrusion":3265,"latent":3266,"##quality":3267,"##ander":3268,"double":3269,"old":3270,"transl":3271,"invol":3272,"cho":3273,"secure":3274,"advances":3275,"exploration":3276,"nas":3277,"topic":3278,"computation":3279,"##hyd":3280,"##ran":3281,"##ges":3282,"respir":3283,"pakistan":3284,"##erated":3285,"##rating":3286,"plastic":3287,"assisted":3288,"experiences":3289,"interactions":3290,"pharmac":3291,"flexible":3292,"mer":3293,"##ora":3294,"exchange":3295,"propos":3296,"spectrum":3297,"metabol":3298,"az":3299,"connected":3300,"levels":3301,"filtering":3302,"injury":3303,"martin":3304,"pars":3305,"decomposition":3306,"mri":3307,"##let":3308,"years":3309,"sever":3310,"##ativity":3311,"professional":3312,"curriculum":3313,"childhood":3314,"##ochemical":3315,"validation":3316,"requirements":3317,"conflict":3318,"elderly":3319,"accuracy":3320,"cle":3321,"sport":3322,"tor":3323,"matter":3324,"##rin":3325,"##ismic":3326,"far":3327,"animal":3328,"fire":3329,"##akes":3330,"preval":3331,"muscle":3332,"kore":3333,"##lab":3334,"basic":3335,"##ube":3336,"driver":3337,"##eph":3338,"diffic":3339,"cs":3340,"ze":3341,"##ko":3342,"pollution":3343,"vulner":3344,"way":3345,"return":3346,"sympt":3347,"alignment":3348,"##ved":3349,"scen":3350,"google":3351,"##lear":3352,"generalized":3353,"prior":3354,"##eli":3355,"##iding":3356,"choice":3357,"##ops":3358,"finite":3359,"lith":3360,"repor":3361,"prost":3362,"proced":3363,"hypertension":3364,"threat":3365,"##atives":3366,"assessing":3367,"observ":3368,"##har":3369,"##ls":3370,"intra":3371,"consist":3372,"##auss":3373,"ca":3374,"##ford":3375,"allocation":3376,"attitudes":3377,"civ":3378,"finger":3379,"beam":3380,"franc":3381,"better":3382,"library":3383,"ba":3384,"##bra":3385,"bit":3386,"##ker":3387,"nlp":3388,"yield":3389,"styl":3390,"fluid":3391,"obesity":3392,"##ama":3393,"difference":3394,"kumar":3395,"sv":3396,"tab":3397,"responses":3398,"foot":3399,"wear":3400,"gi":3401,"pov":3402,"##mer":3403,"##tt":3404,"neigh":3405,"shap":3406,"income":3407,"ontology":3408,"pel":3409,"compan":3410,"##ova":3411,"multic":3412,"career":3413,"ratio":3414,"##ture":3415,"biology":3416,"query":3417,"robotic":3418,"2004":3419,"cd":3420,"binary":3421,"mir":3422,"therap":3423,"restor":3424,"ath":3425,"have":3426,"jos":3427,"ka":3428,"rac":3429,"total":3430,"biod":3431,"liver":3432,"may":3433,"induction":3434,"motiv":3435,"essential":3436,"##rich":3437,"ecosystem":3438,"speaking":3439,"objects":3440,"scalable":3441,"cm":3442,"sen":3443,"##itz":3444,"retail":3445,"physics":3446,"cluster":3447,"compound":3448,"measures":3449,"dense":3450,"##load":3451,"authentic":3452,"rock":3453,"##yan":3454,"##onia":3455,"rest":3456,"##ough":3457,"##va":3458,"discrete":3459,"alcohol":3460,"##over":3461,"polar":3462,"machines":3463,"battery":3464,"mort":3465,"mah":3466,"diffusion":3467,"explain":3468,"raj":3469,"approxim":3470,"##oyal":3471,"volt":3472,"moral":3473,"equations":3474,"achievement":3475,"dependent":3476,"lym":3477,"##ien":3478,"##ared":3479,"satell":3480,"##ropy":3481,"projects":3482,"setting":3483,"determinants":3484,"cas":3485,"##ii":3486,"statistics":3487,"iron":3488,"gal":3489,"midd":3490,"##igen":3491,"sea":3492,"experiment":3493,"pregnancy":3494,"prevalence":3495,"thr":3496,"variable":3497,"ethn":3498,"blu":3499,"side":3500,"##30":3501,"root":3502,"ax":3503,"who":3504,"hong":3505,"##cal":3506,"##elines":3507,"antioxid":3508,"histor":3509,"##pled":3510,"wood":3511,"anat":3512,"parameter":3513,"component":3514,"##iers":3515,"##ores":3516,"##anol":3517,"chlor":3518,"shoul":3519,"past":3520,"contextual":3521,"sand":3522,"prin":3523,"sensors":3524,"adoption":3525,"river":3526,"input":3527,"neur":3528,"equation":3529,"mit":3530,"pricing":3531,"travel":3532,"pil":3533,"concep":3534,"##rian":3535,"violence":3536,"chrom":3537,"2000":3538,"synchron":3539,"nitrogen":3540,"jus":3541,"##amp":3542,"cooperative":3543,"propagation":3544,"kr":3545,"relig":3546,"2003":3547,"ken":3548,"sav":3549,"##iotic":3550,"100":3551,"ast":3552,"pip":3553,"xx":3554,"indoor":3555,"inflam":3556,"theoretical":3557,"values":3558,"##vide":3559,"clos":3560,"hep":3561,"pep":3562,"##bit":3563,"##omic":3564,"cover":3565,"fraction":3566,"annot":3567,"spl":3568,"instr":3569,"abs":3570,"federated":3571,"alternative":3572,"full":3573,"ra":3574,"marine":3575,"##ooth":3576,"##kn":3577,"subs":3578,"ing":3579,"seismic":3580,"coord":3581,"delay":3582,"mr":3583,"##astr":3584,"mess":3585,"shopping":3586,"mur":3587,"pac":3588,"##come":3589,"##gl":3590,"within":3591,"pret":3592,"##ique":3593,"##ients":3594,"than":3595,"place":3596,"twitter":3597,"bacteria":3598,"occup":3599,"antim":3600,"tasks":3601,"counter":3602,"rapid":3603,"aid":3604,"perspectives":3605,"constraints":3606,"brow":3607,"augmentation":3608,"kernel":3609,"tissue":3610,"fash":3611,"##zym":3612,"disaster":3613,"workers":3614,"invent":3615,"entrepreneurs":3616,"purchase":3617,"##actic":3618,"##ami":3619,"explan":3620,"radar":3621,"veget":3622,"rf":3623,"##inking":3624,"vitamin":3625,"middle":3626,"##plas":3627,"circuit":3628,"rehabil":3629,"detector":3630,"reviews":3631,"mixt":3632,"fung":3633,"##band":3634,"relational":3635,"concepts":3636,"##ench":3637,"causes":3638,"articles":3639,"jud":3640,"##ulin":3641,"coping":3642,"lidar":3643,"##wan":3644,"##uments":3645,"##ogenic":3646,"lymph":3647,"coc":3648,"##att":3649,"##oli":3650,"##ota":3651,"crypt":3652,"emerging":3653,"partial":3654,"resid":3655,"##ival":3656,"ampl":3657,"survi":3658,"profit":3659,"gauss":3660,"##gi":3661,"pix":3662,"##aries":3663,"trajectory":3664,"fashion":3665,"##iance":3666,"##idity":3667,"membr":3668,"##ogram":3669,"transaction":3670,"independent":3671,"##ateral":3672,"blind":3673,"##iop":3674,"enhancing":3675,"invari":3676,"nurses":3677,"bone":3678,"##den":3679,"monoc":3680,"fron":3681,"she":3682,"##bu":3683,"biomed":3684,"dialogue":3685,"navigation":3686,"story":3687,"phone":3688,"degrad":3689,"poverty":3690,"ranking":3691,"##sa":3692,"##kan":3693,"##get":3694,"parents":3695,"damage":3696,"wavel":3697,"ban":3698,"##ifer":3699,"parad":3700,"publish":3701,"photo":3702,"##zation":3703,"agents":3704,"2001":3705,"ash":3706,"##encies":3707,"programs":3708,"ensemble":3709,"bidirectional":3710,"##icro":3711,"##igning":3712,"arg":3713,"variation":3714,"complexity":3715,"voltage":3716,"death":3717,"bab":3718,"##ests":3719,"jac":3720,"miss":3721,"##oe":3722,"hash":3723,"##men":3724,"star":3725,"##anda":3726,"call":3727,"dalam":3728,"##ectivity":3729,"##omb":3730,"##oders":3731,"see":3732,"credit":3733,"toler":3734,"gest":3735,"pair":3736,"modified":3737,"deno":3738,"enterprise":3739,"##ulus":3740,"preserving":3741,"synthetic":3742,"rank":3743,"sources":3744,"analys":3745,"separation":3746,"fraud":3747,"md":3748,"tag":3749,"universal":3750,"handbook":3751,"causal":3752,"deriv":3753,"mes":3754,"oste":3755,"sed":3756,"repl":3757,"insurance":3758,"intens":3759,"controller":3760,"##iological":3761,"theories":3762,"unified":3763,"quad":3764,"defect":3765,"sales":3766,"satellite":3767,"ju":3768,"##itivity":3769,"##acting":3770,"heav":3771,"xia":3772,"generalization":3773,"microwave":3774,"landsc":3775,"politics":3776,"adolescent":3777,"wil":3778,"##otherapy":3779,"fall":3780,"##itting":3781,"comple":3782,"adh":3783,"communities":3784,"measurements":3785,"isolation":3786,"classes":3787,"##flow":3788,"encoder":3789,"verification":3790,"help":3791,"inflamm":3792,"run":3793,"vo":3794,"##ists":3795,"generating":3796,"crystal":3797,"hr":3798,"pse":3799,"##78":3800,"##cher":3801,"##ourc":3802,"evolutionary":3803,"bul":3804,"bott":3805,"five":3806,"##ercial":3807,"interp":3808,"geor":3809,"papers":3810,"fluor":3811,"bh":3812,"interest":3813,"luc":3814,"##ez":3815,"sense":3816,"pem":3817,"rain":3818,"signific":3819,"upd":3820,"##heim":3821,"##yr":3822,"##aka":3823,"constit":3824,"ele":3825,"mos":3826,"nets":3827,"##ocr":3828,"exec":3829,"fp":3830,"distillation":3831,"major":3832,"bad":3833,"chap":3834,"responsibility":3835,"##aceu":3836,"##sequ":3837,"##copic":3838,"biomedical":3839,"america":3840,"iv":3841,"expect":3842,"civil":3843,"enzym":3844,"discourse":3845,"explo":3846,"vic":3847,"196":3848,"if":3849,"##tioning":3850,"rehabilitation":3851,"pseud":3852,"rub":3853,"anc":3854,"##the":3855,"##pc":3856,"ecological":3857,"imagery":3858,"irr":3859,"vaccine":3860,"william":3861,"##astruct":3862,"##sch":3863,"##rement":3864,"##word":3865,"##rap":3866,"ali":3867,"reinforced":3868,"needs":3869,"loyal":3870,"sor":3871,"##ional":3872,"retention":3873,"milk":3874,"due":3875,"je":3876,"increase":3877,"##rick":3878,"gaussian":3879,"very":3880,"subject":3881,"maps":3882,"anthrop":3883,"east":3884,"kal":3885,"##estern":3886,"means":3887,"recommender":3888,"contribution":3889,"pow":3890,"##urg":3891,"##iment":3892,"bag":3893,"dog":3894,"usa":3895,"commercial":3896,"fruit":3897,"symb":3898,"##ised":3899,"century":3900,"habit":3901,"completion":3902,"mad":3903,"stabil":3904,"leaf":3905,"smartphone":3906,"words":3907,"sig":3908,"gran":3909,"screening":3910,"##ras":3911,"##aching":3912,"questionna":3913,"older":3914,"##cer":3915,"##odynam":3916,"elements":3917,"islamic":3918,"cate":3919,"rna":3920,"relev":3921,"criter":3922,"regional":3923,"dil":3924,"mand":3925,"asia":3926,"mich":3927,"unit":3928,"policies":3929,"ict":3930,"vocab":3931,"linguistic":3932,"cann":3933,"efl":3934,"##ct":3935,"##anth":3936,"##plant":3937,"##vely":3938,"architectures":3939,"##fulness":3940,"pm":3941,"sr":3942,"tensor":3943,"iter":3944,"vel":3945,"##agram":3946,"sequential":3947,"ni":3948,"ner":3949,"drop":3950,"ger":3951,"firms":3952,"earthqu":3953,"##rens":3954,"##amine":3955,"transcri":3956,"rates":3957,"##iling":3958,"cyt":3959,"geometry":3960,"reliability":3961,"roles":3962,"neut":3963,"users":3964,"russ":3965,"lev":3966,"events":3967,"profile":3968,"creativity":3969,"background":3970,"##ycl":3971,"##olo":3972,"hypoth":3973,"21":3974,"poss":3975,"oxy":3976,"encryption":3977,"ng":3978,"##ulary":3979,"##ame":3980,"##ria":3981,"##erson":3982,"balance":3983,"##ception":3984,"phyt":3985,"benchmark":3986,"opportunities":3987,"companies":3988,"jan":3989,"##rh":3990,"infrared":3991,"ker":3992,"##ili":3993,"usage":3994,"und":3995,"communications":3996,"mainten":3997,"cour":3998,"asym":3999,"marc":4000,"correction":4001,"emergency":4002,"inver":4003,"categor":4004,"acceptance":4005,"dar":4006,"##ila":4007,"##ocial":4008,"enab":4009,"##ulations":4010,"compress":4011,"objective":4012,"vitro":4013,"wu":4014,"##ading":4015,"slam":4016,"operation":4017,"migration":4018,"##uate":4019,"selective":4020,"risks":4021,"derm":4022,"##vent":4023,"##alt":4024,"##rog":4025,"managing":4026,"##onomy":4027,"##u0002":4028,"regularization":4029,"##aceutical":4030,"##uits":4031,"agile":4032,"loyalty":4033,"mim":4034,"##eling":4035,"##olf":4036,"radiation":4037,"logistics":4038,"antioxidant":4039,"##set":4040,"alk":4041,"2002":4042,"heavy":4043,"site":4044,"organizations":4045,"symptoms":4046,"maintenance":4047,"codes":4048,"male":4049,"loop":4050,"transformers":4051,"infrastruct":4052,"eas":4053,"haz":4054,"##ss":4055,"fields":4056,"parsing":4057,"ef":4058,"glyc":4059,"ye":4060,"activation":4061,"##rip":4062,"##ylene":4063,"consumers":4064,"trees":4065,"fundam":4066,"banglad":4067,"cereb":4068,"outcome":4069,"entropy":4070,"combined":4071,"##embly":4072,"components":4073,"nurse":4074,"vocabulary":4075,"jul":4076,"sulf":4077,"##ted":4078,"##aki":4079,"markets":4080,"##ret":4081,"##osh":4082,"spir":4083,"synt":4084,"example":4085,"europe":4086,"dengan":4087,"own":4088,"5g":4089,"mam":4090,"##itary":4091,"hardware":4092,"##mi":4093,"##isa":4094,"output":4095,"sd":4096,"this":4097,"manif":4098,"plate":4099,"bacterial":4100,"aqu":4101,"exter":4102,"crime":4103,"denoising":4104,"burn":4105,"cit":4106,"osc":4107,"##by":4108,"scan":4109,"cellular":4110,"silicon":4111,"broad":4112,"combining":4113,"spr":4114,"conservation":4115,"inventory":4116,"##icrobial":4117,"dark":4118,"money":4119,"rules":4120,"win":4121,"##otics":4122,"identifying":4123,"embedded":4124,"guidelines":4125,"limit":4126,"day":4127,"lap":4128,"##34":4129,"##atch":4130,"board":4131,"happ":4132,"markov":4133,"graphene":4134,"expans":4135,"hotel":4136,"casc":4137,"avoid":4138,"bin":4139,"kid":4140,"coh":4141,"gluc":4142,"##otype":4143,"lithium":4144,"cul":4145,"oce":4146,"array":4147,"sciences":4148,"rgb":4149,"##cc":4150,"##rot":4151,"##ritis":4152,"addiction":4153,"reducing":4154,"ip":4155,"pend":4156,"suic":4157,"aging":4158,"1016":4159,"orientation":4160,"ball":4161,"##22":4162,"##gence":4163,"revis":4164,"formal":4165,"##ni":4166,"weakly":4167,"competence":4168,"restoration":4169,"bangladesh":4170,"lock":4171,"pemb":4172,"##ela":4173,"arth":4174,"carcin":4175,"preparation":4176,"colon":4177,"##ird":4178,"##09":4179,"chin":4180,"trading":4181,"supervision":4182,"mobility":4183,"composites":4184,"webs":4185,"maximum":4186,"kine":4187,"##vant":4188,"##tle":4189,"##jection":4190,"##tering":4191,"highly":4192,"frame":4193,"##eshold":4194,"groups":4195,"situ":4196,"##esti":4197,"track":4198,"behaviors":4199,"##utes":4200,"##ips":4201,"childrens":4202,"facil":4203,"competition":4204,"tak":4205,"##oon":4206,"che":4207,"competitive":4208,"adjust":4209,"force":4210,"cong":4211,"trop":4212,"##umb":4213,"areas":4214,"hydrogen":4215,"banks":4216,"tam":4217,"vent":4218,"##dis":4219,"##kin":4220,"##anch":4221,"reve":4222,"commit":4223,"##awa":4224,"domestic":4225,"switch":4226,"##ove":4227,"##u0000":4228,"##ytes":4229,"manipulation":4230,"ultrasound":4231,"ms":4232,"facebook":4233,"hub":4234,"ov":4235,"right":4236,"son":4237,"##atics":4238,"inequality":4239,"fundamental":4240,"lact":4241,"##ials":4242,"hiv":4243,"##istem":4244,"fati":4245,"##agen":4246,"##occ":4247,"simult":4248,"transportation":4249,"antimicrobial":4250,"##entive":4251,"##ased":4252,"balanc":4253,"plasma":4254,"respiratory":4255,"ci":4256,"##pal":4257,"##aps":4258,"##ophy":4259,"kom":4260,"abuse":4261,"diagnostic":4262,"mang":4263,"electrom":4264,"macro":4265,"living":4266,"questionnaire":4267,"2d":4268,"mak":4269,"##wor":4270,"##arb":4271,"##omorph":4272,"spread":4273,"##obacter":4274,"##ighting":4275,"##verage":4276,"imagenet":4277,"boundary":4278,"christian":4279,"hall":4280,"##oz":4281,"##adi":4282,"account":4283,"legal":4284,"following":4285,"don":4286,"fm":4287,"##metric":4288,"##eman":4289,"administration":4290,"landscape":4291,"##raf":4292,"reduce":4293,"weighted":4294,"ti":4295,"div":4296,"train":4297,"relax":4298,"buying":4299,"oxygen":4300,"fis":4301,"los":4302,"##gg":4303,"##ident":4304,"strain":4305,"##udinal":4306,"##ortex":4307,"25":4308,"##tik":4309,"android":4310,"iso":4311,"cognition":4312,"course":4313,"table":4314,"##cs":4315,"##2o":4316,"stack":4317,"##ache":4318,"designing":4319,"sensitive":4320,"robustness":4321,"barriers":4322,"mid":4323,"##ml":4324,"##lan":4325,"##38":4326,"##ql":4327,"socio":4328,"prefer":4329,"variability":4330,"##ungan":4331,"learned":4332,"drugs":4333,"external":4334,"##bot":4335,"forward":4336,"issue":4337,"which":4338,"##ehold":4339,"emotions":4340,"equity":4341,"ten":4342,"##iles":4343,"##udi":4344,"interventions":4345,"entrepreneurship":4346,"cities":4347,"##uth":4348,"##asa":4349,"strong":4350,"##itig":4351,"operations":4352,"street":4353,"infrastructure":4354,"22":4355,"ability":4356,"signals":4357,"instance":4358,"australia":4359,"christoph":4360,"24":4361,"##craft":4362,"perf":4363,"fresh":4364,"examination":4365,"shared":4366,"make":4367,"ocean":4368,"##agnetic":4369,"alz":4370,"atm":4371,"assembly":4372,"registration":4373,"implicit":4374,"gel":4375,"king":4376,"##39":4377,"alumin":4378,"corona":4379,"constrained":4380,"##ormal":4381,"##icity":4382,"communic":4383,"##neum":4384,"andrew":4385,"##therapy":4386,"pred":4387,"##oids":4388,"##weight":4389,"wheel":4390,"consider":4391,"##monary":4392,"advantage":4393,"neighbor":4394,"mesh":4395,"western":4396,"linking":4397,"musc":4398,"philos":4399,"simultaneous":4400,"##ulator":4401,"impair":4402,"coating":4403,"##illus":4404,"discrimination":4405,"wheat":4406,"kep":4407,"ss":4408,"##ypt":4409,"ell":4410,"##rosion":4411,"decisions":4412,"questions":4413,"ek":4414,"medium":4415,"threshold":4416,"que":4417,"sensitivity":4418,"longit":4419,"fuel":4420,"length":4421,"##iy":4422,"##anal":4423,"analyzing":4424,"aggregation":4425,"should":4426,"##ua":4427,"##usive":4428,"##ariate":4429,"volati":4430,"ceram":4431,"approximation":4432,"cad":4433,"pig":4434,"rule":4435,"tac":4436,"cold":4437,"##ster":4438,"microbial":4439,"pharmaceutical":4440,"meng":4441,"##idae":4442,"important":4443,"classifier":4444,"##amb":4445,"unt":4446,"##onomic":4447,"variables":4448,"concentration":4449,"increment":4450,"receptor":4451,"##grad":4452,"genome":4453,"##print":4454,"expansion":4455,"##ament":4456,"##oto":4457,"cause":4458,"hair":4459,"som":4460,"##porary":4461,"property":4462,"epidem":4463,"crowds":4464,"participation":4465,"pert":4466,"cardiac":4467,"consequ":4468,"integrating":4469,"femin":4470,"cosm":4471,"##32":4472,"moder":4473,"module":4474,"smith":4475,"##oster":4476,"roman":4477,"intensity":4478,"##des":4479,"##zil":4480,"##organ":4481,"robotics":4482,"depart":4483,"##rium":4484,"employment":4485,"autoencoder":4486,"longitudinal":4487,"##ultural":4488,"err":4489,"injection":4490,"therapeu":4491,"hop":4492,"reward":4493,"finding":4494,"mortality":4495,"transplant":4496,"manual":4497,"coff":4498,"various":4499,"##idden":4500,"cha":4501,"mexic":4502,"##xxx":4503,"cases":4504,"mitig":4505,"sod":4506,"membrane":4507,"##ika":4508,"flood":4509,"nucle":4510,"invariant":4511,"bim":4512,"attach":4513,"vulnerability":4514,"pixel":4515,"##no":4516,"##eries":4517,"moment":4518,"##itten":4519,"##encia":4520,"##inding":4521,"pin":4522,"##cn":4523,"##ployment":4524,"pyth":4525,"bullying":4526,"pneum":4527,"west":4528,"conversational":4529,"coupled":4530,"degradation":4531,"compens":4532,"metabolism":4533,"bib":4534,"bern":4535,"anton":4536,"##ulty":4537,"alzheim":4538,"xu":4539,"##bre":4540,"##effic":4541,"print":4542,"healthy":4543,"nuclear":4544,"historical":4545,"rum":4546,"##66":4547,"covid19":4548,"avail":4549,"ce":4550,"rod":4551,"chi":4552,"display":4553,"adam":4554,"##ensis":4555,"opin":4556,"aspects":4557,"origin":4558,"incremental":4559,"##rate":4560,"##ramid":4561,"regen":4562,"extreme":4563,"hydrox":4564,"kidney":4565,"commitment":4566,"pv":4567,"tut":4568,"##fol":4569,"##02":4570,"parent":4571,"##rey":4572,"span":4573,"couns":4574,"##asive":4575,"##odon":4576,"construc":4577,"##iento":4578,"flight":4579,"grammar":4580,"##well":4581,"##eding":4582,"##vex":4583,"reform":4584,"genes":4585,"tests":4586,"purpos":4587,"magnet":4588,"gall":4589,"##ayer":4590,"promotion":4591,"lower":4592,"ta":4593,"##qa":4594,"##oral":4595,"swarm":4596,"panel":4597,"converter":4598,"rail":4599,"##met":4600,"##nia":4601,"##itors":4602,"most":4603,"speaker":4604,"changing":4605,"rights":4606,"##35":4607,"viet":4608,"saliency":4609,"egypt":4610,"laboratory":4611,"##ourcing":4612,"frag":4613,"many":4614,"progress":4615,"defic":4616,"upper":4617,"pulse":4618,"abstract":4619,"##illing":4620,"##hao":4621,"##athan":4622,"calibration":4623,"encoding":4624,"creative":4625,"mutual":4626,"##sm":4627,"##roc":4628,"grained":4629,"reth":4630,"##clusion":4631,"records":4632,"porn":4633,"station":4634,"##una":4635,"##ewater":4636,"earthquake":4637,"kl":4638,"viv":4639,"##pan":4640,"influencing":4641,"ly":4642,"panc":4643,"##rous":4644,"only":4645,"next":4646,"collaboration":4647,"housing":4648,"fractional":4649,"jon":4650,"##orpor":4651,"##ester":4652,"##asis":4653,"rele":4654,"named":4655,"hidden":4656,"##house":4657,"##work":4658,"pra":4659,"sets":4660,"##gue":4661,"##ario":4662,"oxid":4663,"lik":4664,"modulation":4665,"analisis":4666,"grade":4667,"technological":4668,"criteria":4669,"##tial":4670,"##riction":4671,"smooth":4672,"extended":4673,"immune":4674,"proteins":4675,"start":4676,"##ream":4677,"chick":4678,"han":4679,"##inf":4680,"static":4681,"##ovascular":4682,"shift":4683,"innovative":4684,"bah":4685,"##eem":4686,"ana":4687,"##edia":4688,"##rone":4689,"pediatric":4690,"labeling":4691,"mediated":4692,"clean":4693,"gain":4694,"trig":4695,"aerial":4696,"crowd":4697,"avi":4698,"mm":4699,"underwater":4700,"intellect":4701,"##rase":4702,"brown":4703,"monocular":4704,"fpga":4705,"nic":4706,"##elle":4707,"##ogical":4708,"spaces":4709,"teen":4710,"elastic":4711,"factorization":4712,"trauma":4713,"relaxation":4714,"30":4715,"fake":4716,"##ilib":4717,"geometric":4718,"##ologi":4719,"scaling":4720,"standards":4721,"advantages":4722,"reproduc":4723,"surfaces":4724,"##rosp":4725,"oscill":4726,"node":4727,"##ima":4728,"co2":4729,"##oxide":4730,"nanoc":4731,"affects":4732,"huang":4733,"proposal":4734,"styles":4735,"##wal":4736,"##inity":4737,"##atitis":4738,"generator":4739,"defense":4740,"critic":4741,"forens":4742,"frank":4743,"quanti":4744,"##lands":4745,"##fa":4746,"prem":4747,"cloth":4748,"cris":4749,"presence":4750,"cataly":4751,"wastewater":4752,"derived":4753,"pyramid":4754,"metrics":4755,"survival":4756,"ech":4757,"hd":4758,"tang":4759,"##wr":4760,"##ulos":4761,"military":4762,"brazil":4763,"faster":4764,"ij":4765,"lag":4766,"tet":4767,"##acing":4768,"every":4769,"##oking":4770,"break":4771,"fixed":4772,"um":4773,"##char":4774,"albert":4775,"methyl":4776,"implant":4777,"promo":4778,"normalization":4779,"##personal":4780,"authentication":4781,"hen":4782,"##ways":4783,"coeffic":4784,"probability":4785,"chapter":4786,"##ulated":4787,"cla":4788,"##ynth":4789,"ecology":4790,"spectros":4791,"26":4792,"##yc":4793,"##graph":4794,"house":4795,"cement":4796,"##ho":4797,"##21":4798,"##36":4799,"manager":4800,"##aily":4801,"discuss":4802,"inspir":4803,"love":4804,"collection":4805,"narrative":4806,"jacob":4807,"great":4808,"nm":4809,"##oni":4810,"herit":4811,"precision":4812,"therapeutic":4813,"mun":4814,"##go":4815,"##opter":4816,"sti":4817,"alph":4818,"humans":4819,"formulation":4820,"coast":4821,"relative":4822,"texture":4823,"turbine":4824,"consequences":4825,"##elli":4826,"persist":4827,"intellectual":4828,"amaz":4829,"calcium":4830,"conversion":4831,"japanese":4832,"vietnam":4833,"kel":4834,"master":4835,"pict":4836,"##tain":4837,"##etch":4838,"phyl":4839,"traits":4840,"sensory":4841,"connection":4842,"pedag":4843,"carcinoma":4844,"atmosph":4845,"cav":4846,"hi":4847,"pad":4848,"check":4849,"##ologic":4850,"bol":4851,"citiz":4852,"dose":4853,"##box":4854,"##ister":4855,"##entang":4856,"##ometer":4857,"coal":4858,"movie":4859,"creation":4860,"copper":4861,"compliance":4862,"##eleton":4863,"anatomy":4864,"cath":4865,"##zan":4866,"##rid":4867,"perm":4868,"microf":4869,"principle":4870,"##sen":4871,"##iler":4872,"automation":4873,"interpretable":4874,"phenom":4875,"printing":4876,"##dm":4877,"##obic":4878,"spatio":4879,"cand":4880,"york":4881,"##veraging":4882,"breath":4883,"anne":4884,"##tica":4885,"##akan":4886,"contem":4887,"esc":4888,"comparing":4889,"1999":4890,"drive":4891,"blue":4892,"rethinking":4893,"tv":4894,"##yer":4895,"uses":4896,"trained":4897,"infant":4898,"patch":4899,"fatigue":4900,"mn":4901,"they":4902,"##erman":4903,"personalized":4904,"additive":4905,"cardiovascular":4906,"utilization":4907,"girl":4908,"bear":4909,"fog":4910,"lon":4911,"##itching":4912,"##rif":4913,"substr":4914,"malware":4915,"##lingual":4916,"turk":4917,"resonance":4918,"29":4919,"rab":4920,"##bility":4921,"multiv":4922,"lingual":4923,"refr":4924,"yout":4925,"##aman":4926,"prosp":4927,"office":4928,"##sk":4929,"absorption":4930,"pedest":4931,"bec":4932,"##ffer":4933,"##vier":4934,"stereo":4935,"era":4936,"##yg":4937,"##etal":4938,"##asp":4939,"prun":4940,"organis":4941,"linguistics":4942,"rig":4943,"##57":4944,"##ectors":4945,"##ically":4946,"metabolic":4947,"compounds":4948,"##dy":4949,"##oly":4950,"##ectomy":4951,"pulmonary":4952,"arabic":4953,"##u0000u0000":4954,"cb":4955,"gate":4956,"##jo":4957,"##eta":4958,"##ematic":4959,"##usc":4960,"##advant":4961,"##otechn":4962,"points":4963,"disclos":4964,"equilib":4965,"clouds":4966,"python":4967,"alge":4968,"sab":4969,"##40":4970,"##eller":4971,"recommendations":4972,"diverse":4973,"bridge":4974,"discriminative":4975,"wavelet":4976,"hypothesis":4977,"matth":4978,"item":4979,"joseph":4980,"cf":4981,"cot":4982,"esteem":4983,"packaging":4984,"constitu":4985,"eric":4986,"##dc":4987,"##tives":4988,"##inson":4989,"salient":4990,"confidence":4991,"fracture":4992,"aes":4993,"ok":4994,"##ians":4995,"disadvant":4996,"contain":4997,"surgical":4998,"daily":4999,"##otive":5000,"##thers":5001,"lex":5002,"decent":5003,"tele":5004,"fabric":5005,"cash":5006,"ven":5007,"##omes":5008,"theor":5009,"##opath":5010,"mari":5011,"wei":5012,"carlo":5013,"estimating":5014,"##rought":5015,"aircraft":5016,"iran":5017,"exploiting":5018,"bot":5019,"gis":5020,"##down":5021,"there":5022,"distr":5023,"boost":5024,"films":5025,"george":5026,"coffee":5027,"cin":5028,"rating":5029,"rout":5030,"##zo":5031,"##ito":5032,"##sts":5033,"##igu":5034,"modification":5035,"resta":5036,"singh":5037,"attribute":5038,"##hua":5039,"race":5040,"six":5041,"##normal":5042,"##49":5043,"##xiv":5044,"multilingual":5045,"influences":5046,"errors":5047,"third":5048,"##idi":5049,"recogn":5050,"descent":5051,"languages":5052,"simpl":5053,"birth":5054,"reporting":5055,"ku":5056,"rational":5057,"tin":5058,"tod":5059,"##emy":5060,"##ensus":5061,"coher":5062,"selected":5063,"salt":5064,"minimal":5065,"bip":5066,"##zi":5067,"##ishing":5068,"captioning":5069,"documents":5070,"oz":5071,"our":5072,"express":5073,"insect":5074,"mixture":5075,"preference":5076,"ethiop":5077,"hind":5078,"##iform":5079,"##ona":5080,"##ales":5081,"prel":5082,"##ologia":5083,"moving":5084,"iterative":5085,"contemporary":5086,"rat":5087,"##isy":5088,"##ils":5089,"progressive":5090,"silver":5091,"pregnant":5092,"justice":5093,"cerebral":5094,"attachment":5095,"ko":5096,"kes":5097,"##ulate":5098,"transpar":5099,"explaining":5100,"pathway":5101,"restaur":5102,"vac":5103,"##opathy":5104,"pron":5105,"dispers":5106,"earning":5107,"tomography":5108,"##uption":5109,"healing":5110,"insights":5111,"indicators":5112,"denti":5113,"##chool":5114,"disabilities":5115,"shad":5116,"##ikasi":5117,"mobil":5118,"interpretation":5119,"entrepreneur":5120,"tropical":5121,"inverse":5122,"##utation":5123,"neon":5124,"##rained":5125,"taxonomy":5126,"animals":5127,"hypers":5128,"arom":5129,"fal":5130,"ty":5131,"##ei":5132,"##tors":5133,"networking":5134,"attr":5135,"##isms":5136,"elementary":5137,"powder":5138,"##ny":5139,"##ols":5140,"parental":5141,"batch":5142,"fly":5143,"##ulose":5144,"tea":5145,"domin":5146,"##ether":5147,"contract":5148,"tomato":5149,"platforms":5150,"fertilizer":5151,"ble":5152,"##42":5153,"compact":5154,"scler":5155,"agency":5156,"combination":5157,"athl":5158,"occupational":5159,"cast":5160,"sant":5161,"horm":5162,"listening":5163,"##elihood":5164,"department":5165,"mouse":5166,"pun":5167,"##function":5168,"##atus":5169,"##activity":5170,"schiz":5171,"incorpor":5172,"household":5173,"ambient":5174,"instrument":5175,"dos":5176,"filters":5177,"beliefs":5178,"ancient":5179,"relevance":5180,"veloc":5181,"dur":5182,"yog":5183,"##60":5184,"interpersonal":5185,"repair":5186,"connectivity":5187,"##ogenesis":5188,"hip":5189,"##rations":5190,"##ulating":5191,"stef":5192,"positioning":5193,"alexander":5194,"brief":5195,"involvement":5196,"##ocracy":5197,"gps":5198,"nik":5199,"vib":5200,"##cd":5201,"##arding":5202,"obst":5203,"poor":5204,"contras":5205,"extension":5206,"stephen":5207,"paradig":5208,"sap":5209,"taking":5210,"##nas":5211,"corn":5212,"##flo":5213,"switching":5214,"##pectral":5215,"investigating":5216,"vibration":5217,"##rik":5218,"##illa":5219,"portfol":5220,"books":5221,"vl":5222,"##fall":5223,"##ecti":5224,"share":5225,"##ards":5226,"where":5227,"bangla":5228,"suicide":5229,"##37":5230,"dielectric":5231,"monte":5232,"svm":5233,"cannab":5234,"pancre":5235,"50":5236,"ib":5237,"zinc":5238,"##win":5239,"##isi":5240,"deform":5241,"asian":5242,"answer":5243,"emissions":5244,"sodium":5245,"release":5246,"eating":5247,"##48":5248,"##kat":5249,"convex":5250,"spin":5251,"##ifying":5252,"marri":5253,"mice":5254,"samples":5255,"address":5256,"youtube":5257,"decentral":5258,"drought":5259,"fan":5260,"mineral":5261,"palm":5262,"convergence":5263,"cv":5264,"##ashi":5265,"goal":5266,"revolution":5267,"institutional":5268,"abnormal":5269,"muse":5270,"##cious":5271,"gut":5272,"ri":5273,"wound":5274,"alb":5275,"maria":5276,"colum":5277,"suppor":5278,"dependency":5279,"website":5280,"jean":5281,"kon":5282,"##ifi":5283,"datasets":5284,"ja":5285,"prag":5286,"rog":5287,"basis":5288,"morphology":5289,"prospective":5290,"bac":5291,"##mo":5292,"##59":5293,"##rication":5294,"##penti":5295,"##asion":5296,"##ily":5297,"rece":5298,"##iversity":5299,"##ontal":5300,"minimum":5301,"dietary":5302,"tolerance":5303,"##emporal":5304,"kenya":5305,"vivo":5306,"ay":5307,"fel":5308,"sistem":5309,"tail":5310,"##itus":5311,"##ulties":5312,"stra":5313,"##imb":5314,"score":5315,"complement":5316,"mindfulness":5317,"cortex":5318,"iner":5319,"chip":5320,"1998":5321,"biomass":5322,"prospect":5323,"wearable":5324,"contrastive":5325,"##iate":5326,"##nd":5327,"prod":5328,"##ifier":5329,"##iotics":5330,"telec":5331,"payment":5332,"doped":5333,"gab":5334,"kong":5335,"live":5336,"vid":5337,"warm":5338,"##yte":5339,"##ratic":5340,"##ades":5341,"weather":5342,"automotive":5343,"buildings":5344,"multivariate":5345,"##kh":5346,"controll":5347,"foundations":5348,"korea":5349,"manifold":5350,"fear":5351,"arxiv":5352,"##ermal":5353,"##version":5354,"##escence":5355,"angle":5356,"increasing":5357,"philosophy":5358,"binding":5359,"##anger":5360,"##insic":5361,"alloy":5362,"sequences":5363,"isolated":5364,"initial":5365,"electromagnetic":5366,"pedestrian":5367,"28":5368,"##ux":5369,"applying":5370,"beta":5371,"tuning":5372,"tuberc":5373,"autoencoders":5374,"christopher":5375,"diction":5376,"##so":5377,"##entia":5378,"surveillance":5379,"analytical":5380,"country":5381,"irrigation":5382,"beng":5383,"pier":5384,"##ues":5385,"##ruit":5386,"##arth":5387,"##omics":5388,"prices":5389,"beh":5390,"gaming":5391,"germany":5392,"host":5393,"rc":5394,"para":5395,"spectroscopy":5396,"tong":5397,"##ette":5398,"apple":5399,"##ause":5400,"neuros":5401,"consistency":5402,"amazon":5403,"seas":5404,"absor":5405,"views":5406,"lar":5407,"mell":5408,"##ares":5409,"##chi":5410,"##ulture":5411,"matlab":5412,"##onald":5413,"renew":5414,"toxicity":5415,"difficulties":5416,"heritage":5417,"prelim":5418,"kam":5419,"##etary":5420,"diam":5421,"1997":5422,"directed":5423,"##based":5424,"lens":5425,"##dp":5426,"##yb":5427,"##cor":5428,"##arin":5429,"##asan":5430,"##earance":5431,"##osting":5432,"##pres":5433,"physic":5434,"grass":5435,"sliding":5436,"##operative":5437,"ment":5438,"yan":5439,"nepal":5440,"leak":5441,"##olding":5442,"affective":5443,"##opsis":5444,"opinion":5445,"rah":5446,"##onym":5447,"##emen":5448,"charge":5449,"circular":5450,"##media":5451,"northern":5452,"##pentier":5453,"##kar":5454,"##onics":5455,"##enda":5456,"##ikan":5457,"server":5458,"adjustment":5459,"cerv":5460,"eb":5461,"rnn":5462,"store":5463,"##otrop":5464,"lean":5465,"biof":5466,"subst":5467,"caps":5468,"disclosure":5469,"ring":5470,"wet":5471,"norm":5472,"passive":5473,"classifiers":5474,"principal":5475,"lessons":5476,"coordin":5477,"proof":5478,"noisy":5479,"customers":5480,"benefit":5481,"degree":5482,"attributes":5483,"fur":5484,"rol":5485,"was":5486,"##eet":5487,"##nostic":5488,"##ardi":5489,"bow":5490,"late":5491,"##dom":5492,"##aga":5493,"acet":5494,"evol":5495,"heur":5496,"##tina":5497,"stimulation":5498,"museum":5499,"##ives":5500,"apps":5501,"##arma":5502,"diagnos":5503,"conversation":5504,"##eb":5505,"##ilt":5506,"stan":5507,"multis":5508,"distric":5509,"topology":5510,"channels":5511,"get":5512,"##mm":5513,"adsorption":5514,"placement":5515,"semicon":5516,"hydrog":5517,"renal":5518,"habitat":5519,"possible":5520,"preliminary":5521,"ket":5522,"native":5523,"diagram":5524,"##luid":5525,"lightweight":5526,"explanations":5527,"update":5528,"nerve":5529,"regeneration":5530,"dh":5531,"nick":5532,"##oj":5533,"##ken":5534,"##wood":5535,"any":5536,"soci":5537,"camp":5538,"neurop":5539,"config":5540,"prostate":5541,"##video":5542,"jack":5543,"##45":5544,"grav":5545,"democracy":5546,"zhou":5547,"experiments":5548,"tai":5549,"##47":5550,"##ago":5551,"prol":5552,"##ococc":5553,"##ahan":5554,"enhance":5555,"maternal":5556,"morphological":5557,"untuk":5558,"27":5559,"bis":5560,"nd":5561,"##nt":5562,"##ingual":5563,"tooth":5564,"##ocal":5565,"disability":5566,"##ductor":5567,"creating":5568,"tib":5569,"wash":5570,"##esp":5571,"forests":5572,"##otox":5573,"preferences":5574,"dro":5575,"let":5576,"rr":5577,"var":5578,"##uli":5579,"##idth":5580,"sugar":5581,"##ardo":5582,"annotation":5583,"32":5584,"ey":5585,"jord":5586,"##teries":5587,"medication":5588,"1995":5589,"coupling":5590,"dor":5591,"##dd":5592,"##top":5593,"##ortion":5594,"thor":5595,"##ulosis":5596,"peru":5597,"##ajaran":5598,"zhu":5599,"safe":5600,"precip":5601,"miller":5602,"institutions":5603,"procedure":5604,"##ember":5605,"##ectal":5606,"terms":5607,"chatbot":5608,"raw":5609,"reverse":5610,"mother":5611,"canada":5612,"calculation":5613,"streaming":5614,"korean":5615,"mood":5616,"ved":5617,"offlo":5618,"##emes":5619,"##imm":5620,"clay":5621,"consensus":5622,"labour":5623,"dementia":5624,"drying":5625,"merg":5626,"pump":5627,"##olation":5628,"##ovol":5629,"charpentier":5630,"hydra":5631,"summ":5632,"nutrient":5633,"lipid":5634,"glucose":5635,"rib":5636,"##ximate":5637,"interview":5638,"arc":5639,"decoder":5640,"embry":5641,"costs":5642,"individuals":5643,"pilot":5644,"portfolio":5645,"00":5646,"lou":5647,"##tia":5648,"stev":5649,"##iana":5650,"expert":5651,"layout":5652,"cmos":5653,"pseudo":5654,"ethiopia":5655,"velocity":5656,"##hr":5657,"##do":5658,"##rel":5659,"phon":5660,"metam":5661,"##tination":5662,"gait":5663,"title":5664,"das":5665,"jer":5666,"##yu":5667,"trace":5668,"developmental":5669,"dimensions":5670,"debt":5671,"did":5672,"tech":5673,"ware":5674,"waves":5675,"##2v":5676,"worksh":5677,"collective":5678,"negoti":5679,"analog":5680,"mount":5681,"charles":5682,"##aire":5683,"refin":5684,"his":5685,"##itual":5686,"least":5687,"findings":5688,"drone":5689,"nec":5690,"##sn":5691,"##fs":5692,"##ptive":5693,"spo":5694,"filip":5695,"goals":5696,"operating":5697,"preschool":5698,"cnns":5699,"fmri":5700,"pruning":5701,"sg":5702,"arr":5703,"exploratory":5704,"ghana":5705,"reduced":5706,"enterprises":5707,"benchmar":5708,"consistent":5709,"gans":5710,"hed":5711,"nad":5712,"##vin":5713,"refer":5714,"match":5715,"##nover":5716,"acids":5717,"inspired":5718,"dram":5719,"##len":5720,"##80":5721,"parenting":5722,"colour":5723,"##ynchron":5724,"equip":5725,"transactions":5726,"transcription":5727,"##opl":5728,"##25":5729,"##uran":5730,"alg":5731,"##ensi":5732,"scat":5733,"optimized":5734,"overl":5735,"predictions":5736,"forecast":5737,"cyberb":5738,"mexico":5739,"bed":5740,"##ece":5741,"projection":5742,"metals":5743,"left":5744,"bilingual":5745,"equilibrium":5746,"hill":5747,"lind":5748,"##erior":5749,"##ecurity":5750,"##urch":5751,"amino":5752,"turn":5753,"vertical":5754,"complete":5755,"ahmed":5756,"severe":5757,"lexical":5758,"offloading":5759,"##iar":5760,"##bar":5761,"italy":5762,"distributions":5763,"##eletal":5764,"nutritional":5765,"fairness":5766,"pacific":5767,"chinas":5768,"compensation":5769,"##ski":5770,"##26":5771,"##enberg":5772,"##apor":5773,"metaph":5774,"meat":5775,"corruption":5776,"note":5777,"biodiversity":5778,"avoidance":5779,"##edom":5780,"##cholar":5781,"moist":5782,"##ophys":5783,"##board":5784,"horiz":5785,"significance":5786,"jones":5787,"##rd":5788,"##ogl":5789,"classical":5790,"eco":5791,"visualizing":5792,"southern":5793,"protocols":5794,"apl":5795,"##46":5796,"##ocytes":5797,"alert":5798,"unem":5799,"teams":5800,"flav":5801,"works":5802,"regions":5803,"saudi":5804,"dy":5805,"pic":5806,"wolf":5807,"##aut":5808,"##jan":5809,"antic":5810,"##oscopic":5811,"##rolysis":5812,"cord":5813,"asset":5814,"assign":5815,"visc":5816,"##tish":5817,"##renia":5818,"growing":5819,"maize":5820,"uv":5821,"##adian":5822,"bioc":5823,"##aze":5824,"room":5825,"topological":5826,"inflammatory":5827,"jenn":5828,"ming":5829,"##99":5830,"##cy":5831,"##field":5832,"##enth":5833,"##acchar":5834,"guidance":5835,"missing":5836,"lines":5837,"rats":5838,"##eliness":5839,"##argeting":5840,"identify":5841,"flows":5842,"coverage":5843,"schizoph":5844,"gun":5845,"ple":5846,"##rosis":5847,"esp":5848,"edu":5849,"insp":5850,"curve":5851,"limited":5852,"drivers":5853,"parametric":5854,"diabetic":5855,"##otypes":5856,"saving":5857,"burnout":5858,"pembel":5859,"cob":5860,"draw":5861,"neck":5862,"##amination":5863,"shah":5864,"recip":5865,"regarding":5866,"convolutions":5867,"turnover":5868,"differentiation":5869,"francis":5870,"forensic":5871,"kir":5872,"mt":5873,"tay":5874,"trib":5875,"##rs":5876,"##fare":5877,"studying":5878,"feas":5879,"##oxy":5880,"##manuel":5881,"collision":5882,"situation":5883,"##ococcus":5884,"duration":5885,"kur":5886,"pav":5887,"##overing":5888,"smes":5889,"signaling":5890,"lake":5891,"##osity":5892,"circuits":5893,"annual":5894,"marriage":5895,"##ovolta":5896,"citation":5897,"fak":5898,"lond":5899,"sah":5900,"##zh":5901,"##lim":5902,"##ille":5903,"##ayan":5904,"mechanics":5905,"globalization":5906,"monitor":5907,"supplement":5908,"electricity":5909,"substrate":5910,"ml":5911,"##iture":5912,"shock":5913,"universities":5914,"oxidation":5915,"linked":5916,"##ulsive":5917,"scenes":5918,"gated":5919,"ji":5920,"##ius":5921,"##fish":5922,"multipl":5923,"convention":5924,"edward":5925,"segment":5926,"##rophic":5927,"microscopy":5928,"semanticscholar":5929,"citizens":5930,"cotton":5931,"pid":5932,"sis":5933,"trend":5934,"##arios":5935,"##pted":5936,"terr":5937,"medicinal":5938,"fatty":5939,"aided":5940,"analyses":5941,"jin":5942,"wik":5943,"##che":5944,"shell":5945,"singap":5946,"farming":5947,"cutting":5948,"argument":5949,"cohort":5950,"cervical":5951,"fig":5952,"vag":5953,"##isting":5954,"##ilm":5955,"presc":5956,"accum":5957,"domains":5958,"validity":5959,"entrepreneurial":5960,"paradigm":5961,"ot":5962,"ole":5963,"##lic":5964,"##cion":5965,"##cience":5966,"diver":5967,"whole":5968,"flor":5969,"serum":5970,"farmers":5971,"friction":5972,"##part":5973,"conscious":5974,"nanof":5975,"constra":5976,"walk":5977,"antibacter":5978,"fabrication":5979,"promoting":5980,"district":5981,"had":5982,"java":5983,"displ":5984,"##phen":5985,"##ife":5986,"inters":5987,"shu":5988,"sha":5989,"leveraging":5990,"analytic":5991,"observation":5992,"aeros":5993,"habits":5994,"traumatic":5995,"activated":5996,"explainable":5997,"##graduate":5998,"dend":5999,"drag":6000,"god":6001,"khan":6002,"pt":6003,"##sis":6004,"##atum":6005,"staff":6006,"depress":6007,"metode":6008,"variations":6009,"resistant":6010,"susp":6011,"synchronous":6012,"jeff":6013,"fus":6014,"pall":6015,"##ses":6016,"##tz":6017,"##emistry":6018,"##sten":6019,"arbit":6020,"leaves":6021,"boosting":6022,"incidence":6023,"photovolta":6024,"successful":6025,"eastern":6026,"##dr":6027,"##elf":6028,"mary":6029,"capture":6030,"counting":6031,"gastric":6032,"enzyme":6033,"##odynamic":6034,"ovarian":6035,"jordan":6036,"precipitation":6037,"bod":6038,"cn":6039,"##otemporal":6040,"aden":6041,"##ello":6042,"1996":6043,"##owski":6044,"rfid":6045,"purpose":6046,"algebra":6047,"shadow":6048,"ari":6049,"file":6050,"hass":6051,"ice":6052,"zone":6053,"##53":6054,"##rup":6055,"##acle":6056,"suit":6057,"##iko":6058,"##tinc":6059,"direction":6060,"##being":6061,"##estinal":6062,"alzheimers":6063,"loneliness":6064,"rhe":6065,"##kins":6066,"anch":6067,"chest":6068,"##aks":6069,"interference":6070,"multit":6071,"physiological":6072,"minimization":6073,"kinetics":6074,"phenomen":6075,"page":6076,"##itos":6077,"##ementing":6078,"export":6079,"disch":6080,"paras":6081,"quasi":6082,"##space":6083,"tuberculosis":6084,"kol":6085,"lack":6086,"##fr":6087,"usability":6088,"police":6089,"coli":6090,"carri":6091,"databases":6092,"breathing":6093,"l2":6094,"##gs":6095,"##iton":6096,"revers":6097,"soccer":6098,"popular":6099,"partn":6100,"loading":6101,"administ":6102,"friend":6103,"happiness":6104,"workshop":6105,"singapore":6106,"fill":6107,"hay":6108,"wen":6109,"##eur":6110,"##ript":6111,"##ione":6112,"optimizing":6113,"careg":6114,"batteries":6115,"front":6116,"london":6117,"mp":6118,"##oft":6119,"##ril":6120,"##rak":6121,"emmanuel":6122,"simulations":6123,"inhibition":6124,"##omorphic":6125,"tc":6126,"ug":6127,"##din":6128,"##utive":6129,"##eed":6130,"##rof":6131,"##ustion":6132,"proxim":6133,"meh":6134,"blended":6135,"minor":6136,"leaders":6137,"womens":6138,"going":6139,"cooperation":6140,"coordination":6141,"message":6142,"theorem":6143,"nag":6144,"zhao":6145,"##ipl":6146,"##edy":6147,"shear":6148,"combin":6149,"profitability":6150,"##ih":6151,"##rus":6152,"##ket":6153,"touch":6154,"##fore":6155,"multimedia":6156,"timing":6157,"aluminum":6158,"tutor":6159,"40":6160,"cache":6161,"sud":6162,"##mail":6163,"##aro":6164,"##idine":6165,"rise":6166,"##urrence":6167,"mutation":6168,"ahmad":6169,"inclusion":6170,"balancing":6171,"##hard":6172,"conj":6173,"imper":6174,"##ador":6175,"neo":6176,"##actor":6177,"##iving":6178,"particles":6179,"hospitality":6180,"illness":6181,"alpha":6182,"##otechnology":6183,"around":6184,"ein":6185,"kat":6186,"lem":6187,"lig":6188,"wine":6189,"inp":6190,"##ellular":6191,"schm":6192,"immig":6193,"gastro":6194,"adhd":6195,"neighborhood":6196,"television":6197,"renewable":6198,"sites":6199,"##rant":6200,"##3d":6201,"##tur":6202,"##enter":6203,"stak":6204,"cham":6205,"basin":6206,"##tiveness":6207,"##iano":6208,"obj":6209,"influenc":6210,"demon":6211,"soils":6212,"biomark":6213,"reflection":6214,"returns":6215,"##hann":6216,"##bn":6217,"##anium":6218,"meg":6219,"percept":6220,"equival":6221,"descript":6222,"institute":6223,"momentum":6224,"pembelajaran":6225,"bub":6226,"hus":6227,"jia":6228,"sri":6229,"section":6230,"targeting":6231,"vary":6232,"##fo":6233,"##70":6234,"thick":6235,"##dering":6236,"visible":6237,"logistic":6238,"simulated":6239,"crowdsourcing":6240,"reproductive":6241,"mik":6242,"pub":6243,"##door":6244,"##28":6245,"##itory":6246,"containing":6247,"french":6248,"##ethyl":6249,"##ennis":6250,"rotation":6251,"antibacterial":6252,"lateral":6253,"tm":6254,"##uma":6255,"asynchron":6256,"grain":6257,"accident":6258,"editing":6259,"explicit":6260,"integral":6261,"readiness":6262,"movements":6263,"nanoparticle":6264,"interpre":6265,"perturb":6266,"put":6267,"##zed":6268,"##idal":6269,"stop":6270,"##chemical":6271,"cheng":6272,"marg":6273,"##bles":6274,"improves":6275,"budget":6276,"constraint":6277,"perceptual":6278,"lect":6279,"made":6280,"pit":6281,"ut":6282,"##ault":6283,"##las":6284,"##oreg":6285,"##leg":6286,"melan":6287,"ethnic":6288,"matthew":6289,"mellitus":6290,"##wise":6291,"##enia":6292,"##level":6293,"##ernand":6294,"specification":6295,"tunnel":6296,"##analysis":6297,"quantization":6298,"decentralized":6299,"equipment":6300,"cyberbullying":6301,"lor":6302,"##oir":6303,"##55":6304,"##lity":6305,"##acial":6306,"generic":6307,"##arities":6308,"disturb":6309,"twin":6310,"potato":6311,"spatiotemporal":6312,"judg":6313,"yeast":6314,"1016j":6315,"aw":6316,"bak":6317,"gpu":6318,"rd":6319,"tip":6320,"##emat":6321,"##pler":6322,"spring":6323,"truth":6324,"addition":6325,"plane":6326,"##ommun":6327,"labels":6328,"verbal":6329,"families":6330,"religion":6331,"mimo":6332,"border":6333,"kan":6334,"##eri":6335,"##urement":6336,"##omon":6337,"##forest":6338,"cooling":6339,"charging":6340,"##tifying":6341,"leader":6342,"1994":6343,"chains":6344,"intrinsic":6345,"girls":6346,"mohammad":6347,"banana":6348,"berg":6349,"##ataly":6350,"cond":6351,"reti":6352,"pooling":6353,"simon":6354,"1993":6355,"dependence":6356,"regularized":6357,"hashing":6358,"gesture":6359,"night":6360,"chao":6361,"##iah":6362,"sug":6363,"sociology":6364,"biometric":6365,"prevent":6366,"viral":6367,"1992":6368,"empower":6369,"layers":6370,"think":6371,"pharmacy":6372,"wellbeing":6373,"observations":6374,"##ju":6375,"though":6376,"deformation":6377,"reserv":6378,"disp":6379,"appearance":6380,"##ochond":6381,"repe":6382,"screen":6383,"reactions":6384,"racial":6385,"stabilization":6386,"mitigation":6387,"coefficient":6388,"neonatal":6389,"sad":6390,"ve":6391,"##56":6392,"##omp":6393,"##ulic":6394,"stable":6395,"island":6396,"textual":6397,"sympos":6398,"predictors":6399,"##2vec":6400,"bell":6401,"##nan":6402,"##nes":6403,"##jay":6404,"##onin":6405,"##eland":6406,"##tered":6407,"##fort":6408,"uniform":6409,"infants":6410,"##ajar":6411,"concern":6412,"##ontrol":6413,"anomal":6414,"mohamed":6415,"csr":6416,"photovoltaic":6417,"gear":6418,"##metry":6419,"##inter":6420,"##anes":6421,"##asser":6422,"approximate":6423,"locally":6424,"extrem":6425,"musical":6426,"forms":6427,"1990":6428,"freedom":6429,"penet":6430,"contrast":6431,"##iasis":6432,"british":6433,"cow":6434,"lew":6435,"##tique":6436,"##isal":6437,"##emann":6438,"exist":6439,"syl":6440,"interfer":6441,"sharma":6442,"attentive":6443,"mont":6444,"cybers":6445,"nanos":6446,"directions":6447,"amplifier":6448,"derivatives":6449,"compressed":6450,"coastal":6451,"symposium":6452,"pod":6453,"tap":6454,"##pta":6455,"operational":6456,"animation":6457,"mission":6458,"vr":6459,"thy":6460,"##cha":6461,"ord":6462,"skeleton":6463,"defined":6464,"crops":6465,"chicken":6466,"seasonal":6467,"must":6468,"now":6469,"sak":6470,"##du":6471,"##omatic":6472,"tow":6473,"imbal":6474,"spinal":6475,"templ":6476,"curv":6477,"feeding":6478,"mediating":6479,"pepti":6480,"##hma":6481,"##vic":6482,"##pp":6483,"##amiento":6484,"##ime":6485,"both":6486,"##head":6487,"integrity":6488,"williams":6489,"actu":6490,"reports":6491,"senior":6492,"restaurant":6493,"inertial":6494,"dong":6495,"hun":6496,"hans":6497,"##cr":6498,"dee":6499,"##ovic":6500,"interc":6501,"seq":6502,"options":6503,"polyn":6504,"profiles":6505,"erp":6506,"expon":6507,"assistance":6508,"ultrasonic":6509,"football":6510,"seeking":6511,"semiconductor":6512,"just":6513,"wire":6514,"yam":6515,"##eras":6516,"##iber":6517,"biop":6518,"times":6519,"knee":6520,"electronics":6521,"texts":6522,"presentation":6523,"facilit":6524,"considerations":6525,"earnings":6526,"incorporating":6527,"dictionary":6528,"gon":6529,"nich":6530,"pag":6531,"##idikan":6532,"adverse":6533,"catal":6534,"hearing":6535,"players":6536,"symbolic":6537,"epidemiology":6538,"haw":6539,"oh":6540,"ross":6541,"stein":6542,"enrich":6543,"alf":6544,"slow":6545,"faculty":6546,"##cipl":6547,"crystall":6548,"lesion":6549,"australian":6550,"merc":6551,"##can":6552,"##86":6553,"##omial":6554,"arts":6555,"volunt":6556,"oct":6557,"estab":6558,"harmonic":6559,"enabled":6560,"prospects":6561,"aque":6562,"bon":6563,"tend":6564,"##ilities":6565,"deposition":6566,"##rices":6567,"indigen":6568,"marker":6569,"insulin":6570,"##odynamics":6571,"ownership":6572,"scanning":6573,"bp":6574,"sectional":6575,"##elial":6576,"leon":6577,"##oke":6578,"epil":6579,"volum":6580,"same":6581,"harv":6582,"tube":6583,"heuristic":6584,"nil":6585,"nerv":6586,"##200":6587,"##aland":6588,"##uri":6589,"##uda":6590,"show":6591,"recruit":6592,"handling":6593,"myth":6594,"limb":6595,"accelerating":6596,"closed":6597,"pestic":6598,"vas":6599,"vill":6600,"##29":6601,"##27":6602,"forces":6603,"##otes":6604,"shi":6605,"recurs":6606,"plug":6607,"multil":6608,"##estr":6609,"##illary":6610,"controlling":6611,"physio":6612,"solub":6613,"fermentation":6614,"mcc":6615,"german":6616,"phosphor":6617,"mouth":6618,"##matic":6619,"detail":6620,"fitness":6621,"##giene":6622,"pendidikan":6623,"##worth":6624,"bibli":6625,"din":6626,"##idering":6627,"procurement":6628,"package":6629,"impairment":6630,"transplantation":6631,"atmospheric":6632,"asynchronous":6633,"37":6634,"hur":6635,"jian":6636,"lep":6637,"latin":6638,"rare":6639,"von":6640,"union":6641,"estimates":6642,"faces":6643,"movies":6644,"cattle":6645,"colorectal":6646,"antibiotic":6647,"porous":6648,"welding":6649,"kem":6650,"terap":6651,"##economic":6652,"them":6653,"##raining":6654,"units":6655,"intermed":6656,"intensive":6657,"before":6658,"agre":6659,"examining":6660,"introduc":6661,"picture":6662,"dip":6663,"##idopsis":6664,"##ours":6665,"##aving":6666,"isot":6667,"preven":6668,"##airy":6669,"##ochemistry":6670,"quantification":6671,"connections":6672,"populations":6673,"fourier":6674,"##rospective":6675,"bearing":6676,"refinement":6677,"feasibility":6678,"pear":6679,"##zer":6680,"##qi":6681,"onc":6682,"##osocial":6683,"##ioni":6684,"alm":6685,"unkn":6686,"scott":6687,"generated":6688,"##uki":6689,"sequencing":6690,"centered":6691,"wise":6692,"##une":6693,"phd":6694,"corrosion":6695,"worker":6696,"eds":6697,"fred":6698,"fibers":6699,"prepared":6700,"fungi":6701,"gur":6702,"kenn":6703,"##zen":6704,"##ride":6705,"##fc":6706,"##eld":6707,"cellulose":6708,"outbre":6709,"##health":6710,"iii":6711,"polarization":6712,"printed":6713,"##ynthesis":6714,"deformable":6715,"establish":6716,"indigenous":6717,"dairy":6718,"##lier":6719,"##yen":6720,"##alg":6721,"##alah":6722,"##atur":6723,"##imension":6724,"##obl":6725,"##anced":6726,"leuk":6727,"blo":6728,"extracting":6729,"implementing":6730,"lifest":6731,"photos":6732,"keyword":6733,"nearest":6734,"##point":6735,"focused":6736,"dropout":6737,"distress":6738,"benchmarking":6739,"ting":6740,"ways":6741,"##sl":6742,"##uting":6743,"##fig":6744,"##33":6745,"##andra":6746,"option":6747,"##bling":6748,"##0000":6749,"flash":6750,"decre":6751,"signature":6752,"##scale":6753,"groundwater":6754,"waterm":6755,"victor":6756,"syntax":6757,"ceramic":6758,"demonstr":6759,"##national":6760,"##etti":6761,"##pert":6762,"shif":6763,"heating":6764,"##ested":6765,"architectural":6766,"trials":6767,"bridging":6768,"##tl":6769,"##olith":6770,"##chair":6771,"modality":6772,"phill":6773,"systemic":6774,"margin":6775,"hygiene":6776,"coronary":6777,"woman":6778,"numbers":6779,"estate":6780,"obser":6781,"window":6782,"pcr":6783,"significant":6784,"unemployment":6785,"venti":6786,"reb":6787,"metall":6788,"increased":6789,"tanzan":6790,"idea":6791,"substit":6792,"bottom":6793,"jennifer":6794,"kons":6795,"##cut":6796,"##iaz":6797,"desc":6798,"##anne":6799,"salmon":6800,"offic":6801,"lattice":6802,"##structure":6803,"restric":6804,"defects":6805,"adhes":6806,"stefan":6807,"aqueous":6808,"fid":6809,"pts":6810,"sql":6811,"yolo":6812,"##eal":6813,"##rec":6814,"##prop":6815,"##ritic":6816,"##ady":6817,"##pher":6818,"intel":6819,"##iley":6820,"##anka":6821,"directional":6822,"constant":6823,"hazard":6824,"athletes":6825,"complementary":6826,"bart":6827,"furn":6828,"lub":6829,"tro":6830,"##cast":6831,"##via":6832,"##isc":6833,"ster":6834,"##eption":6835,"##ugg":6836,"moh":6837,"##oken":6838,"inductive":6839,"##ogenetic":6840,"reliable":6841,"execution":6842,"enabling":6843,"cosmetic":6844,"filipino":6845,"moisture":6846,"assignment":6847,"schizophrenia":6848,"unknown":6849,"dm":6850,"pd":6851,"vert":6852,"thail":6853,"##odic":6854,"##rie":6855,"##atif":6856,"multilevel":6857,"##hai":6858,"whats":6859,"pathways":6860,"actions":6861,"instructional":6862,"##discipl":6863,"36":6864,"bou":6865,"pest":6866,"##hz":6867,"anter":6868,"##olas":6869,"##izers":6870,"asph":6871,"infections":6872,"biog":6873,"##okine":6874,"extracts":6875,"##quiry":6876,"version":6877,"immunity":6878,"download":6879,"purchasing":6880,"alkal":6881,"last":6882,"##97":6883,"##88":6884,"##itude":6885,"##rod":6886,"##olym":6887,"##omer":6888,"##essel":6889,"metast":6890,"malaria":6891,"empathy":6892,"##param":6893,"limits":6894,"arabidopsis":6895,"disadvantages":6896,"thailand":6897,"buck":6898,"lic":6899,"##olov":6900,"oxford":6901,"steam":6902,"informal":6903,"treated":6904,"birds":6905,"##written":6906,"varying":6907,"ale":6908,"hoc":6909,"pages":6910,"pasc":6911,"##ea":6912,"##titis":6913,"anis":6914,"##ectic":6915,"anderson":6916,"imitation":6917,"perme":6918,"##roll":6919,"meeting":6920,"cali":6921,"barb":6922,"helic":6923,"snow":6924,"hydroxy":6925,"container":6926,"supporting":6927,"faktor":6928,"deepl":6929,"hir":6930,"##him":6931,"##uf":6932,"##inear":6933,"##chlor":6934,"sexy":6935,"acceleration":6936,"siam":6937,"mirror":6938,"categorization":6939,"##espond":6940,"epilep":6941,"cpu":6942,"##oa":6943,"##alian":6944,"##ided":6945,"reas":6946,"party":6947,"ammon":6948,"chemotherapy":6949,"combustion":6950,"genetics":6951,"walking":6952,"waters":6953,"limitations":6954,"dw":6955,"gy":6956,"lign":6957,"tec":6958,"##aine":6959,"##54":6960,"##inform":6961,"proces":6962,"##ensen":6963,"contamination":6964,"##ptake":6965,"correspond":6966,"1991":6967,"contracts":6968,"raman":6969,"aggregate":6970,"mitochond":6971,"pneumonia":6972,"steven":6973,"inspection":6974,"gil":6975,"pup":6976,"church":6977,"dead":6978,"##atively":6979,"imped":6980,"monetary":6981,"capability":6982,"adolescence":6983,"asthma":6984,"explanation":6985,"average":6986,"dut":6987,"vascular":6988,"##alan":6989,"##atri":6990,"##plan":6991,"tracing":6992,"die":6993,"managers":6994,"schol":6995,"considering":6996,"subjective":6997,"terminal":6998,"angi":6999,"abdul":7000,"dogs":7001,"gri":7002,"##map":7003,"##rat":7004,"##role":7005,"pref":7006,"smoking":7007,"##anna":7008,"profiling":7009,"determining":7010,"harves":7011,"regulatory":7012,"inhibitors":7013,"foundation":7014,"organisational":7015,"jing":7016,"nak":7017,"rao":7018,"##kit":7019,"deeper":7020,"appar":7021,"undergraduate":7022,"textile":7023,"cascade":7024,"aviation":7025,"mild":7026,"wifi":7027,"##ku":7028,"##aled":7029,"inquiry":7030,"anna":7031,"##oda":7032,"depos":7033,"##obia":7034,"matrices":7035,"outs":7036,"slot":7037,"searching":7038,"fibre":7039,"##cope":7040,"laws":7041,"playing":7042,"intentions":7043,"##gbt":7044,"racism":7045,"revisiting":7046,"jonathan":7047,"maritime":7048,"column":7049,"nickel":7050,"tanzania":7051,"dol":7052,"kill":7053,"##bc":7054,"##oys":7055,"##ince":7056,"##enko":7057,"##uld":7058,"cohen":7059,"invasive":7060,"synthes":7061,"vehicular":7062,"handwritten":7063,"chromat":7064,"clothing":7065,"summary":7066,"cod":7067,"cass":7068,"lie":7069,"laz":7070,"much":7071,"##day":7072,"##mission":7073,"##nut":7074,"interfaces":7075,"retrospective":7076,"links":7077,"ethanol":7078,"terti":7079,"informatics":7080,"fractures":7081,"axis":7082,"syntactic":7083,"cannabis":7084,"scattering":7085,"anterior":7086,"roy":7087,"stig":7088,"cook":7089,"##afa":7090,"variance":7091,"neurom":7092,"##rophy":7093,"inhibitor":7094,"spiritual":7095,"lapar":7096,"accumulation":7097,"consciousness":7098,"recruitment":7099,"fol":7100,"muc":7101,"rid":7102,"take":7103,"tao":7104,"##uz":7105,"##thal":7106,"spot":7107,"spain":7108,"artery":7109,"##ante":7110,"##title":7111,"##evin":7112,"##manent":7113,"flux":7114,"wavegu":7115,"targets":7116,"dougl":7117,"barrier":7118,"zealand":7119,"teenag":7120,"sclerosis":7121,"hydraulic":7122,"hole":7123,"ns":7124,"##hib":7125,"##gun":7126,"##ompos":7127,"##usa":7128,"##essive":7129,"seaw":7130,"thermo":7131,"preservation":7132,"ideal":7133,"sediment":7134,"neutral":7135,"wheelchair":7136,"available":7137,"bang":7138,"##uum":7139,"##58":7140,"##phones":7141,"##akis":7142,"commons":7143,"##reek":7144,"##till":7145,"topics":7146,"##bridge":7147,"authors":7148,"johnson":7149,"hemat":7150,"prosth":7151,"oxidative":7152,"microfluid":7153,"washing":7154,"kle":7155,"zak":7156,"result":7157,"acm":7158,"contamin":7159,"urinary":7160,"kinder":7161,"friends":7162,"phosphate":7163,"discussion":7164,"friendly":7165,"bill":7166,"cuc":7167,"tion":7168,"##hed":7169,"##mp":7170,"##rane":7171,"##inder":7172,"learner":7173,"##iza":7174,"##force":7175,"compass":7176,"##ques":7177,"pla":7178,"evaluate":7179,"sketch":7180,"expend":7181,"##otropic":7182,"vectors":7183,"##31":7184,"retin":7185,"##thes":7186,"interior":7187,"organisation":7188,"branch":7189,"outdoor":7190,"peel":7191,"descriptive":7192,"split":7193,"hubungan":7194,"taiwan":7195,"aerosol":7196,"##imensional":7197,"benz":7198,"cab":7199,"lan":7200,"lac":7201,"##ocard":7202,"##plet":7203,"atlan":7204,"processor":7205,"realistic":7206,"archae":7207,"radical":7208,"periph":7209,"informed":7210,"inverter":7211,"citizenship":7212,"interpreting":7213,"ses":7214,"##nis":7215,"##oline":7216,"conform":7217,"##iva":7218,"behavio":7219,"conditioning":7220,"procedures":7221,"interpolation":7222,"rubber":7223,"bipolar":7224,"lifestyle":7225,"hid":7226,"ig":7227,"kind":7228,"kaz":7229,"##erts":7230,"##inting":7231,"##emi":7232,"##aceae":7233,"##urring":7234,"##itted":7235,"bitco":7236,"inflammation":7237,"trigger":7238,"warehouse":7239,"kas":7240,"mening":7241,"##rill":7242,"##jar":7243,"transist":7244,"appra":7245,"psychiatric":7246,"philip":7247,"clinic":7248,"statement":7249,"advertisement":7250,"spanish":7251,"route":7252,"conventional":7253,"discharge":7254,"io":7255,"##sky":7256,"##kle":7257,"##pass":7258,"##osing":7259,"##plastic":7260,"##eping":7261,"multid":7262,"indices":7263,"agro":7264,"mothers":7265,"##inton":7266,"prototype":7267,"##ichi":7268,"promote":7269,"mixtures":7270,"residential":7271,"fundamentals":7272,"deficiency":7273,"ptsd":7274,"tertiary":7275,"60":7276,"kit":7277,"sul":7278,"stages":7279,"##earning":7280,"##ires":7281,"##ovsk":7282,"losses":7283,"##wei":7284,"microsoft":7285,"illum":7286,"conductivity":7287,"dysfunction":7288,"volatility":7289,"douglas":7290,"lum":7291,"pick":7292,"rs":7293,"ric":7294,"session":7295,"##isl":7296,"spars":7297,"multiscale":7298,"height":7299,"polyp":7300,"queries":7301,"autoreg":7302,"cart":7303,"month":7304,"geo":7305,"##othy":7306,"greg":7307,"compositional":7308,"electrode":7309,"accelerator":7310,"cyclic":7311,"turkey":7312,"thickness":7313,"db":7314,"fun":7315,"yun":7316,"chec":7317,"##irm":7318,"baseline":7319,"diode":7320,"arter":7321,"##geting":7322,"hex":7323,"understand":7324,"##ogenous":7325,"microbiota":7326,"published":7327,"taylor":7328,"cp":7329,"equal":7330,"gard":7331,"##rated":7332,"##79":7333,"##araj":7334,"##eto":7335,"##amy":7336,"attend":7337,"organizing":7338,"schedule":7339,"utility":7340,"21st":7341,"##odontic":7342,"multitask":7343,"nc":7344,"pine":7345,"tell":7346,"vin":7347,"##eda":7348,"bases":7349,"isch":7350,"assem":7351,"incenti":7352,"crack":7353,"characteristic":7354,"transformational":7355,"philippine":7356,"connect":7357,"oils":7358,"flexibility":7359,"talent":7360,"fried":7361,"welfare":7362,"lymphocytes":7363,"bacillus":7364,"cele":7365,"gao":7366,"herm":7367,"jose":7368,"sag":7369,"u000":7370,"uptake":7371,"yong":7372,"##mas":7373,"##uries":7374,"##mental":7375,"spoken":7376,"lexic":7377,"decon":7378,"incom":7379,"nanot":7380,"delta":7381,"laur":7382,"correlates":7383,"attribution":7384,"##borne":7385,"rhiz":7386,"budgeting":7387,"publishing":7388,"##organic":7389,"curr":7390,"##pur":7391,"##irect":7392,"resnet":7393,"parts":7394,"##ophil":7395,"herbal":7396,"name":7397,"##itization":7398,"squares":7399,"fluorescence":7400,"moderating":7401,"likelihood":7402,"persistent":7403,"yoga":7404,"empowerment":7405,"bron":7406,"fdi":7407,"him":7408,"honey":7409,"ira":7410,"sos":7411,"tian":7412,"##mic":7413,"##rig":7414,"##urable":7415,"actor":7416,"recycl":7417,"scoring":7418,"teeth":7419,"planar":7420,"gamma":7421,"caused":7422,"streams":7423,"##cepti":7424,"abstractive":7425,"bonding":7426,"erosion":7427,"sme":7428,"optimisation":7429,"incentive":7430,"discipl":7431,"massive":7432,"elev":7433,"managerial":7434,"##optera":7435,"overlap":7436,"tutorial":7437,"jar":7438,"jiang":7439,"lot":7440,"peg":7441,"sic":7442,"tu":7443,"tension":7444,"##oint":7445,"##24":7446,"##ortic":7447,"##ominal":7448,"uns":7449,"scr":7450,"##aterial":7451,"markers":7452,"publication":7453,"sweet":7454,"##ittle":7455,"sentences":7456,"bitcoin":7457,"pasi":7458,"##burg":7459,"forget":7460,"##imeter":7461,"permanent":7462,"##tration":7463,"conserv":7464,"gupta":7465,"capabilities":7466,"journals":7467,"formula":7468,"##escent":7469,"aggression":7470,"synchronization":7471,"pipe":7472,"##itosan":7473,"ki":7474,"pec":7475,"##volution":7476,"##itarian":7477,"##ente":7478,"##ograf":7479,"##umab":7480,"compare":7481,"esl":7482,"glut":7483,"inside":7484,"##ographical":7485,"histogram":7486,"trip":7487,"lesions":7488,"differentiable":7489,"ecosystems":7490,"religious":7491,"neuroscience":7492,"reservoir":7493,"ace":7494,"bug":7495,"eti":7496,"gad":7497,"jay":7498,"kw":7499,"rip":7500,"sut":7501,"##uary":7502,"##ycle":7503,"##asia":7504,"disentang":7505,"##ellow":7506,"unmann":7507,"characters":7508,"associations":7509,"malaysian":7510,"bounds":7511,"balanced":7512,"counseling":7513,"atlantic":7514,"jung":7515,"narc":7516,"selling":7517,"##auc":7518,"##ged":7519,"##tio":7520,"##orb":7521,"really":7522,"comment":7523,"##uman":7524,"disru":7525,"##trans":7526,"persu":7527,"discre":7528,"##2020":7529,"##ophyl":7530,"ocular":7531,"gradients":7532,"graduate":7533,"asymmetric":7534,"multilayer":7535,"unmanned":7536,"cra":7537,"gib":7538,"ran":7539,"##iri":7540,"##icum":7541,"##icate":7542,"##eced":7543,"##stan":7544,"##abeth":7545,"spine":7546,"tract":7547,"##io2":7548,"cyan":7549,"patent":7550,"goods":7551,"fernand":7552,"##east":7553,"##idents":7554,"##phal":7555,"seb":7556,"gamification":7557,"posterior":7558,"ulcer":7559,"supported":7560,"benj":7561,"concentrations":7562,"reproduction":7563,"transcript":7564,"stacked":7565,"candid":7566,"arbitr":7567,"impedance":7568,"hung":7569,"pom":7570,"yi":7571,"##ubl":7572,"##nik":7573,"##acin":7574,"##ryst":7575,"##rological":7576,"psycho":7577,"frameworks":7578,"microbiome":7579,"wilson":7580,"cultiv":7581,"ht":7582,"lec":7583,"td":7584,"##jun":7585,"##tition":7586,"reactive":7587,"##aku":7588,"agnostic":7589,"distant":7590,"epith":7591,"demographic":7592,"photoc":7593,"myocard":7594,"herb":7595,"ellip":7596,"evolving":7597,"califor":7598,"23":7599,"gaze":7600,"hp":7601,"lighting":7602,"tar":7603,"##nm":7604,"##asts":7605,"##oscopy":7606,"##adder":7607,"resol":7608,"emitting":7609,"clusters":7610,"angular":7611,"abdel":7612,"contextualized":7613,"replacement":7614,"phytochemical":7615,"springer":7616,"kinetic":7617,"depressive":7618,"recursive":7619,"hamil":7620,"jen":7621,"ll":7622,"lane":7623,"ny":7624,"ngu":7625,"ub":7626,"##oqu":7627,"##aper":7628,"##ancing":7629,"agenda":7630,"matters":7631,"operator":7632,"rough":7633,"severity":7634,"tagging":7635,"juven":7636,"typh":7637,"spoof":7638,"pasien":7639,"hil":7640,"mg":7641,"pf":7642,"sir":7643,"yar":7644,"##enes":7645,"##esium":7646,"##aged":7647,"sph":7648,"##romb":7649,"cool":7650,"brun":7651,"hepat":7652,"executive":7653,"diamond":7654,"fi":7655,"lun":7656,"##90":7657,"##agh":7658,"##osome":7659,"##uding":7660,"spray":7661,"clar":7662,"suppression":7663,"microc":7664,"muslim":7665,"leading":7666,"faced":7667,"occlusion":7668,"offline":7669,"olive":7670,"symmetric":7671,"complications":7672,"obsessive":7673,"talk":7674,"settings":7675,"rigid":7676,"dentist":7677,"illumination":7678,"kap":7679,"nod":7680,"##itance":7681,"##ilation":7682,"##odi":7683,"reven":7684,"transient":7685,"gray":7686,"##asty":7687,"accord":7688,"reconfig":7689,"focal":7690,"eigen":7691,"fes":7692,"tank":7693,"##with":7694,"construct":7695,"##opor":7696,"modules":7697,"compulsive":7698,"##ifera":7699,"division":7700,"plann":7701,"##ismo":7702,"##xxxx":7703,"fruits":7704,"serious":7705,"immers":7706,"strept":7707,"write":7708,"muham":7709,"suitability":7710,"##disciplinary":7711,"##bing":7712,"##pi":7713,"##istive":7714,"##ido":7715,"starch":7716,"chan":7717,"chun":7718,"##ologie":7719,"beet":7720,"##timate":7721,"##aste":7722,"##aterials":7723,"computers":7724,"encrypted":7725,"voting":7726,"musculos":7727,"cavity":7728,"behavioural":7729,"incentives":7730,"dont":7731,"gym":7732,"hpl":7733,"mine":7734,"nir":7735,"ras":7736,"##keletal":7737,"##ono":7738,"##iciency":7739,"##oshi":7740,"devi":7741,"##ads":7742,"marco":7743,"inflation":7744,"methane":7745,"estimate":7746,"singular":7747,"##aciones":7748,"1989":7749,"lux":7750,"vocational":7751,"##paign":7752,"cybersecurity":7753,"peripheral":7754,"fro":7755,"juan":7756,"naf":7757,"pas":7758,"pie":7759,"sob":7760,"##van":7761,"##icious":7762,"##acet":7763,"compressive":7764,"api":7765,"phrase":7766,"microg":7767,"mush":7768,"geography":7769,"##eva":7770,"expressions":7771,"latency":7772,"mixing":7773,"grounded":7774,"palsy":7775,"brian":7776,"inclusive":7777,"colonial":7778,"false":7779,"dendritic":7780,"harvesting":7781,"nguyen":7782,"uter":7783,"wing":7784,"##uter":7785,"##carb":7786,"##tc":7787,"inception":7788,"##olin":7789,"##opt":7790,"enti":7791,"##enger":7792,"ecomm":7793,"allen":7794,"grand":7795,"angel":7796,"injuries":7797,"##hyth":7798,"instagram":7799,"odometry":7800,"indicator":7801,"krish":7802,"osteo":7803,"kalman":7804,"sdn":7805,"##auty":7806,"curvature":7807,"outbreak":7808,"recycling":7809,"dance":7810,"hart":7811,"kun":7812,"##ht":7813,"##lets":7814,"##67":7815,"##eno":7816,"##olec":7817,"##ogonal":7818,"tox":7819,"##otomy":7820,"perovsk":7821,"polys":7822,"##arium":7823,"##azole":7824,"pathology":7825,"jointly":7826,"hierarchy":7827,"neighb":7828,"pretraining":7829,"revisited":7830,"chaos":7831,"agreement":7832,"2nd":7833,"cyl":7834,"feng":7835,"gift":7836,"kang":7837,"##ped":7838,"##ulators":7839,"##ims":7840,"alan":7841,"dioxide":7842,"##ains":7843,"assurance":7844,"cars":7845,"dynamical":7846,"physiology":7847,"auditing":7848,"triang":7849,"sigma":7850,"tactile":7851,"availability":7852,"tongue":7853,"cub":7854,"fiction":7855,"kor":7856,"##light":7857,"##kes":7858,"##kol":7859,"##alia":7860,"beauty":7861,"automata":7862,"loan":7863,"##oidal":7864,"academy":7865,"essay":7866,"funds":7867,"periodic":7868,"victim":7869,"waveguide":7870,"beck":7871,"date":7872,"gord":7873,"hors":7874,"xin":7875,"##iff":7876,"##born":7877,"##rans":7878,"##arter":7879,"anonym":7880,"##apse":7881,"spher":7882,"tekn":7883,"graphical":7884,"floor":7885,"patrick":7886,"liang":7887,"belt":7888,"targeted":7889,"suscepti":7890,"titanium":7891,"detectors":7892,"contributions":7893,"antonio":7894,"asphalt":7895,"cro":7896,"##db":7897,"##writing":7898,"anak":7899,"##aca":7900,"##ects":7901,"resin":7902,"dies":7903,"while":7904,"england":7905,"decoding":7906,"##berry":7907,"drinking":7908,"programm":7909,"reputation":7910,"olig":7911,"##uchi":7912,"arabia":7913,"antibody":7914,"seeds":7915,"province":7916,"derivative":7917,"henry":7918,"3rd":7919,"##ois":7920,"##kel":7921,"transduc":7922,"schw":7923,"microp":7924,"brass":7925,"cultures":7926,"triple":7927,"libraries":7928,"criminal":7929,"plateau":7930,"volatile":7931,"feminism":7932,"rrl":7933,"chromatography":7934,"lgbt":7935,"uw":7936,"za":7937,"##43":7938,"##col":7939,"intake":7940,"##iveness":7941,"flo":7942,"throughput":7943,"ern":7944,"auditory":7945,"opportunity":7946,"wideband":7947,"dye":7948,"jav":7949,"pb":7950,"rose":7951,"va":7952,"##kov":7953,"##orrh":7954,"chitosan":7955,"disinf":7956,"coup":7957,"bean":7958,"france":7959,"extrac":7960,"industries":7961,"affected":7962,"valuation":7963,"ontologies":7964,"lockdown":7965,"reveals":7966,"ecommerce":7967,"dnn":7968,"hipp":7969,"kath":7970,"roll":7971,"##zy":7972,"##td":7973,"##agg":7974,"##unciation":7975,"peace":7976,"malign":7977,"lifel":7978,"financing":7979,"cambridge":7980,"ferr":7981,"andrea":7982,"thyroid":7983,"##network":7984,"##acer":7985,"##iders":7986,"trap":7987,"##erma":7988,"gli":7989,"##tified":7990,"terror":7991,"encoders":7992,"spectrom":7993,"##aux":7994,"valve":7995,"trajectories":7996,"scenarios":7997,"fingerpr":7998,"dispersion":7999,"aur":8000,"dream":8001,"##hs":8002,"##max":8003,"##nets":8004,"##rants":8005,"##ods":8006,"elim":8007,"##aryng":8008,"##oui":8009,"schemes":8010,"developments":8011,"##arten":8012,"outlier":8013,"peo":8014,"literary":8015,"hydrop":8016,"campaign":8017,"autonomy":8018,"burden":8019,"##olester":8020,"baby":8021,"narciss":8022,"daw":8023,"gig":8024,"lav":8025,"##nosis":8026,"##osom":8027,"##opoul":8028,"graphics":8029,"##tite":8030,"compared":8031,"assistant":8032,"accelerated":8033,"anteced":8034,"neurons":8035,"winter":8036,"pierre":8037,"appraisal":8038,"dent":8039,"pes":8040,"rach":8041,"##dh":8042,"##ui":8043,"##amide":8044,"metac":8045,"shr":8046,"##egrad":8047,"fever":8048,"carlos":8049,"boy":8050,"supercon":8051,"redund":8052,"cameras":8053,"pdfs":8054,"biomechan":8055,"rendering":8056,"egg":8057,"##process":8058,"bottlen":8059,"transparency":8060,"viscosity":8061,"equality":8062,"hos":8063,"##eria":8064,"##ored":8065,"##iao":8066,"##obile":8067,"mediter":8068,"carl":8069,"##ategory":8070,"##atorial":8071,"facility":8072,"determine":8073,"extra":8074,"square":8075,"theoretic":8076,"garlic":8077,"looking":8078,"translating":8079,"coherence":8080,"autoregressive":8081,"##hal":8082,"anemia":8083,"##roup":8084,"stone":8085,"proj":8086,"##aint":8087,"generate":8088,"flat":8089,"psychosocial":8090,"quantifying":8091,"bird":8092,"manipulator":8093,"cryptography":8094,"configuration":8095,"##partum":8096,"partnership":8097,"siamese":8098,"compassion":8099,"casting":8100,"kaw":8101,"say":8102,"##older":8103,"##ulant":8104,"##aded":8105,"##otor":8106,"click":8107,"consol":8108,"workload":8109,"linn":8110,"cyc":8111,"framing":8112,"aux":8113,"maximization":8114,"occurrence":8115,"origins":8116,"dilem":8117,"vacuum":8118,"emmanuelle":8119,"california":8120,"45":8121,"gang":8122,"lyn":8123,"veter":8124,"##98":8125,"##width":8126,"thai":8127,"##thetic":8128,"educacion":8129,"insider":8130,"centric":8131,"create":8132,"randomised":8133,"doctor":8134,"turbul":8135,"physiotherapy":8136,"osteoarth":8137,"dj":8138,"fetal":8139,"##ened":8140,"##ands":8141,"protective":8142,"potentials":8143,"dissert":8144,"vegetable":8145,"symbol":8146,"crispr":8147,"coherent":8148,"bull":8149,"cum":8150,"category":8151,"jr":8152,"tah":8153,"tentang":8154,"xiang":8155,"##oplas":8156,"##onn":8157,"##ston":8158,"interv":8159,"eliz":8160,"destination":8161,"aged":8162,"final":8163,"##matical":8164,"zheng":8165,"##shore":8166,"homes":8167,"hotels":8168,"polymorph":8169,"khal":8170,"railway":8171,"benjamin":8172,"arbitrary":8173,"musculoskeletal":8174,"bic":8175,"dun":8176,"dust":8177,"gc":8178,"kab":8179,"v2":8180,"##deh":8181,"##uge":8182,"##pson":8183,"##77":8184,"##alk":8185,"deployment":8186,"exact":8187,"asper":8188,"##atern":8189,"textbook":8190,"transformations":8191,"capacitor":8192,"achieving":8193,"##ariants":8194,"##ulsion":8195,"shapes":8196,"neuron":8197,"phylogenetic":8198,"##tinction":8199,"##atalytic":8200,"##ranean":8201,"hat":8202,"kad":8203,"##anz":8204,"##aptic":8205,"##opy":8206,"##opic":8207,"##ricular":8208,"indirect":8209,"optics":8210,"designs":8211,"boot":8212,"collagen":8213,"swed":8214,"##ipped":8215,"complexes":8216,"andreas":8217,"susan":8218,"cues":8219,"carrier":8220,"checking":8221,"cel":8222,"riz":8223,"yas":8224,"##cv":8225,"##rp":8226,"##py":8227,"##pri":8228,"thi":8229,"##agation":8230,"sho":8231,"##allow":8232,"##onomics":8233,"semin":8234,"poison":8235,"maturity":8236,"##2019":8237,"integrative":8238,"##olds":8239,"gras":8240,"notes":8241,"##otyping":8242,"sheet":8243,"facilities":8244,"hyperspectral":8245,"gravity":8246,"juvenile":8247,"brad":8248,"greek":8249,"nv":8250,"wasser":8251,"##gent":8252,"##anan":8253,"##abi":8254,"##aba":8255,"capt":8256,"implants":8257,"businesses":8258,"dress":8259,"treatments":8260,"myc":8261,"calculus":8262,"scales":8263,"hydrogel":8264,"dots":8265,"obl":8266,"yolov":8267,"##44":8268,"##oric":8269,"##vey":8270,"shen":8271,"##iesel":8272,"##isme":8273,"controls":8274,"atten":8275,"canadian":8276,"smartphones":8277,"grey":8278,"italian":8279,"intrac":8280,"emergence":8281,"pulp":8282,"polymers":8283,"bilateral":8284,"##aphyl":8285,"orthogonal":8286,"storyt":8287,"paradox":8288,"arthritis":8289,"stiff":8290,"siswa":8291,"chaotic":8292,"myocardial":8293,"revenue":8294,"peoples":8295,"bure":8296,"still":8297,"tb":8298,"tick":8299,"##osk":8300,"basket":8301,"transf":8302,"beams":8303,"##esco":8304,"silica":8305,"backprop":8306,"drift":8307,"descriptions":8308,"xiao":8309,"expectations":8310,"asympt":8311,"horizontal":8312,"schmid":8313,"kinderg":8314,"000":8315,"aj":8316,"ery":8317,"sz":8318,"saw":8319,"vital":8320,"##fi":8321,"##iments":8322,"clear":8323,"##ibular":8324,"##ocking":8325,"##aje":8326,"laun":8327,"difficulty":8328,"pairs":8329,"pm2":8330,"congestion":8331,"ceramics":8332,"elliptic":8333,"31":8334,"ds":8335,"gor":8336,"wan":8337,"##o4":8338,"##rio":8339,"debl":8340,"interval":8341,"schema":8342,"##ilding":8343,"developed":8344,"timothy":8345,"##ylic":8346,"editor":8347,"centers":8348,"harris":8349,"belajar":8350,"magnesium":8351,"pipeline":8352,"subjects":8353,"russian":8354,"aquatic":8355,"gabri":8356,"warming":8357,"phosphorus":8358,"observer":8359,"expenditure":8360,"multidimensional":8361,"foss":8362,"vein":8363,"wis":8364,"##mc":8365,"##ered":8366,"modes":8367,"##elly":8368,"##assium":8369,"email":8370,"infecti":8371,"##rosoph":8372,"epis":8373,"etz":8374,"erg":8375,"curc":8376,"operators":8377,"grading":8378,"accessibility":8379,"regulated":8380,"##label":8381,"bulk":8382,"refriger":8383,"according":8384,"hv":8385,"little":8386,"mall":8387,"pent":8388,"yuan":8389,"##uates":8390,"##fet":8391,"##tu":8392,"comfort":8393,"compati":8394,"atomic":8395,"been":8396,"##ega":8397,"useful":8398,"alloys":8399,"fourth":8400,"fungal":8401,"constituent":8402,"pancreatic":8403,"muhammad":8404,"hplc":8405,"euc":8406,"fint":8407,"gpt":8408,"lob":8409,"sang":8410,"##pet":8411,"##2d":8412,"##ener":8413,"##oming":8414,"once":8415,"client":8416,"sher":8417,"plus":8418,"trait":8419,"mini":8420,"curves":8421,"electroc":8422,"layered":8423,"hindi":8424,"transparent":8425,"##oglob":8426,"suspension":8427,"commonsense":8428,"diesel":8429,"58":8430,"bov":8431,"nel":8432,"tat":8433,"##icts":8434,"##isch":8435,"##isons":8436,"##ulo":8437,"##ellar":8438,"recomb":8439,"serial":8440,"paths":8441,"sarah":8442,"choosing":8443,"constructing":8444,"pedagogy":8445,"##ophyll":8446,"mediterranean":8447,"storytelling":8448,"bach":8449,"hend":8450,"lc":8451,"qa":8452,"##bach":8453,"##dep":8454,"##mond":8455,"##raz":8456,"chim":8457,"dex":8458,"##uta":8459,"##ansi":8460,"produced":8461,"##othermal":8462,"foods":8463,"postpartum":8464,"valley":8465,"fuzzing":8466,"##metics":8467,"transitions":8468,"courses":8469,"dermat":8470,"fiscal":8471,"nanocompos":8472,"hormone":8473,"describ":8474,"##informatics":8475,"aa":8476,"aids":8477,"dl":8478,"kual":8479,"rud":8480,"##73":8481,"##arking":8482,"##uler":8483,"tob":8484,"highway":8485,"discovering":8486,"respond":8487,"##ematics":8488,"irrad":8489,"anthony":8490,"excitation":8491,"shaping":8492,"reasons":8493,"mushroom":8494,"ian":8495,"pale":8496,"##wide":8497,"inversion":8498,"stri":8499,"cher":8500,"prison":8501,"clim":8502,"such":8503,"manage":8504,"paraph":8505,"insight":8506,"entry":8507,"snap":8508,"partitioning":8509,"constitution":8510,"pronunciation":8511,"drama":8512,"objectives":8513,"gordon":8514,"aph":8515,"gem":8516,"hate":8517,"rang":8518,"##pen":8519,"##icip":8520,"##rea":8521,"##ocene":8522,"resc":8523,"computed":8524,"##ainting":8525,"##ego":8526,"visibility":8527,"humanoid":8528,"increases":8529,"screw":8530,"fingerprint":8531,"pepper":8532,"broadband":8533,"susceptibility":8534,"qing":8535,"tp":8536,"##cap":8537,"##itan":8538,"##idis":8539,"##agent":8540,"adher":8541,"along":8542,"unp":8543,"diar":8544,"contex":8545,"##uke":8546,"greece":8547,"competency":8548,"including":8549,"shoulder":8550,"1007":8551,"cleaning":8552,"cinema":8553,"template":8554,"##olymer":8555,"osteoarthritis":8556,"elizabeth":8557,"infectious":8558,"38":8559,"kevin":8560,"sale":8561,"inn":8562,"##elo":8563,"##olia":8564,"##andro":8565,"sperm":8566,"autoc":8567,"##strual":8568,"guo":8569,"pursu":8570,"utilizing":8571,"abstraction":8572,"freshwater":8573,"retinal":8574,"penetration":8575,"lewis":8576,"exponential":8577,"ral":8578,"vessel":8579,"##51":8580,"##23":8581,"##tise":8582,"##oria":8583,"orange":8584,"alter":8585,"coaching":8586,"plac":8587,"electrol":8588,"subspace":8589,"##eholder":8590,"members":8591,"practition":8592,"labeled":8593,"professionals":8594,"fixation":8595,"##videos":8596,"persistence":8597,"bubble":8598,"gross":8599,"lanka":8600,"mast":8601,"sativ":8602,"##bell":8603,"##o2":8604,"##low":8605,"##inus":8606,"##ampling":8607,"proph":8608,"chart":8609,"##iran":8610,"##vious":8611,"isra":8612,"ecg":8613,"distortion":8614,"##artz":8615,"secret":8616,"locom":8617,"caption":8618,"exercises":8619,"cosmetics":8620,"reflective":8621,"parkins":8622,"gestational":8623,"substance":8624,"forgetting":8625,"drain":8626,"kot":8627,"wi":8628,"##76":8629,"##ontin":8630,"##anum":8631,"antis":8632,"##omas":8633,"##obi":8634,"apr":8635,"##akh":8636,"sham":8637,"poetry":8638,"fluct":8639,"charger":8640,"salinity":8641,"purification":8642,"sepsis":8643,"millenn":8644,"##structured":8645,"kerja":8646,"citrus":8647,"obstacle":8648,"marginal":8649,"thought":8650,"cc":8651,"vapor":8652,"##lines":8653,"##oning":8654,"##eds":8655,"dehyd":8656,"##iral":8657,"marx":8658,"optic":8659,"##integ":8660,"factory":8661,"crm":8662,"round":8663,"worlds":8664,"tourist":8665,"simulator":8666,"coreference":8667,"threats":8668,"anthropology":8669,"negotiation":8670,"displacement":8671,"##olesterol":8672,"parkinsons":8673,"39":8674,"bing":8675,"cic":8676,"zo":8677,"##2c":8678,"parking":8679,"biochemical":8680,"buy":8681,"concurrent":8682,"breeding":8683,"republ":8684,"distilling":8685,"grammatical":8686,"scenario":8687,"divor":8688,"etzioni":8689,"aus":8690,"canc":8691,"dennis":8692,"lumb":8693,"makes":8694,"rear":8695,"##enium":8696,"requ":8697,"onset":8698,"##izes":8699,"colony":8700,"graphic":8701,"##tinct":8702,"workflow":8703,"##uncture":8704,"johann":8705,"##factual":8706,"peny":8707,"uncon":8708,"tolerant":8709,"russia":8710,"manifest":8711,"municip":8712,"prescrib":8713,"watermarking":8714,"uwb":8715,"bam":8716,"kah":8717,"naz":8718,"rect":8719,"##mt":8720,"##2b":8721,"##75":8722,"##edi":8723,"##ediation":8724,"forc":8725,"##iman":8726,"envi":8727,"##ify":8728,"coral":8729,"supervis":8730,"guar":8731,"forming":8732,"laura":8733,"topical":8734,"automatically":8735,"davis":8736,"lives":8737,"mohammed":8738,"microbiology":8739,"torque":8740,"michel":8741,"communicative":8742,"tiny":8743,"ozone":8744,"inpainting":8745,"assembl":8746,"bif":8747,"sara":8748,"vinc":8749,"##uy":8750,"##vc":8751,"##anti":8752,"##omo":8753,"##ugal":8754,"doud":8755,"geographic":8756,"remove":8757,"##coming":8758,"massage":8759,"foam":8760,"investor":8761,"lamb":8762,"ambigu":8763,"##brahim":8764,"neuronal":8765,"##building":8766,"##yclop":8767,"mamm":8768,"leukemia":8769,"epilepsy":8770,"##dehy":8771,"estr":8772,"mans":8773,"mend":8774,"vine":8775,"zn":8776,"##eor":8777,"##eros":8778,"stain":8779,"trich":8780,"caries":8781,"predictor":8782,"subt":8783,"diversification":8784,"puls":8785,"relevant":8786,"aluminium":8787,"smoothing":8788,"jeffrey":8789,"tecn":8790,"destr":8791,"eug":8792,"nin":8793,"qi":8794,"sew":8795,"vik":8796,"##itiv":8797,"stu":8798,"script":8799,"##azine":8800,"proficiency":8801,"democ":8802,"##gener":8803,"photonic":8804,"potassium":8805,"fibrosis":8806,"scienti":8807,"1985":8808,"karl":8809,"microserv":8810,"partially":8811,"plasm":8812,"reflect":8813,"sulfur":8814,"cvpr":8815,"pragmatic":8816,"capsule":8817,"stakeholder":8818,"imbalanced":8819,"##cutaneous":8820,"bos":8821,"mb":8822,"sib":8823,"##hl":8824,"##lip":8825,"##cale":8826,"##oro":8827,"##amic":8828,"ecu":8829,"newborn":8830,"millimeter":8831,"periodontal":8832,"abdominal":8833,"##pea":8834,"chloride":8835,"efek":8836,"today":8837,"metaphor":8838,"anchor":8839,"terapi":8840,"salmonella":8841,"fintech":8842,"contexts":8843,"rl":8844,"tog":8845,"##car":8846,"##omi":8847,"adc":8848,"adul":8849,"metod":8850,"##tivitas":8851,"##ishment":8852,"appropri":8853,"advance":8854,"##acco":8855,"logical":8856,"jobs":8857,"mcg":8858,"precise":8859,"instability":8860,"requirement":8861,"regulations":8862,"respiration":8863,"proposed":8864,"biodiesel":8865,"hrm":8866,"rainfall":8867,"catalyst":8868,"hassan":8869,"volumetric":8870,"oncology":8871,"dentistry":8872,"entities":8873,"wasserstein":8874,"doudna":8875,"nu":8876,"nation":8877,"yao":8878,"##inite":8879,"##ocyte":8880,"##unan":8881,"apopt":8882,"##tron":8883,"##prof":8884,"observational":8885,"vegetation":8886,"running":8887,"vedio":8888,"46":8889,"ging":8890,"ori":8891,"##sr":8892,"##eo":8893,"##rases":8894,"##kt":8895,"##erning":8896,"##orec":8897,"##ici":8898,"##agon":8899,"orb":8900,"tran":8901,"scaff":8902,"atlas":8903,"malicious":8904,"dimensionality":8905,"harness":8906,"nitride":8907,"ideas":8908,"conduct":8909,"##basis":8910,"initiative":8911,"arrang":8912,"##opoulos":8913,"fif":8914,"gcn":8915,"jew":8916,"ky":8917,"kids":8918,"nap":8919,"yin":8920,"##iet":8921,"##bage":8922,"##raction":8923,"##econd":8924,"##rays":8925,"comun":8926,"teori":8927,"colomb":8928,"skip":8929,"nanotechnology":8930,"built":8931,"landmark":8932,"##lamps":8933,"luis":8934,"lamp":8935,"squee":8936,"daun":8937,"butter":8938,"counterfactual":8939,"feminist":8940,"everyday":8941,"telecommun":8942,"behind":8943,"multispectral":8944,"einstein":8945,"correspondence":8946,"deconvolution":8947,"34":8948,"pill":8949,"row":8950,"sac":8951,"were":8952,"##gers":8953,"##eses":8954,"##aram":8955,"reuse":8956,"##ensor":8957,"##forming":8958,"sebas":8959,"could":8960,"memb":8961,"powered":8962,"depriv":8963,"##acci":8964,"photography":8965,"warning":8966,"windows":8967,"##iatry":8968,"ghz":8969,"interpretability":8970,"credibility":8971,"omn":8972,"fertility":8973,"delayed":8974,"brazilian":8975,"cfd":8976,"intercultural":8977,"intermediate":8978,"permeability":8979,"stigma":8980,"poisoning":8981,"65":8982,"dic":8983,"gm":8984,"hope":8985,"til":8986,"##bb":8987,"##uhan":8988,"##ners":8989,"##03":8990,"##jee":8991,"##100":8992,"chile":8993,"##enses":8994,"whit":8995,"explos":8996,"digit":8997,"##azz":8998,"characterizing":8999,"attentional":9000,"signs":9001,"termin":9002,"liberal":9003,"milling":9004,"boundaries":9005,"personnel":9006,"cascaded":9007,"##worm":9008,"leakage":9009,"spoofing":9010,"piezo":9011,"cable":9012,"sik":9013,"##aa":9014,"##tiab":9015,"thal":9016,"##uctive":9017,"##ovirus":9018,"spill":9019,"asd":9020,"interf":9021,"amyl":9022,"commod":9023,"meets":9024,"defining":9025,"programme":9026,"lifetime":9027,"drives":9028,"hyperb":9029,"myel":9030,"correlated":9031,"electrochemical":9032,"involved":9033,"enzymes":9034,"accountability":9035,"hippoc":9036,"dissertation":9037,"hao":9038,"jak":9039,"kris":9040,"##itives":9041,"##rence":9042,"##vo":9043,"##tier":9044,"##inos":9045,"thromb":9046,"##using":9047,"oren":9048,"spont":9049,"recall":9050,"cortical":9051,"##athi":9052,"applic":9053,"algorithmic":9054,"hands":9055,"packet":9056,"sounds":9057,"weld":9058,"pretrained":9059,"eleph":9060,"cheese":9061,"bahasa":9062,"oscillator":9063,"caregiver":9064,"preventing":9065,"craw":9066,"kul":9067,"wage":9068,"##cence":9069,"##emics":9070,"straw":9071,"##osi":9072,"##tha":9073,"enforc":9074,"##ensing":9075,"genomic":9076,"##tistic":9077,"##awatan":9078,"repres":9079,"deficit":9080,"virgin":9081,"breaking":9082,"spectra":9083,"steps":9084,"1984":9085,"1980":9086,"refuge":9087,"tunable":9088,"definitions":9089,"deterministic":9090,"##conn":9091,"indonesian":9092,"independence":9093,"vegetables":9094,"replication":9095,"cultivation":9096,"##2o3":9097,"alzheimer":9098,"riemann":9099,"algae":9100,"hamilton":9101,"bootst":9102,"dating":9103,"kec":9104,"mec":9105,"##uo":9106,"##yar":9107,"##rhe":9108,"##eni":9109,"##urt":9110,"##asional":9111,"##ulse":9112,"##uca":9113,"##plac":9114,"##plete":9115,"interle":9116,"election":9117,"##00m":9118,"samuel":9119,"encyclop":9120,"##nett":9121,"valid":9122,"carbonate":9123,"indexing":9124,"contrac":9125,"waveform":9126,"resonant":9127,"sinus":9128,"court":9129,"impaired":9130,"menggun":9131,"gastroint":9132,"mitochondrial":9133,"stiffness":9134,"##lampsia":9135,"4th":9136,"nash":9137,"want":9138,"xvideo":9139,"##life":9140,"##onut":9141,"##esthes":9142,"ther":9143,"##idential":9144,"##abolic":9145,"acquir":9146,"abund":9147,"poult":9148,"silva":9149,"correlations":9150,"pyr":9151,"hierarchies":9152,"1987":9153,"bandwidth":9154,"radiotherapy":9155,"combinatorial":9156,"teenagers":9157,"adherence":9158,"divorce":9159,"spontaneous":9160,"70":9161,"having":9162,"ore":9163,"tn":9164,"trim":9165,"##dl":9166,"staphyl":9167,"reef":9168,"propor":9169,"##anto":9170,"plag":9171,"march":9172,"biases":9173,"quatern":9174,"decline":9175,"nanom":9176,"##ullah":9177,"reported":9178,"responsible":9179,"priors":9180,"heterogeneity":9181,"rotor":9182,"doppler":9183,"##structive":9184,"sulfate":9185,"existence":9186,"nervous":9187,"poultry":9188,"48":9189,"koh":9190,"sf":9191,"##uous":9192,"##yi":9193,"##cation":9194,"##rison":9195,"##esa":9196,"##usi":9197,"alle":9198,"##astoma":9199,"assay":9200,"##awan":9201,"microstructure":9202,"##ichia":9203,"buffer":9204,"embod":9205,"signatures":9206,"##regation":9207,"loaded":9208,"instruments":9209,"sheep":9210,"claud":9211,"thorac":9212,"wikip":9213,"proximal":9214,"menggunakan":9215,"dot":9216,"hiro":9217,"nom":9218,"nig":9219,"tl":9220,"wong":9221,"##cnn":9222,"##pin":9223,"##etooth":9224,"##thy":9225,"acup":9226,"unf":9227,"scar":9228,"marie":9229,"evans":9230,"mediation":9231,"amir":9232,"##egan":9233,"frames":9234,"##ophag":9235,"brands":9236,"difficult":9237,"##learning":9238,"bootstrap":9239,"ded":9240,"duc":9241,"gestion":9242,"hs":9243,"mitch":9244,"roth":9245,"sax":9246,"##bed":9247,"##rt":9248,"##path":9249,"provision":9250,"string":9251,"automobile":9252,"##itian":9253,"##auf":9254,"causality":9255,"ferro":9256,"motors":9257,"continual":9258,"extending":9259,"partner":9260,"nitrate":9261,"portable":9262,"federal":9263,"rhet":9264,"halal":9265,"tablet":9266,"coconut":9267,"anaer":9268,"annealing":9269,"administrative":9270,"nilai":9271,"ventilation":9272,"kindergarten":9273,"bog":9274,"bath":9275,"rust":9276,"##ioc":9277,"##bur":9278,"##wm":9279,"##agai":9280,"aless":9281,"shin":9282,"multinational":9283,"mooc":9284,"mems":9285,"salud":9286,"encoun":9287,"audi":9288,"1988":9289,"hospitals":9290,"narrow":9291,"nasal":9292,"motivational":9293,"bluetooth":9294,"perfect":9295,"constituents":9296,"eryth":9297,"##dehyde":9298,"gdp":9299,"lamin":9300,"ryan":9301,"sov":9302,"sou":9303,"ink":9304,"##elity":9305,"repos":9306,"##ados":9307,"manaj":9308,"mars":9309,"isa":9310,"##ertz":9311,"decay":9312,"doing":9313,"solve":9314,"publications":9315,"##tility":9316,"innovations":9317,"densely":9318,"##structures":9319,"translate":9320,"categories":9321,"##opathology":9322,"gastrointestinal":9323,"fen":9324,"gian":9325,"jor":9326,"jes":9327,"joy":9328,"tik":9329,"tamil":9330,"##agan":9331,"##amel":9332,"chal":9333,"neph":9334,"extinction":9335,"acl":9336,"beverage":9337,"trad":9338,"##awi":9339,"norms":9340,"offshore":9341,"maur":9342,"berbasis":9343,"ivan":9344,"recognizing":9345,"ischemic":9346,"lexicon":9347,"bund":9348,"dub":9349,"np":9350,"rhyth":9351,"##guna":9352,"##alis":9353,"antiv":9354,"##atient":9355,"existing":9356,"sugg":9357,"meteor":9358,"intent":9359,"genus":9360,"##ieu":9361,"##pora":9362,"##ubes":9363,"progression":9364,"epig":9365,"volley":9366,"sharp":9367,"homomorphic":9368,"##inkler":9369,"regularity":9370,"##orphic":9371,"antibiotics":9372,"kiner":9373,"##hui":9374,"plasticity":9375,"tibet":9376,"perovskite":9377,"80":9378,"cz":9379,"fle":9380,"garc":9381,"junction":9382,"pitch":9383,"push":9384,"wiley":9385,"##eer":9386,"##mn":9387,"##valu":9388,"##urface":9389,"strip":9390,"reactor":9391,"##imming":9392,"##adium":9393,"spike":9394,"##istema":9395,"cooking":9396,"opt":9397,"##arta":9398,"insom":9399,"crude":9400,"##issa":9401,"##ommod":9402,"irreg":9403,"expand":9404,"##omyces":9405,"documentation":9406,"alexand":9407,"psic":9408,"dilated":9409,"ssd":9410,"conjug":9411,"cycles":9412,"republic":9413,"filling":9414,"jess":9415,"nob":9416,"ying":9417,"##mitt":9418,"##95":9419,"##wer":9420,"transgen":9421,"weights":9422,"preec":9423,"##titude":9424,"##inescence":9425,"##anner":9426,"opening":9427,"particulate":9428,"##hani":9429,"responsive":9430,"##rophys":9431,"kinase":9432,"boron":9433,"vulnerabilities":9434,"shaped":9435,"hydrogels":9436,"necess":9437,"sparsity":9438,"spherical":9439,"wikipedia":9440,"cir":9441,"pca":9442,"zno":9443,"##key":9444,"##raj":9445,"congen":9446,"##umi":9447,"close":9448,"recre":9449,"cox":9450,"deepf":9451,"##001":9452,"##nea":9453,"visually":9454,"crash":9455,"grasp":9456,"tumors":9457,"illust":9458,"breastfe":9459,"livelihood":9460,"ensembles":9461,"placebo":9462,"cucum":9463,"iraq":9464,"antecedents":9465,"anaerobic":9466,"hinton":9467,"iod":9468,"nand":9469,"qos":9470,"vox":9471,"##tist":9472,"inorganic":9473,"##asm":9474,"exhib":9475,"ads":9476,"shallow":9477,"scope":9478,"seven":9479,"##orship":9480,"amin":9481,"whey":9482,"weap":9483,"newton":9484,"##ptions":9485,"extractive":9486,"speak":9487,"economies":9488,"##pose":9489,"##brity":9490,"campus":9491,"connecting":9492,"hydrochlor":9493,"emergent":9494,"focusing":9495,"written":9496,"holistic":9497,"inequal":9498,"fitting":9499,"osm":9500,"expectation":9501,"glycol":9502,"biomarker":9503,"kinerja":9504,"caff":9505,"dup":9506,"hone":9507,"ibrahim":9508,"jane":9509,"mish":9510,"nike":9511,"prad":9512,"##64":9513,"##icz":9514,"##acles":9515,"##rav":9516,"##raine":9517,"rejection":9518,"##imetric":9519,"reser":9520,"metas":9521,"atom":9522,"infarc":9523,"##sey":9524,"##oks":9525,"define":9526,"airport":9527,"##ethylene":9528,"empire":9529,"toolkit":9530,"keyp":9531,"##iosity":9532,"biodegrad":9533,"communicate":9534,"keseh":9535,"harvard":9536,"arterial":9537,"superconduc":9538,"apoptosis":9539,"encyclopedia":9540,"preeclampsia":9541,"fox":9542,"lars":9543,"variants":9544,"wid":9545,"##yo":9546,"##xy":9547,"##jud":9548,"##ems":9549,"##amm":9550,"como":9551,"##imi":9552,"##phys":9553,"covari":9554,"##eger":9555,"##ropol":9556,"journey":9557,"peak":9558,"radial":9559,"##matics":9560,"##ogeneous":9561,"stories":9562,"nitric":9563,"liquidity":9564,"pharmacological":9565,"hepatitis":9566,"osteopor":9567,"produk":9568,"##tzmann":9569,"minority":9570,"lifelong":9571,"##aryngeal":9572,"##osomal":9573,"backpropagation":9574,"33":9575,"pure":9576,"rash":9577,"soph":9578,"zones":9579,"##list":9580,"##lings":9581,"##rang":9582,"##racy":9583,"##fast":9584,"##tir":9585,"stay":9586,"##rah":9587,"##odies":9588,"##tick":9589,"distinct":9590,"dipl":9591,"carol":9592,"vijay":9593,"##oringa":9594,"hydrol":9595,"fibro":9596,"distributional":9597,"guideline":9598,"corpora":9599,"willing":9600,"macroph":9601,"##meas":9602,"##olingu":9603,"axial":9604,"surviv":9605,"reversible":9606,"volleyball":9607,"caching":9608,"fd":9609,"hm":9610,"pon":9611,"rt":9612,"rav":9613,"##bel":9614,"##bank":9615,"##fly":9616,"##tional":9617,"##tera":9618,"spp":9619,"also":9620,"suz":9621,"metad":9622,"shang":9623,"arn":9624,"percent":9625,"atrial":9626,"##ivity":9627,"##ively":9628,"coarse":9629,"##acea":9630,"##athic":9631,"insulator":9632,"softmax":9633,"ethylene":9634,"centre":9635,"airborne":9636,"cream":9637,"fisher":9638,"viruses":9639,"choices":9640,"roger":9641,"drawing":9642,"descriptors":9643,"reconfigurable":9644,"kesehatan":9645,"kai":9646,"lup":9647,"##bean":9648,"##gy":9649,"##esi":9650,"##etta":9651,"##aco":9652,"##ilia":9653,"##imiento":9654,"##uddin":9655,"strugg":9656,"coated":9657,"plain":9658,"trav":9659,"persons":9660,"superior":9661,"##ymal":9662,"memories":9663,"servo":9664,"reflex":9665,"player":9666,"sanitation":9667,"competencies":9668,"quadratic":9669,"boltzmann":9670,"controllable":9671,"sgd":9672,"rheum":9673,"disturbance":9674,"kenneth":9675,"##roleum":9676,"incomplete":9677,"grasping":9678,"35":9679,"gary":9680,"kand":9681,"packing":9682,"wol":9683,"width":9684,"##bes":9685,"##information":9686,"##rade":9687,"##opes":9688,"excess":9689,"pras":9690,"true":9691,"graft":9692,"relay":9693,"weighting":9694,"move":9695,"patric":9696,"posture":9697,"manuel":9698,"1986":9699,"specialist":9700,"authority":9701,"messages":9702,"##ocrine":9703,"komun":9704,"aromath":9705,"mergers":9706,"uganda":9707,"descriptor":9708,"perturbations":9709,"##omonas":9710,"pascal":9711,"harnessing":9712,"manajemen":9713,"arim":9714,"gay":9715,"kos":9716,"nw":9717,"wax":9718,"yo":9719,"##hm":9720,"##menting":9721,"##wen":9722,"##icus":9723,"ofdm":9724,"##rov":9725,"chand":9726,"##forward":9727,"accommod":9728,"invasion":9729,"artifacts":9730,"august":9731,"mcd":9732,"trafficking":9733,"bioinformatics":9734,"##acional":9735,"stephan":9736,"investors":9737,"vulgar":9738,"anatom":9739,"intersection":9740,"pesticides":9741,"deprivation":9742,"##00mhz":9743,"55":9744,"jet":9745,"muk":9746,"triv":9747,"##dynam":9748,"##93":9749,"##je":9750,"chu":9751,"##phy":9752,"##enson":9753,"##enced":9754,"##illo":9755,"meditation":9756,"cole":9757,"flipped":9758,"bright":9759,"endomet":9760,"##deep":9761,"laplac":9762,"bark":9763,"blocks":9764,"investigations":9765,"sunny":9766,"participatory":9767,"multicultural":9768,"addressing":9769,"##otoxicity":9770,"anomalies":9771,"ubiqu":9772,"##oskeleton":9773,"rescue":9774,"ecuador":9775,"aar":9776,"dd":9777,"hold":9778,"moringa":9779,"ron":9780,"sick":9781,"upl":9782,"zirc":9783,"##nat":9784,"##inant":9785,"##urus":9786,"ask":9787,"shield":9788,"##ryl":9789,"obstructive":9790,"psychotherapy":9791,"psychiatry":9792,"adapting":9793,"##escu":9794,"classrooms":9795,"reduces":9796,"odor":9797,"conducting":9798,"sediments":9799,"stationary":9800,"coefficients":9801,"supplementation":9802,"actuator":9803,"brassica":9804,"hyperbolic":9805,"insomnia":9806,"90":9807,"cant":9808,"certain":9809,"dal":9810,"mys":9811,"nodes":9812,"pg":9813,"zah":9814,"##iol":9815,"##iant":9816,"##ser":9817,"##bf":9818,"##dal":9819,"##pn":9820,"##anet":9821,"cholesterol":9822,"##izi":9823,"clark":9824,"##ifa":9825,"phones":9826,"transc":9827,"counc":9828,"multiview":9829,"paran":9830,"##lying":9831,"abilities":9832,"microorgan":9833,"##exual":9834,"xxxxx":9835,"##bound":9836,"penal":9837,"probe":9838,"biosynthesis":9839,"telem":9840,"petroleum":9841,"##ijing":9842,"resilient":9843,"##puter":9844,"piec":9845,"masks":9846,"ingred":9847,"wavelength":9848,"mammal":9849,"echo":9850,"aromatic":9851,"biomarkers":9852,"concerns":9853,"polynomial":9854,"transistor":9855,"photocatalytic":9856,"consolidation":9857,"breastfeeding":9858,"aortic":9859,"baker":9860,"larg":9861,"masc":9862,"others":9863,"##tium":9864,"##inance":9865,"##arrol":9866,"##asy":9867,"forum":9868,"too":9869,"##iming":9870,"comport":9871,"club":9872,"als":9873,"alv":9874,"##ologist":9875,"amph":9876,"quick":9877,"blog":9878,"soyb":9879,"brit":9880,"afford":9881,"##ofem":9882,"verb":9883,"expatri":9884,"walker":9885,"classifying":9886,"livest":9887,"resonator":9888,"orthodontic":9889,"inputs":9890,"occupancy":9891,"##iliary":9892,"romantic":9893,"demonstration":9894,"gifted":9895,"##esthesia":9896,"soybean":9897,"each":9898,"rati":9899,"##bin":9900,"##bil":9901,"##mesh":9902,"##rys":9903,"##tw":9904,"conting":9905,"##amous":9906,"##igar":9907,"##umann":9908,"islands":9909,"assets":9910,"command":9911,"escher":9912,"workforce":9913,"prognosis":9914,"reader":9915,"ireland":9916,"costa":9917,"thompson":9918,"naive":9919,"##atherine":9920,"pelvic":9921,"bernard":9922,"turkish":9923,"expressive":9924,"receiver":9925,"biofilm":9926,"celebrity":9927,"deblurring":9928,"guarant":9929,"56":9930,"give":9931,"hack":9932,"nos":9933,"vae":9934,"ward":9935,"##iative":9936,"##2p":9937,"##taining":9938,"##gang":9939,"##stone":9940,"##strained":9941,"##utan":9942,"##adic":9943,"##iae":9944,"energ":9945,"##ancia":9946,"lei":9947,"quarter":9948,"deception":9949,"edible":9950,"microst":9951,"singing":9952,"antigen":9953,"zhong":9954,"##arga":9955,"promotes":9956,"sept":9957,"competitiveness":9958,"conflicts":9959,"songs":9960,"discriminant":9961,"dermatitis":9962,"##u0000u0000u0000u0000":9963,"##uscular":9964,"dragon":9965,"repeat":9966,"restricted":9967,"barbara":9968,"epithelial":9969,"planned":9970,"shrink":9971,"laplacian":9972,"holog":9973,"kay":9974,"kant":9975,"len":9976,"raz":9977,"xi":9978,"##fram":9979,"##group":9980,"##west":9981,"##idium":9982,"##oso":9983,"comments":9984,"##adeh":9985,"enamel":9986,"unifying":9987,"phrases":9988,"shrim":9989,"genre":9990,"coil":9991,"amorph":9992,"##annel":9993,"##axis":9994,"##aja":9995,"epoxy":9996,"grown":9997,"transforming":9998,"repeti":9999,"artem":10000,"behaviours":10001,"##erald":10002,"entertain":10003,"##appa":10004,"##plasia":10005,"kingdom":10006,"mountain":10007,"phenomenon":10008,"peptide":10009,"shifting":10010,"anisotropic":10011,"bm":10012,"erik":10013,"gill":10014,"hai":10015,"##sim":10016,"##det":10017,"##lie":10018,"##ck":10019,"##vol":10020,"##pon":10021,"##gmail":10022,"##atonin":10023,"reach":10024,"##retion":10025,"##osine":10026,"##thermal":10027,"come":10028,"##ionic":10029,"intestinal":10030,"multiagent":10031,"##endra":10032,"bioch":10033,"amy":10034,"##velopment":10035,"##ergic":10036,"bladder":10037,"accidents":10038,"linux":10039,"localized":10040,"neurological":10041,"hydrocarb":10042,"nasa":10043,"##ceptions":10044,"easy":10045,"equivalent":10046,"sosial":10047,"luxury":10048,"irregular":10049,"inequalities":10050,"aper":10051,"bd":10052,"ls":10053,"later":10054,"mw":10055,"mud":10056,"rape":10057,"sacc":10058,"##mel":10059,"##nx":10060,"inner":10061,"##acillus":10062,"##thing":10063,"neil":10064,"clock":10065,"bass":10066,"sung":10067,"##antes":10068,"##aver":10069,"##haw":10070,"agar":10071,"blast":10072,"##rones":10073,"subm":10074,"1982":10075,"xnx":10076,"stimuli":10077,"granite":10078,"produce":10079,"rolling":10080,"biogas":10081,"bottleneck":10082,"mitchell":10083,"garcia":10084,"glu":10085,"lit":10086,"sid":10087,"##96":10088,"##kl":10089,"##wick":10090,"##icion":10091,"##isia":10092,"##ulas":10093,"##agi":10094,"##agic":10095,"##chen":10096,"##umen":10097,"##apia":10098,"enf":10099,"spam":10100,"##alli":10101,"quin":10102,"feel":10103,"prev":10104,"suppress":10105,"surveys":10106,"joints":10107,"challenging":10108,"entail":10109,"hydroph":10110,"##zzle":10111,"greenhouse":10112,"retriev":10113,"broiler":10114,"##baum":10115,"half":10116,"absol":10117,"##enchymal":10118,"georg":10119,"sorting":10120,"ceo":10121,"##going":10122,"lubric":10123,"scholars":10124,"israel":10125,"infarction":10126,"dyn":10127,"fc":10128,"gol":10129,"rut":10130,"##hd":10131,"##unk":10132,"metropol":10133,"wein":10134,"salic":10135,"urine":10136,"zhen":10137,"multiplex":10138,"melatonin":10139,"inher":10140,"dissol":10141,"teamwork":10142,"frontal":10143,"venture":10144,"##ycled":10145,"pedagogical":10146,"atmosphere":10147,"gonz":10148,"proceso":10149,"schmidt":10150,"abundance":10151,"escherichia":10152,"01":10153,"##hon":10154,"##eas":10155,"##vest":10156,"##qing":10157,"##onate":10158,"##stra":10159,"##eps":10160,"issn":10161,"methodologies":10162,"regret":10163,"machin":10164,"##erapan":10165,"overload":10166,"valued":10167,"terrain":10168,"silk":10169,"feedforward":10170,"pengguna":10171,"expanding":10172,"egyp":10173,"##ould":10174,"dissoci":10175,"several":10176,"##obacteria":10177,"campbell":10178,"##labeled":10179,"auction":10180,"mangan":10181,"sistema":10182,"##neg":10183,"##vs":10184,"##esion":10185,"##esting":10186,"##aris":10187,"antif":10188,"##acous":10189,"##empl":10190,"##plication":10191,"clut":10192,"adsor":10193,"unique":10194,"recycled":10195,"week":10196,"##edicine":10197,"newsp":10198,"##uez":10199,"photon":10200,"dimit":10201,"americans":10202,"polyethylene":10203,"1109":10204,"roads":10205,"mutations":10206,"vocal":10207,"tsun":10208,"pharmacology":10209,"giant":10210,"rocket":10211,"closure":10212,"mandibular":10213,"catalytic":10214,"pragmatics":10215,"rcnn":10216,"transducer":10217,"livestock":10218,"bry":10219,"cup":10220,"gum":10221,"ions":10222,"nl":10223,"nemat":10224,"psor":10225,"quran":10226,"send":10227,"##oi":10228,"##uer":10229,"##uro":10230,"##lar":10231,"##orm":10232,"##rocess":10233,"##umping":10234,"seiz":10235,"emily":10236,"elite":10237,"abortion":10238,"register":10239,"sof":10240,"consult":10241,"##rivast":10242,"prognostic":10243,"overcoming":10244,"buff":10245,"##inski":10246,"roots":10247,"swot":10248,"facts":10249,"analyze":10250,"catast":10251,"penis":10252,"pyrolysis":10253,"county":10254,"fisheries":10255,"flavon":10256,"##olithic":10257,"sphere":10258,"tobacco":10259,"stainless":10260,"colombia":10261,"aromatherapy":10262,"dow":10263,"fang":10264,"hit":10265,"lisa":10266,"ronald":10267,"tern":10268,"##sal":10269,"##52":10270,"##alo":10271,"##aru":10272,"##aten":10273,"##rotor":10274,"fort":10275,"##static":10276,"stom":10277,"##osomes":10278,"##ersen":10279,"##tingu":10280,"adip":10281,"##quency":10282,"contour":10283,"bee":10284,"graf":10285,"##estrial":10286,"managment":10287,"performing":10288,"distancing":10289,"branding":10290,"comparisons":10291,"##isson":10292,"norway":10293,"canal":10294,"airline":10295,"iris":10296,"summer":10297,"essays":10298,"motivations":10299,"##thetics":10300,"switched":10301,"pictures":10302,"aesthetic":10303,"overlapping":10304,"sebagai":10305,"nafld":10306,"aprend":10307,"allevi":10308,"acupuncture":10309,"entertainment":10310,"cue":10311,"dre":10312,"horn":10313,"pang":10314,"pyl":10315,"save":10316,"sae":10317,"##yang":10318,"##pat":10319,"##inging":10320,"##aton":10321,"##iltration":10322,"##atile":10323,"arb":10324,"peril":10325,"season":10326,"##encias":10327,"researchers":10328,"carib":10329,"tempor":10330,"reddy":10331,"deliver":10332,"format":10333,"associative":10334,"zhi":10335,"landsl":10336,"fluency":10337,"southeast":10338,"quantity":10339,"##rophot":10340,"grounding":10341,"password":10342,"stereotypes":10343,"##osterone":10344,"counselling":10345,"disadvantage":10346,"palliative":10347,"equivalence":10348,"lecture":10349,"bloom":10350,"##arrollo":10351,"donald":10352,"fasting":10353,"gent":10354,"hang":10355,"hollow":10356,"htt":10357,"ionic":10358,"pond":10359,"xl":10360,"##bee":10361,"##yah":10362,"##rine":10363,"##tization":10364,"##onial":10365,"##icill":10366,"##acl":10367,"rek":10368,"##ription":10369,"spark":10370,"supr":10371,"scand":10372,"leave":10373,"##enders":10374,"amount":10375,"meal":10376,"realism":10377,"##aired":10378,"##uka":10379,"bread":10380,"combat":10381,"steering":10382,"oli":10383,"ordering":10384,"converters":10385,"watson":10386,"pakist":10387,"hoff":10388,"kernels":10389,"tissues":10390,"pharmacokine":10391,"keper":10392,"constructiv":10393,"punishment":10394,"himal":10395,"fossil":10396,"metadata":10397,"vulgaris":10398,"mhealth":10399,"og":10400,"oph":10401,"ya":10402,"##loc":10403,"##rf":10404,"##71":10405,"##occo":10406,"##ably":10407,"##apa":10408,"##owing":10409,"aspir":10410,"unlabeled":10411,"shelf":10412,"empres":10413,"assim":10414,"performances":10415,"consomm":10416,"expertise":10417,"##raphy":10418,"correct":10419,"##ethane":10420,"critique":10421,"polyg":10422,"determinant":10423,"differentially":10424,"citations":10425,"muscles":10426,"neuropsych":10427,"##usaha":10428,"microfluidic":10429,"klein":10430,"couple":10431,"malignant":10432,"fingerprinting":10433,"irradiation":10434,"pursuit":10435,"enviro":10436,"willingness":10437,"49":10438,"born":10439,"nico":10440,"nested":10441,"pam":10442,"sys":10443,"yosh":10444,"##01":10445,"##1a":10446,"##iser":10447,"##road":10448,"##amoto":10449,"tough":10450,"##than":10451,"##uns":10452,"##imen":10453,"shaw":10454,"beijing":10455,"amel":10456,"robin":10457,"##rontal":10458,"functioning":10459,"miner":10460,"canon":10461,"pathogenesis":10462,"enhances":10463,"immed":10464,"##coma":10465,"lawrence":10466,"teleph":10467,"1983":10468,"##ittee":10469,"transmit":10470,"informasi":10471,"##holder":10472,"watch":10473,"observed":10474,"membranes":10475,"absorber":10476,"francisco":10477,"condens":10478,"lunar":10479,"floating":10480,"bureauc":10481,"locomotion":10482,"arima":10483,"##rivastava":10484,"bour":10485,"gd":10486,"hull":10487,"lati":10488,"lut":10489,"wool":10490,"yellow":10491,"##cas":10492,"##69":10493,"##gram":10494,"##asil":10495,"##igence":10496,"disamb":10497,"rectif":10498,"transpor":10499,"plur":10500,"asses":10501,"##anni":10502,"crust":10503,"##2018":10504,"journalism":10505,"geology":10506,"geoff":10507,"roof":10508,"##class":10509,"calib":10510,"taxi":10511,"faith":10512,"farmer":10513,"##rupt":10514,"glasses":10515,"choi":10516,"##rotein":10517,"rodrig":10518,"fragmentation":10519,"criticism":10520,"items":10521,"##ectively":10522,"bengio":10523,"fidelity":10524,"nanotubes":10525,"uterine":10526,"bent":10527,"bci":10528,"cai":10529,"ew":10530,"kil":10531,"lanc":10532,"tg":10533,"##eve":10534,"##fd":10535,"##ville":10536,"##onation":10537,"##rose":10538,"##elman":10539,"##etz":10540,"these":10541,"##oderma":10542,"##rition":10543,"chic":10544,"##ocyt":10545,"exha":10546,"alt":10547,"algin":10548,"dias":10549,"ardu":10550,"arrays":10551,"manus":10552,"begin":10553,"socialization":10554,"##onomi":10555,"predicts":10556,"supers":10557,"##onso":10558,"patel":10559,"radiology":10560,"engineers":10561,"slope":10562,"oliver":10563,"nutrients":10564,"germination":10565,"wright":10566,"bonds":10567,"chlorophyll":10568,"mango":10569,"predator":10570,"purposes":10571,"premature":10572,"alberto":10573,"cylind":10574,"asperg":10575,"representing":10576,"##rhea":10577,"ara":10578,"cort":10579,"kitch":10580,"lok":10581,"lcd":10582,"xen":10583,"##hat":10584,"##06":10585,"##08":10586,"##72":10587,"##onacci":10588,"##arity":10589,"##olet":10590,"theat":10591,"##strom":10592,"##ulative":10593,"##ulatory":10594,"##ratives":10595,"deal":10596,"##atite":10597,"##opo":10598,"##izable":10599,"spik":10600,"appr":10601,"perin":10602,"emg":10603,"emitter":10604,"grating":10605,"assistive":10606,"##ugu":10607,"weiss":10608,"evaluations":10609,"explore":10610,"transferable":10611,"potenti":10612,"polyphen":10613,"telesc":10614,"karen":10615,"biased":10616,"fractal":10617,"stimulus":10618,"june":10619,"mesenchymal":10620,"pneumatic":10621,"##rification":10622,"athlete":10623,"eyes":10624,"louis":10625,"##forestation":10626,"hunting":10627,"voluntary":10628,"metallic":10629,"helicopter":10630,"gregory":10631,"democratic":10632,"sebastian":10633,"staphylococcus":10634,"congenital":10635,"covariance":10636,"shrimp":10637,"aprendiz":10638,"astr":10639,"foll":10640,"hig":10641,"kub":10642,"maz":10643,"tight":10644,"tables":10645,"##yd":10646,"##fu":10647,"##tie":10648,"##igan":10649,"##imetry":10650,"##utsch":10651,"acne":10652,"pren":10653,"truck":10654,"networked":10655,"intermitt":10656,"contents":10657,"scores":10658,"plural":10659,"##tru":10660,"wealth":10661,"prejud":10662,"##anker":10663,"##arsh":10664,"canine":10665,"fermented":10666,"symmetry":10667,"painting":10668,"probing":10669,"molecules":10670,"instant":10671,"linkage":10672,"lesson":10673,"dyslex":10674,"debate":10675,"since":10676,"proximity":10677,"sugarc":10678,"anomalous":10679,"triggered":10680,"municipal":10681,"komunikasi":10682,"shrinkage":10683,"amorphous":10684,"dari":10685,"ik":10686,"jag":10687,"ld":10688,"lak":10689,"niv":10690,"tung":10691,"##bots":10692,"##eon":10693,"chak":10694,"deaf":10695,"orch":10696,"enroll":10697,"effort":10698,"shel":10699,"##verbal":10700,"agility":10701,"##oked":10702,"producing":10703,"bruce":10704,"gui":10705,"realtime":10706,"variety":10707,"##issance":10708,"##ichen":10709,"endors":10710,"endoth":10711,"upon":10712,"calculations":10713,"certification":10714,"ideology":10715,"disasters":10716,"analyse":10717,"expected":10718,"ventricular":10719,"mitigating":10720,"attraction":10721,"auxiliary":10722,"recombinant":10723,"unpaired":10724,"unconstrained":10725,"epigene":10726,"cucumber":10727,"aperture":10728,"arduino":10729,"42":10730,"bun":10731,"hog":10732,"lal":10733,"lte":10734,"nn":10735,"noc":10736,"naj":10737,"sund":10738,"sized":10739,"taste":10740,"ud":10741,"vortex":10742,"would":10743,"xie":10744,"##bp":10745,"##oic":10746,"##mium":10747,"##ll":10748,"##tp":10749,"##xia":10750,"##anian":10751,"##entes":10752,"##stream":10753,"stew":10754,"##imo":10755,"##udge":10756,"stretch":10757,"leone":10758,"mart":10759,"committee":10760,"##ahl":10761,"glove":10762,"monop":10763,"solv":10764,"implication":10765,"##other":10766,"airbn":10767,"philippe":10768,"catch":10769,"keu":10770,"maintain":10771,"sanitiz":10772,"receptors":10773,"splitting":10774,"mastering":10775,"ratings":10776,"simplified":10777,"dilemma":10778,"piezoelectric":10779,"council":10780,"egyptian":10781,"airbnb":10782,"bes":10783,"dag":10784,"foster":10785,"jim":10786,"lis":10787,"lad":10788,"lending":10789,"riv":10790,"vene":10791,"zi":10792,"##pes":10793,"##62":10794,"##icated":10795,"##iguation":10796,"##oglu":10797,"nex":10798,"meter":10799,"metform":10800,"arist":10801,"scop":10802,"##illi":10803,"hymen":10804,"machining":10805,"preprint":10806,"designed":10807,"idi":10808,"##tify":10809,"crise":10810,"spectrophot":10811,"supplier":10812,"penel":10813,"penerapan":10814,"belong":10815,"hetero":10816,"vitam":10817,"luo":10818,"rosen":10819,"pcb":10820,"hepatic":10821,"##ourced":10822,"criterion":10823,"##obacterium":10824,"breakdown":10825,"mnist":10826,"diagnostics":10827,"influencer":10828,"narcissism":10829,"##processing":10830,"basketball":10831,"entailment":10832,"keperawatan":10833,"cows":10834,"ej":10835,"rans":10836,"##05":10837,"##idor":10838,"##ried":10839,"##ucle":10840,"##plane":10841,"##apes":10842,"ade":10843,"unet":10844,"interd":10845,"##arya":10846,"biotechnology":10847,"assum":10848,"pointer":10849,"personalization":10850,"offset":10851,"magic":10852,"contraction":10853,"shortest":10854,"bounded":10855,"microscopic":10856,"crown":10857,"mindset":10858,"alternatives":10859,"texas":10860,"garbage":10861,"beamforming":10862,"missile":10863,"##rhiz":10864,"philosoph":10865,"acetyl":10866,"jackson":10867,"pavement":10868,"rebec":10869,"discipline":10870,"intermittent":10871,"sugarcane":10872,"360":10873,"99":10874,"aure":10875,"cep":10876,"danger":10877,"eh":10878,"gly":10879,"lett":10880,"##bd":10881,"##rit":10882,"##jin":10883,"conduction":10884,"replay":10885,"##abe":10886,"##imaging":10887,"##plasty":10888,"##opia":10889,"spar":10890,"spac":10891,"spending":10892,"##obacillus":10893,"##ibilities":10894,"hein":10895,"infected":10896,"moon":10897,"underground":10898,"##awat":10899,"geop":10900,"##ajo":10901,"grace":10902,"measured":10903,"fluids":10904,"siw":10905,"providers":10906,"gaps":10907,"cycling":10908,"essentials":10909,"dosage":10910,"prolif":10911,"immigration":10912,"biometrics":10913,"introducing":10914,"furnace":10915,"seawater":10916,"plaque":10917,"elephant":10918,"embodied":10919,"jesus":10920,"dissolved":10921,"gnn":10922,"jp":10923,"lud":10924,"lov":10925,"sas":10926,"ung":10927,"wai":10928,"##oen":10929,"##mat":10930,"##cel":10931,"##wi":10932,"##89":10933,"##array":10934,"##iga":10935,"##ogens":10936,"##thood":10937,"##ocy":10938,"##oven":10939,"exoskeleton":10940,"disrup":10941,"##obil":10942,"##entina":10943,"infl":10944,"prey":10945,"flower":10946,"nonc":10947,"experts":10948,"cruc":10949,"serge":10950,"##abilidad":10951,"investing":10952,"politic":10953,"colorization":10954,"anime":10955,"dependencies":10956,"strengthening":10957,"nigerian":10958,"##centric":10959,"hasan":10960,"mandarin":10961,"happy":10962,"nucleus":10963,"startup":10964,"microfinance":10965,"cbt":10966,"iranian":10967,"obstacles":10968,"manifolds":10969,"terrestrial":10970,"divergence":10971,"bodies":10972,"ammonium":10973,"meningkat":10974,"cao":10975,"ding":10976,"fav":10977,"gw":10978,"hess":10979,"iq":10980,"ou":10981,"vad":10982,"##flu":10983,"##83":10984,"##rost":10985,"##idirectional":10986,"##ames":10987,"##under":10988,"restr":10989,"aliment":10990,"##akter":10991,"##actors":10992,"peroxide":10993,"impulse":10994,"##anta":10995,"marsh":10996,"margar":10997,"elic":10998,"cortic":10999,"abb":11000,"##uber":11001,"econometric":11002,"##ographs":11003,"slav":11004,"hypox":11005,"keith":11006,"keeping":11007,"aerobic":11008,"conversations":11009,"uncertainties":11010,"passage":11011,"treating":11012,"revealed":11013,"prak":11014,"redundancy":11015,"ambiguity":11016,"arrangement":11017,"caffe":11018,"metformin":11019,"7th":11020,"bible":11021,"cis":11022,"dick":11023,"ful":11024,"jas":11025,"jason":11026,"litter":11027,"lactic":11028,"sell":11029,"xing":11030,"xix":11031,"##bow":11032,"##rish":11033,"##olip":11034,"##odal":11035,"##agin":11036,"cone":11037,"alarm":11038,"##akat":11039,"##rying":11040,"relief":11041,"synerg":11042,"drink":11043,"handwriting":11044,"ready":11045,"carbox":11046,"steve":11047,"urbanization":11048,"##ksi":11049,"added":11050,"inferring":11051,"##hiro":11052,"##u0004":11053,"manipulators":11054,"##ranial":11055,"annotated":11056,"coco":11057,"inverted":11058,"strains":11059,"insects":11060,"mobilenet":11061,"##aturated":11062,"projections":11063,"bovine":11064,"nelson":11065,"ratios":11066,"disambiguation":11067,"05":11068,"cem":11069,"hon":11070,"mail":11071,"tt":11072,"wit":11073,"##uity":11074,"##pot":11075,"##anas":11076,"ankle":11077,"##ulting":11078,"actin":11079,"basal":11080,"##ensin":11081,"bior":11082,"selecting":11083,"carn":11084,"carp":11085,"knn":11086,"internasional":11087,"crf":11088,"##edding":11089,"morb":11090,"barr":11091,"spatially":11092,"primer":11093,"icu":11094,"provider":11095,"prosocial":11096,"excell":11097,"##itzer":11098,"tensorflow":11099,"unders":11100,"cipher":11101,"clothes":11102,"##imbing":11103,"physicochemical":11104,"nicholas":11105,"preparedness":11106,"ammonia":11107,"hpv":11108,"festiv":11109,"microgrid":11110,"lumbar":11111,"bambo":11112,"stuart":11113,"osteoporosis":11114,"enrollment":11115,"penelitian":11116,"fec":11117,"fate":11118,"hour":11119,"lah":11120,"mech":11121,"mong":11122,"moll":11123,"nether":11124,"qr":11125,"tio2":11126,"wake":11127,"##bt":11128,"##lass":11129,"##cg":11130,"##alism":11131,"##enty":11132,"forg":11133,"chol":11134,"##umer":11135,"##opa":11136,"##vian":11137,"shan":11138,"strand":11139,"micron":11140,"smoke":11141,"##ribution":11142,"decou":11143,"underlying":11144,"solvent":11145,"lost":11146,"salv":11147,"affinity":11148,"##ethanol":11149,"##link":11150,"estud":11151,"golden":11152,"centrality":11153,"reflections":11154,"pso":11155,"ruth":11156,"earthquakes":11157,"sprinkler":11158,"situational":11159,"nmr":11160,"metamaterial":11161,"##zhou":11162,"cnc":11163,"dutch":11164,"elimination":11165,"plasmonic":11166,"adulthood":11167,"thoracic":11168,"absolute":11169,"perinatal":11170,"keuangan":11171,"abl":11172,"cys":11173,"haj":11174,"nish":11175,"##sel":11176,"##mu":11177,"##np":11178,"##vas":11179,"deutsch":11180,"##izz":11181,"##angi":11182,"dispar":11183,"##achi":11184,"##aches":11185,"altru":11186,"amp":11187,"##iani":11188,"carbo":11189,"##okes":11190,"##inda":11191,"memor":11192,"drilling":11193,"epistem":11194,"leads":11195,"turning":11196,"circle":11197,"legacy":11198,"hortic":11199,"pollut":11200,"meaningful":11201,"mosqu":11202,"coatings":11203,"##olytic":11204,"hormones":11205,"telecom":11206,"vaginal":11207,"adhesion":11208,"scratch":11209,"neighbour":11210,"spectrometry":11211,"commodity":11212,"rebecca":11213,"bots":11214,"cip":11215,"dans":11216,"fold":11217,"gf":11218,"ign":11219,"overs":11220,"punc":11221,"rus":11222,"raf":11223,"tors":11224,"yus":11225,"##dar":11226,"##inas":11227,"##elastic":11228,"##osexual":11229,"##ocent":11230,"##inea":11231,"unstructured":11232,"##echt":11233,"##ista":11234,"emo":11235,"indica":11236,"soy":11237,"##iki":11238,"##erner":11239,"protect":11240,"protected":11241,"brush":11242,"##bris":11243,"peels":11244,"percep":11245,"##boost":11246,"facing":11247,"novelty":11248,"##embangan":11249,"##ghz":11250,"standardization":11251,"capacitance":11252,"antibodies":11253,"antennas":11254,"ahp":11255,"plasmon":11256,"separable":11257,"crystals":11258,"symptom":11259,"murray":11260,"russell":11261,"mexican":11262,"##olytica":11263,"enrichment":11264,"guru":11265,"polysacchar":11266,"johannes":11267,"honeyp":11268,"september":11269,"caribbean":11270,"pakistani":11271,"proliferation":11272,"bamboo":11273,"64":11274,"aim":11275,"eis":11276,"kaj":11277,"lass":11278,"mason":11279,"xue":11280,"##eties":11281,"##my":11282,"##cp":11283,"##feng":11284,"##3c":11285,"##inet":11286,"##acia":11287,"##ulates":11288,"##idin":11289,"##ager":11290,"chess":11291,"tok":11292,"compacting":11293,"actual":11294,"alger":11295,"##alling":11296,"##timacy":11297,"agu":11298,"surrog":11299,"micror":11300,"optimize":11301,"discontin":11302,"##reatment":11303,"nanow":11304,"integer":11305,"gru":11306,"calidad":11307,"ups":11308,"##oides":11309,"polyc":11310,"angela":11311,"walter":11312,"navig":11313,"abscess":11314,"michelle":11315,"websites":11316,"coordinate":11317,"puberty":11318,"repeated":11319,"laparoscopic":11320,"kualitas":11321,"##ofemoral":11322,"penggunaan":11323,"5th":11324,"eur":11325,"eight":11326,"kri":11327,"mist":11328,"nations":11329,"##iances":11330,"##oin":11331,"##enets":11332,"##enstein":11333,"##oran":11334,"##icin":11335,"##ecraft":11336,"##strak":11337,"##osus":11338,"##ospor":11339,"chair":11340,"##atika":11341,"trast":11342,"##phere":11343,"studi":11344,"interconn":11345,"impression":11346,"##entin":11347,"quaran":11348,"simil":11349,"nonverbal":11350,"supercap":11351,"##away":11352,"psychometric":11353,"characterisation":11354,"delhi":11355,"auditor":11356,"temperatures":11357,"polyur":11358,"helping":11359,"paint":11360,"tradeoff":11361,"demands":11362,"wrong":11363,"annotations":11364,"##yrene":11365,"broadcast":11366,"divid":11367,"melanoma":11368,"pesticide":11369,"bruno":11370,"immersive":11371,"turbulence":11372,"repository":11373,"psoriasis":11374,"meningkatkan":11375,"43":11376,"dod":11377,"dock":11378,"hern":11379,"kp":11380,"lys":11381,"sacchar":11382,"tier":11383,"##bul":11384,"##rass":11385,"##psych":11386,"##gets":11387,"##erge":11388,"##ogel":11389,"##osecond":11390,"chron":11391,"##apan":11392,"##ovis":11393,"trick":11394,"distingu":11395,"adams":11396,"efflu":11397,"amid":11398,"##arians":11399,"obtain":11400,"roberts":11401,"skeletal":11402,"varieties":11403,"patell":11404,"##ankar":11405,"##aira":11406,"audience":11407,"worldwide":11408,"silic":11409,"mycor":11410,"magne":11411,"hemorrh":11412,"##anglement":11413,"partition":11414,"payments":11415,"alternating":11416,"tanah":11417,"restriction":11418,"fluorescent":11419,"further":11420,"letters":11421,"perturbation":11422,"soluble":11423,"##parametric":11424,"prefrontal":11425,"friendship":11426,"disentangled":11427,"html":11428,"appropriate":11429,"accommodation":11430,"quarterly":11431,"enferm":11432,"averaging":11433,"jie":11434,"mack":11435,"tone":11436,"u00":11437,"##mia":11438,"##local":11439,"##feld":11440,"##vd":11441,"##vasive":11442,"##etah":11443,"##etching":11444,"##aculture":11445,"##atial":11446,"##uto":11447,"##api":11448,"syst":11449,"phases":11450,"atrous":11451,"leverage":11452,"select":11453,"meet":11454,"regime":11455,"blank":11456,"flour":11457,"default":11458,"##evolution":11459,"camb":11460,"##rows":11461,"##auer":11462,"##auge":11463,"steady":11464,"circum":11465,"maxillary":11466,"latest":11467,"keb":11468,"syndrom":11469,"kinematics":11470,"magnitude":11471,"1979":11472,"acquisitions":11473,"##otid":11474,"chatbots":11475,"forensics":11476,"santos":11477,"controllers":11478,"aplikasi":11479,"cobalt":11480,"##oblastoma":11481,"decrease":11482,"##kolah":11483,"asymptotic":11484,"episodic":11485,"together":11486,"plagiar":11487,"britain":11488,"microstrip":11489,"manganese":11490,"alginate":11491,"prejudice":11492,"03":11493,"75":11494,"giv":11495,"gulf":11496,"hide":11497,"nail":11498,"penc":11499,"rak":11500,"##eets":11501,"##fect":11502,"##icle":11503,"##atz":11504,"##atosis":11505,"revision":11506,"##reen":11507,"##atia":11508,"disab":11509,"admission":11510,"asr":11511,"mario":11512,"moore":11513,"robinson":11514,"discover":11515,"grids":11516,"##clr":11517,"word2vec":11518,"panor":11519,"aggressive":11520,"molecule":11521,"recording":11522,"akunt":11523,"odont":11524,"scholarly":11525,"miscon":11526,"masked":11527,"shipping":11528,"ethnicity":11529,"traveling":11530,"mrna":11531,"amplification":11532,"amplitude":11533,"##eholders":11534,"cadmium":11535,"aesthetics":11536,"watershed":11537,"cassava":11538,"craig":11539,"kitchen":11540,"02":11541,"iz":11542,"oy":11543,"vor":11544,"xvideos":11545,"##n1":11546,"##pear":11547,"##74":11548,"##tiles":11549,"##oman":11550,"retic":11551,"##itha":11552,"enough":11553,"arithm":11554,"contro":11555,"desk":11556,"researches":11557,"humor":11558,"humidity":11559,"brach":11560,"insulation":11561,"notification":11562,"assessments":11563,"slag":11564,"typology":11565,"fibonacci":11566,"operative":11567,"grades":11568,"settl":11569,"frequent":11570,"homeless":11571,"normalized":11572,"ego":11573,"required":11574,"narratives":11575,"##rawal":11576,"rosa":11577,"countermeas":11578,"rewards":11579,"##odontics":11580,"embryonic":11581,"stakeholders":11582,"isotope":11583,"##networks":11584,"practitioners":11585,"canonical":11586,"aspergillus":11587,"patellofemoral":11588,"euler":11589,"gp":11590,"ginger":11591,"hell":11592,"mate":11593,"nt":11594,"pus":11595,"pore":11596,"pension":11597,"pwm":11598,"tect":11599,"##holic":11600,"##bir":11601,"##aug":11602,"##mus":11603,"offer":11604,"##ecd":11605,"deha":11606,"debris":11607,"ence":11608,"##acher":11609,"alone":11610,"##ipe":11611,"seal":11612,"beat":11613,"##anny":11614,"incident":11615,"subgraph":11616,"guy":11617,"##oxacin":11618,"geographical":11619,"defenses":11620,"grant":11621,"ethere":11622,"##pected":11623,"thermodynamics":11624,"vera":11625,"induces":11626,"##bias":11627,"copd":11628,"platelet":11629,"procras":11630,"preparing":11631,"original":11632,"##osaic":11633,"##hydro":11634,"prioritization":11635,"retailing":11636,"juice":11637,"mimic":11638,"##omorphism":11639,"phenomena":11640,"traceability":11641,"aplic":11642,"judgment":11643,"assimilation":11644,"immediate":11645,"jain":11646,"kra":11647,"tari":11648,"##hil":11649,"##bus":11650,"##rr":11651,"##pace":11652,"##wall":11653,"##atter":11654,"##ately":11655,"##enta":11656,"stars":11657,"revised":11658,"##ucks":11659,"orbit":11660,"##izacion":11661,"##ensory":11662,"##ellulose":11663,"##violet":11664,"parag":11665,"parabolic":11666,"##ermann":11667,"##blog":11668,"abu":11669,"##neider":11670,"howard":11671,"##azi":11672,"drum":11673,"globally":11674,"thermodynamic":11675,"##factory":11676,"pedro":11677,"minimizing":11678,"saturation":11679,"aligned":11680,"provide":11681,"fertilization":11682,"1002":11683,"pairwise":11684,"quadrotor":11685,"alkali":11686,"suicidal":11687,"critically":11688,"citizen":11689,"physician":11690,"dasar":11691,"divergent":11692,"polynom":11693,"lignin":11694,"sweden":11695,"dressing":11696,"##oglobin":11697,"microservices":11698,"microorganisms":11699,"done":11700,"sind":11701,"tennis":11702,"##base":11703,"##ders":11704,"##cery":11705,"##rates":11706,"##far":11707,"##kumar":11708,"##orf":11709,"##edo":11710,"##economics":11711,"##omod":11712,"sta":11713,"##ocin":11714,"##imoto":11715,"adren":11716,"##ipation":11717,"##ellation":11718,"rech":11719,"##romy":11720,"paris":11721,"##haus":11722,"desarrollo":11723,"surfact":11724,"##ront":11725,"markus":11726,"processed":11727,"##ieties":11728,"roh":11729,"slab":11730,"swimming":11731,"taxation":11732,"extensive":11733,"illusion":11734,"funding":11735,"specificity":11736,"phenolic":11737,"migrant":11738,"ultraviolet":11739,"tensile":11740,"mahm":11741,"columns":11742,"bengal":11743,"linda":11744,"nanofib":11745,"almost":11746,"angiot":11747,"attendance":11748,"discrep":11749,"ethereum":11750,"06":11751,"dac":11752,"zimb":11753,"##oter":11754,"##cz":11755,"##gas":11756,"##wana":11757,"##eres":11758,"##arum":11759,"##encephal":11760,"divide":11761,"phishing":11762,"shim":11763,"recession":11764,"mann":11765,"evapor":11766,"trab":11767,"commission":11768,"microm":11769,"weber":11770,"educators":11771,"motif":11772,"grocery":11773,"mats":11774,"cracking":11775,"##2016":11776,"limitation":11777,"needle":11778,"bioactive":11779,"panels":11780,"lipolytica":11781,"rotating":11782,"footprint":11783,"socioeconomic":11784,"because":11785,"restaurants":11786,"figure":11787,"caregivers":11788,"village":11789,"substitution":11790,"alkaline":11791,"transcriptome":11792,"voxel":11793,"##acoustic":11794,"quarantine":11795,"angiotensin":11796,"98":11797,"afl":11798,"kob":11799,"ost":11800,"tsu":11801,"##bits":11802,"##ghan":11803,"##inge":11804,"##atar":11805,"##edes":11806,"##elin":11807,"##activation":11808,"##ilis":11809,"##ulti":11810,"##umental":11811,"##imer":11812,"asi":11813,"diri":11814,"perc":11815,"datac":11816,"deterior":11817,"feeling":11818,"##ahertz":11819,"productive":11820,"monot":11821,"cru":11822,"guang":11823,"realization":11824,"twist":11825,"slip":11826,"sludge":11827,"mapp":11828,"pathological":11829,"dirich":11830,"negl":11831,"mcm":11832,"stocks":11833,"1981":11834,"million":11835,"snake":11836,"violent":11837,"regulating":11838,"providing":11839,"1975":11840,"dengue":11841,"junior":11842,"moderate":11843,"chamber":11844,"alfred":11845,"archaeology":11846,"bronch":11847,"scientists":11848,"patricia":11849,"cec":11850,"eut":11851,"gos":11852,"gyn":11853,"holl":11854,"jal":11855,"kent":11856,"kelly":11857,"l1":11858,"nancy":11859,"pile":11860,"rend":11861,"wrist":11862,"##mir":11863,"##ych":11864,"##ertion":11865,"##olum":11866,"##ches":11867,"chung":11868,"comorb":11869,"##unting":11870,"exempl":11871,"compiler":11872,"pran":11873,"advis":11874,"alum":11875,"##phase":11876,"amyg":11877,"matem":11878,"guest":11879,"solanum":11880,"industri":11881,"##marks":11882,"postoperative":11883,"fibrill":11884,"1111":11885,"##spec":11886,"ageing":11887,"manufactur":11888,"continuum":11889,"roadmap":11890,"##berger":11891,"periodon":11892,"##market":11893,"buddh":11894,"initiation":11895,"dopamine":11896,"nasoph":11897,"##yclic":11898,"stir":11899,"stefano":11900,"vibr":11901,"filled":11902,"##islav":11903,"lecun":11904,"yarrow":11905,"teknologi":11906,"acquired":11907,"rhetoric":11908,"tsunami":11909,"perilaku":11910,"aprendizaje":11911,"plagiarism":11912,"250":11913,"aki":11914,"bending":11915,"giving":11916,"hw":11917,"mf":11918,"rick":11919,"tilt":11920,"##hop":11921,"##ostr":11922,"##don":11923,"##atoid":11924,"proposition":11925,"##atid":11926,"##udy":11927,"exclusion":11928,"prest":11929,"disney":11930,"sekolah":11931,"emph":11932,"teens":11933,"beef":11934,"elena":11935,"pool":11936,"##ports":11937,"optimum":11938,"archive":11939,"archives":11940,"##urrency":11941,"endocrine":11942,"twenty":11943,"practic":11944,"swine":11945,"employing":11946,"occl":11947,"hybridization":11948,"tourists":11949,"implemented":11950,"copy":11951,"copyr":11952,"advancement":11953,"keyph":11954,"compositionality":11955,"hui":11956,"maximizing":11957,"listed":11958,"parkinson":11959,"tablets":11960,"savings":11961,"residents":11962,"midw":11963,"coalition":11964,"embryo":11965,"##ayanan":11966,"phillips":11967,"washington":11968,"eigenvalu":11969,"schwartz":11970,"terrorism":11971,"http":11972,"mosquito":11973,"trastorn":11974,"supercapac":11975,"ces":11976,"dang":11977,"grip":11978,"lp":11979,"netw":11980,"pir":11981,"rw":11982,"till":11983,"u0000":11984,"##hart":11985,"##uar":11986,"##lock":11987,"##peng":11988,"##estine":11989,"##used":11990,"trat":11991,"diat":11992,"##actory":11993,"cola":11994,"##system":11995,"protecting":11996,"##raphic":11997,"##taut":11998,"vaccines":11999,"triplet":12000,"investments":12001,"bandit":12002,"accelerometer":12003,"##ucker":12004,"porter":12005,"fertilizers":12006,"wildlife":12007,"transactional":12008,"arthur":12009,"ekonomi":12010,"ibm":12011,"shuff":12012,"extremely":12013,"bibliometric":12014,"outsourcing":12015,"yolov3":12016,"refugee":12017,"antifung":12018,"olivier":12019,"theatre":12020,"prenatal":12021,"dyslexia":12022,"netherlands":12023,"polynomials":12024,"dirichlet":12025,"yarrowia":12026,"bob":12027,"hak":12028,"otitis":12029,"turing":12030,"##hel":12031,"##enic":12032,"thing":12033,"##acon":12034,"##oglyc":12035,"##rees":12036,"##adores":12037,"una":12038,"metap":12039,"poland":12040,"surf":12041,"socialism":12042,"methodological":12043,"##stract":12044,"eccentric":12045,"##ioid":12046,"known":12047,"nonparametric":12048,"secur":12049,"evaluative":12050,"variant":12051,"improvements":12052,"##ochrom":12053,"berry":12054,"kinematic":12055,"weakness":12056,"holly":12057,"doping":12058,"activism":12059,"ancest":12060,"geriatric":12061,"aquaculture":12062,"congress":12063,"opinions":12064,"tetra":12065,"attrac":12066,"crystalline":12067,"tingkat":12068,"disinfection":12069,"excessive":12070,"belonging":12071,"aureus":12072,"emoji":12073,"polyurethane":12074,"bs":12075,"dp":12076,"func":12077,"mum":12078,"ves":12079,"vern":12080,"xyl":12081,"##bone":12082,"##ounc":12083,"##dam":12084,"##nic":12085,"##tes":12086,"##tid":12087,"thread":12088,"##rage":12089,"proactive":12090,"##abel":12091,"adrian":12092,"multiob":12093,"surge":12094,"socially":12095,"nonneg":12096,"locus":12097,"strategi":12098,"malay":12099,"##uktur":12100,"morgan":12101,"morocco":12102,"##inalis":12103,"hypergraph":12104,"ocr":12105,"supplements":12106,"corporation":12107,"females":12108,"lingk":12109,"taxes":12110,"##modern":12111,"tomas":12112,"aerosp":12113,"inhal":12114,"passing":12115,"simulating":12116,"sexuality":12117,"org10":12118,"stereotype":12119,"francesco":12120,"murphy":12121,"preterm":12122,"cryptoc":12123,"exploitation":12124,"rogers":12125,"harvest":12126,"pearson":12127,"drainage":12128,"vincent":12129,"pulsed":12130,"anatomical":12131,"salicylic":12132,"geoffrey":12133,"given":12134,"arithmetic":12135,"41":12136,"cau":12137,"dung":12138,"fon":12139,"hag":12140,"ipo":12141,"pell":12142,"qian":12143,"xa":12144,"##bent":12145,"##dan":12146,"##cam":12147,"##kas":12148,"##ocyan":12149,"##andon":12150,"##ateur":12151,"disk":12152,"alice":12153,"##obot":12154,"##vies":12155,"interacting":12156,"atp":12157,"leis":12158,"##ernet":12159,"optimizer":12160,"crises":12161,"member":12162,"diges":12163,"digestion":12164,"##ankton":12165,"ethic":12166,"sla":12167,"##heets":12168,"hyperparam":12169,"myan":12170,"harass":12171,"homogeneous":12172,"wellness":12173,"hemis":12174,"phenol":12175,"procedural":12176,"invariance":12177,"subjected":12178,"granular":12179,"haze":12180,"reveal":12181,"ekstrak":12182,"promoter":12183,"simplification":12184,"husk":12185,"solubility":12186,"wisdom":12187,"compatibility":12188,"fluctu":12189,"prescribed":12190,"##yarakat":12191,"##usahaan":12192,"978":12193,"jump":12194,"leng":12195,"ping":12196,"##bm":12197,"##uana":12198,"##etics":12199,"##lav":12200,"##vae":12201,"##63":12202,"##jas":12203,"##85":12204,"##87":12205,"##tious":12206,"##orous":12207,"thir":12208,"##agne":12209,"chrys":12210,"##ewise":12211,"shak":12212,"sheng":12213,"shakes":12214,"arriv":12215,"coch":12216,"##athering":12217,"##yne":12218,"##ished":12219,"previous":12220,"##afe":12221,"outage":12222,"defence":12223,"##bras":12224,"##ausal":12225,"##ukin":12226,"familiar":12227,"olfactory":12228,"statistic":12229,"pengetah":12230,"compliant":12231,"confirm":12232,"statements":12233,"loads":12234,"polymeric":12235,"microscope":12236,"watching":12237,"conductive":12238,"hasil":12239,"instructions":12240,"radius":12241,"shipbuilding":12242,"seeing":12243,"macroeconomic":12244,"tutoring":12245,"elasticity":12246,"rabbit":12247,"become":12248,"getting":12249,"hedge":12250,"horizon":12251,"mercury":12252,"bioge":12253,"histograms":12254,"etiology":12255,"persuasion":12256,"1007s":12257,"rhythm":12258,"catastrophic":12259,"fibrillation":12260,"4d":12261,"47":12262,"brom":12263,"bao":12264,"dum":12265,"ferm":12266,"hours":12267,"lans":12268,"roc":12269,"sarc":12270,"srin":12271,"tld":12272,"wav":12273,"##mes":12274,"##rac":12275,"##jiang":12276,"##inn":12277,"##icular":12278,"##roach":12279,"##iliation":12280,"sto":12281,"dealing":12282,"##atization":12283,"perez":12284,"##iba":12285,"beau":12286,"graham":12287,"bypass":12288,"abor":12289,"schneider":12290,"##alez":12291,"electrosp":12292,"knowing":12293,"##ylation":12294,"overf":12295,"##floxacin":12296,"endoscopic":12297,"files":12298,"delays":12299,"##ophobia":12300,"universe":12301,"papaya":12302,"terahertz":12303,"continental":12304,"precurs":12305,"capitalism":12306,"passenger":12307,"farms":12308,"federic":12309,"strengths":12310,"##resolution":12311,"experiential":12312,"involving":12313,"##plastics":12314,"lucas":12315,"enzymatic":12316,"granul":12317,"tracker":12318,"lactobacillus":12319,"muscular":12320,"regener":12321,"escape":12322,"coordinated":12323,"jeremy":12324,"##ophysical":12325,"enriched":12326,"microfluidics":12327,"agroforest":12328,"ncov":12329,"fernando":12330,"capturing":12331,"##integration":12332,"squeeze":12333,"mishra":12334,"pylori":12335,"nexus":12336,"restruct":12337,"caffeine":12338,"carbohyd":12339,"nonnegative":12340,"pengetahuan":12341,"500":12342,"cigar":12343,"dap":12344,"haptic":12345,"koch":12346,"pms":12347,"tann":12348,"zhe":12349,"##itin":12350,"##body":12351,"##tm":12352,"##tec":12353,"##eron":12354,"##idental":12355,"choms":12356,"##abstract":12357,"##atik":12358,"multim":12359,"parasi":12360,"else":12361,"append":12362,"selenium":12363,"##ypes":12364,"locations":12365,"segregation":12366,"serot":12367,"##zzi":12368,"popul":12369,"constructions":12370,"futures":12371,"belg":12372,"##ogeny":12373,"homo":12374,"paed":12375,"said":12376,"petri":12377,"masyarakat":12378,"##steine":12379,"consideration":12380,"catheter":12381,"becoming":12382,"coordinates":12383,"phillip":12384,"adhesive":12385,"grief":12386,"horse":12387,"##rosophila":12388,"estrateg":12389,"vinegar":12390,"masculin":12391,"biochar":12392,"##eastern":12393,"minerals":12394,"copyright":12395,"cube":12396,"drosophila":12397,"foli":12398,"got":12399,"hough":12400,"kum":12401,"pab":12402,"##xin":12403,"##jit":12404,"anesthesia":12405,"another":12406,"thym":12407,"##ears":12408,"##usal":12409,"entr":12410,"encl":12411,"perl":12412,"transit":12413,"manure":12414,"atrophy":12415,"coag":12416,"plc":12417,"plans":12418,"elabor":12419,"elmo":12420,"corne":12421,"schl":12422,"fei":12423,"semiotic":12424,"gland":12425,"retard":12426,"patri":12427,"oxyt":12428,"##alypt":12429,"lands":12430,"backsc":12431,"ester":12432,"stores":12433,"rena":12434,"##u0006":12435,"menop":12436,"simulink":12437,"migrants":12438,"abdullah":12439,"roberta":12440,"uavs":12441,"priority":12442,"giov":12443,"multichann":12444,"subset":12445,"bhatt":12446,"categorical":12447,"oscillation":12448,"controllability":12449,"letter":12450,"vagina":12451,"##algia":12452,"metastatic":12453,"##arajan":12454,"##olecular":12455,"nanocomposites":12456,"telecommunication":12457,"##ophagy":12458,"antiviral":12459,"exhibition":12460,"percentage":12461,"##icillin":12462,"rodriguez":12463,"procrastination":12464,"multichannel":12465,"dsm":12466,"haf":12467,"jaw":12468,"ln":12469,"utaut":12470,"yos":12471,"yad":12472,"##uv":12473,"##eep":12474,"##lers":12475,"##vm":12476,"##65":12477,"##wear":12478,"##1b":12479,"##alin":12480,"##icul":12481,"##idia":12482,"##real":12483,"chir":12484,"##uci":12485,"##otti":12486,"##otec":12487,"##ineering":12488,"##eptive":12489,"unex":12490,"generators":12491,"obese":12492,"preprocessing":12493,"engines":12494,"undergoing":12495,"protest":12496,"influential":12497,"insectic":12498,"##2017":12499,"tweets":12500,"lift":12501,"##generation":12502,"helps":12503,"migraine":12504,"army":12505,"choose":12506,"paced":12507,"##plasm":12508,"coca":12509,"pseudomonas":12510,"diagrams":12511,"popularity":12512,"judgments":12513,"establishment":12514,"ventil":12515,"vertex":12516,"deposits":12517,"currency":12518,"hvac":12519,"akuntansi":12520,"leisure":12521,"harassment":12522,"chomsky":12523,"08":12524,"cock":12525,"drones":12526,"father":12527,"ibu":12528,"kre":12529,"nk":12530,"pull":12531,"ry":12532,"sour":12533,"tir":12534,"urea":12535,"vesti":12536,"##uasan":12537,"##rasi":12538,"##gage":12539,"##icas":12540,"annal":12541,"prok":12542,"##umatic":12543,"##angu":12544,"spor":12545,"adm":12546,"alam":12547,"april":12548,"seam":12549,"abc":12550,"guer":12551,"estimator":12552,"locality":12553,"greedy":12554,"herz":12555,"autoimm":12556,"ordered":12557,"transmitter":12558,"##otypic":12559,"dissolution":12560,"hypertensive":12561,"christine":12562,"principals":12563,"wallace":12564,"metabolites":12565,"##urgery":12566,"glycos":12567,"implantation":12568,"dyes":12569,"wolfgang":12570,"pearl":12571,"conservative":12572,"fernandez":12573,"rectang":12574,"interfacial":12575,"pyrrol":12576,"##frame":12577,"gonzalez":12578,"newspaper":12579,"landslide":12580,"pharmacokinetics":12581,"spiking":12582,"multiobjective":12583,"arous":12584,"hf":12585,"hugh":12586,"hof":12587,"kash":12588,"lived":12589,"mint":12590,"nord":12591,"##hous":12592,"##oag":12593,"##92":12594,"##onium":12595,"then":12596,"##omen":12597,"##emination":12598,"confer":12599,"deploy":12600,"##open":12601,"##owitz":12602,"spelling":12603,"##ober":12604,"dij":12605,"interdisciplinary":12606,"##ournal":12607,"plot":12608,"multist":12609,"##ugging":12610,"flip":12611,"boys":12612,"schooling":12613,"malt":12614,"##echanical":12615,"airplane":12616,"transforms":12617,"repell":12618,"##fficient":12619,"perioperative":12620,"fishes":12621,"dcdc":12622,"piper":12623,"haem":12624,"cyclone":12625,"##structing":12626,"motives":12627,"historia":12628,"falls":12629,"rgbd":12630,"bibl":12631,"dominant":12632,"grassland":12633,"references":12634,"facilitating":12635,"tendon":12636,"iodine":12637,"trivia":12638,"stewart":12639,"attractiveness":12640,"myanmar":12641,"802":12642,"ahead":12643,"cg":12644,"dft":12645,"fool":12646,"fasc":12647,"hann":12648,"jensen":12649,"kha":12650,"liz":12651,"rdf":12652,"tale":12653,"wars":12654,"##hong":12655,"##bon":12656,"##bic":12657,"##xi":12658,"##04":12659,"##jian":12660,"##inate":12661,"##anu":12662,"##atology":12663,"##isha":12664,"##ische":12665,"##elia":12666,"##aser":12667,"##asure":12668,"##ulis":12669,"##agonal":12670,"proven":12671,"envelop":12672,"2021":12673,"##ologists":12674,"arsen":12675,"##ancies":12676,"##avan":12677,"##estration":12678,"bike":12679,"aber":12680,"weed":12681,"mono":12682,"##ungs":12683,"##cler":12684,"postmodern":12685,"carbide":12686,"##archy":12687,"causing":12688,"intrigu":12689,"storm":12690,"##venous":12691,"inhibitory":12692,"names":12693,"radioactive":12694,"borne":12695,"contribute":12696,"hazards":12697,"spiral":12698,"nanocryst":12699,"pedagog":12700,"diameter":12701,"picking":12702,"algebraic":12703,"disturbances":12704,"crystallization":12705,"laparotomy":12706,"##titleabstract":12707,"disruption":12708,"##oquine":12709,"hepatoc":12710,"sobre":12711,"programmable":12712,"rachel":12713,"endothelial":12714,"mappings":12715,"nasopharyngeal":12716,"44":12717,"doll":12718,"gust":12719,"hou":12720,"hci":12721,"ist":12722,"kaf":12723,"mism":12724,"psy":12725,"tas":12726,"##sson":12727,"##mos":12728,"##nar":12729,"##lenet":12730,"intimate":12731,"##ilin":12732,"##ulu":12733,"##odia":12734,"##ogan":12735,"enable":12736,"##formance":12737,"diana":12738,"sek":12739,"intu":12740,"genomics":12741,"imputation":12742,"beer":12743,"eva":12744,"isbn":12745,"whist":12746,"##pture":12747,"poisson":12748,"##essional":12749,"edmod":12750,"join":12751,"geomet":12752,"adversarially":12753,"engineered":12754,"##itively":12755,"posts":12756,"pathogen":12757,"created":12758,"combine":12759,"motions":12760,"paolo":12761,"portra":12762,"neuroimaging":12763,"turbines":12764,"proposals":12765,"mosfet":12766,"neutron":12767,"epidemiological":12768,"nicolas":12769,"vlog":12770,"vlsi":12771,"pancreas":12772,"initialization":12773,"diagnosing":12774,"matched":12775,"florida":12776,"ligament":12777,"establishing":12778,"roughness":12779,"frozen":12780,"kadar":12781,"eucalypt":12782,"prophyl":12783,"destruction":12784,"fifth":12785,"enforcement":12786,"ferroelectric":12787,"disabled":12788,"edmodo":12789,"bj":12790,"bhar":12791,"hmm":12792,"lai":12793,"oly":12794,"stit":12795,"sectors":12796,"tf":12797,"ton":12798,"wmt":12799,"zeng":12800,"##cov":12801,"##tible":12802,"theology":12803,"stations":12804,"##rips":12805,"##rique":12806,"depres":12807,"##ocon":12808,"##uded":12809,"shame":12810,"##asses":12811,"analogy":12812,"##ayo":12813,"multidisciplinary":12814,"abiotic":12815,"attending":12816,"newly":12817,"##ungen":12818,"##oxin":12819,"endurance":12820,"##torch":12821,"ulrich":12822,"conditioned":12823,"circulation":12824,"magazine":12825,"forecasts":12826,"nitro":12827,"colleges":12828,"miguel":12829,"roberto":12830,"conductor":12831,"psik":12832,"rocks":12833,"chromosome":12834,"queue":12835,"podcast":12836,"preventive":12837,"furniture":12838,"alkaloids":12839,"victims":12840,"transgender":12841,"rheumatoid":12842,"keyphrase":12843,"aerospace":12844,"shakespear":12845,"tldr":12846,"52":12847,"duct":12848,"dash":12849,"eks":12850,"fant":12851,"fuk":12852,"gha":12853,"kop":12854,"sie":12855,"sift":12856,"vign":12857,"yue":12858,"##3n":12859,"##tan":12860,"##erk":12861,"##ald":12862,"anhyd":12863,"##edness":12864,"onion":12865,"##essler":12866,"tobias":12867,"##adas":12868,"##iones":12869,"modulated":12870,"suff":12871,"##ewski":12872,"interplay":12873,"scrum":12874,"scorec":12875,"stres":12876,"##alline":12877,"elm":12878,"societies":12879,"##iller":12880,"corner":12881,"schult":12882,"moz":12883,"diffraction":12884,"humanities":12885,"superp":12886,"##ehe":12887,"respect":12888,"##flix":12889,"##iedad":12890,"testosterone":12891,"pandemia":12892,"nutr":12893,"accounts":12894,"ramesh":12895,"plastics":12896,"bridges":12897,"gius":12898,"fluoride":12899,"ifrs":12900,"kepuasan":12901,"claims":12902,"kelu":12903,"vlad":12904,"physicians":12905,"##otoxic":12906,"imbalance":12907,"officinalis":12908,"pupils":12909,"disinfect":12910,"##zyk":12911,"gabriel":12912,"arnold":12913,"similarities":12914,"docker":12915,"restructuring":12916,"04":12917,"09":12918,"53":12919,"ae":12920,"folding":12921,"hiding":12922,"lda":12923,"ltd":12924,"mike":12925,"noma":12926,"nause":12927,"sage":12928,"sne":12929,"ties":12930,"vqa":12931,"zig":12932,"##hole":12933,"##h2o":12934,"##human":12935,"##4a":12936,"##wh":12937,"##inin":12938,"##atos":12939,"##odial":12940,"##ococ":12941,"##imus":12942,"##overs":12943,"modulus":12944,"##eppe":12945,"diseng":12946,"clas":12947,"adalah":12948,"alve":12949,"aloe":12950,"efforts":12951,"##akov":12952,"metah":12953,"metagen":12954,"##ourism":12955,"leo":12956,"opioid":12957,"infinite":12958,"amit":12959,"##ognitive":12960,"##sex":12961,"prep":12962,"electrolysis":12963,"##annon":12964,"##eek":12965,"edit":12966,"##sung":12967,"##ughter":12968,"overall":12969,"##ometh":12970,"profess":12971,"greater":12972,"morris":12973,"encaps":12974,"##ascript":12975,"adding":12976,"##shot":12977,"bandura":12978,"nationalism":12979,"##entification":12980,"attributed":12981,"achieve":12982,"pollen":12983,"1976":12984,"1978":12985,"stylistic":12986,"chromium":12987,"judith":12988,"iteration":12989,"gains":12990,"avian":12991,"nicola":12992,"organisations":12993,"boosted":12994,"straight":12995,"stanford":12996,"metastasis":12997,"gyros":12998,"zakhar":12999,"veterinary":13000,"paraphrase":13001,"tibetan":13002,"survivors":13003,"coleoptera":13004,"mammalian":13005,"altruism":13006,"zimbab":13007,"datacenter":13008,"antifungal":13009,"intriguing":13010,"hepatocellular":13011,"nausea":13012,"020":13013,"bf":13014,"craft":13015,"gangl":13016,"iclr":13017,"nah":13018,"pink":13019,"serg":13020,"##rint":13021,"##jie":13022,"##ww":13023,"##itous":13024,"##educ":13025,"##emediation":13026,"chond":13027,"##ocar":13028,"##abo":13029,"##ovich":13030,"nep":13031,"exogenous":13032,"resting":13033,"perk":13034,"scans":13035,"##anco":13036,"multibox":13037,"martine":13038,"ish":13039,"semeval":13040,"##iks":13041,"sms":13042,"##oka":13043,"flora":13044,"finn":13045,"retrof":13046,"solids":13047,"##agner":13048,"barley":13049,"ultimate":13050,"helen":13051,"biomim":13052,"homosexual":13053,"##u0003":13054,"passion":13055,"ghost":13056,"achiev":13057,"dissection":13058,"talking":13059,"1972":13060,"closer":13061,"argentina":13062,"rumah":13063,"rumination":13064,"dentin":13065,"nikola":13066,"substances":13067,"catalog":13068,"frederic":13069,"transistors":13070,"polyprop":13071,"attenuation":13072,"eugene":13073,"membership":13074,"toughness":13075,"digestive":13076,"scorecard":13077,"6th":13078,"mpc":13079,"srivastava":13080,"tad":13081,"ui":13082,"##ais":13083,"##run":13084,"##var":13085,"##81":13086,"##ulia":13087,"##rien":13088,"##uts":13089,"tryp":13090,"uniqu":13091,"##quin":13092,"scada":13093,"##ouri":13094,"atari":13095,"elast":13096,"##ieh":13097,"proton":13098,"dox":13099,"redes":13100,"afghan":13101,"formed":13102,"collections":13103,"allium":13104,"poster":13105,"pathophys":13106,"photod":13107,"offs":13108,"offenders":13109,"##onica":13110,"##ativo":13111,"##ativa":13112,"harry":13113,"dried":13114,"reconc":13115,"taxonomic":13116,"netflix":13117,"##model":13118,"hotsp":13119,"melting":13120,"##arcin":13121,"capacitive":13122,"informative":13123,"phenyl":13124,"1974":13125,"##ariah":13126,"harmful":13127,"anthropogenic":13128,"levy":13129,"compressing":13130,"locked":13131,"congru":13132,"communicating":13133,"somatic":13134,"roller":13135,"edwards":13136,"license":13137,"seaweed":13138,"krishna":13139,"teknik":13140,"electrocardi":13141,"aaai":13142,"lambda":13143,"orbital":13144,"aristot":13145,"perceptron":13146,"countermeasures":13147,"51":13148,"67":13149,"96":13150,"aver":13151,"ather":13152,"cyp":13153,"jab":13154,"lm":13155,"lope":13156,"uc":13157,"##b2":13158,"##lich":13159,"##yam":13160,"##vy":13161,"##pts":13162,"##wu":13163,"##inated":13164,"##itar":13165,"##atas":13166,"##olysis":13167,"construal":13168,"##ocl":13169,"##otation":13170,"excl":13171,"##anges":13172,"trem":13173,"perusahaan":13174,"marij":13175,"##idea":13176,"##arez":13177,"medie":13178,"surpr":13179,"##engineering":13180,"##ondo":13181,"##2015":13182,"1038":13183,"usefulness":13184,"epist":13185,"volcan":13186,"correcting":13187,"hydrolysis":13188,"barc":13189,"backward":13190,"pytorch":13191,"##osphere":13192,"goodf":13193,"electrodes":13194,"bounding":13195,"routine":13196,"directly":13197,"regulates":13198,"exposed":13199,"##iropr":13200,"presented":13201,"joshua":13202,"authenticity":13203,"cytometry":13204,"levine":13205,"##tikel":13206,"mnem":13207,"cbd":13208,"prolong":13209,"lorenz":13210,"apparatus":13211,"synthesizing":13212,"sulph":13213,"suggestion":13214,"speakers":13215,"piecewise":13216,"machinery":13217,"telephone":13218,"surrogate":13219,"corneal":13220,"##clerosis":13221,"metaheur":13222,"59":13223,"bile":13224,"ftir":13225,"h2":13226,"hod":13227,"hud":13228,"krist":13229,"oecd":13230,"rasp":13231,"sanc":13232,"sidd":13233,"tid":13234,"tesis":13235,"vann":13236,"##avi":13237,"##etion":13238,"##ever":13239,"##zel":13240,"##fusion":13241,"##kinson":13242,"insu":13243,"stegan":13244,"##ague":13245,"##usan":13246,"##igo":13247,"##thi":13248,"##andi":13249,"uso":13250,"genital":13251,"induce":13252,"ever":13253,"methanol":13254,"blade":13255,"##ikh":13256,"graphite":13257,"noncon":13258,"prototyping":13259,"subc":13260,"##atism":13261,"antidep":13262,"noam":13263,"signalling":13264,"typical":13265,"worth":13266,"myers":13267,"additives":13268,"intrusive":13269,"versatile":13270,"##hypert":13271,"waq":13272,"omega":13273,"toxicology":13274,"intravenous":13275,"lymphoma":13276,"expectancy":13277,"stronger":13278,"households":13279,"inertia":13280,"drosten":13281,"steiner":13282,"triangle":13283,"javascript":13284,"biomechanics":13285,"constitutional":13286,"comportement":13287,"eucalyptus":13288,"keluarga":13289,"medieval":13290,"07":13291,"54":13292,"curing":13293,"eri":13294,"gong":13295,"mk":13296,"mold":13297,"oak":13298,"sint":13299,"sink":13300,"tic":13301,"tand":13302,"uh":13303,"vow":13304,"##iec":13305,"##hou":13306,"##dle":13307,"##mans":13308,"##lc":13309,"##pol":13310,"##text":13311,"##onit":13312,"##orption":13313,"##ede":13314,"##eder":13315,"##uru":13316,"##activ":13317,"retina":13318,"##adh":13319,"##udin":13320,"neol":13321,"competing":13322,"dispos":13323,"shale":13324,"armed":13325,"scanner":13326,"heg":13327,"##avir":13328,"above":13329,"sociales":13330,"robb":13331,"caring":13332,"knot":13333,"##oko":13334,"qualities":13335,"accent":13336,"discount":13337,"insecurity":13338,"insertion":13339,"##azo":13340,"buch":13341,"powerful":13342,"ethyl":13343,"##ostasis":13344,"backbone":13345,"immobil":13346,"probiotic":13347,"manufacture":13348,"broken":13349,"accelerators":13350,"hemp":13351,"sieg":13352,"bilinear":13353,"cui":13354,"removing":13355,"##itized":13356,"aggregated":13357,"baseball":13358,"initiatives":13359,"##otide":13360,"zebra":13361,"prince":13362,"analysing":13363,"updates":13364,"july":13365,"halluc":13366,"gallium":13367,"connectionist":13368,"todd":13369,"dominance":13370,"wetlands":13371,"museums":13372,"stanislav":13373,"displays":13374,"imperfect":13375,"details":13376,"konsep":13377,"synthesized":13378,"folk":13379,"sesame":13380,"pectin":13381,"disentangling":13382,"candidate":13383,"typhoid":13384,"##acetam":13385,"diplom":13386,"chicago":13387,"amygd":13388,"goodfellow":13389,"ff":13390,"fas":13391,"gith":13392,"iw":13393,"luk":13394,"nud":13395,"ott":13396,"prab":13397,"ride":13398,"rome":13399,"sizing":13400,"vil":13401,"wagner":13402,"zer":13403,"##iu":13404,"##hold":13405,"##tiers":13406,"##enh":13407,"anand":13408,"##ecycle":13409,"##uria":13410,"those":13411,"##ulous":13412,"##oge":13413,"##oco":13414,"##abl":13415,"##imes":13416,"basics":13417,"ars":13418,"perfor":13419,"even":13420,"##rolog":13421,"methylene":13422,"##blast":13423,"schul":13424,"surround":13425,"meyer":13426,"autophagy":13427,"flame":13428,"glauc":13429,"##iques":13430,"frust":13431,"bringing":13432,"guard":13433,"dof":13434,"joel":13435,"solomon":13436,"digitalization":13437,"labelling":13438,"encour":13439,"virtualization":13440,"polyph":13441,"complet":13442,"sentinel":13443,"chemicals":13444,"immunotherapy":13445,"cardiomy":13446,"jama":13447,"tubes":13448,"1973":13449,"davies":13450,"garment":13451,"aster":13452,"bulle":13453,"efect":13454,"klaus":13455,"teenage":13456,"substrates":13457,"configur":13458,"merging":13459,"town":13460,"lupus":13461,"transporter":13462,"sriniv":13463,"lopez":13464,"cation":13465,"dors":13466,"null":13467,"rp":13468,"sif":13469,"tack":13470,"wah":13471,"wrap":13472,"##hir":13473,"##bour":13474,"##fre":13475,"##glyc":13476,"##analy":13477,"##arcoma":13478,"##aci":13479,"stones":13480,"##ameth":13481,"chandra":13482,"chiropr":13483,"token":13484,"##aden":13485,"##oten":13486,"##iak":13487,"##ande":13488,"##anga":13489,"spent":13490,"climbing":13491,"contag":13492,"transnational":13493,"places":13494,"beg":13495,"elections":13496,"infan":13497,"infusion":13498,"polish":13499,"amr":13500,"autop":13501,"##ocket":13502,"microblog":13503,"guill":13504,"labview":13505,"internationalization":13506,"norman":13507,"centrif":13508,"##abilitas":13509,"computerized":13510,"photometric":13511,"mathematic":13512,"##fficiency":13513,"##spe":13514,"bankrupt":13515,"##modular":13516,"warping":13517,"propulsion":13518,"failures":13519,"dialysis":13520,"wafer":13521,"costing":13522,"alexnet":13523,"harmony":13524,"closing":13525,"residue":13526,"landscapes":13527,"julie":13528,"claim":13529,"receiving":13530,"bowel":13531,"merger":13532,"mounted":13533,"prescription":13534,"parasit":13535,"##legal":13536,"detailed":13537,"dehydrogen":13538,"efektivitas":13539,"tilapia":13540,"nanomaterials":13541,"rectifier":13542,"fluctuations":13543,"lansia":13544,"arousal":13545,"bulletin":13546,"62":13547,"bc":13548,"df":13549,"diaz":13550,"huk":13551,"xg":13552,"zou":13553,"##ship":13554,"##fire":13555,"##pre":13556,"##power":13557,"##61":13558,"##tory":13559,"##western":13560,"##rocal":13561,"##etri":13562,"##uling":13563,"##ampus":13564,"toy":13565,"##thus":13566,"##apping":13567,"##apatite":13568,"resistive":13569,"alp":13570,"##former":13571,"##ainment":13572,"contacts":13573,"##ibil":13574,"paral":13575,"##ryn":13576,"##aceous":13577,"franz":13578,"finland":13579,"cyst":13580,"identities":13581,"overd":13582,"##flower":13583,"outp":13584,"geological":13585,"nanor":13586,"males":13587,"collins":13588,"turner":13589,"curiosity":13590,"grouping":13591,"probiotics":13592,"##regulation":13593,"peters":13594,"##u0005":13595,"##u0007":13596,"mutant":13597,"legi":13598,"regulator":13599,"masking":13600,"exchanger":13601,"acoustics":13602,"participants":13603,"resonators":13604,"##0002":13605,"##olingual":13606,"justin":13607,"neutrosoph":13608,"spreading":13609,"##amento":13610,"checklist":13611,"algebras":13612,"bleeding":13613,"rahman":13614,"neuropathy":13615,"phonological":13616,"parasite":13617,"lectures":13618,"mitochondria":13619,"deposit":13620,"ioann":13621,"friedman":13622,"elevated":13623,"unsaturated":13624,"beetles":13625,"ernest":13626,"metacognition":13627,"ticket":13628,"nanocomposite":13629,"gingival":13630,"necessary":13631,"biodegradable":13632,"retrieved":13633,"inheritance":13634,"##ovisual":13635,"vestib":13636,"olymp":13637,"diplomacy":13638,"github":13639,"neutrosophic":13640,"catherine":13641,"epr":13642,"jh":13643,"kav":13644,"nb":13645,"uji":13646,"wsn":13647,"zamb":13648,"##iod":13649,"##vili":13650,"##orov":13651,"##olite":13652,"##ilic":13653,"##ulmonary":13654,"##leen":13655,"deple":13656,"##ader":13657,"compost":13658,"trin":13659,"##pha":13660,"##alla":13661,"plates":13662,"##iberal":13663,"byzan":13664,"##vert":13665,"biob":13666,"##block":13667,"selectivity":13668,"optimism":13669,"##ubation":13670,"subsequ":13671,"##rime":13672,"filtration":13673,"##ophen":13674,"##ophage":13675,"affair":13676,"autistic":13677,"##comb":13678,"held":13679,"converting":13680,"separate":13681,"rhod":13682,"muj":13683,"excav":13684,"approximations":13685,"starting":13686,"lactose":13687,"lagrang":13688,"cathode":13689,"dispersal":13690,"durability":13691,"pancreatitis":13692,"immigrants":13693,"influenced":13694,"tower":13695,"griff":13696,"thermoelectric":13697,"##jarah":13698,"extracellular":13699,"tatto":13700,"exhaust":13701,"telescope":13702,"spectrophotometric":13703,"honeypot":13704,"obtained":13705,"discrepancy":13706,"agroforestry":13707,"antidepress":13708,"bind":13709,"dab":13710,"days":13711,"duck":13712,"pour":13713,"sided":13714,"yous":13715,"yann":13716,"##hara":13717,"##benz":13718,"##zone":13719,"##techn":13720,"##tide":13721,"##inis":13722,"##ectin":13723,"##elium":13724,"##standing":13725,"##raham":13726,"##usual":13727,"##americ":13728,"##otrans":13729,"neumann":13730,"adel":13731,"seat":13732,"##uster":13733,"cough":13734,"##encer":13735,"marina":13736,"paru":13737,"biochemistry":13738,"##roscopic":13739,"smell":13740,"distal":13741,"extrusion":13742,"subg":13743,"101":13744,"bush":13745,"redox":13746,"##insky":13747,"pathogens":13748,"##heet":13749,"photonics":13750,"determined":13751,"official":13752,"silico":13753,"hydrodynam":13754,"belie":13755,"portal":13756,"electroencephal":13757,"standardized":13758,"liquids":13759,"miy":13760,"maintaining":13761,"ghosh":13762,"##traumatic":13763,"taboo":13764,"polarized":13765,"updated":13766,"cohesion":13767,"donor":13768,"acetate":13769,"droplet":13770,"multiplication":13771,"peptides":13772,"deeplab":13773,"##stantin":13774,"##professional":13775,"ubiquitous":13776,"consommateur":13777,"assesment":13778,"epigenetic":13779,"margaret":13780,"dividend":13781,"##oluminescence":13782,"oxytocin":13783,"57":13784,"88":13785,"cac":13786,"h1":13787,"hari":13788,"kip":13789,"lakes":13790,"rm":13791,"rug":13792,"yet":13793,"##hub":13794,"##sd":13795,"##sol":13796,"##oints":13797,"##mund":13798,"##fan":13799,"##2se":13800,"##onas":13801,"##onian":13802,"##enk":13803,"##acies":13804,"##emaking":13805,"##idio":13806,"reper":13807,"rever":13808,"chocol":13809,"##ucci":13810,"##uttering":13811,
[...]
