[UNK]
[CLS]
[SEP]
[PAD]
[MASK]
0
1
2
3
4
5
6
7
8
9
a
b
c
d
e
f
g
h
i
j
k
l
m
n
o
p
q
r
s
t
u
v
w
x
y
z
##i
##h
##s
##b
##o
##d
##u
##a
##e
##m
##n
##4
##5
##9
##z
##l
##y
##c
##r
##f
##v
##k
##p
##2
##3
##6
##t
##g
##x
##0
##j
##w
##7
##1
##8
##q
##ti
##on
##er
##in
##al
##en
##or
##tion
##an
##es
##ar
##ing
in
##ic
an
of
##ation
##it
##at
##is
##ed
##ro
##ec
and
##ur
##ent
##el
##et
##as
th
##ac
##ol
##om
##em
the
##il
for
##st
##ul
##id
st
##ce
##ra
##od
##ag
##tic
##ch
##ve
con
##ear
##us
##am
##ig
##ter
##le
re
##og
on
##ity
##re
##ng
##ect
##ess
##os
pro
##ri
ch
de
##ers
to
##th
com
##um
##oc
##uc
##un
##ab
##ir
##ati
##ff
##im
##ith
##pl
##ut
im
##ning
##ad
##ion
##ork
##ment
##ud
lear
##ap
##ot
##op
or
##ov
##ial
##iz
learning
##ia
##ine
with
##ow
ne
##ure
##etw
ex
en
##ement
##ting
##for
##ical
mod
##ence
##and
us
##ys
res
##ang
comp
##ate
sy
##age
ac
sp
##ep
pr
tr
##etwork
##ication
network
##per
dis
cl
ad
##ach
##ual
##ance
al
bas
##ph
20
##olog
eff
as
##ens
##ans
##if
##ural
##form
##ob
##ip
##tive
##ell
un
##vi
##ts
su
ap
stud
##duc
##ection
##qu
based
model
di
##ak
##act
##ew
##stem
##ain
ph
inter
met
sh
rec
##ization
ar
##ech
##ition
system
##ge
per
##ass
cont
##ution
##rom
anal
##ay
sc
using
str
##igh
se
##our
trans
int
##ist
em
man
gen
##ric
##ust
at
##der
##ory
##iv
##ies
mul
##anc
dat
det
imp
##ard
co
##ant
##all
19
pl
##ysis
multi
##ib
le
##vel
##ort
deep
##enti
##enc
##ations
te
##ative
##ign
mar
##ology
networks
##pr
##ents
analysis
ind
par
effect
be
el
cov
##ide
##ase
ev
he
neural
201
##tim
##ary
from
##ry
##ous
##tiv
op
gra
tra
##olution
##ack
##av
is
##ated
by
##rol
soc
data
##ast
##are
rel
##est
##ou
##ly
##end
##ace
##ver
##ill
inf
##ha
cor
##ong
##ors
des
##ational
bi
##ility
med
##ath
##earch
ass
##ug
pol
##erm
covid
am
##ian
##echn
class
detection
study
comm
manag
##ram
meth
##cess
##bl
##ism
qu
app
wh
##ult
techn
ab
image
##view
##tics
##ater
##ogn
sch
gener
ag
sur
social
##action
##eng
col
##able
sel
hy
method
##00
##vers
##und
##ood
me
##ild
management
##lu
##alu
mic
##tical
appl
##velop
##xt
##ties
##ari
##se
control
aut
ob
develop
##ating
##eg
##tr
##ice
##ature
##ject
we
##uct
research
##ification
##yn
##str
ec
review
##erv
##alth
##erg
fe
##ish
tim
##ining
educ
##ular
vis
att
##ros
##ene
##ention
reg
mo
bl
high
perform
lang
mach
##ics
appro
##nal
##onom
##led
health
pre
eng
rob
##ert
hum
##ah
##ability
sem
##pt
po
so
##ik
##edic
langu
##fer
##gan
car
performance
##ron
design
mark
gro
##ession
graph
new
##io
cons
process
application
##hip
##ognition
sm
##ient
kn
##ale
conv
##atic
predic
pers
##ital
language
##line
##vis
##xx
##ive
##ord
development
##int
##ok
##ering
diff
commun
es
##ulation
##formation
##ie
##tit
##havi
##ines
sim
##ight
fl
##ern
##ile
##ption
machine
##ind
time
behavi
##port
##rib
approach
##tin
recognition
human
elect
##ures
education
##ency
##ock
##por
dist
sens
dec
##ery
work
struct
##rop
convolution
##ective
##ite
id
##one
##gor
bo
systems
impact
##art
know
optim
produc
effects
##unc
organ
non
online
##ann
under
200
self
sec
##acter
##ub
##ft
##king
gl
qual
##ledge
acc
##oy
classification
child
syn
char
##ynam
##out
##ological
##up
##ond
##ience
evalu
information
intern
##ithm
##sy
effic
##yl
##tis
knowledge
##uring
super
algor
##ee
inv
vide
##iqu
teach
mat
##ental
##aw
students
fact
##ne
algorithm
##ole
prot
##ax
convolutional
theory
sup
##emic
##ward
##ateg
ed
differ
##acy
vi
##ree
mon
##yp
influ
##tif
loc
##vir
##ple
inc
cell
##ome
##riv
##ail
fr
imag
##su
##ore
disc
impro
##uction
fin
##les
##ium
micro
##ons
visual
##iness
br
##viron
##unction
compu
exper
extr
strateg
dynam
##tivity
sub
ins
##na
##ware
##ower
environ
##ination
cr
##ool
ris
gu
real
surve
spe
##ier
##ized
econom
##esent
##mentation
text
environment
##ina
seman
##arm
cap
quality
autom
models
intell
##ings
##lex
##eh
##rain
seg
##sych
##af
##ential
sk
##pos
##iel
ret
##ration
##een
technology
##vised
expl
##ym
##rim
do
##ness
##20
##raph
##esis
tem
lin
behavior
10
##ise
resp
prog
jour
cy
chang
video
object
media
plan
##iter
survey
##erap
##ral
##ty
bus
function
mem
dig
vari
##ension
assess
##blem
##ugh
serv
risk
problem
##tern
identi
##ates
##ets
phys
journal
##onal
jo
repr
compar
modeling
psych
use
evaluation
over
how
adap
##reat
meas
mob
##iss
intellig
##ix
sol
arch
##eter
##ren
##ities
##itive
##ich
mus
##az
##fl
impl
pat
##ber
betw
##ung
##atis
pu
between
are
##ox
fram
##ences
represent
training
indust
cult
out
relations
##ash
##ety
advers
ge
school
improv
case
semantic
lo
##ergy
##ivers
red
af
prediction
estim
gam
##urr
##ank
end
fil
pos
##usion
nan
def
##aj
##ask
##br
business
pati
pe
tw
bu
water
##ev
##man
##its
distrib
segmentation
power
prac
##ross
mal
character
##otion
##ins
##lation
##ai
communication
##ator
role
##oth
##arial
sing
##oring
##ograph
via
sal
##rough
energy
digital
what
toward
scale
del
vir
attention
dom
local
##aus
integ
publ
form
adversarial
##ars
##ue
rad
##als
coll
rein
spec
anti
##ere
##echan
##struction
##air
dr
##ision
##old
##omm
lab
ser
ep
level
##forc
no
emb
all
lif
##ane
care
##oph
sign
assessment
3d
dep
##ping
##arge
perce
optimization
##til
nat
##itect
methods
##ework
##och
grow
##ied
##ex
univers
low
vol
dise
food
organization
##eness
techniqu
##urs
soft
##dition
##ield
reinforc
##mar
##osis
gr
##ancer
##urity
eth
you
architect
##ploy
mobile
ro
##erapy
mechan
##istic
engine
##etic
structure
international
through
ear
generation
relationship
##agn
corr
liter
##ein
nor
##ave
children
hist
program
framework
applications
min
efficient
intelligence
##nn
##ld
##ector
xxx
cancer
sl
emotion
##pression
##icial
artif
identif
aff
consum
##de
##tor
##estion
au
##ode
##of
stress
glob
##edd
##omet
factors
##cl
##ices
cent
lead
##uk
sex
et
dynamic
rem
##esc
##eting
valu
##ource
ur
typ
##urrent
hyd
chall
treat
sw
##esh
##aking
sam
##lish
prof
natural
phil
er
##ma
its
##eric
adv
##oud
##acc
polic
##anding
##unt
financ
estimation
##abil
map
can
science
cross
proper
smart
##bo
conc
##ays
dem
growth
##iti
##astic
global
##ey
##ick
##gen
enh
large
cal
gre
mor
synth
post
##ete
equ
among
treatment
nov
la
##ference
fir
artificial
not
influence
mater
##df
coron
computer
##ipp
##oci
##ake
##ison
teaching
199
face
##ements
embedd
air
li
fac
it
bar
reinforcement
security
towards
##inc
translation
compos
employ
during
chem
web
##ae
veh
##idence
##nov
english
processing
life
about
vehic
long
underst
hand
transfer
up
##oss
clust
public
financial
##cept
##face
##erc
##ext
path
##asi
change
read
decision
##he
bre
memory
domain
##oid
##ectiv
robot
##ression
##ema
search
marketing
general
flow
state
transform
single
##ose
service
cam
phot
##rial
task
speech
##ally
disease
personal
pap
feature
ox
sequ
##istics
recomm
patients
associ
##izing
clin
##ler
question
dan
dir
##duction
##row
2020
enhanc
cloud
##inal
##ible
wom
industry
ter
##son
##amil
china
architecture
##eth
extraction
images
##te
enc
##ost
##ress
wor
ul
word
zh
novel
understanding
##ership
gov
robust
##ling
##ana
activity
pot
##itation
context
cust
top
go
##ases
engineering
##atory
term
acad
pattern
quan
##acking
project
spati
math
supervised
open
##irus
driv
culture
properties
policy
acid
log
custom
pdf
rand
##ten
rep
innov
##atures
spect
##ner
##sc
mov
two
physical
representation
##ying
multiple
market
material
economic
##ban
##tig
##ants
##ronic
university
perception
brain
##iency
##pect
cre
medical
persp
##ire
support
software
dim
production
block
##ples
fre
##tice
tur
field
carb
##ta
##ton
fast
##ission
sensor
##iety
therm
cur
automatic
##tual
##aly
adaptive
challeng
test
fu
##ound
light
interaction
priv
##rad
techniques
##ecting
student
fib
complex
##avirus
##ography
##enz
ir
experim
literature
##ones
determ
monit
therapy
random
cost
hyper
govern
##au
computing
##ke
##ao
##els
exam
oper
##tivation
ent
##ffic
clinical
##ms
##ages
mining
oc
comb
##ize
grad
cri
condition
aud
studies
philipp
##co
identification
cogn
emp
##net
build
mental
analy
##vention
##ching
##ific
##ces
world
##arch
distribution
off
##brid
conn
tes
land
ver
space
group
val
tool
planning
caus
coronavirus
##oll
challenges
generative
##pervised
measur
##asc
##ults
plant
virtual
sil
vacc
dev
##elling
##u00
neu
value
sust
import
famil
##outh
##par
suppl
their
sum
##idual
##ute
##lam
features
afric
back
filter
recommend
internet
temper
oil
##ected
##atisf
unsu
academic
cognitive
simulation
ste
comparison
##uted
learn
strategy
hydro
chines
synthesis
##mal
diagn
##poral
doc
sustain
imm
saf
unsupervised
india
sars
##arg
chinese
drug
pres
point
respon
strategies
action
community
##ined
##irc
##ody
##fact
ol
2019
evidence
satisf
women
americ
##ble
evolution
skill
resolution
shar
concept
history
urban
##zz
fer
free
num
##onic
##hn
sym
response
factor
guid
related
##ogy
my
##imate
different
cnn
nurs
##ument
problems
ben
##lin
partic
##rete
pop
carbon
monitoring
tracking
art
lim
green
inves
clustering
##ators
##cle
hybrid
##han
##cop
divers
##iver
epid
press
##ks
leadership
flu
tour
dimension
##ps
satisfaction
##ativ
view
gender
intro
mechanism
pur
customer
stre
music
attack
eu
algorithms
##cri
pand
induc
il
aug
statis
soil
selection
##ibility
feed
##ull
second
mot
har
temperature
dens
##ham
##ada
lay
solution
##active
meta
region
south
construction
fut
princ
prim
const
add
job
##ape
cat
improving
pen
##land
cry
bel
##osp
that
environmental
game
##com
##ris
set
##bi
investig
adapt
mol
linear
bat
circ
neg
dav
##ude
##oun
implement
philippines
cop
##lo
reading
poly
type
thin
datas
vehicle
peng
##order
ic
unc
##ening
##ange
chain
est
sci
organizational
her
##val
dri
innovation
hel
##ya
##rient
corpor
report
##ength
advanc
##inary
dynamics
loss
ans
##ki
small
##ont
##ule
big
early
param
##asting
##ogen
effectiv
shot
consumer
temporal
##oper
artic
motion
correl
compl
wast
spatial
pain
aware
joint
##abor
series
perspective
law
prob
making
infer
##anking
mathema
11
product
max
##ote
comput
biom
mag
##ful
tri
adol
card
hier
##ese
effectiveness
der
manu
bal
##sp
building
bay
2018
ww
fem
##olar
plat
las
##ury
##aster
surface
respons
ling
##ality
integr
vision
auth
user
family
future
agric
##ited
##oma
poli
practice
mc
##ites
distributed
ang
color
ann
##ica
##uit
##ror
auto
##ean
##sh
##urn
climate
##ming
##acts
exp
##ving
nut
py
traffic
##own
systematic
##ason
##eti
protein
bios
attit
psychology
phase
john
one
recon
index
critical
##ications
hierarch
suc
tax
ma
##overy
cells
contr
contin
safety
will
need
content
tel
short
representations
mass
2016
##ior
##eless
electric
##ani
relation
agricult
body
issu
##19
mil
behaviour
##reh
resource
net
order
ai
age
##ara
##etes
adolesc
rate
##rology
av
##ully
##ified
bene
##ata
bio
##acion
edge
ped
year
##aling
frequ
prom
##ople
recurrent
coun
semi
##era
retri
supply
##any
##omy
2017
##ogene
introduction
##oding
resist
##ek
bank
##chain
embedding
recommendation
chann
sep
anim
diab
##ark
##eme
pharm
##uss
##orn
##eck
forec
testing
accur
black
code
potential
##rab
motor
people
adaptation
intr
importance
ext
source
genetic
characteristics
collabor
bert
##osph
2015
malays
##ometric
##eval
hear
stock
skills
wir
##hood
depend
lib
##hi
implementation
benef
expression
paper
peri
step
##reg
manufact
emerg
brand
senti
label
datab
compreh
www
comparative
motivation
lat
hyp
quantit
##amin
sensing
optical
inj
experience
first
fa
##put
##ther
##rag
##oder
obs
emotional
economy
mix
##aces
imaging
after
##ources
hom
david
autonom
privacy
##yt
pandemic
stand
cultural
##book
##etric
depression
measurement
##ancy
heter
##ci
##olic
medic
sequence
key
##ertain
##netic
##med
stor
198
tourism
##quir
##mod
prec
corporate
iot
dataset
effective
##ero
vaccination
higher
##yle
##emb
##illance
thermal
##enza
pul
blockchain
hosp
mac
answ
ke
war
ref
part
##iting
##enn
##isation
disorder
active
empir
affect
##ley
current
functional
##iation
##oice
three
epidemic
reality
wang
nit
optimal
event
teachers
tom
pa
well
structural
##ike
prop
##que
virology
anx
into
chemical
efficiency
sa
wind
hot
orient
hospital
##back
##room
##pling
conf
##ections
access
fuzz
vit
##eral
##ologies
vers
minim
xn
##roph
empirical
##ka
bayes
##tices
##ams
##gh
stat
frequency
pan
##sor
##ensive
##ived
fish
distance
influenza
cyber
transport
##ade
services
gas
does
##ino
mean
retrieval
weight
sentiment
##rix
home
##xic
europ
nursing
employee
wireless
##hy
rich
12
##eler
experimental
good
fusion
gene
depth
anxiety
intervention
ground
##ds
mapping
aer
##uan
bacter
assist
calc
africa
pal
##me
##war
quant
load
##itt
materials
wave
bro
success
mel
##ict
agg
colle
conference
enter
convers
composition
american
##lor
##ainst
inference
quantitative
stoch
electronic
driven
##16
diversity
concrete
why
##ging
ach
inh
uncertain
induced
port
stochastic
quantum
##idd
incre
platform
immun
molec
young
##hael
book
hous
trust
##position
mill
##gn
##ured
##mon
matrix
##10
##rome
normal
noise
malaysia
##ott
fail
##ven
ber
vs
automated
##isis
count
surg
continu
dial
fo
kar
defin
##ef
capital
manufacturing
bet
patient
##vision
invest
##iat
ren
pet
graphs
hierarchical
van
industrial
##u000
eg
##had
##way
improved
localization
electro
standard
targ
##ectional
pressure
##oor
proc
##ries
road
play
government
against
blood
synd
##ids
characterization
signal
diagnosis
pass
practices
psychological
bound
laser
##arse
##inger
wal
anom
heat
document
michael
##ye
vector
hard
inst
matching
metal
##otic
##arc
accoun
sle
##aging
##iger
##ink
gradient
band
liqu
##ends
autonomous
mut
##ocol
regular
##min
leg
##ray
personality
##itch
##idation
mode
integrated
technique
sn
##we
adver
xnxx
##uh
descri
polym
acceler
##itter
discrim
channel
reduction
stability
database
##ato
link
nanop
gan
mi
teacher
summar
##ides
exerc
hu
tree
##qual
transm
rou
sched
2013
##oul
waste
dam
2014
differential
capac
##ider
dual
college
jur
##bal
##12
##artic
##ias
person
results
conver
##otyp
##istry
##berg
associated
investigation
##orph
##ura
##enet
##ometry
dimensional
competi
heart
inform
size
primary
##ij
remote
national
regression
hem
compon
chen
##her
association
identity
den
2010
direct
tre
##mented
##angl
diabetes
lu
agent
farm
##ilar
##riting
dou
##iction
##ume
cardi
ram
lip
organic
changes
micros
statistical
fed
classroom
##ervation
instit
flex
##be
games
tum
solar
tun
overview
crow
foc
zhang
patterns
layer
strength
cooper
accounting
fuzzy
integration
##urve
isol
resistance
sat
main
trade
syndrome
reason
indiv
sleep
sustainable
infr
forecasting
##agement
##round
modelling
##tism
##ves
speed
##tal
##ights
##bert
advertis
metab
constrain
si
##ters
##repr
##linear
reconstruction
##aran
##ules
parti
simple
improve
issues
##erce
##pret
programming
banking
##ger
protocol
species
##uch
##ising
position
##pus
ess
definition
##urveillance
##rical
correlation
metric
efficacy
north
ill
mind
individual
men
intention
deg
arab
biosurveillance
bayesian
explor
sector
forest
line
sparse
##iology
##rist
jam
##care
##app
sent
price
molecular
pack
ont
virus
##stm
scal
jap
variational
mechanical
earth
##emia
classif
feedback
skin
##ourse
##itor
##ments
fund
##ely
thom
nonlinear
gh
pp
##mann
interpret
##entif
predict
pri
developing
##allel
transition
benefits
bias
area
simul
antib
viol
morph
##odes
2011
products
negative
some
maxim
hor
##tra
period
##tian
thinking
nutri
sun
breast
nanopartic
style
profession
requir
##aining
processes
resil
specific
attrib
residual
entrepr
phen
pregn
storage
##vement
educational
##enting
mig
voc
anten
wa
states
##tity
heterogene
functions
occ
liv
fiber
answering
achie
##ga
compression
diet
poll
andre
target
##ini
rot
##li
##ots
oral
scre
dialog
ah
vul
intelligent
##ories
2012
reduc
modern
parallel
pose
labor
driving
liquid
##water
##ollow
regul
sit
##11
##pers
population
lingu
medi
##uce
##hol
##tery
##hadap
##use
common
whe
applied
approaches
determin
stem
##oms
implications
entity
doi
bur
thesis
collaborative
bil
fab
islam
ii
head
similar
exploring
gold
scene
summarization
##res
error
magnetic
##bial
predicting
attacks
sus
terhadap
inhib
##di
cer
hab
wat
##ita
##press
four
##ables
sharing
exercise
##aph
positive
near
##ena
seed
types
##ky
##igation
movement
##ocation
##atio
city
dna
##ano
controlled
##orders
##vities
##ney
enhanced
##arian
##xim
##icit
##ense
element
##struct
##orts
diss
governance
pay
##to
entreprene
align
healthcare
plas
separ
more
util
record
bir
nar
stro
shape
iee
##emical
##ding
##icon
##elect
altern
ultr
tradition
plants
princi
##cep
15
nam
videos
##rogen
tub
##ows
##ru
pak
manip
kin
##ja
abd
deliv
mathematics
##ze
##itative
##istration
writing
##red
find
##ba
chronic
18
prov
society
special
##mark
san
##place
aust
anth
indian
robert
facial
##con
##chron
demand
anomaly
ens
weak
tan
used
versus
##ella
##comes
uncertainty
dc
magn
##rum
libr
japan
failure
formation
cryst
schedul
nav
attitude
##umar
differences
status
cos
##si
working
radio
transformer
fat
aspect
acti
jurnal
alex
rap
##bor
##oles
fore
structures
ide
##ographic
##stein
pros
experi
political
outcomes
##elet
enhancement
##hu
device
sar
prepar
strategic
##ees
reaction
les
##aya
cycle
medicine
##ief
bra
##quis
ak
##ances
autism
disorders
continuous
delivery
cu
uav
##po
##jective
regulation
awar
indones
##ca
##uck
trial
ieee
when
##ender
adults
##ios
13
nature
lstm
mas
nuc
center
enterpr
zero
##gar
##ida
stream
central
principles
focus
##atin
measuring
rh
liu
##ressive
bri
por
tal
##pro
##ula
sexual
cou
extract
environments
yang
shop
##aneous
embeddings
od
##raw
##epend
things
compet
##asing
engagement
numer
bangl
##roid
foreign
##ions
remov
bench
hypert
fine
##eration
##atan
density
reasoning
ray
##raft
##urance
##ulf
chris
internal
neuro
guided
few
qualitative
##ali
##encing
##ostic
advant
##cin
##copy
nutrition
down
augmented
advanced
##athy
##entific
##idad
ros
activities
##ceed
expos
resources
bey
purch
technologies
##umin
##aff
impacts
##ulum
org
tools
princip
behavioral
detecting
heterogeneous
germ
kh
##pu
uk
##da
news
evaluating
consumption
##itiz
awareness
lam
nano
crim
##ended
##lp
##ats
commerce
refl
without
computational
niger
##iang
adult
film
multimod
scholar
similarity
##mad
##pa
audit
aggreg
##uel
##iatric
##ouse
conditions
##quisition
abstr
conduc
confl
##verse
##aker
solutions
bor
bud
follow
thomas
base
##less
transmission
scheduling
##ectives
stroke
ct
rural
amb
##uation
##ola
na
concent
##gb
##eters
daniel
orig
trends
197
##tine
discovery
pada
prevention
devices
surgery
rev
electron
##enge
##icing
distil
ho
##ift
gram
prote
ham
##ints
electrical
ga
##istan
predictive
propag
company
##bas
reli
volume
article
composite
beyond
##hen
##ony
guide
like
autoenc
traditional
exch
being
squ
gir
decom
female
rice
initi
##13
scientific
##ious
2009
economics
fully
willi
lung
contrib
##ather
2008
grid
adop
core
vehicles
accurate
schools
##abilities
ps
wr
investment
agriculture
##15
theore
admin
cred
analytics
hol
##ste
##bers
##ending
fract
sampling
your
interface
perceptions
mechanisms
##ystem
fault
16
acquisition
austral
team
numerical
##eu
acous
tex
peer
reference
sustainability
dental
##ope
biological
da
mixed
du
2005
incl
practical
meaning
maj
##ett
##time
##izer
##ibration
steel
antenna
14
united
location
relationships
oxide
perceived
oriented
transformation
traject
##oney
challenge
pi
##zing
particip
ine
##portun
resilience
##pe
emission
sound
institution
##gu
##uration
determination
##cent
##ring
opportun
european
reson
multimodal
fit
semantics
advertising
ow
##estic
orth
##aves
ha
veg
proceed
adj
##14
##18
solving
turb
but
##etry
secondary
fri
##000
ion
##aruh
##oling
interactive
mu
##oti
##angan
ts
elder
##oh
differenti
ensem
mis
stage
gap
acute
##erty
structured
pc
##rative
less
##la
##gin
##wa
##za
##atal
led
brid
ethics
camera
stim
wall
##tile
goog
dop
crisis
ethical
curric
ultras
dys
kim
deb
eeg
##aria
recovery
white
diseases
yu
recent
finance
##ascular
##udes
cycl
mathematical
countries
tit
##ira
##alam
productivity
tumor
om
##lyc
paul
list
tis
indonesia
has
##bs
instruction
##itas
protection
kern
independ
##ava
##electric
mask
##ala
##ico
phosph
traum
gast
stere
employees
agricultural
dry
christ
chemistry
randomized
##pir
fertil
nanoparticles
deng
##ele
examples
##itis
infection
solid
sports
sentence
gar
comprehension
logic
number
##entic
methodology
lee
improvement
african
adolescents
other
song
technical
contact
spectral
##fe
modular
##play
scheme
conceptual
wel
pengaruh
cut
fix
exc
peter
encry
nur
17
hal
##osystem
##oxid
private
author
2007
activ
audio
wild
modal
obes
wide
moham
discrimin
##50
learners
##ises
radi
tissu
os
##iro
youth
##uls
belief
tol
##ns
##faces
proceedings
fra
##ball
##17
ship
##tification
barri
ultra
crop
coding
sin
##ush
across
repro
park
microbi
look
bid
range
##sorption
tens
##tions
##phone
2006
routing
##oo
recep
indic
sample
preserv
##ori
edition
affecting
ant
workplace
removal
mom
ru
##wave
present
literacy
##los
parameters
probabil
found
rom
alco
detect
richard
##eline
reh
cere
##ji
##acement
bond
arm
measure
chat
##nam
##irectional
robots
##osa
description
jun
lid
##off
##urb
##ullying
comprehensive
james
best
fair
##ount
nigeria
harm
box
##read
xxxx
toxic
particle
exposure
corpus
##struc
conditional
voice
##ado
glass
capacity
##ground
eye
accept
polymer
firm
acoustic
##nel
act
probabilistic
##ump
visualization
intrusion
latent
##quality
##ander
double
old
transl
invol
cho
secure
advances
exploration
nas
topic
computation
##hyd
##ran
##ges
respir
pakistan
##erated
##rating
plastic
assisted
experiences
interactions
pharmac
flexible
mer
##ora
exchange
propos
spectrum
metabol
az
connected
levels
filtering
injury
martin
pars
decomposition
mri
##let
years
sever
##ativity
professional
curriculum
childhood
##ochemical
validation
requirements
conflict
elderly
accuracy
cle
sport
tor
matter
##rin
##ismic
far
animal
fire
##akes
preval
muscle
kore
##lab
basic
##ube
driver
##eph
diffic
cs
ze
##ko
pollution
vulner
way
return
sympt
alignment
##ved
scen
google
##lear
generalized
prior
##eli
##iding
choice
##ops
finite
lith
repor
prost
proced
hypertension
threat
##atives
assessing
observ
##har
##ls
intra
consist
##auss
ca
##ford
allocation
attitudes
civ
finger
beam
franc
better
library
ba
##bra
bit
##ker
nlp
yield
styl
fluid
obesity
##ama
difference
kumar
sv
tab
responses
foot
wear
gi
pov
##mer
##tt
neigh
shap
income
ontology
pel
compan
##ova
multic
career
ratio
##ture
biology
query
robotic
2004
cd
binary
mir
therap
restor
ath
have
jos
ka
rac
total
biod
liver
may
induction
motiv
essential
##rich
ecosystem
speaking
objects
scalable
cm
sen
##itz
retail
physics
cluster
compound
measures
dense
##load
authentic
rock
##yan
##onia
rest
##ough
##va
discrete
alcohol
##over
polar
machines
battery
mort
mah
diffusion
explain
raj
approxim
##oyal
volt
moral
equations
achievement
dependent
lym
##ien
##ared
satell
##ropy
projects
setting
determinants
cas
##ii
statistics
iron
gal
midd
##igen
sea
experiment
pregnancy
prevalence
thr
variable
ethn
blu
side
##30
root
ax
who
hong
##cal
##elines
antioxid
histor
##pled
wood
anat
parameter
component
##iers
##ores
##anol
chlor
shoul
past
contextual
sand
prin
sensors
adoption
river
input
neur
equation
mit
pricing
travel
pil
concep
##rian
violence
chrom
2000
synchron
nitrogen
jus
##amp
cooperative
propagation
kr
relig
2003
ken
sav
##iotic
100
ast
pip
xx
indoor
inflam
theoretical
values
##vide
clos
hep
pep
##bit
##omic
cover
fraction
annot
spl
instr
abs
federated
alternative
full
ra
marine
##ooth
##kn
subs
ing
seismic
coord
delay
mr
##astr
mess
shopping
mur
pac
##come
##gl
within
pret
##ique
##ients
than
place
twitter
bacteria
occup
antim
tasks
counter
rapid
aid
perspectives
constraints
brow
augmentation
kernel
tissue
fash
##zym
disaster
workers
invent
entrepreneurs
purchase
##actic
##ami
explan
radar
veget
rf
##inking
vitamin
middle
##plas
circuit
rehabil
detector
reviews
mixt
fung
##band
relational
concepts
##ench
causes
articles
jud
##ulin
coping
lidar
##wan
##uments
##ogenic
lymph
coc
##att
##oli
##ota
crypt
emerging
partial
resid
##ival
ampl
survi
profit
gauss
##gi
pix
##aries
trajectory
fashion
##iance
##idity
membr
##ogram
transaction
independent
##ateral
blind
##iop
enhancing
invari
nurses
bone
##den
monoc
fron
she
##bu
biomed
dialogue
navigation
story
phone
degrad
poverty
ranking
##sa
##kan
##get
parents
damage
wavel
ban
##ifer
parad
publish
photo
##zation
agents
2001
ash
##encies
programs
ensemble
bidirectional
##icro
##igning
arg
variation
complexity
voltage
death
bab
##ests
jac
miss
##oe
hash
##men
star
##anda
call
dalam
##ectivity
##omb
##oders
see
credit
toler
gest
pair
modified
deno
enterprise
##ulus
preserving
synthetic
rank
sources
analys
separation
fraud
md
tag
universal
handbook
causal
deriv
mes
oste
sed
repl
insurance
intens
controller
##iological
theories
unified
quad
defect
sales
satellite
ju
##itivity
##acting
heav
xia
generalization
microwave
landsc
politics
adolescent
wil
##otherapy
fall
##itting
comple
adh
communities
measurements
isolation
classes
##flow
encoder
verification
help
inflamm
run
vo
##ists
generating
crystal
hr
pse
##78
##cher
##ourc
evolutionary
bul
bott
five
##ercial
interp
geor
papers
fluor
bh
interest
luc
##ez
sense
pem
rain
signific
upd
##heim
##yr
##aka
constit
ele
mos
nets
##ocr
exec
fp
distillation
major
bad
chap
responsibility
##aceu
##sequ
##copic
biomedical
america
iv
expect
civil
enzym
discourse
explo
vic
196
if
##tioning
rehabilitation
pseud
rub
anc
##the
##pc
ecological
imagery
irr
vaccine
william
##astruct
##sch
##rement
##word
##rap
ali
reinforced
needs
loyal
sor
##ional
retention
milk
due
je
increase
##rick
gaussian
very
subject
maps
anthrop
east
kal
##estern
means
recommender
contribution
pow
##urg
##iment
bag
dog
usa
commercial
fruit
symb
##ised
century
habit
completion
mad
stabil
leaf
smartphone
words
sig
gran
screening
##ras
##aching
questionna
older
##cer
##odynam
elements
islamic
cate
rna
relev
criter
regional
dil
mand
asia
mich
unit
policies
ict
vocab
linguistic
cann
efl
##ct
##anth
##plant
##vely
architectures
##fulness
pm
sr
tensor
iter
vel
##agram
sequential
ni
ner
drop
ger
firms
earthqu
##rens
##amine
transcri
rates
##iling
cyt
geometry
reliability
roles
neut
users
russ
lev
events
profile
creativity
background
##ycl
##olo
hypoth
21
poss
oxy
encryption
ng
##ulary
##ame
##ria
##erson
balance
##ception
phyt
benchmark
opportunities
companies
jan
##rh
infrared
ker
##ili
usage
und
communications
mainten
cour
asym
marc
correction
emergency
inver
categor
acceptance
dar
##ila
##ocial
enab
##ulations
compress
objective
vitro
wu
##ading
slam
operation
migration
##uate
selective
risks
derm
##vent
##alt
##rog
managing
##onomy
##u0002
regularization
##aceutical
##uits
agile
loyalty
mim
##eling
##olf
radiation
logistics
antioxidant
##set
alk
2002
heavy
site
organizations
symptoms
maintenance
codes
male
loop
transformers
infrastruct
eas
haz
##ss
fields
parsing
ef
glyc
ye
activation
##rip
##ylene
consumers
trees
fundam
banglad
cereb
outcome
entropy
combined
##embly
components
nurse
vocabulary
jul
sulf
##ted
##aki
markets
##ret
##osh
spir
synt
example
europe
dengan
own
5g
mam
##itary
hardware
##mi
##isa
output
sd
this
manif
plate
bacterial
aqu
exter
crime
denoising
burn
cit
osc
##by
scan
cellular
silicon
broad
combining
spr
conservation
inventory
##icrobial
dark
money
rules
win
##otics
identifying
embedded
guidelines
limit
day
lap
##34
##atch
board
happ
markov
graphene
expans
hotel
casc
avoid
bin
kid
coh
gluc
##otype
lithium
cul
oce
array
sciences
rgb
##cc
##rot
##ritis
addiction
reducing
ip
pend
suic
aging
1016
orientation
ball
##22
##gence
revis
formal
##ni
weakly
competence
restoration
bangladesh
lock
pemb
##ela
arth
carcin
preparation
colon
##ird
##09
chin
trading
supervision
mobility
composites
webs
maximum
kine
##vant
##tle
##jection
##tering
highly
frame
##eshold
groups
situ
##esti
track
behaviors
##utes
##ips
childrens
facil
competition
tak
##oon
che
competitive
adjust
force
cong
trop
##umb
areas
hydrogen
banks
tam
vent
##dis
##kin
##anch
reve
commit
##awa
domestic
switch
##ove
##u0000
##ytes
manipulation
ultrasound
ms
facebook
hub
ov
right
son
##atics
inequality
fundamental
lact
##ials
hiv
##istem
fati
##agen
##occ
simult
transportation
antimicrobial
##entive
##ased
balanc
plasma
respiratory
ci
##pal
##aps
##ophy
kom
abuse
diagnostic
mang
electrom
macro
living
questionnaire
2d
mak
##wor
##arb
##omorph
spread
##obacter
##ighting
##verage
imagenet
boundary
christian
hall
##oz
##adi
account
legal
following
don
fm
##metric
##eman
administration
landscape
##raf
reduce
weighted
ti
div
train
relax
buying
oxygen
fis
los
##gg
##ident
strain
##udinal
##ortex
25
##tik
android
iso
cognition
course
table
##cs
##2o
stack
##ache
designing
sensitive
robustness
barriers
mid
##ml
##lan
##38
##ql
socio
prefer
variability
##ungan
learned
drugs
external
##bot
forward
issue
which
##ehold
emotions
equity
ten
##iles
##udi
interventions
entrepreneurship
cities
##uth
##asa
strong
##itig
operations
street
infrastructure
22
ability
signals
instance
australia
christoph
24
##craft
perf
fresh
examination
shared
make
ocean
##agnetic
alz
atm
assembly
registration
implicit
gel
king
##39
alumin
corona
constrained
##ormal
##icity
communic
##neum
andrew
##therapy
pred
##oids
##weight
wheel
consider
##monary
advantage
neighbor
mesh
western
linking
musc
philos
simultaneous
##ulator
impair
coating
##illus
discrimination
wheat
kep
ss
##ypt
ell
##rosion
decisions
questions
ek
medium
threshold
que
sensitivity
longit
fuel
length
##iy
##anal
analyzing
aggregation
should
##ua
##usive
##ariate
volati
ceram
approximation
cad
pig
rule
tac
cold
##ster
microbial
pharmaceutical
meng
##idae
important
classifier
##amb
unt
##onomic
variables
concentration
increment
receptor
##grad
genome
##print
expansion
##ament
##oto
cause
hair
som
##porary
property
epidem
crowds
participation
pert
cardiac
consequ
integrating
femin
cosm
##32
moder
module
smith
##oster
roman
intensity
##des
##zil
##organ
robotics
depart
##rium
employment
autoencoder
longitudinal
##ultural
err
injection
therapeu
hop
reward
finding
mortality
transplant
manual
coff
various
##idden
cha
mexic
##xxx
cases
mitig
sod
membrane
##ika
flood
nucle
invariant
bim
attach
vulnerability
pixel
##no
##eries
moment
##itten
##encia
##inding
pin
##cn
##ployment
pyth
bullying
pneum
west
conversational
coupled
degradation
compens
metabolism
bib
bern
anton
##ulty
alzheim
xu
##bre
##effic
print
healthy
nuclear
historical
rum
##66
covid19
avail
ce
rod
chi
display
adam
##ensis
opin
aspects
origin
incremental
##rate
##ramid
regen
extreme
hydrox
kidney
commitment
pv
tut
##fol
##02
parent
##rey
span
couns
##asive
##odon
construc
##iento
flight
grammar
##well
##eding
##vex
reform
genes
tests
purpos
magnet
gall
##ayer
promotion
lower
ta
##qa
##oral
swarm
panel
converter
rail
##met
##nia
##itors
most
speaker
changing
rights
##35
viet
saliency
egypt
laboratory
##ourcing
frag
many
progress
defic
upper
pulse
abstract
##illing
##hao
##athan
calibration
encoding
creative
mutual
##sm
##roc
grained
reth
##clusion
records
porn
station
##una
##ewater
earthquake
kl
viv
##pan
influencing
ly
panc
##rous
only
next
collaboration
housing
fractional
jon
##orpor
##ester
##asis
rele
named
hidden
##house
##work
pra
sets
##gue
##ario
oxid
lik
modulation
analisis
grade
technological
criteria
##tial
##riction
smooth
extended
immune
proteins
start
##ream
chick
han
##inf
static
##ovascular
shift
innovative
bah
##eem
ana
##edia
##rone
pediatric
labeling
mediated
clean
gain
trig
aerial
crowd
avi
mm
underwater
intellect
##rase
brown
monocular
fpga
nic
##elle
##ogical
spaces
teen
elastic
factorization
trauma
relaxation
30
fake
##ilib
geometric
##ologi
scaling
standards
advantages
reproduc
surfaces
##rosp
oscill
node
##ima
co2
##oxide
nanoc
affects
huang
proposal
styles
##wal
##inity
##atitis
generator
defense
critic
forens
frank
quanti
##lands
##fa
prem
cloth
cris
presence
cataly
wastewater
derived
pyramid
metrics
survival
ech
hd
tang
##wr
##ulos
military
brazil
faster
ij
lag
tet
##acing
every
##oking
break
fixed
um
##char
albert
methyl
implant
promo
normalization
##personal
authentication
hen
##ways
coeffic
probability
chapter
##ulated
cla
##ynth
ecology
spectros
26
##yc
##graph
house
cement
##ho
##21
##36
manager
##aily
discuss
inspir
love
collection
narrative
jacob
great
nm
##oni
herit
precision
therapeutic
mun
##go
##opter
sti
alph
humans
formulation
coast
relative
texture
turbine
consequences
##elli
persist
intellectual
amaz
calcium
conversion
japanese
vietnam
kel
master
pict
##tain
##etch
phyl
traits
sensory
connection
pedag
carcinoma
atmosph
cav
hi
pad
check
##ologic
bol
citiz
dose
##box
##ister
##entang
##ometer
coal
movie
creation
copper
compliance
##eleton
anatomy
cath
##zan
##rid
perm
microf
principle
##sen
##iler
automation
interpretable
phenom
printing
##dm
##obic
spatio
cand
york
##veraging
breath
anne
##tica
##akan
contem
esc
comparing
1999
drive
blue
rethinking
tv
##yer
uses
trained
infant
patch
fatigue
mn
they
##erman
personalized
additive
cardiovascular
utilization
girl
bear
fog
lon
##itching
##rif
substr
malware
##lingual
turk
resonance
29
rab
##bility
multiv
lingual
refr
yout
##aman
prosp
office
##sk
absorption
pedest
bec
##ffer
##vier
stereo
era
##yg
##etal
##asp
prun
organis
linguistics
rig
##57
##ectors
##ically
metabolic
compounds
##dy
##oly
##ectomy
pulmonary
arabic
##u0000u0000
cb
gate
##jo
##eta
##ematic
##usc
##advant
##otechn
points
disclos
equilib
clouds
python
alge
sab
##40
##eller
recommendations
diverse
bridge
discriminative
wavelet
hypothesis
matth
item
joseph
cf
cot
esteem
packaging
constitu
eric
##dc
##tives
##inson
salient
confidence
fracture
aes
ok
##ians
disadvant
contain
surgical
daily
##otive
##thers
lex
decent
tele
fabric
cash
ven
##omes
theor
##opath
mari
wei
carlo
estimating
##rought
aircraft
iran
exploiting
bot
gis
##down
there
distr
boost
films
george
coffee
cin
rating
rout
##zo
##ito
##sts
##igu
modification
resta
singh
attribute
##hua
race
six
##normal
##49
##xiv
multilingual
influences
errors
third
##idi
recogn
descent
languages
simpl
birth
reporting
ku
rational
tin
tod
##emy
##ensus
coher
selected
salt
minimal
bip
##zi
##ishing
captioning
documents
oz
our
express
insect
mixture
preference
ethiop
hind
##iform
##ona
##ales
prel
##ologia
moving
iterative
contemporary
rat
##isy
##ils
progressive
silver
pregnant
justice
cerebral
attachment
ko
kes
##ulate
transpar
explaining
pathway
restaur
vac
##opathy
pron
dispers
earning
tomography
##uption
healing
insights
indicators
denti
##chool
disabilities
shad
##ikasi
mobil
interpretation
entrepreneur
tropical
inverse
##utation
neon
##rained
taxonomy
animals
hypers
arom
fal
ty
##ei
##tors
networking
attr
##isms
elementary
powder
##ny
##ols
parental
batch
fly
##ulose
tea
domin
##ether
contract
tomato
platforms
fertilizer
ble
##42
compact
scler
agency
combination
athl
occupational
cast
sant
horm
listening
##elihood
department
mouse
pun
##function
##atus
##activity
schiz
incorpor
household
ambient
instrument
dos
filters
beliefs
ancient
relevance
veloc
dur
yog
##60
interpersonal
repair
connectivity
##ogenesis
hip
##rations
##ulating
stef
positioning
alexander
brief
involvement
##ocracy
gps
nik
vib
##cd
##arding
obst
poor
contras
extension
stephen
paradig
sap
taking
##nas
corn
##flo
switching
##pectral
investigating
vibration
##rik
##illa
portfol
books
vl
##fall
##ecti
share
##ards
where
bangla
suicide
##37
dielectric
monte
svm
cannab
pancre
50
ib
zinc
##win
##isi
deform
asian
answer
emissions
sodium
release
eating
##48
##kat
convex
spin
##ifying
marri
mice
samples
address
youtube
decentral
drought
fan
mineral
palm
convergence
cv
##ashi
goal
revolution
institutional
abnormal
muse
##cious
gut
ri
wound
alb
maria
colum
suppor
dependency
website
jean
kon
##ifi
datasets
ja
prag
rog
basis
morphology
prospective
bac
##mo
##59
##rication
##penti
##asion
##ily
rece
##iversity
##ontal
minimum
dietary
tolerance
##emporal
kenya
vivo
ay
fel
sistem
tail
##itus
##ulties
stra
##imb
score
complement
mindfulness
cortex
iner
chip
1998
biomass
prospect
wearable
contrastive
##iate
##nd
prod
##ifier
##iotics
telec
payment
doped
gab
kong
live
vid
warm
##yte
##ratic
##ades
weather
automotive
buildings
multivariate
##kh
controll
foundations
korea
manifold
fear
arxiv
##ermal
##version
##escence
angle
increasing
philosophy
binding
##anger
##insic
alloy
sequences
isolated
initial
electromagnetic
pedestrian
28
##ux
applying
beta
tuning
tuberc
autoencoders
christopher
diction
##so
##entia
surveillance
analytical
country
irrigation
beng
pier
##ues
##ruit
##arth
##omics
prices
beh
gaming
germany
host
rc
para
spectroscopy
tong
##ette
apple
##ause
neuros
consistency
amazon
seas
absor
views
lar
mell
##ares
##chi
##ulture
matlab
##onald
renew
toxicity
difficulties
heritage
prelim
kam
##etary
diam
1997
directed
##based
lens
##dp
##yb
##cor
##arin
##asan
##earance
##osting
##pres
physic
grass
sliding
##operative
ment
yan
nepal
leak
##olding
affective
##opsis
opinion
rah
##onym
##emen
charge
circular
##media
northern
##pentier
##kar
##onics
##enda
##ikan
server
adjustment
cerv
eb
rnn
store
##otrop
lean
biof
subst
caps
disclosure
ring
wet
norm
passive
classifiers
principal
lessons
coordin
proof
noisy
customers
benefit
degree
attributes
fur
rol
was
##eet
##nostic
##ardi
bow
late
##dom
##aga
acet
evol
heur
##tina
stimulation
museum
##ives
apps
##arma
diagnos
conversation
##eb
##ilt
stan
multis
distric
topology
channels
get
##mm
adsorption
placement
semicon
hydrog
renal
habitat
possible
preliminary
ket
native
diagram
##luid
lightweight
explanations
update
nerve
regeneration
dh
nick
##oj
##ken
##wood
any
soci
camp
neurop
config
prostate
##video
jack
##45
grav
democracy
zhou
experiments
tai
##47
##ago
prol
##ococc
##ahan
enhance
maternal
morphological
untuk
27
bis
nd
##nt
##ingual
tooth
##ocal
disability
##ductor
creating
tib
wash
##esp
forests
##otox
preferences
dro
let
rr
var
##uli
##idth
sugar
##ardo
annotation
32
ey
jord
##teries
medication
1995
coupling
dor
##dd
##top
##ortion
thor
##ulosis
peru
##ajaran
zhu
safe
precip
miller
institutions
procedure
##ember
##ectal
terms
chatbot
raw
reverse
mother
canada
calculation
streaming
korean
mood
ved
offlo
##emes
##imm
clay
consensus
labour
dementia
drying
merg
pump
##olation
##ovol
charpentier
hydra
summ
nutrient
lipid
glucose
rib
##ximate
interview
arc
decoder
embry
costs
individuals
pilot
portfolio
00
lou
##tia
stev
##iana
expert
layout
cmos
pseudo
ethiopia
velocity
##hr
##do
##rel
phon
metam
##tination
gait
title
das
jer
##yu
trace
developmental
dimensions
debt
did
tech
ware
waves
##2v
worksh
collective
negoti
analog
mount
charles
##aire
refin
his
##itual
least
findings
drone
nec
##sn
##fs
##ptive
spo
filip
goals
operating
preschool
cnns
fmri
pruning
sg
arr
exploratory
ghana
reduced
enterprises
benchmar
consistent
gans
hed
nad
##vin
refer
match
##nover
acids
inspired
dram
##len
##80
parenting
colour
##ynchron
equip
transactions
transcription
##opl
##25
##uran
alg
##ensi
scat
optimized
overl
predictions
forecast
cyberb
mexico
bed
##ece
projection
metals
left
bilingual
equilibrium
hill
lind
##erior
##ecurity
##urch
amino
turn
vertical
complete
ahmed
severe
lexical
offloading
##iar
##bar
italy
distributions
##eletal
nutritional
fairness
pacific
chinas
compensation
##ski
##26
##enberg
##apor
metaph
meat
corruption
note
biodiversity
avoidance
##edom
##cholar
moist
##ophys
##board
horiz
significance
jones
##rd
##ogl
classical
eco
visualizing
southern
protocols
apl
##46
##ocytes
alert
unem
teams
flav
works
regions
saudi
dy
pic
wolf
##aut
##jan
antic
##oscopic
##rolysis
cord
asset
assign
visc
##tish
##renia
growing
maize
uv
##adian
bioc
##aze
room
topological
inflammatory
jenn
ming
##99
##cy
##field
##enth
##acchar
guidance
missing
lines
rats
##eliness
##argeting
identify
flows
coverage
schizoph
gun
ple
##rosis
esp
edu
insp
curve
limited
drivers
parametric
diabetic
##otypes
saving
burnout
pembel
cob
draw
neck
##amination
shah
recip
regarding
convolutions
turnover
differentiation
francis
forensic
kir
mt
tay
trib
##rs
##fare
studying
feas
##oxy
##manuel
collision
situation
##ococcus
duration
kur
pav
##overing
smes
signaling
lake
##osity
circuits
annual
marriage
##ovolta
citation
fak
lond
sah
##zh
##lim
##ille
##ayan
mechanics
globalization
monitor
supplement
electricity
substrate
ml
##iture
shock
universities
oxidation
linked
##ulsive
scenes
gated
ji
##ius
##fish
multipl
convention
edward
segment
##rophic
microscopy
semanticscholar
citizens
cotton
pid
sis
trend
##arios
##pted
terr
medicinal
fatty
aided
analyses
jin
wik
##che
shell
singap
farming
cutting
argument
cohort
cervical
fig
vag
##isting
##ilm
presc
accum
domains
validity
entrepreneurial
paradigm
ot
ole
##lic
##cion
##cience
diver
whole
flor
serum
farmers
friction
##part
conscious
nanof
constra
walk
antibacter
fabrication
promoting
district
had
java
displ
##phen
##ife
inters
shu
sha
leveraging
analytic
observation
aeros
habits
traumatic
activated
explainable
##graduate
dend
drag
god
khan
pt
##sis
##atum
staff
depress
metode
variations
resistant
susp
synchronous
jeff
fus
pall
##ses
##tz
##emistry
##sten
arbit
leaves
boosting
incidence
photovolta
successful
eastern
##dr
##elf
mary
capture
counting
gastric
enzyme
##odynamic
ovarian
jordan
precipitation
bod
cn
##otemporal
aden
##ello
1996
##owski
rfid
purpose
algebra
shadow
ari
file
hass
ice
zone
##53
##rup
##acle
suit
##iko
##tinc
direction
##being
##estinal
alzheimers
loneliness
rhe
##kins
anch
chest
##aks
interference
multit
physiological
minimization
kinetics
phenomen
page
##itos
##ementing
export
disch
paras
quasi
##space
tuberculosis
kol
lack
##fr
usability
police
coli
carri
databases
breathing
l2
##gs
##iton
revers
soccer
popular
partn
loading
administ
friend
happiness
workshop
singapore
fill
hay
wen
##eur
##ript
##ione
optimizing
careg
batteries
front
london
mp
##oft
##ril
##rak
emmanuel
simulations
inhibition
##omorphic
tc
ug
##din
##utive
##eed
##rof
##ustion
proxim
meh
blended
minor
leaders
womens
going
cooperation
coordination
message
theorem
nag
zhao
##ipl
##edy
shear
combin
profitability
##ih
##rus
##ket
touch
##fore
multimedia
timing
aluminum
tutor
40
cache
sud
##mail
##aro
##idine
rise
##urrence
mutation
ahmad
inclusion
balancing
##hard
conj
imper
##ador
neo
##actor
##iving
particles
hospitality
illness
alpha
##otechnology
around
ein
kat
lem
lig
wine
inp
##ellular
schm
immig
gastro
adhd
neighborhood
television
renewable
sites
##rant
##3d
##tur
##enter
stak
cham
basin
##tiveness
##iano
obj
influenc
demon
soils
biomark
reflection
returns
##hann
##bn
##anium
meg
percept
equival
descript
institute
momentum
pembelajaran
bub
hus
jia
sri
section
targeting
vary
##fo
##70
thick
##dering
visible
logistic
simulated
crowdsourcing
reproductive
mik
pub
##door
##28
##itory
containing
french
##ethyl
##ennis
rotation
antibacterial
lateral
tm
##uma
asynchron
grain
accident
editing
explicit
integral
readiness
movements
nanoparticle
interpre
perturb
put
##zed
##idal
stop
##chemical
cheng
marg
##bles
improves
budget
constraint
perceptual
lect
made
pit
ut
##ault
##las
##oreg
##leg
melan
ethnic
matthew
mellitus
##wise
##enia
##level
##ernand
specification
tunnel
##analysis
quantization
decentralized
equipment
cyberbullying
lor
##oir
##55
##lity
##acial
generic
##arities
disturb
twin
potato
spatiotemporal
judg
yeast
1016j
aw
bak
gpu
rd
tip
##emat
##pler
spring
truth
addition
plane
##ommun
labels
verbal
families
religion
mimo
border
kan
##eri
##urement
##omon
##forest
cooling
charging
##tifying
leader
1994
chains
intrinsic
girls
mohammad
banana
berg
##ataly
cond
reti
pooling
simon
1993
dependence
regularized
hashing
gesture
night
chao
##iah
sug
sociology
biometric
prevent
viral
1992
empower
layers
think
pharmacy
wellbeing
observations
##ju
though
deformation
reserv
disp
appearance
##ochond
repe
screen
reactions
racial
stabilization
mitigation
coefficient
neonatal
sad
ve
##56
##omp
##ulic
stable
island
textual
sympos
predictors
##2vec
bell
##nan
##nes
##jay
##onin
##eland
##tered
##fort
uniform
infants
##ajar
concern
##ontrol
anomal
mohamed
csr
photovoltaic
gear
##metry
##inter
##anes
##asser
approximate
locally
extrem
musical
forms
1990
freedom
penet
contrast
##iasis
british
cow
lew
##tique
##isal
##emann
exist
syl
interfer
sharma
attentive
mont
cybers
nanos
directions
amplifier
derivatives
compressed
coastal
symposium
pod
tap
##pta
operational
animation
mission
vr
thy
##cha
ord
skeleton
defined
crops
chicken
seasonal
must
now
sak
##du
##omatic
tow
imbal
spinal
templ
curv
feeding
mediating
pepti
##hma
##vic
##pp
##amiento
##ime
both
##head
integrity
williams
actu
reports
senior
restaurant
inertial
dong
hun
hans
##cr
dee
##ovic
interc
seq
options
polyn
profiles
erp
expon
assistance
ultrasonic
football
seeking
semiconductor
just
wire
yam
##eras
##iber
biop
times
knee
electronics
texts
presentation
facilit
considerations
earnings
incorporating
dictionary
gon
nich
pag
##idikan
adverse
catal
hearing
players
symbolic
epidemiology
haw
oh
ross
stein
enrich
alf
slow
faculty
##cipl
crystall
lesion
australian
merc
##can
##86
##omial
arts
volunt
oct
estab
harmonic
enabled
prospects
aque
bon
tend
##ilities
deposition
##rices
indigen
marker
insulin
##odynamics
ownership
scanning
bp
sectional
##elial
leon
##oke
epil
volum
same
harv
tube
heuristic
nil
nerv
##200
##aland
##uri
##uda
show
recruit
handling
myth
limb
accelerating
closed
pestic
vas
vill
##29
##27
forces
##otes
shi
recurs
plug
multil
##estr
##illary
controlling
physio
solub
fermentation
mcc
german
phosphor
mouth
##matic
detail
fitness
##giene
pendidikan
##worth
bibli
din
##idering
procurement
package
impairment
transplantation
atmospheric
asynchronous
37
hur
jian
lep
latin
rare
von
union
estimates
faces
movies
cattle
colorectal
antibiotic
porous
welding
kem
terap
##economic
them
##raining
units
intermed
intensive
before
agre
examining
introduc
picture
dip
##idopsis
##ours
##aving
isot
preven
##airy
##ochemistry
quantification
connections
populations
fourier
##rospective
bearing
refinement
feasibility
pear
##zer
##qi
onc
##osocial
##ioni
alm
unkn
scott
generated
##uki
sequencing
centered
wise
##une
phd
corrosion
worker
eds
fred
fibers
prepared
fungi
gur
kenn
##zen
##ride
##fc
##eld
cellulose
outbre
##health
iii
polarization
printed
##ynthesis
deformable
establish
indigenous
dairy
##lier
##yen
##alg
##alah
##atur
##imension
##obl
##anced
leuk
blo
extracting
implementing
lifest
photos
keyword
nearest
##point
focused
dropout
distress
benchmarking
ting
ways
##sl
##uting
##fig
##33
##andra
option
##bling
##0000
flash
decre
signature
##scale
groundwater
waterm
victor
syntax
ceramic
demonstr
##national
##etti
##pert
shif
heating
##ested
architectural
trials
bridging
##tl
##olith
##chair
modality
phill
systemic
margin
hygiene
coronary
woman
numbers
estate
obser
window
pcr
significant
unemployment
venti
reb
metall
increased
tanzan
idea
substit
bottom
jennifer
kons
##cut
##iaz
desc
##anne
salmon
offic
lattice
##structure
restric
defects
adhes
stefan
aqueous
fid
pts
sql
yolo
##eal
##rec
##prop
##ritic
##ady
##pher
intel
##iley
##anka
directional
constant
hazard
athletes
complementary
bart
furn
lub
tro
##cast
##via
##isc
ster
##eption
##ugg
moh
##oken
inductive
##ogenetic
reliable
execution
enabling
cosmetic
filipino
moisture
assignment
schizophrenia
unknown
dm
pd
vert
thail
##odic
##rie
##atif
multilevel
##hai
whats
pathways
actions
instructional
##discipl
36
bou
pest
##hz
anter
##olas
##izers
asph
infections
biog
##okine
extracts
##quiry
version
immunity
download
purchasing
alkal
last
##97
##88
##itude
##rod
##olym
##omer
##essel
metast
malaria
empathy
##param
limits
arabidopsis
disadvantages
thailand
buck
lic
##olov
oxford
steam
informal
treated
birds
##written
varying
ale
hoc
pages
pasc
##ea
##titis
anis
##ectic
anderson
imitation
perme
##roll
meeting
cali
barb
helic
snow
hydroxy
container
supporting
faktor
deepl
hir
##him
##uf
##inear
##chlor
sexy
acceleration
siam
mirror
categorization
##espond
epilep
cpu
##oa
##alian
##ided
reas
party
ammon
chemotherapy
combustion
genetics
walking
waters
limitations
dw
gy
lign
tec
##aine
##54
##inform
proces
##ensen
contamination
##ptake
correspond
1991
contracts
raman
aggregate
mitochond
pneumonia
steven
inspection
gil
pup
church
dead
##atively
imped
monetary
capability
adolescence
asthma
explanation
average
dut
vascular
##alan
##atri
##plan
tracing
die
managers
schol
considering
subjective
terminal
angi
abdul
dogs
gri
##map
##rat
##role
pref
smoking
##anna
profiling
determining
harves
regulatory
inhibitors
foundation
organisational
jing
nak
rao
##kit
deeper
appar
undergraduate
textile
cascade
aviation
mild
wifi
##ku
##aled
inquiry
anna
##oda
depos
##obia
matrices
outs
slot
searching
fibre
##cope
laws
playing
intentions
##gbt
racism
revisiting
jonathan
maritime
column
nickel
tanzania
dol
kill
##bc
##oys
##ince
##enko
##uld
cohen
invasive
synthes
vehicular
handwritten
chromat
clothing
summary
cod
cass
lie
laz
much
##day
##mission
##nut
interfaces
retrospective
links
ethanol
terti
informatics
fractures
axis
syntactic
cannabis
scattering
anterior
roy
stig
cook
##afa
variance
neurom
##rophy
inhibitor
spiritual
lapar
accumulation
consciousness
recruitment
fol
muc
rid
take
tao
##uz
##thal
spot
spain
artery
##ante
##title
##evin
##manent
flux
wavegu
targets
dougl
barrier
zealand
teenag
sclerosis
hydraulic
hole
ns
##hib
##gun
##ompos
##usa
##essive
seaw
thermo
preservation
ideal
sediment
neutral
wheelchair
available
bang
##uum
##58
##phones
##akis
commons
##reek
##till
topics
##bridge
authors
johnson
hemat
prosth
oxidative
microfluid
washing
kle
zak
result
acm
contamin
urinary
kinder
friends
phosphate
discussion
friendly
bill
cuc
tion
##hed
##mp
##rane
##inder
learner
##iza
##force
compass
##ques
pla
evaluate
sketch
expend
##otropic
vectors
##31
retin
##thes
interior
organisation
branch
outdoor
peel
descriptive
split
hubungan
taiwan
aerosol
##imensional
benz
cab
lan
lac
##ocard
##plet
atlan
processor
realistic
archae
radical
periph
informed
inverter
citizenship
interpreting
ses
##nis
##oline
conform
##iva
behavio
conditioning
procedures
interpolation
rubber
bipolar
lifestyle
hid
ig
kind
kaz
##erts
##inting
##emi
##aceae
##urring
##itted
bitco
inflammation
trigger
warehouse
kas
mening
##rill
##jar
transist
appra
psychiatric
philip
clinic
statement
advertisement
spanish
route
conventional
discharge
io
##sky
##kle
##pass
##osing
##plastic
##eping
multid
indices
agro
mothers
##inton
prototype
##ichi
promote
mixtures
residential
fundamentals
deficiency
ptsd
tertiary
60
kit
sul
stages
##earning
##ires
##ovsk
losses
##wei
microsoft
illum
conductivity
dysfunction
volatility
douglas
lum
pick
rs
ric
session
##isl
spars
multiscale
height
polyp
queries
autoreg
cart
month
geo
##othy
greg
compositional
electrode
accelerator
cyclic
turkey
thickness
db
fun
yun
chec
##irm
baseline
diode
arter
##geting
hex
understand
##ogenous
microbiota
published
taylor
cp
equal
gard
##rated
##79
##araj
##eto
##amy
attend
organizing
schedule
utility
21st
##odontic
multitask
nc
pine
tell
vin
##eda
bases
isch
assem
incenti
crack
characteristic
transformational
philippine
connect
oils
flexibility
talent
fried
welfare
lymphocytes
bacillus
cele
gao
herm
jose
sag
u000
uptake
yong
##mas
##uries
##mental
spoken
lexic
decon
incom
nanot
delta
laur
correlates
attribution
##borne
rhiz
budgeting
publishing
##organic
curr
##pur
##irect
resnet
parts
##ophil
herbal
name
##itization
squares
fluorescence
moderating
likelihood
persistent
yoga
empowerment
bron
fdi
him
honey
ira
sos
tian
##mic
##rig
##urable
actor
recycl
scoring
teeth
planar
gamma
caused
streams
##cepti
abstractive
bonding
erosion
sme
optimisation
incentive
discipl
massive
elev
managerial
##optera
overlap
tutorial
jar
jiang
lot
peg
sic
tu
tension
##oint
##24
##ortic
##ominal
uns
scr
##aterial
markers
publication
sweet
##ittle
sentences
bitcoin
pasi
##burg
forget
##imeter
permanent
##tration
conserv
gupta
capabilities
journals
formula
##escent
aggression
synchronization
pipe
##itosan
ki
pec
##volution
##itarian
##ente
##ograf
##umab
compare
esl
glut
inside
##ographical
histogram
trip
lesions
differentiable
ecosystems
religious
neuroscience
reservoir
ace
bug
eti
gad
jay
kw
rip
sut
##uary
##ycle
##asia
disentang
##ellow
unmann
characters
associations
malaysian
bounds
balanced
counseling
atlantic
jung
narc
selling
##auc
##ged
##tio
##orb
really
comment
##uman
disru
##trans
persu
discre
##2020
##ophyl
ocular
gradients
graduate
asymmetric
multilayer
unmanned
cra
gib
ran
##iri
##icum
##icate
##eced
##stan
##abeth
spine
tract
##io2
cyan
patent
goods
fernand
##east
##idents
##phal
seb
gamification
posterior
ulcer
supported
benj
concentrations
reproduction
transcript
stacked
candid
arbitr
impedance
hung
pom
yi
##ubl
##nik
##acin
##ryst
##rological
psycho
frameworks
microbiome
wilson
cultiv
ht
lec
td
##jun
##tition
reactive
##aku
agnostic
distant
epith
demographic
photoc
myocard
herb
ellip
evolving
califor
23
gaze
hp
lighting
tar
##nm
##asts
##oscopy
##adder
resol
emitting
clusters
angular
abdel
contextualized
replacement
phytochemical
springer
kinetic
depressive
recursive
hamil
jen
ll
lane
ny
ngu
ub
##oqu
##aper
##ancing
agenda
matters
operator
rough
severity
tagging
juven
typh
spoof
pasien
hil
mg
pf
sir
yar
##enes
##esium
##aged
sph
##romb
cool
brun
hepat
executive
diamond
fi
lun
##90
##agh
##osome
##uding
spray
clar
suppression
microc
muslim
leading
faced
occlusion
offline
olive
symmetric
complications
obsessive
talk
settings
rigid
dentist
illumination
kap
nod
##itance
##ilation
##odi
reven
transient
gray
##asty
accord
reconfig
focal
eigen
fes
tank
##with
construct
##opor
modules
compulsive
##ifera
division
plann
##ismo
##xxxx
fruits
serious
immers
strept
write
muham
suitability
##disciplinary
##bing
##pi
##istive
##ido
starch
chan
chun
##ologie
beet
##timate
##aste
##aterials
computers
encrypted
voting
musculos
cavity
behavioural
incentives
dont
gym
hpl
mine
nir
ras
##keletal
##ono
##iciency
##oshi
devi
##ads
marco
inflation
methane
estimate
singular
##aciones
1989
lux
vocational
##paign
cybersecurity
peripheral
fro
juan
naf
pas
pie
sob
##van
##icious
##acet
compressive
api
phrase
microg
mush
geography
##eva
expressions
latency
mixing
grounded
palsy
brian
inclusive
colonial
false
dendritic
harvesting
nguyen
uter
wing
##uter
##carb
##tc
inception
##olin
##opt
enti
##enger
ecomm
allen
grand
angel
injuries
##hyth
instagram
odometry
indicator
krish
osteo
kalman
sdn
##auty
curvature
outbreak
recycling
dance
hart
kun
##ht
##lets
##67
##eno
##olec
##ogonal
tox
##otomy
perovsk
polys
##arium
##azole
pathology
jointly
hierarchy
neighb
pretraining
revisited
chaos
agreement
2nd
cyl
feng
gift
kang
##ped
##ulators
##ims
alan
dioxide
##ains
assurance
cars
dynamical
physiology
auditing
triang
sigma
tactile
availability
tongue
cub
fiction
kor
##light
##kes
##kol
##alia
beauty
automata
loan
##oidal
academy
essay
funds
periodic
victim
waveguide
beck
date
gord
hors
xin
##iff
##born
##rans
##arter
anonym
##apse
spher
tekn
graphical
floor
patrick
liang
belt
targeted
suscepti
titanium
detectors
contributions
antonio
asphalt
cro
##db
##writing
anak
##aca
##ects
resin
dies
while
england
decoding
##berry
drinking
programm
reputation
olig
##uchi
arabia
antibody
seeds
province
derivative
henry
3rd
##ois
##kel
transduc
schw
microp
brass
cultures
triple
libraries
criminal
plateau
volatile
feminism
rrl
chromatography
lgbt
uw
za
##43
##col
intake
##iveness
flo
throughput
ern
auditory
opportunity
wideband
dye
jav
pb
rose
va
##kov
##orrh
chitosan
disinf
coup
bean
france
extrac
industries
affected
valuation
ontologies
lockdown
reveals
ecommerce
dnn
hipp
kath
roll
##zy
##td
##agg
##unciation
peace
malign
lifel
financing
cambridge
ferr
andrea
thyroid
##network
##acer
##iders
trap
##erma
gli
##tified
terror
encoders
spectrom
##aux
valve
trajectories
scenarios
fingerpr
dispersion
aur
dream
##hs
##max
##nets
##rants
##ods
elim
##aryng
##oui
schemes
developments
##arten
outlier
peo
literary
hydrop
campaign
autonomy
burden
##olester
baby
narciss
daw
gig
lav
##nosis
##osom
##opoul
graphics
##tite
compared
assistant
accelerated
anteced
neurons
winter
pierre
appraisal
dent
pes
rach
##dh
##ui
##amide
metac
shr
##egrad
fever
carlos
boy
supercon
redund
cameras
pdfs
biomechan
rendering
egg
##process
bottlen
transparency
viscosity
equality
hos
##eria
##ored
##iao
##obile
mediter
carl
##ategory
##atorial
facility
determine
extra
square
theoretic
garlic
looking
translating
coherence
autoregressive
##hal
anemia
##roup
stone
proj
##aint
generate
flat
psychosocial
quantifying
bird
manipulator
cryptography
configuration
##partum
partnership
siamese
compassion
casting
kaw
say
##older
##ulant
##aded
##otor
click
consol
workload
linn
cyc
framing
aux
maximization
occurrence
origins
dilem
vacuum
emmanuelle
california
45
gang
lyn
veter
##98
##width
thai
##thetic
educacion
insider
centric
create
randomised
doctor
turbul
physiotherapy
osteoarth
dj
fetal
##ened
##ands
protective
potentials
dissert
vegetable
symbol
crispr
coherent
bull
cum
category
jr
tah
tentang
xiang
##oplas
##onn
##ston
interv
eliz
destination
aged
final
##matical
zheng
##shore
homes
hotels
polymorph
khal
railway
benjamin
arbitrary
musculoskeletal
bic
dun
dust
gc
kab
v2
##deh
##uge
##pson
##77
##alk
deployment
exact
asper
##atern
textbook
transformations
capacitor
achieving
##ariants
##ulsion
shapes
neuron
phylogenetic
##tinction
##atalytic
##ranean
hat
kad
##anz
##aptic
##opy
##opic
##ricular
indirect
optics
designs
boot
collagen
swed
##ipped
complexes
andreas
susan
cues
carrier
checking
cel
riz
yas
##cv
##rp
##py
##pri
thi
##agation
sho
##allow
##onomics
semin
poison
maturity
##2019
integrative
##olds
gras
notes
##otyping
sheet
facilities
hyperspectral
gravity
juvenile
brad
greek
nv
wasser
##gent
##anan
##abi
##aba
capt
implants
businesses
dress
treatments
myc
calculus
scales
hydrogel
dots
obl
yolov
##44
##oric
##vey
shen
##iesel
##isme
controls
atten
canadian
smartphones
grey
italian
intrac
emergence
pulp
polymers
bilateral
##aphyl
orthogonal
storyt
paradox
arthritis
stiff
siswa
chaotic
myocardial
revenue
peoples
bure
still
tb
tick
##osk
basket
transf
beams
##esco
silica
backprop
drift
descriptions
xiao
expectations
asympt
horizontal
schmid
kinderg
000
aj
ery
sz
saw
vital
##fi
##iments
clear
##ibular
##ocking
##aje
laun
difficulty
pairs
pm2
congestion
ceramics
elliptic
31
ds
gor
wan
##o4
##rio
debl
interval
schema
##ilding
developed
timothy
##ylic
editor
centers
harris
belajar
magnesium
pipeline
subjects
russian
aquatic
gabri
warming
phosphorus
observer
expenditure
multidimensional
foss
vein
wis
##mc
##ered
modes
##elly
##assium
email
infecti
##rosoph
epis
etz
erg
curc
operators
grading
accessibility
regulated
##label
bulk
refriger
according
hv
little
mall
pent
yuan
##uates
##fet
##tu
comfort
compati
atomic
been
##ega
useful
alloys
fourth
fungal
constituent
pancreatic
muhammad
hplc
euc
fint
gpt
lob
sang
##pet
##2d
##ener
##oming
once
client
sher
plus
trait
mini
curves
electroc
layered
hindi
transparent
##oglob
suspension
commonsense
diesel
58
bov
nel
tat
##icts
##isch
##isons
##ulo
##ellar
recomb
serial
paths
sarah
choosing
constructing
pedagogy
##ophyll
mediterranean
storytelling
bach
hend
lc
qa
##bach
##dep
##mond
##raz
chim
dex
##uta
##ansi
produced
##othermal
foods
postpartum
valley
fuzzing
##metics
transitions
courses
dermat
fiscal
nanocompos
hormone
describ
##informatics
aa
aids
dl
kual
rud
##73
##arking
##uler
tob
highway
discovering
respond
##ematics
irrad
anthony
excitation
shaping
reasons
mushroom
ian
pale
##wide
inversion
stri
cher
prison
clim
such
manage
paraph
insight
entry
snap
partitioning
constitution
pronunciation
drama
objectives
gordon
aph
gem
hate
rang
##pen
##icip
##rea
##ocene
resc
computed
##ainting
##ego
visibility
humanoid
increases
screw
fingerprint
pepper
broadband
susceptibility
qing
tp
##cap
##itan
##idis
##agent
adher
along
unp
diar
contex
##uke
greece
competency
including
shoulder
1007
cleaning
cinema
template
##olymer
osteoarthritis
elizabeth
infectious
38
kevin
sale
inn
##elo
##olia
##andro
sperm
autoc
##strual
guo
pursu
utilizing
abstraction
freshwater
retinal
penetration
lewis
exponential
ral
vessel
##51
##23
##tise
##oria
orange
alter
coaching
plac
electrol
subspace
##eholder
members
practition
labeled
professionals
fixation
##videos
persistence
bubble
gross
lanka
mast
sativ
##bell
##o2
##low
##inus
##ampling
proph
chart
##iran
##vious
isra
ecg
distortion
##artz
secret
locom
caption
exercises
cosmetics
reflective
parkins
gestational
substance
forgetting
drain
kot
wi
##76
##ontin
##anum
antis
##omas
##obi
apr
##akh
sham
poetry
fluct
charger
salinity
purification
sepsis
millenn
##structured
kerja
citrus
obstacle
marginal
thought
cc
vapor
##lines
##oning
##eds
dehyd
##iral
marx
optic
##integ
factory
crm
round
worlds
tourist
simulator
coreference
threats
anthropology
negotiation
displacement
##olesterol
parkinsons
39
bing
cic
zo
##2c
parking
biochemical
buy
concurrent
breeding
republ
distilling
grammatical
scenario
divor
etzioni
aus
canc
dennis
lumb
makes
rear
##enium
requ
onset
##izes
colony
graphic
##tinct
workflow
##uncture
johann
##factual
peny
uncon
tolerant
russia
manifest
municip
prescrib
watermarking
uwb
bam
kah
naz
rect
##mt
##2b
##75
##edi
##ediation
forc
##iman
envi
##ify
coral
supervis
guar
forming
laura
topical
automatically
davis
lives
mohammed
microbiology
torque
michel
communicative
tiny
ozone
inpainting
assembl
bif
sara
vinc
##uy
##vc
##anti
##omo
##ugal
doud
geographic
remove
##coming
massage
foam
investor
lamb
ambigu
##brahim
neuronal
##building
##yclop
mamm
leukemia
epilepsy
##dehy
estr
mans
mend
vine
zn
##eor
##eros
stain
trich
caries
predictor
subt
diversification
puls
relevant
aluminium
smoothing
jeffrey
tecn
destr
eug
nin
qi
sew
vik
##itiv
stu
script
##azine
proficiency
democ
##gener
photonic
potassium
fibrosis
scienti
1985
karl
microserv
partially
plasm
reflect
sulfur
cvpr
pragmatic
capsule
stakeholder
imbalanced
##cutaneous
bos
mb
sib
##hl
##lip
##cale
##oro
##amic
ecu
newborn
millimeter
periodontal
abdominal
##pea
chloride
efek
today
metaphor
anchor
terapi
salmonella
fintech
contexts
rl
tog
##car
##omi
adc
adul
metod
##tivitas
##ishment
appropri
advance
##acco
logical
jobs
mcg
precise
instability
requirement
regulations
respiration
proposed
biodiesel
hrm
rainfall
catalyst
hassan
volumetric
oncology
dentistry
entities
wasserstein
doudna
nu
nation
yao
##inite
##ocyte
##unan
apopt
##tron
##prof
observational
vegetation
running
vedio
46
ging
ori
##sr
##eo
##rases
##kt
##erning
##orec
##ici
##agon
orb
tran
scaff
atlas
malicious
dimensionality
harness
nitride
ideas
conduct
##basis
initiative
arrang
##opoulos
fif
gcn
jew
ky
kids
nap
yin
##iet
##bage
##raction
##econd
##rays
comun
teori
colomb
skip
nanotechnology
built
landmark
##lamps
luis
lamp
squee
daun
butter
counterfactual
feminist
everyday
telecommun
behind
multispectral
einstein
correspondence
deconvolution
34
pill
row
sac
were
##gers
##eses
##aram
reuse
##ensor
##forming
sebas
could
memb
powered
depriv
##acci
photography
warning
windows
##iatry
ghz
interpretability
credibility
omn
fertility
delayed
brazilian
cfd
intercultural
intermediate
permeability
stigma
poisoning
65
dic
gm
hope
til
##bb
##uhan
##ners
##03
##jee
##100
chile
##enses
whit
explos
digit
##azz
characterizing
attentional
signs
termin
liberal
milling
boundaries
personnel
cascaded
##worm
leakage
spoofing
piezo
cable
sik
##aa
##tiab
thal
##uctive
##ovirus
spill
asd
interf
amyl
commod
meets
defining
programme
lifetime
drives
hyperb
myel
correlated
electrochemical
involved
enzymes
accountability
hippoc
dissertation
hao
jak
kris
##itives
##rence
##vo
##tier
##inos
thromb
##using
oren
spont
recall
cortical
##athi
applic
algorithmic
hands
packet
sounds
weld
pretrained
eleph
cheese
bahasa
oscillator
caregiver
preventing
craw
kul
wage
##cence
##emics
straw
##osi
##tha
enforc
##ensing
genomic
##tistic
##awatan
repres
deficit
virgin
breaking
spectra
steps
1984
1980
refuge
tunable
definitions
deterministic
##conn
indonesian
independence
vegetables
replication
cultivation
##2o3
alzheimer
riemann
algae
hamilton
bootst
dating
kec
mec
##uo
##yar
##rhe
##eni
##urt
##asional
##ulse
##uca
##plac
##plete
interle
election
##00m
samuel
encyclop
##nett
valid
carbonate
indexing
contrac
waveform
resonant
sinus
court
impaired
menggun
gastroint
mitochondrial
stiffness
##lampsia
4th
nash
want
xvideo
##life
##onut
##esthes
ther
##idential
##abolic
acquir
abund
poult
silva
correlations
pyr
hierarchies
1987
bandwidth
radiotherapy
combinatorial
teenagers
adherence
divorce
spontaneous
70
having
ore
tn
trim
##dl
staphyl
reef
propor
##anto
plag
march
biases
quatern
decline
nanom
##ullah
reported
responsible
priors
heterogeneity
rotor
doppler
##structive
sulfate
existence
nervous
poultry
48
koh
sf
##uous
##yi
##cation
##rison
##esa
##usi
alle
##astoma
assay
##awan
microstructure
##ichia
buffer
embod
signatures
##regation
loaded
instruments
sheep
claud
thorac
wikip
proximal
menggunakan
dot
hiro
nom
nig
tl
wong
##cnn
##pin
##etooth
##thy
acup
unf
scar
marie
evans
mediation
amir
##egan
frames
##ophag
brands
difficult
##learning
bootstrap
ded
duc
gestion
hs
mitch
roth
sax
##bed
##rt
##path
provision
string
automobile
##itian
##auf
causality
ferro
motors
continual
extending
partner
nitrate
portable
federal
rhet
halal
tablet
coconut
anaer
annealing
administrative
nilai
ventilation
kindergarten
bog
bath
rust
##ioc
##bur
##wm
##agai
aless
shin
multinational
mooc
mems
salud
encoun
audi
1988
hospitals
narrow
nasal
motivational
bluetooth
perfect
constituents
eryth
##dehyde
gdp
lamin
ryan
sov
sou
ink
##elity
repos
##ados
manaj
mars
isa
##ertz
decay
doing
solve
publications
##tility
innovations
densely
##structures
translate
categories
##opathology
gastrointestinal
fen
gian
jor
jes
joy
tik
tamil
##agan
##amel
chal
neph
extinction
acl
beverage
trad
##awi
norms
offshore
maur
berbasis
ivan
recognizing
ischemic
lexicon
bund
dub
np
rhyth
##guna
##alis
antiv
##atient
existing
sugg
meteor
intent
genus
##ieu
##pora
##ubes
progression
epig
volley
sharp
homomorphic
##inkler
regularity
##orphic
antibiotics
kiner
##hui
plasticity
tibet
perovskite
80
cz
fle
garc
junction
pitch
push
wiley
##eer
##mn
##valu
##urface
strip
reactor
##imming
##adium
spike
##istema
cooking
opt
##arta
insom
crude
##issa
##ommod
irreg
expand
##omyces
documentation
alexand
psic
dilated
ssd
conjug
cycles
republic
filling
jess
nob
ying
##mitt
##95
##wer
transgen
weights
preec
##titude
##inescence
##anner
opening
particulate
##hani
responsive
##rophys
kinase
boron
vulnerabilities
shaped
hydrogels
necess
sparsity
spherical
wikipedia
cir
pca
zno
##key
##raj
congen
##umi
close
recre
cox
deepf
##001
##nea
visually
crash
grasp
tumors
illust
breastfe
livelihood
ensembles
placebo
cucum
iraq
antecedents
anaerobic
hinton
iod
nand
qos
vox
##tist
inorganic
##asm
exhib
ads
shallow
scope
seven
##orship
amin
whey
weap
newton
##ptions
extractive
speak
economies
##pose
##brity
campus
connecting
hydrochlor
emergent
focusing
written
holistic
inequal
fitting
osm
expectation
glycol
biomarker
kinerja
caff
dup
hone
ibrahim
jane
mish
nike
prad
##64
##icz
##acles
##rav
##raine
rejection
##imetric
reser
metas
atom
infarc
##sey
##oks
define
airport
##ethylene
empire
toolkit
keyp
##iosity
biodegrad
communicate
keseh
harvard
arterial
superconduc
apoptosis
encyclopedia
preeclampsia
fox
lars
variants
wid
##yo
##xy
##jud
##ems
##amm
como
##imi
##phys
covari
##eger
##ropol
journey
peak
radial
##matics
##ogeneous
stories
nitric
liquidity
pharmacological
hepatitis
osteopor
produk
##tzmann
minority
lifelong
##aryngeal
##osomal
backpropagation
33
pure
rash
soph
zones
##list
##lings
##rang
##racy
##fast
##tir
stay
##rah
##odies
##tick
distinct
dipl
carol
vijay
##oringa
hydrol
fibro
distributional
guideline
corpora
willing
macroph
##meas
##olingu
axial
surviv
reversible
volleyball
caching
fd
hm
pon
rt
rav
##bel
##bank
##fly
##tional
##tera
spp
also
suz
metad
shang
arn
percent
atrial
##ivity
##ively
coarse
##acea
##athic
insulator
softmax
ethylene
centre
airborne
cream
fisher
viruses
choices
roger
drawing
descriptors
reconfigurable
kesehatan
kai
lup
##bean
##gy
##esi
##etta
##aco
##ilia
##imiento
##uddin
strugg
coated
plain
trav
persons
superior
##ymal
memories
servo
reflex
player
sanitation
competencies
quadratic
boltzmann
controllable
sgd
rheum
disturbance
kenneth
##roleum
incomplete
grasping
35
gary
kand
packing
wol
width
##bes
##information
##rade
##opes
excess
pras
true
graft
relay
weighting
move
patric
posture
manuel
1986
specialist
authority
messages
##ocrine
komun
aromath
mergers
uganda
descriptor
perturbations
##omonas
pascal
harnessing
manajemen
arim
gay
kos
nw
wax
yo
##hm
##menting
##wen
##icus
ofdm
##rov
chand
##forward
accommod
invasion
artifacts
august
mcd
trafficking
bioinformatics
##acional
stephan
investors
vulgar
anatom
intersection
pesticides
deprivation
##00mhz
55
jet
muk
triv
##dynam
##93
##je
chu
##phy
##enson
##enced
##illo
meditation
cole
flipped
bright
endomet
##deep
laplac
bark
blocks
investigations
sunny
participatory
multicultural
addressing
##otoxicity
anomalies
ubiqu
##oskeleton
rescue
ecuador
aar
dd
hold
moringa
ron
sick
upl
zirc
##nat
##inant
##urus
ask
shield
##ryl
obstructive
psychotherapy
psychiatry
adapting
##escu
classrooms
reduces
odor
conducting
sediments
stationary
coefficients
supplementation
actuator
brassica
hyperbolic
insomnia
90
cant
certain
dal
mys
nodes
pg
zah
##iol
##iant
##ser
##bf
##dal
##pn
##anet
cholesterol
##izi
clark
##ifa
phones
transc
counc
multiview
paran
##lying
abilities
microorgan
##exual
xxxxx
##bound
penal
probe
biosynthesis
telem
petroleum
##ijing
resilient
##puter
piec
masks
ingred
wavelength
mammal
echo
aromatic
biomarkers
concerns
polynomial
transistor
photocatalytic
consolidation
breastfeeding
aortic
baker
larg
masc
others
##tium
##inance
##arrol
##asy
forum
too
##iming
comport
club
als
alv
##ologist
amph
quick
blog
soyb
brit
afford
##ofem
verb
expatri
walker
classifying
livest
resonator
orthodontic
inputs
occupancy
##iliary
romantic
demonstration
gifted
##esthesia
soybean
each
rati
##bin
##bil
##mesh
##rys
##tw
conting
##amous
##igar
##umann
islands
assets
command
escher
workforce
prognosis
reader
ireland
costa
thompson
naive
##atherine
pelvic
bernard
turkish
expressive
receiver
biofilm
celebrity
deblurring
guarant
56
give
hack
nos
vae
ward
##iative
##2p
##taining
##gang
##stone
##strained
##utan
##adic
##iae
energ
##ancia
lei
quarter
deception
edible
microst
singing
antigen
zhong
##arga
promotes
sept
competitiveness
conflicts
songs
discriminant
dermatitis
##u0000u0000u0000u0000
##uscular
dragon
repeat
restricted
barbara
epithelial
planned
shrink
laplacian
holog
kay
kant
len
raz
xi
##fram
##group
##west
##idium
##oso
comments
##adeh
enamel
unifying
phrases
shrim
genre
coil
amorph
##annel
##axis
##aja
epoxy
grown
transforming
repeti
artem
behaviours
##erald
entertain
##appa
##plasia
kingdom
mountain
phenomenon
peptide
shifting
anisotropic
bm
erik
gill
hai
##sim
##det
##lie
##ck
##vol
##pon
##gmail
##atonin
reach
##retion
##osine
##thermal
come
##ionic
intestinal
multiagent
##endra
bioch
amy
##velopment
##ergic
bladder
accidents
linux
localized
neurological
hydrocarb
nasa
##ceptions
easy
equivalent
sosial
luxury
irregular
inequalities
aper
bd
ls
later
mw
mud
rape
sacc
##mel
##nx
inner
##acillus
##thing
neil
clock
bass
sung
##antes
##aver
##haw
agar
blast
##rones
subm
1982
xnx
stimuli
granite
produce
rolling
biogas
bottleneck
mitchell
garcia
glu
lit
sid
##96
##kl
##wick
##icion
##isia
##ulas
##agi
##agic
##chen
##umen
##apia
enf
spam
##alli
quin
feel
prev
suppress
surveys
joints
challenging
entail
hydroph
##zzle
greenhouse
retriev
broiler
##baum
half
absol
##enchymal
georg
sorting
ceo
##going
lubric
scholars
israel
infarction
dyn
fc
gol
rut
##hd
##unk
metropol
wein
salic
urine
zhen
multiplex
melatonin
inher
dissol
teamwork
frontal
venture
##ycled
pedagogical
atmosphere
gonz
proceso
schmidt
abundance
escherichia
01
##hon
##eas
##vest
##qing
##onate
##stra
##eps
issn
methodologies
regret
machin
##erapan
overload
valued
terrain
silk
feedforward
pengguna
expanding
egyp
##ould
dissoci
several
##obacteria
campbell
##labeled
auction
mangan
sistema
##neg
##vs
##esion
##esting
##aris
antif
##acous
##empl
##plication
clut
adsor
unique
recycled
week
##edicine
newsp
##uez
photon
dimit
americans
polyethylene
1109
roads
mutations
vocal
tsun
pharmacology
giant
rocket
closure
mandibular
catalytic
pragmatics
rcnn
transducer
livestock
bry
cup
gum
ions
nl
nemat
psor
quran
send
##oi
##uer
##uro
##lar
##orm
##rocess
##umping
seiz
emily
elite
abortion
register
sof
consult
##rivast
prognostic
overcoming
buff
##inski
roots
swot
facts
analyze
catast
penis
pyrolysis
county
fisheries
flavon
##olithic
sphere
tobacco
stainless
colombia
aromatherapy
dow
fang
hit
lisa
ronald
tern
##sal
##52
##alo
##aru
##aten
##rotor
fort
##static
stom
##osomes
##ersen
##tingu
adip
##quency
contour
bee
graf
##estrial
managment
performing
distancing
branding
comparisons
##isson
norway
canal
airline
iris
summer
essays
motivations
##thetics
switched
pictures
aesthetic
overlapping
sebagai
nafld
aprend
allevi
acupuncture
entertainment
cue
dre
horn
pang
pyl
save
sae
##yang
##pat
##inging
##aton
##iltration
##atile
arb
peril
season
##encias
researchers
carib
tempor
reddy
deliver
format
associative
zhi
landsl
fluency
southeast
quantity
##rophot
grounding
password
stereotypes
##osterone
counselling
disadvantage
palliative
equivalence
lecture
bloom
##arrollo
donald
fasting
gent
hang
hollow
htt
ionic
pond
xl
##bee
##yah
##rine
##tization
##onial
##icill
##acl
rek
##ription
spark
supr
scand
leave
##enders
amount
meal
realism
##aired
##uka
bread
combat
steering
oli
ordering
converters
watson
pakist
hoff
kernels
tissues
pharmacokine
keper
constructiv
punishment
himal
fossil
metadata
vulgaris
mhealth
og
oph
ya
##loc
##rf
##71
##occo
##ably
##apa
##owing
aspir
unlabeled
shelf
empres
assim
performances
consomm
expertise
##raphy
correct
##ethane
critique
polyg
determinant
differentially
citations
muscles
neuropsych
##usaha
microfluidic
klein
couple
malignant
fingerprinting
irradiation
pursuit
enviro
willingness
49
born
nico
nested
pam
sys
yosh
##01
##1a
##iser
##road
##amoto
tough
##than
##uns
##imen
shaw
beijing
amel
robin
##rontal
functioning
miner
canon
pathogenesis
enhances
immed
##coma
lawrence
teleph
1983
##ittee
transmit
informasi
##holder
watch
observed
membranes
absorber
francisco
condens
lunar
floating
bureauc
locomotion
arima
##rivastava
bour
gd
hull
lati
lut
wool
yellow
##cas
##69
##gram
##asil
##igence
disamb
rectif
transpor
plur
asses
##anni
crust
##2018
journalism
geology
geoff
roof
##class
calib
taxi
faith
farmer
##rupt
glasses
choi
##rotein
rodrig
fragmentation
criticism
items
##ectively
bengio
fidelity
nanotubes
uterine
bent
bci
cai
ew
kil
lanc
tg
##eve
##fd
##ville
##onation
##rose
##elman
##etz
these
##oderma
##rition
chic
##ocyt
exha
alt
algin
dias
ardu
arrays
manus
begin
socialization
##onomi
predicts
supers
##onso
patel
radiology
engineers
slope
oliver
nutrients
germination
wright
bonds
chlorophyll
mango
predator
purposes
premature
alberto
cylind
asperg
representing
##rhea
ara
cort
kitch
lok
lcd
xen
##hat
##06
##08
##72
##onacci
##arity
##olet
theat
##strom
##ulative
##ulatory
##ratives
deal
##atite
##opo
##izable
spik
appr
perin
emg
emitter
grating
assistive
##ugu
weiss
evaluations
explore
transferable
potenti
polyphen
telesc
karen
biased
fractal
stimulus
june
mesenchymal
pneumatic
##rification
athlete
eyes
louis
##forestation
hunting
voluntary
metallic
helicopter
gregory
democratic
sebastian
staphylococcus
congenital
covariance
shrimp
aprendiz
astr
foll
hig
kub
maz
tight
tables
##yd
##fu
##tie
##igan
##imetry
##utsch
acne
pren
truck
networked
intermitt
contents
scores
plural
##tru
wealth
prejud
##anker
##arsh
canine
fermented
symmetry
painting
probing
molecules
instant
linkage
lesson
dyslex
debate
since
proximity
sugarc
anomalous
triggered
municipal
komunikasi
shrinkage
amorphous
dari
ik
jag
ld
lak
niv
tung
##bots
##eon
chak
deaf
orch
enroll
effort
shel
##verbal
agility
##oked
producing
bruce
gui
realtime
variety
##issance
##ichen
endors
endoth
upon
calculations
certification
ideology
disasters
analyse
expected
ventricular
mitigating
attraction
auxiliary
recombinant
unpaired
unconstrained
epigene
cucumber
aperture
arduino
42
bun
hog
lal
lte
nn
noc
naj
sund
sized
taste
ud
vortex
would
xie
##bp
##oic
##mium
##ll
##tp
##xia
##anian
##entes
##stream
stew
##imo
##udge
stretch
leone
mart
committee
##ahl
glove
monop
solv
implication
##other
airbn
philippe
catch
keu
maintain
sanitiz
receptors
splitting
mastering
ratings
simplified
dilemma
piezoelectric
council
egyptian
airbnb
bes
dag
foster
jim
lis
lad
lending
riv
vene
zi
##pes
##62
##icated
##iguation
##oglu
nex
meter
metform
arist
scop
##illi
hymen
machining
preprint
designed
idi
##tify
crise
spectrophot
supplier
penel
penerapan
belong
hetero
vitam
luo
rosen
pcb
hepatic
##ourced
criterion
##obacterium
breakdown
mnist
diagnostics
influencer
narcissism
##processing
basketball
entailment
keperawatan
cows
ej
rans
##05
##idor
##ried
##ucle
##plane
##apes
ade
unet
interd
##arya
biotechnology
assum
pointer
personalization
offset
magic
contraction
shortest
bounded
microscopic
crown
mindset
alternatives
texas
garbage
beamforming
missile
##rhiz
philosoph
acetyl
jackson
pavement
rebec
discipline
intermittent
sugarcane
360
99
aure
cep
danger
eh
gly
lett
##bd
##rit
##jin
conduction
replay
##abe
##imaging
##plasty
##opia
spar
spac
spending
##obacillus
##ibilities
hein
infected
moon
underground
##awat
geop
##ajo
grace
measured
fluids
siw
providers
gaps
cycling
essentials
dosage
prolif
immigration
biometrics
introducing
furnace
seawater
plaque
elephant
embodied
jesus
dissolved
gnn
jp
lud
lov
sas
ung
wai
##oen
##mat
##cel
##wi
##89
##array
##iga
##ogens
##thood
##ocy
##oven
exoskeleton
disrup
##obil
##entina
infl
prey
flower
nonc
experts
cruc
serge
##abilidad
investing
politic
colorization
anime
dependencies
strengthening
nigerian
##centric
hasan
mandarin
happy
nucleus
startup
microfinance
cbt
iranian
obstacles
manifolds
terrestrial
divergence
bodies
ammonium
meningkat
cao
ding
fav
gw
hess
iq
ou
vad
##flu
##83
##rost
##idirectional
##ames
##under
restr
aliment
##akter
##actors
peroxide
impulse
##anta
marsh
margar
elic
cortic
abb
##uber
econometric
##ographs
slav
hypox
keith
keeping
aerobic
conversations
uncertainties
passage
treating
revealed
prak
redundancy
ambiguity
arrangement
caffe
metformin
7th
bible
cis
dick
ful
jas
jason
litter
lactic
sell
xing
xix
##bow
##rish
##olip
##odal
##agin
cone
alarm
##akat
##rying
relief
synerg
drink
handwriting
ready
carbox
steve
urbanization
##ksi
added
inferring
##hiro
##u0004
manipulators
##ranial
annotated
coco
inverted
strains
insects
mobilenet
##aturated
projections
bovine
nelson
ratios
disambiguation
05
cem
hon
mail
tt
wit
##uity
##pot
##anas
ankle
##ulting
actin
basal
##ensin
bior
selecting
carn
carp
knn
internasional
crf
##edding
morb
barr
spatially
primer
icu
provider
prosocial
excell
##itzer
tensorflow
unders
cipher
clothes
##imbing
physicochemical
nicholas
preparedness
ammonia
hpv
festiv
microgrid
lumbar
bambo
stuart
osteoporosis
enrollment
penelitian
fec
fate
hour
lah
mech
mong
moll
nether
qr
tio2
wake
##bt
##lass
##cg
##alism
##enty
forg
chol
##umer
##opa
##vian
shan
strand
micron
smoke
##ribution
decou
underlying
solvent
lost
salv
affinity
##ethanol
##link
estud
golden
centrality
reflections
pso
ruth
earthquakes
sprinkler
situational
nmr
metamaterial
##zhou
cnc
dutch
elimination
plasmonic
adulthood
thoracic
absolute
perinatal
keuangan
abl
cys
haj
nish
##sel
##mu
##np
##vas
deutsch
##izz
##angi
dispar
##achi
##aches
altru
amp
##iani
carbo
##okes
##inda
memor
drilling
epistem
leads
turning
circle
legacy
hortic
pollut
meaningful
mosqu
coatings
##olytic
hormones
telecom
vaginal
adhesion
scratch
neighbour
spectrometry
commodity
rebecca
bots
cip
dans
fold
gf
ign
overs
punc
rus
raf
tors
yus
##dar
##inas
##elastic
##osexual
##ocent
##inea
unstructured
##echt
##ista
emo
indica
soy
##iki
##erner
protect
protected
brush
##bris
peels
percep
##boost
facing
novelty
##embangan
##ghz
standardization
capacitance
antibodies
antennas
ahp
plasmon
separable
crystals
symptom
murray
russell
mexican
##olytica
enrichment
guru
polysacchar
johannes
honeyp
september
caribbean
pakistani
proliferation
bamboo
64
aim
eis
kaj
lass
mason
xue
##eties
##my
##cp
##feng
##3c
##inet
##acia
##ulates
##idin
##ager
chess
tok
compacting
actual
alger
##alling
##timacy
agu
surrog
micror
optimize
discontin
##reatment
nanow
integer
gru
calidad
ups
##oides
polyc
angela
walter
navig
abscess
michelle
websites
coordinate
puberty
repeated
laparoscopic
kualitas
##ofemoral
penggunaan
5th
eur
eight
kri
mist
nations
##iances
##oin
##enets
##enstein
##oran
##icin
##ecraft
##strak
##osus
##ospor
chair
##atika
trast
##phere
studi
interconn
impression
##entin
quaran
simil
nonverbal
supercap
##away
psychometric
characterisation
delhi
auditor
temperatures
polyur
helping
paint
tradeoff
demands
wrong
annotations
##yrene
broadcast
divid
melanoma
pesticide
bruno
immersive
turbulence
repository
psoriasis
meningkatkan
43
dod
dock
hern
kp
lys
sacchar
tier
##bul
##rass
##psych
##gets
##erge
##ogel
##osecond
chron
##apan
##ovis
trick
distingu
adams
efflu
amid
##arians
obtain
roberts
skeletal
varieties
patell
##ankar
##aira
audience
worldwide
silic
mycor
magne
hemorrh
##anglement
partition
payments
alternating
tanah
restriction
fluorescent
further
letters
perturbation
soluble
##parametric
prefrontal
friendship
disentangled
html
appropriate
accommodation
quarterly
enferm
averaging
jie
mack
tone
u00
##mia
##local
##feld
##vd
##vasive
##etah
##etching
##aculture
##atial
##uto
##api
syst
phases
atrous
leverage
select
meet
regime
blank
flour
default
##evolution
camb
##rows
##auer
##auge
steady
circum
maxillary
latest
keb
syndrom
kinematics
magnitude
1979
acquisitions
##otid
chatbots
forensics
santos
controllers
aplikasi
cobalt
##oblastoma
decrease
##kolah
asymptotic
episodic
together
plagiar
britain
microstrip
manganese
alginate
prejudice
03
75
giv
gulf
hide
nail
penc
rak
##eets
##fect
##icle
##atz
##atosis
revision
##reen
##atia
disab
admission
asr
mario
moore
robinson
discover
grids
##clr
word2vec
panor
aggressive
molecule
recording
akunt
odont
scholarly
miscon
masked
shipping
ethnicity
traveling
mrna
amplification
amplitude
##eholders
cadmium
aesthetics
watershed
cassava
craig
kitchen
02
iz
oy
vor
xvideos
##n1
##pear
##74
##tiles
##oman
retic
##itha
enough
arithm
contro
desk
researches
humor
humidity
brach
insulation
notification
assessments
slag
typology
fibonacci
operative
grades
settl
frequent
homeless
normalized
ego
required
narratives
##rawal
rosa
countermeas
rewards
##odontics
embryonic
stakeholders
isotope
##networks
practitioners
canonical
aspergillus
patellofemoral
euler
gp
ginger
hell
mate
nt
pus
pore
pension
pwm
tect
##holic
##bir
##aug
##mus
offer
##ecd
deha
debris
ence
##acher
alone
##ipe
seal
beat
##anny
incident
subgraph
guy
##oxacin
geographical
defenses
grant
ethere
##pected
thermodynamics
vera
induces
##bias
copd
platelet
procras
preparing
original
##osaic
##hydro
prioritization
retailing
juice
mimic
##omorphism
phenomena
traceability
aplic
judgment
assimilation
immediate
jain
kra
tari
##hil
##bus
##rr
##pace
##wall
##atter
##ately
##enta
stars
revised
##ucks
orbit
##izacion
##ensory
##ellulose
##violet
parag
parabolic
##ermann
##blog
abu
##neider
howard
##azi
drum
globally
thermodynamic
##factory
pedro
minimizing
saturation
aligned
provide
fertilization
1002
pairwise
quadrotor
alkali
suicidal
critically
citizen
physician
dasar
divergent
polynom
lignin
sweden
dressing
##oglobin
microservices
microorganisms
done
sind
tennis
##base
##ders
##cery
##rates
##far
##kumar
##orf
##edo
##economics
##omod
sta
##ocin
##imoto
adren
##ipation
##ellation
rech
##romy
paris
##haus
desarrollo
surfact
##ront
markus
processed
##ieties
roh
slab
swimming
taxation
extensive
illusion
funding
specificity
phenolic
migrant
ultraviolet
tensile
mahm
columns
bengal
linda
nanofib
almost
angiot
attendance
discrep
ethereum
06
dac
zimb
##oter
##cz
##gas
##wana
##eres
##arum
##encephal
divide
phishing
shim
recession
mann
evapor
trab
commission
microm
weber
educators
motif
grocery
mats
cracking
##2016
limitation
needle
bioactive
panels
lipolytica
rotating
footprint
socioeconomic
because
restaurants
figure
caregivers
village
substitution
alkaline
transcriptome
voxel
##acoustic
quarantine
angiotensin
98
afl
kob
ost
tsu
##bits
##ghan
##inge
##atar
##edes
##elin
##activation
##ilis
##ulti
##umental
##imer
asi
diri
perc
datac
deterior
feeling
##ahertz
productive
monot
cru
guang
realization
twist
slip
sludge
mapp
pathological
dirich
negl
mcm
stocks
1981
million
snake
violent
regulating
providing
1975
dengue
junior
moderate
chamber
alfred
archaeology
bronch
scientists
patricia
cec
eut
gos
gyn
holl
jal
kent
kelly
l1
nancy
pile
rend
wrist
##mir
##ych
##ertion
##olum
##ches
chung
comorb
##unting
exempl
compiler
pran
advis
alum
##phase
amyg
matem
guest
solanum
industri
##marks
postoperative
fibrill
1111
##spec
ageing
manufactur
continuum
roadmap
##berger
periodon
##market
buddh
initiation
dopamine
nasoph
##yclic
stir
stefano
vibr
filled
##islav
lecun
yarrow
teknologi
acquired
rhetoric
tsunami
perilaku
aprendizaje
plagiarism
250
aki
bending
giving
hw
mf
rick
tilt
##hop
##ostr
##don
##atoid
proposition
##atid
##udy
exclusion
prest
disney
sekolah
emph
teens
beef
elena
pool
##ports
optimum
archive
archives
##urrency
endocrine
twenty
practic
swine
employing
occl
hybridization
tourists
implemented
copy
copyr
advancement
keyph
compositionality
hui
maximizing
listed
parkinson
tablets
savings
residents
midw
coalition
embryo
##ayanan
phillips
washington
eigenvalu
schwartz
terrorism
http
mosquito
trastorn
supercapac
ces
dang
grip
lp
netw
pir
rw
till
u0000
##hart
##uar
##lock
##peng
##estine
##used
trat
diat
##actory
cola
##system
protecting
##raphic
##taut
vaccines
triplet
investments
bandit
accelerometer
##ucker
porter
fertilizers
wildlife
transactional
arthur
ekonomi
ibm
shuff
extremely
bibliometric
outsourcing
yolov3
refugee
antifung
olivier
theatre
prenatal
dyslexia
netherlands
polynomials
dirichlet
yarrowia
bob
hak
otitis
turing
##hel
##enic
thing
##acon
##oglyc
##rees
##adores
una
metap
poland
surf
socialism
methodological
##stract
eccentric
##ioid
known
nonparametric
secur
evaluative
variant
improvements
##ochrom
berry
kinematic
weakness
holly
doping
activism
ancest
geriatric
aquaculture
congress
opinions
tetra
attrac
crystalline
tingkat
disinfection
excessive
belonging
aureus
emoji
polyurethane
bs
dp
func
mum
ves
vern
xyl
##bone
##ounc
##dam
##nic
##tes
##tid
thread
##rage
proactive
##abel
adrian
multiob
surge
socially
nonneg
locus
strategi
malay
##uktur
morgan
morocco
##inalis
hypergraph
ocr
supplements
corporation
females
lingk
taxes
##modern
tomas
aerosp
inhal
passing
simulating
sexuality
org10
stereotype
francesco
murphy
preterm
cryptoc
exploitation
rogers
harvest
pearson
drainage
vincent
pulsed
anatomical
salicylic
geoffrey
given
arithmetic
41
cau
dung
fon
hag
ipo
pell
qian
xa
##bent
##dan
##cam
##kas
##ocyan
##andon
##ateur
disk
alice
##obot
##vies
interacting
atp
leis
##ernet
optimizer
crises
member
diges
digestion
##ankton
ethic
sla
##heets
hyperparam
myan
harass
homogeneous
wellness
hemis
phenol
procedural
invariance
subjected
granular
haze
reveal
ekstrak
promoter
simplification
husk
solubility
wisdom
compatibility
fluctu
prescribed
##yarakat
##usahaan
978
jump
leng
ping
##bm
##uana
##etics
##lav
##vae
##63
##jas
##85
##87
##tious
##orous
thir
##agne
chrys
##ewise
shak
sheng
shakes
arriv
coch
##athering
##yne
##ished
previous
##afe
outage
defence
##bras
##ausal
##ukin
familiar
olfactory
statistic
pengetah
compliant
confirm
statements
loads
polymeric
microscope
watching
conductive
hasil
instructions
radius
shipbuilding
seeing
macroeconomic
tutoring
elasticity
rabbit
become
getting
hedge
horizon
mercury
bioge
histograms
etiology
persuasion
1007s
rhythm
catastrophic
fibrillation
4d
47
brom
bao
dum
ferm
hours
lans
roc
sarc
srin
tld
wav
##mes
##rac
##jiang
##inn
##icular
##roach
##iliation
sto
dealing
##atization
perez
##iba
beau
graham
bypass
abor
schneider
##alez
electrosp
knowing
##ylation
overf
##floxacin
endoscopic
files
delays
##ophobia
universe
papaya
terahertz
continental
precurs
capitalism
passenger
farms
federic
strengths
##resolution
experiential
involving
##plastics
lucas
enzymatic
granul
tracker
lactobacillus
muscular
regener
escape
coordinated
jeremy
##ophysical
enriched
microfluidics
agroforest
ncov
fernando
capturing
##integration
squeeze
mishra
pylori
nexus
restruct
caffeine
carbohyd
nonnegative
pengetahuan
500
cigar
dap
haptic
koch
pms
tann
zhe
##itin
##body
##tm
##tec
##eron
##idental
choms
##abstract
##atik
multim
parasi
else
append
selenium
##ypes
locations
segregation
serot
##zzi
popul
constructions
futures
belg
##ogeny
homo
paed
said
petri
masyarakat
##steine
consideration
catheter
becoming
coordinates
phillip
adhesive
grief
horse
##rosophila
estrateg
vinegar
masculin
biochar
##eastern
minerals
copyright
cube
drosophila
foli
got
hough
kum
pab
##xin
##jit
anesthesia
another
thym
##ears
##usal
entr
encl
perl
transit
manure
atrophy
coag
plc
plans
elabor
elmo
corne
schl
fei
semiotic
gland
retard
patri
oxyt
##alypt
lands
backsc
ester
stores
rena
##u0006
menop
simulink
migrants
abdullah
roberta
uavs
priority
giov
multichann
subset
bhatt
categorical
oscillation
controllability
letter
vagina
##algia
metastatic
##arajan
##olecular
nanocomposites
telecommunication
##ophagy
antiviral
exhibition
percentage
##icillin
rodriguez
procrastination
multichannel
dsm
haf
jaw
ln
utaut
yos
yad
##uv
##eep
##lers
##vm
##65
##wear
##1b
##alin
##icul
##idia
##real
chir
##uci
##otti
##otec
##ineering
##eptive
unex
generators
obese
preprocessing
engines
undergoing
protest
influential
insectic
##2017
tweets
lift
##generation
helps
migraine
army
choose
paced
##plasm
coca
pseudomonas
diagrams
popularity
judgments
establishment
ventil
vertex
deposits
currency
hvac
akuntansi
leisure
harassment
chomsky
08
cock
drones
father
ibu
kre
nk
pull
ry
sour
tir
urea
vesti
##uasan
##rasi
##gage
##icas
annal
prok
##umatic
##angu
spor
adm
alam
april
seam
abc
guer
estimator
locality
greedy
herz
autoimm
ordered
transmitter
##otypic
dissolution
hypertensive
christine
principals
wallace
metabolites
##urgery
glycos
implantation
dyes
wolfgang
pearl
conservative
fernandez
rectang
interfacial
pyrrol
##frame
gonzalez
newspaper
landslide
pharmacokinetics
spiking
multiobjective
arous
hf
hugh
hof
kash
lived
mint
nord
##hous
##oag
##92
##onium
then
##omen
##emination
confer
deploy
##open
##owitz
spelling
##ober
dij
interdisciplinary
##ournal
plot
multist
##ugging
flip
boys
schooling
malt
##echanical
airplane
transforms
repell
##fficient
perioperative
fishes
dcdc
piper
haem
cyclone
##structing
motives
historia
falls
rgbd
bibl
dominant
grassland
references
facilitating
tendon
iodine
trivia
stewart
attractiveness
myanmar
802
ahead
cg
dft
fool
fasc
hann
jensen
kha
liz
rdf
tale
wars
##hong
##bon
##bic
##xi
##04
##jian
##inate
##anu
##atology
##isha
##ische
##elia
##aser
##asure
##ulis
##agonal
proven
envelop
2021
##ologists
arsen
##ancies
##avan
##estration
bike
aber
weed
mono
##ungs
##cler
postmodern
carbide
##archy
causing
intrigu
storm
##venous
inhibitory
names
radioactive
borne
contribute
hazards
spiral
nanocryst
pedagog
diameter
picking
algebraic
disturbances
crystallization
laparotomy
##titleabstract
disruption
##oquine
hepatoc
sobre
programmable
rachel
endothelial
mappings
nasopharyngeal
44
doll
gust
hou
hci
ist
kaf
mism
psy
tas
##sson
##mos
##nar
##lenet
intimate
##ilin
##ulu
##odia
##ogan
enable
##formance
diana
sek
intu
genomics
imputation
beer
eva
isbn
whist
##pture
poisson
##essional
edmod
join
geomet
adversarially
engineered
##itively
posts
pathogen
created
combine
motions
paolo
portra
neuroimaging
turbines
proposals
mosfet
neutron
epidemiological
nicolas
vlog
vlsi
pancreas
initialization
diagnosing
matched
florida
ligament
establishing
roughness
frozen
kadar
eucalypt
prophyl
destruction
fifth
enforcement
ferroelectric
disabled
edmodo
bj
bhar
hmm
lai
oly
stit
sectors
tf
ton
wmt
zeng
##cov
##tible
theology
stations
##rips
##rique
depres
##ocon
##uded
shame
##asses
analogy
##ayo
multidisciplinary
abiotic
attending
newly
##ungen
##oxin
endurance
##torch
ulrich
conditioned
circulation
magazine
forecasts
nitro
colleges
miguel
roberto
conductor
psik
rocks
chromosome
queue
podcast
preventive
furniture
alkaloids
victims
transgender
rheumatoid
keyphrase
aerospace
shakespear
tldr
52
duct
dash
eks
fant
fuk
gha
kop
sie
sift
vign
yue
##3n
##tan
##erk
##ald
anhyd
##edness
onion
##essler
tobias
##adas
##iones
modulated
suff
##ewski
interplay
scrum
scorec
stres
##alline
elm
societies
##iller
corner
schult
moz
diffraction
humanities
superp
##ehe
respect
##flix
##iedad
testosterone
pandemia
nutr
accounts
ramesh
plastics
bridges
gius
fluoride
ifrs
kepuasan
claims
kelu
vlad
physicians
##otoxic
imbalance
officinalis
pupils
disinfect
##zyk
gabriel
arnold
similarities
docker
restructuring
04
09
53
ae
folding
hiding
lda
ltd
mike
noma
nause
sage
sne
ties
vqa
zig
##hole
##h2o
##human
##4a
##wh
##inin
##atos
##odial
##ococ
##imus
##overs
modulus
##eppe
diseng
clas
adalah
alve
aloe
efforts
##akov
metah
metagen
##ourism
leo
opioid
infinite
amit
##ognitive
##sex
prep
electrolysis
##annon
##eek
edit
##sung
##ughter
overall
##ometh
profess
greater
morris
encaps
##ascript
adding
##shot
bandura
nationalism
##entification
attributed
achieve
pollen
1976
1978
stylistic
chromium
judith
iteration
gains
avian
nicola
organisations
boosted
straight
stanford
metastasis
gyros
zakhar
veterinary
paraphrase
tibetan
survivors
coleoptera
mammalian
altruism
zimbab
datacenter
antifungal
intriguing
hepatocellular
nausea
020
bf
craft
gangl
iclr
nah
pink
serg
##rint
##jie
##ww
##itous
##educ
##emediation
chond
##ocar
##abo
##ovich
nep
exogenous
resting
perk
scans
##anco
multibox
martine
ish
semeval
##iks
sms
##oka
flora
finn
retrof
solids
##agner
barley
ultimate
helen
biomim
homosexual
##u0003
passion
ghost
achiev
dissection
talking
1972
closer
argentina
rumah
rumination
dentin
nikola
substances
catalog
frederic
transistors
polyprop
attenuation
eugene
membership
toughness
digestive
scorecard
6th
mpc
srivastava
tad
ui
##ais
##run
##var
##81
##ulia
##rien
##uts
tryp
uniqu
##quin
scada
##ouri
atari
elast
##ieh
proton
dox
redes
afghan
formed
collections
allium
poster
pathophys
photod
offs
offenders
##onica
##ativo
##ativa
harry
dried
reconc
taxonomic
netflix
##model
hotsp
melting
##arcin
capacitive
informative
phenyl
1974
##ariah
harmful
anthropogenic
levy
compressing
locked
congru
communicating
somatic
roller
edwards
license
seaweed
krishna
teknik
electrocardi
aaai
lambda
orbital
aristot
perceptron
countermeasures
51
67
96
aver
ather
cyp
jab
lm
lope
uc
##b2
##lich
##yam
##vy
##pts
##wu
##inated
##itar
##atas
##olysis
construal
##ocl
##otation
excl
##anges
trem
perusahaan
marij
##idea
##arez
medie
surpr
##engineering
##ondo
##2015
1038
usefulness
epist
volcan
correcting
hydrolysis
barc
backward
pytorch
##osphere
goodf
electrodes
bounding
routine
directly
regulates
exposed
##iropr
presented
joshua
authenticity
cytometry
levine
##tikel
mnem
cbd
prolong
lorenz
apparatus
synthesizing
sulph
suggestion
speakers
piecewise
machinery
telephone
surrogate
corneal
##clerosis
metaheur
59
bile
ftir
h2
hod
hud
krist
oecd
rasp
sanc
sidd
tid
tesis
vann
##avi
##etion
##ever
##zel
##fusion
##kinson
insu
stegan
##ague
##usan
##igo
##thi
##andi
uso
genital
induce
ever
methanol
blade
##ikh
graphite
noncon
prototyping
subc
##atism
antidep
noam
signalling
typical
worth
myers
additives
intrusive
versatile
##hypert
waq
omega
toxicology
intravenous
lymphoma
expectancy
stronger
households
inertia
drosten
steiner
triangle
javascript
biomechanics
constitutional
comportement
eucalyptus
keluarga
medieval
07
54
curing
eri
gong
mk
mold
oak
sint
sink
tic
tand
uh
vow
##iec
##hou
##dle
##mans
##lc
##pol
##text
##onit
##orption
##ede
##eder
##uru
##activ
retina
##adh
##udin
neol
competing
dispos
shale
armed
scanner
heg
##avir
above
sociales
robb
caring
knot
##oko
qualities
accent
discount
insecurity
insertion
##azo
buch
powerful
ethyl
##ostasis
backbone
immobil
probiotic
manufacture
broken
accelerators
hemp
sieg
bilinear
cui
removing
##itized
aggregated
baseball
initiatives
##otide
zebra
prince
analysing
updates
july
halluc
gallium
connectionist
todd
dominance
wetlands
museums
stanislav
displays
imperfect
details
konsep
synthesized
folk
sesame
pectin
disentangling
candidate
typhoid
##acetam
diplom
chicago
amygd
goodfellow
ff
fas
gith
iw
luk
nud
ott
prab
ride
rome
sizing
vil
wagner
zer
##iu
##hold
##tiers
##enh
anand
##ecycle
##uria
those
##ulous
##oge
##oco
##abl
##imes
basics
ars
perfor
even
##rolog
methylene
##blast
schul
surround
meyer
autophagy
flame
glauc
##iques
frust
bringing
guard
dof
joel
solomon
digitalization
labelling
encour
virtualization
polyph
complet
sentinel
chemicals
immunotherapy
cardiomy
jama
tubes
1973
davies
garment
aster
bulle
efect
klaus
teenage
substrates
configur
merging
town
lupus
transporter
sriniv
lopez
cation
dors
null
rp
sif
tack
wah
wrap
##hir
##bour
##fre
##glyc
##analy
##arcoma
##aci
stones
##ameth
chandra
chiropr
token
##aden
##oten
##iak
##ande
##anga
spent
climbing
contag
transnational
places
beg
elections
infan
infusion
polish
amr
autop
##ocket
microblog
guill
labview
internationalization
norman
centrif
##abilitas
computerized
photometric
mathematic
##fficiency
##spe
bankrupt
##modular
warping
propulsion
failures
dialysis
wafer
costing
alexnet
harmony
closing
residue
landscapes
julie
claim
receiving
bowel
merger
mounted
prescription
parasit
##legal
detailed
dehydrogen
efektivitas
tilapia
nanomaterials
rectifier
fluctuations
lansia
arousal
bulletin
62
bc
df
diaz
huk
xg
zou
##ship
##fire
##pre
##power
##61
##tory
##western
##rocal
##etri
##uling
##ampus
toy
##thus
##apping
##apatite
resistive
alp
##former
##ainment
contacts
##ibil
paral
##ryn
##aceous
franz
finland
cyst
identities
overd
##flower
outp
geological
nanor
males
collins
turner
curiosity
grouping
probiotics
##regulation
peters
##u0005
##u0007
mutant
legi
regulator
masking
exchanger
acoustics
participants
resonators
##0002
##olingual
justin
neutrosoph
spreading
##amento
checklist
algebras
bleeding
rahman
neuropathy
phonological
parasite
lectures
mitochondria
deposit
ioann
friedman
elevated
unsaturated
beetles
ernest
metacognition
ticket
nanocomposite
gingival
necessary
biodegradable
retrieved
inheritance
##ovisual
vestib
olymp
diplomacy
github
neutrosophic
catherine
epr
jh
kav
nb
uji
wsn
zamb
##iod
##vili
##orov
##olite
##ilic
##ulmonary
##leen
deple
##ader
compost
trin
##pha
##alla
plates
##iberal
byzan
##vert
biob
##block
selectivity
optimism
##ubation
subsequ
##rime
filtration
##ophen
##ophage
affair
autistic
##comb
held
converting
separate
rhod
muj
excav
approximations
starting
lactose
lagrang
cathode
dispersal
durability
pancreatitis
immigrants
influenced
tower
griff
thermoelectric
##jarah
extracellular
tatto
exhaust
telescope
spectrophotometric
honeypot
obtained
discrepancy
agroforestry
antidepress
bind
dab
days
duck
pour
sided
yous
yann
##hara
##benz
##zone
##techn
##tide
##inis
##ectin
##elium
##standing
##raham
##usual
##americ
##otrans
neumann
adel
seat
##uster
cough
##encer
marina
paru
biochemistry
##roscopic
smell
distal
extrusion
subg
101
bush
redox
##insky
pathogens
##heet
photonics
determined
official
silico
hydrodynam
belie
portal
electroencephal
standardized
liquids
miy
maintaining
ghosh
##traumatic
taboo
polarized
updated
cohesion
donor
acetate
droplet
multiplication
peptides
deeplab
##stantin
##professional
ubiquitous
consommateur
assesment
epigenetic
margaret
dividend
##oluminescence
oxytocin
57
88
cac
h1
hari
kip
lakes
rm
rug
yet
##hub
##sd
##sol
##oints
##mund
##fan
##2se
##onas
##onian
##enk
##acies
##emaking
##idio
reper
rever
chocol
##ucci
##uttering
truss
##ifiers
unse
unusual
arun
abroad
agua
##ishi
semiotics
carto
##ronics
marking
conven
organized
##ierung
temporary
histology
equine
notch
barry
employability
prime
wastes
femoral
walks
experienced
1970
merch
motivasi
##ograms
luca
##anthus
mangro
methylation
hipert
venous
cinnam
mobilization
felix
dhaka
sociolingu
transcriptional
fusing
lemon
intelig
launch
request
sewage
terminology
superconducting
vitamins
interdepend
spacecraft
festival
elsevier
giuseppe
neoliberal
72
crab
dich
fuc
ficus
kend
lion
mav
pant
rn
tz
wien
yah
##lett
##fin
##fen
##v2
##tok
##jab
##onucle
##org
##estin
##itable
##itax
##olu
##olis
##aming
chyl
deforestation
##optic
claus
suk
sociological
carrying
convection
persian
synaptic
##yler
guan
##posing
door
plank
##brush
salary
collector
advent
canopy
crossing
logs
graduates
verbs
doctors
viewpoint
penins
battle
##look
responsiveness
announc
medicines
keyboard
aerodynamic
trustworth
linkages
hua
tumour
northeast
maximal
ideation
squamous
omni
receptive
antagon
multicenter
pixels
pemer
wuhan
##rafting
##works
vietnamese
permit
refractory
routledge
hypersonic
flying
sapi
absorb
tibial
##oplastic
anticoag
oleifera
fused
sudan
alej
gyro
coded
contaminated
gymn
anonymous
editorial
hippocampus
riemannian
gdpr
disparity
mycorrhiz
controvers
dehazing
overfitting
foliar
mismatch
whistle
disengagement
martinez
bai
fam
fight
hij
mh
qiang
rings
tie
##iph
##sil
##beck
##journal
##ws
##igs
reza
##opal
distinc
asp
##obium
##acted
multif
evoked
developer
blend
##ahn
processors
##uba
factual
sky
solver
patter
geodes
loud
twins
##ographics
barg
##tebr
freud
implementations
ics
genetically
faults
portugal
continuity
peterson
advertisements
classify
transitional
sunflower
ships
paired
quadrup
powers
boarding
everything
##falls
phonology
fusarium
facilitate
deeply
apparel
outside
billion
streptococcus
diarrhea
ninete
virginia
bundle
shanghai
ingredients
metropolitan
hypoxia
rectangular
zimbabwe
bore
eat
ehr
mia
ning
ritual
sach
wo
zam
##hak
##nad
##yuan
##cu
##v3
##wash
##84
##alc
##alent
##enne
##aring
##arus
##icide
##rox
##eca
##elon
##acs
##olor
ford
##idone
##amura
##ocardi
trump
cloning
asean
##elled
unity
interoper
recurrence
arid
percutaneous
marital
indo
elli
evasion
hyster
appliance
humic
##ietic
nonin
matt
imagination
cran
planetary
##aza
pean
delph
collapse
lifecycle
typing
barn
##aeus
fibres
illegal
penn
cryop
##ospatial
##computer
complication
needed
telework
extent
homology
##article
satur
minds
seedlings
##reduce
sanch
christensen
microbiological
aziz
antioxidants
subsid
bottle
asymmetry
immigrant
victoria
shifts
##pheres
teenager
kasus
persuasive
polymorphism
metasurface
ddos
bureaucracy
disruptive
morbidity
lingkungan
arrival
serotonin
triviaqa
steganography
cun
dq
dai
gin
gior
hut
holding
jong
kear
oman
vom
vend
##mill
##zyn
##fel
##vr
##tip
##esian
##asic
##asone
theod
##stand
stern
reyn
##essing
##ocele
##abad
##imir
ory
spons
unter
suite
struktur
muller
platin
evid
mej
autobi
##titution
december
##ropping
organiz
nonlocal
securing
##outs
editors
viability
microalg
geom
endogenous
saline
histological
##eyer
airlines
logging
irish
hydrothermal
lima
circulating
massively
##ussion
install
hemoglobin
predicted
rotary
crimin
##ettes
walls
conceptualization
polymerization
therapies
residues
michal
julian
christianity
echin
refractive
##opathological
instrumentation
leaky
multiplier
conjunction
mikro
putting
disparities
bugs
disrupt
nodule
curcuma
electrolyte
jewish
weapon
settlement
parasitic
renaissance
alveolar
polypropylene
300
77
dah
gg
gerald
hacking
lst
mens
mosaic
nh
nf
nathan
pis
sort
vgg
##hand
##bury
##oting
##das
##dman
##more
##lot
##js
##elor
##omed
foreg
stam
##image
php
interests
shannon
scent
marta
pareto
##aved
desert
classic
quoti
appe
reviewed
poem
organisms
algorit
##eeism
brack
segmenting
formulations
corridor
etching
remediation
canvas
##aea
transferring
##rowing
terence
entom
freezing
inductor
molar
copolymer
pengembangan
icp
homework
warfare
trusted
hardness
modernism
certif
##points
##ampal
michele
julia
manga
pigs
nucleic
deficits
catalysts
yogurt
vibrations
vidio
heuristics
espec
ligand
specifications
ordinary
introductory
isotopic
helicobacter
gigi
veterans
tahun
soviet
hydrochloride
struggle
aaron
contingency
hydrocarbons
xavier
hyperparameter
masculinity
##arcinoma
atheros
ati
dok
huss
kary
mash
pbl
rivers
tig
won
yuk
youn
##iq
##high
##hist
##sing
##self
##tively
ank
##istik
##aced
##stock
reid
reactivity
chel
comic
##iong
##udh
acts
disag
disposition
clients
##ologous
ascor
subl
sejarah
covariate
grape
medial
##luor
engaging
##into
humanitarian
secretion
##azar
##aji
delin
noun
identified
advoc
posttraumatic
##heit
academics
sustained
##ativeness
femt
richness
aerodynamics
petr
vanet
bilayer
propagating
misinformation
antarc
rui
galax
rubin
##school
cytok
formaldehyde
hydroxide
##panic
cannabin
figures
thoughts
extremity
myths
restrictions
##ophilic
resolving
hilbert
horses
biomechanical
partnerships
oriental
recreation
mysql
penalty
ablation
##ocentric
algeria
giovanni
bankruptcy
nineteenth
1st
95
b2b
ges
ia
kek
nj
pocket
sizes
tear
tort
tae
verm
zip
##iya
##hans
##kw
##onet
##rofloxacin
thematic
##teri
##oses
##abra
##adan
##otta
##opulmonary
##ysm
adler
##ensitive
unr
studio
##quer
emma
bever
##avail
##orse
consor
matte
##olean
bran
servant
allan
pathogenic
##scs
offender
landmarks
indexes
willis
bioethanol
##ecker
##u000b
mutagen
predictability
laborator
propaganda
##fei
restorations
motivating
mahasis
##ampuan
cryptographic
##oea
pember
civilization
1960
marcus
spirit
magneto
fragment
lycop
fabrics
saharan
##ografi
turbulent
sativa
millennials
alessandro
cylindrical
sanitizer
punct
backscatter
autoimmune
##ripsi
superpix
byzantine
sanchez
dra
gsm
hers
here
mund
qin
##zio
##lay
##gio
##jing
##wat
##wah
##wich
##qiang
anova
##itational
anders
##etanol
theme
##actin
##ilo
##iden
##osc
proxy
chong
##pless
##iona
##andom
##yse
##eper
apt
interact
##rice
##ivore
parks
reluct
agr
booth
##tisol
monolingual
malnut
artifact
globalisation
repaira
##ascul
silvia
fauci
refined
propeller
##ghum
compositions
tune
##ristor
antenatal
rosem
gastr
xxnx
instrumental
absent
ravi
publishers
cytokine
oscar
bangladeshi
situations
trainable
lossy
thresholding
territor
reversal
retirement
dispute
nanosheets
kemampuan
photosynthesis
authorship
prosthetic
months
jenis
becker
hydropower
audiovisual
reserve
expatriates
guarantees
excellence
horticulture
aristotle
zebrafish
hukum
lagrangian
cryopres
buc
bok
beth
bival
hav
hick
jitter
keral
kauf
mond
mao
nips
rag
sip
vida
vyg
##hot
##bird
##dad
##aution
##lod
##casting
##f1
##vascular
##onen
##erin
##arks
inoc
instruct
##roch
##stw
##ulina
##osin
dew
##oca
syariah
##phosph
diego
shut
shao
ard
coach
##encion
evac
febr
boolean
##eev
##neural
##ype
##plex
##onsist
physico
endodontic
salam
antidi
##ereus
##marine
url
switzer
erd
##u001
benign
particular
pandemics
mck
##ospheric
wells
melt
melissa
immunos
hemodial
rotational
cosine
origami
modalities
harmon
runtime
sorghum
neutroph
avoiding
colonization
pediatrics
candida
matthias
distraction
mentoring
stanley
recipients
reciprocal
shocks
argumentation
combinations
hunter
elevation
immersion
glioma
manifestations
comunic
contraception
illustration
sergey
bioremediation
cystic
neighbourhood
botswana
provenance
zakharenko
pathophysiology
chiropractic
depletion
chocolate
platinum
019
bish
bere
cron
dob
dell
dere
fading
hob
km
kg
kov
kyle
kota
nis
nest
rct
siv
tips
vig
zu
##aque
##meric
##41
##zt
##gia
##gate
##07
##jet
##82
##onite
##anil
##aras
##eccion
##stad
##idou
strom
##cea
##user
##ushi
revi
ong
##unov
##ffy
##imia
##ither
##apple
##tingham
modulator
alonso
effectively
##ifolia
unw
diane
artistic
peran
sean
##istribution
##estone
managed
ages
mons
microgl
extrinsic
submodular
skew
skripsi
##2012
temple
cysteine
loess
gambling
allergy
etch
samsung
mapreduce
handover
generalizing
valer
guiding
##critical
molasses
hero
corporations
culturally
berlin
##ija
denis
siri
intentional
degrees
forestry
fabio
goldberg
seedling
ultrason
excel
aztec
vulnerable
galvan
deaths
##rickson
takah
tamar
perfusion
meshes
kelas
patches
bearings
extensions
negotiating
suitable
partners
nanoscale
kennedy
ridge
retinex
garden
clarke
reflectance
sibling
deepfake
keypoints
endometrial
ternary
matematika
pablo
yadav
femtosecond
mahasiswa
repairable
120
61
8th
fet
gases
hib
hug
leth
sau
sark
sio2
wak
werner
xanth
##sin
##mers
##nick
##yard
##rm
##km
##pec
##joy
##iner
##environ
##ilinear
statin
##child
oracle
##izen
##ysh
acta
asc
##elles
shoo
##gev
##asse
scav
transpos
mull
##acks
##oufl
abandon
##sein
##tini
crfs
automating
retro
representative
geos
geothermal
semantically
##ochrome
centred
##ukan
inducing
##iji
requires
##liament
kinect
##ayaan
raymond
proteome
contributing
civic
companion
sedent
1967
compressor
ipv
arthrop
spreads
makeup
cleaner
##ynthetic
permission
borderline
volunteer
gilbert
celeb
hunger
cylinder
redundant
swedish
seminar
compatible
interleukin
sf6
alexandre
keypoint
enviroment
lancet
epistemology
periodontitis
tratamiento
marijuana
amygdala
kerala
85
benth
dad
fow
fah
ked
lv
mainst
omar
pah
rer
roch
zen
##bab
##aan
##rite
##ertian
##orum
inm
##icio
anil
##itone
##entation
##amal
chop
champ
##umps
##ocular
##utz
##adap
##oprotein
spond
ald
aligning
altered
##ifan
##vio
##vik
##ourt
emil
emoc
##encl
##aryotic
pole
carr
cartil
##oki
supermarket
overweight
puzzle
collected
speckle
efficientnet
hydration
swe
novo
nottingham
entre
silicate
doctr
advancing
ansiedad
bioavail
##omycin
fishing
bandits
snp
lipids
masa
centralized
textil
tsing
debugging
##nss
moments
kaplan
paste
ingg
frontiers
wavelets
cristina
phylogeny
cavitation
roland
spoil
phenomenological
imperial
cowpea
ordinal
volumes
buckling
hematopo
zakat
lottery
neighbors
anonymity
quaternion
pradesh
travelling
dimitri
beginning
pollutants
hernia
nanofibers
buddhism
achievements
outpatient
mycorrhizal
bars
docking
fost
lora
niel
rit
royal
vap
verg
##hin
##sar
##bat
##dec
##94
##zak
##rn
##rets
##pak
##300
aneur
##elos
thorn
##idade
ones
chord
##imal
##otr
spi
alien
##iflor
##tiva
cores
desi
again
columb
mof
gloss
prototyp
microplastic
subtr
submission
108
10th
outlook
localisation
formul
alliance
slum
##ometers
remed
laplace
handle
worm
silence
estrogen
complain
shortage
bioplastic
frequencies
microspheres
provided
pilates
fractions
pemas
possibilities
pigment
chickpea
hiper
toothbrush
##phenyl
palladium
lept
whatsapp
dolph
contaminants
retinopathy
currents
hippocampal
claudio
conjugate
##rocessor
seizure
pluriling
peanut
1000
6d
66
fcn
gosp
hunt
kram
koz
paj
rif
rays
taj
vm
ws
wals
##deg
##f2
##pel
##ationary
##asin
##asian
thous
##olism
##ilan
##oden
##igi
##osarcoma
##rier
chou
##ocell
acs
##perm
##achim
##akit
shows
analges
##dermal
pll
multiphase
teh
marin
hevc
relating
##estation
corals
desire
amar
incidents
crane
retain
functionality
geospatial
peers
slave
swiss
papill
oxal
openness
fuels
priming
cards
lasers
precaution
regulators
porc
rosenberg
revol
revital
activations
acceptability
kaur
##buhan
1968
anthropometric
darah
binar
binder
revealing
sonar
kuz
bleu
##functional
amazonian
hedonic
aerosols
actuators
mccull
intermedi
prosthesis
nanotube
cyanobacteria
resolved
intervensi
textbooks
transfusion
austin
##generational
##lipid
proportion
uplink
telemedicine
xlnet
yoshua
zigbee
uniqueness
saturated
quotient
89
aversion
brag
cave
gul
h2o
ich
jy
jit
kou
kings
nose
piano
p2p
sons
sections
stick
ua
uber
vand
##hor
##ebr
##mut
##match
##lide
##cm
##kong
##onte
##orax
##icos
##isu
##isasi
##rotic
##stro
##ulent
##igl
degeneration
tof
##opulation
resis
alters
peric
contra
genotypes
marz
heath
##oung
medis
aba
convnets
escal
distances
idiop
##azol
saliva
allow
camoufl
dana
freeze
euph
polyst
pengertian
icd
reconstructing
telehe
bioetanol
liber
confusion
homeostasis
portray
illumin
violation
dissemination
proses
aktivitas
adopting
sandra
occupation
chapman
##urgical
sulfide
tiem
ellis
cosmic
##rocyte
quantized
rationale
nikol
benchmarks
overlay
biocontrol
influencers
niche
october
hurric
hydroxyapatite
gibbs
toxin
curcumin
sativum
fluctuation
expanded
prasad
adequ
assumptions
synergistic
ciprofloxacin
effluent
configurations
##frequency
xgboost
zambia
unseen
68
ais
ez
js
kus
mv
nab
pater
ries
rita
rafa
saus
uae
vish
##ben
##ead
##mix
##nu
##lement
##faction
##tel
##inosa
##anos
anast
##acryl
##olid
##omotor
##emer
##idas
sten
stokes
conclusion
##ige
##ithec
imu
##otrophic
withd
##urea
moderation
syed
trunc
diets
arqu
scot
scarc
##antan
opc
hyg
##seed
researcher
##ylated
submarine
##nai
geol
saliv
efficiently
##def
##esca
calves
##anaan
turmeric
cognitiv
empow
pointnet
shark
ferre
limiting
harrison
infertility
heteroj
minimally
younger
booking
##u000f
summaries
1977
franco
irrig
arthro
jacobson
hiros
rabbits
modifications
bleaching
larvae
gravitational
rawat
anticancer
shaft
hansen
volunte
substituted
conformity
gadgets
ralph
penyakit
destructive
tnf
claudia
scholarship
dissociation
philosophical
slavery
panoramic
deterioration
gynec
dehydrogenase
whistlebl
switzerland
inggris
79
82
away
c4
cure
cif
csp
ceph
dus
dif
della
daya
fath
gav
gauge
gnss
hes
hernand
lca
nile
rather
sight
sister
tk
teng
##dong
##rath
##p2
##3b
##jj
##infl
##artite
inject
##icios
##eterm
##idan
storing
standing
stunting
##ticism
##amas
##essels
comes
##ploid
##places
##izumab
interl
recons
artist
genotype
bees
elearning
##tivo
##very
querc
abe
agree
##erto
decade
structuring
nons
microbes
guinea
segments
##2014
planting
overhead
##icher
drill
embar
allerg
morality
##ippines
readability
blocking
valor
presidential
##factor
myof
contrasting
flexural
sleeping
positions
sitting
inhibits
##prot
neurobi
nanostructures
protease
adjac
butler
phosphory
cutaneous
radiograph
alcoholic
translational
intraoperative
svd
derivation
peman
darwin
##rocytes
premium
equilibria
wetland
warehous
metaphors
kurt
nanofluid
steril
killer
candidates
describe
climatic
innate
kotler
zoom
jorge
recreational
holographic
repetitive
buffalo
polygon
idioms
saccharomyces
cambodia
paragraph
recharge
inhalation
landsat
annals
vladimir
epistemic
raspberry
berm
dul
hoch
jah
keh
mx
mati
nem
ode
ttt
tthe
##hab
##bia
##bian
##aid
##nos
##zes
##lem
##rene
##68
##inations
##orus
##etto
##ilateral
stacking
##agle
##leigh
reaching
##ogon
##through
##irs
##imilar
##adel
##epsi
traction
##obe
apa
##duct
interprofessional
##rico
league
assam
registry
knaps
decoy
accult
monol
microt
subword
overcome
estimated
pea
##ukh
##oiditis
photogram
freeman
hypericum
valence
##atisfaction
herbs
beneficial
hypertrophy
##uela
owl
differentiated
listen
richards
cas9
casual
historic
parameterized
ivf
january
crowdsourced
mmwave
bipartite
tyros
vido
maryam
angiography
conformal
psychoanalysis
kathryn
doctoral
yolov4
practitioner
joyce
adipose
diaspora
trabajo
prophylaxis
shakespeare
volcanic
affairs
mainstream
walsh
idiopathic
salivary
heterojunction
1d
91
bite
dv
dak
doy
gou
jae
kish
kines
kost
mog
mai
nal
rg
rent
rox
ragh
tire
vu
##hoff
##oan
##a1
##nf
##450
##rina
##riter
##fil
##from
##katan
##jal
##anov
ante
##oler
##chin
##iginal
defl
always
arte
seo
sey
genesis
##rics
coevolution
els
##aseg
##athe
sche
hyloc
appliances
##sea
visitor
blending
carotid
knock
##porn
boston
accom
##onda
##ondition
##flav
endoc
##mani
##otherm
histopathology
naturally
morrison
oxides
topography
thermally
##keeping
offensive
sharon
shariah
lime
euro
adaptability
maxwell
##omyc
##ometrics
mixup
macrom
karakter
##u000e
eggs
waals
##owska
textiles
wallet
excit
caes
joshi
baner
sorption
stabilizing
gerard
glycine
hormonal
rahul
biofil
phenomenology
berger
mustard
blooms
neuromorphic
spirituality
pineapple
##transfer
microcontrol
deviation
cubic
programmes
fingerprints
dilemmas
ergonomics
describing
telecommunications
explosive
czech
macrophage
stephanie
paranoid
nicotin
solvents
waiting
cruise
emphasis
u0000u0000u0000u0000u0000
cryptocurrency
dijk
prolonged
vestibular
permittivity
vygots
hematopoietic
knapsack
hylocereus
cens
crick
dest
fist
gathering
ios
keller
landing
lava
molding
nyer
oth
rsa
rolf
##bol
##but
##uti
##eira
##zon
##zia
##like
##rl
##aning
##anical
invis
##itab
##olon
##iday
##tico
##aban
##imp
modify
prism
basalt
##ewicz
recru
maneu
19th
beans
opto
ismail
##illes
attem
synergy
microarray
brig
psychosis
salem
deliber
##expression
hydrological
advice
photodi
sequestration
worst
marketplace
fuj
entanglement
combating
toolbox
primates
icon
estuary
articulos
computations
mccl
pyrid
succession
petro
##behavi
skinner
dialogues
burg
##structural
separating
squad
piet
dysph
paulo
activate
richardson
printer
absence
antimal
williamson
boards
strongly
queer
pharmaceuticals
heritability
vacant
capsicum
sgx
dyst
discharg
theorems
pitfalls
additional
mohd
intracellular
sikap
spillover
bootstrapping
isaac
weapons
chakrab
bhattach
waqf
##ophageal
evacuation
bt
d2d
fiona
gout
gizi
hado
lil
lichen
npc
paw
p53
toll
tape
uml
##o3
##mart
##gap
##qm
##inale
##arp
##ecks
reed
##riam
energe
tric
baselines
une
studied
##akur
shal
##ayam
manning
##ivan
leop
eli
elis
##hail
median
abraham
##arias
carter
consent
decor
ids
##oyd
synonym
##riving
skull
##ught
problematic
buku
collecting
signed
affine
concerning
airway
transferability
##ethical
injured
blockchains
kebi
saad
berkel
electroch
hemip
leslie
extracted
pcos
omer
discriminatively
ultrafast
chatter
torres
arguments
julien
burns
somalia
rumor
brownian
oscillations
inspiration
mobilenets
abnormalities
husband
sakit
lepid
apparent
meningitis
sutton
cumulative
shoot
ranging
thalass
encountered
jessica
duplex
agarwal
feelings
monotonic
rwanda
hughes
professor
hotspot
wiener
microglia
sedentary
nyeri
drows
fern
fama
ix
nun
nood
rene
rumin
sai
tall
wim
zr
##lon
##tail
##itron
##elberg
##asant
##omers
##sta
##stud
##stable
##chus
chad
##openia
##akarta
recover
recovering
artis
genomes
detected
plays
parliament
beach
relapse
##ouch
agri
colors
##alui
blends
##aleal
##iev
inconsist
captions
automl
changed
buss
joachim
##azione
buah
maloc
##ophosph
histories
slicing
##development
barang
camero
graded
pandemi
##comp
promise
keep
##quez
125
aggl
dialect
persona
regulate
naval
cyclegan
porosity
organs
youths
translations
##know
resident
gestures
phytopl
##rograph
accountants
##metrical
##walk
spectroscopic
escolar
paradigms
##ifiable
interviews
louise
##related
administr
templates
demonstrations
verteb
commentary
cultivars
glioblastoma
spectrometer
mammals
trichoderma
amyloid
brightness
amphib
hacker
constructivism
ophthal
cruciate
kajian
misconceptions
exemplar
aboriginal
federico
unexpected
repellent
electrocardiogram
nonconvex
glaucoma
subgaleal
consortium
rafael
scarcity
banerjee
drowsiness
97
aeg
dns
hap
holes
jc
mab
moss
nr
nim
rath
rup
sq
saint
ux
vessels
witch
##bro
##uj
##ned
##nya
##cano
##rell
##arina
##aty
##atra
##islation
##eton
##olone
##olumab
stent
##usz
##platin
##iale
exerg
##epine
univ
arv
seek
transce
impulsive
leaching
##predic
elt
elisa
classific
agon
apply
obat
regimes
newman
##tino
##ropical
##oya
monica
monkey
microplastics
##posed
##iche
geof
loans
##management
##airo
##othiaz
lifes
flowering
encod
tesla
viewing
pandey
constan
promising
pharma
wwwxxx
hospitalized
melalui
karim
sno2
residuals
mediate
braun
##po4
masalah
rayleigh
proteomics
inequ
ca2
jacques
updating
questionnaires
##umbel
lactation
permutation
expressed
normative
bubbles
##ompati
officers
procesos
oliveira
denture
laundering
aphasia
mcgraw
zirconia
shielding
hydrophobic
rutledge
hoffman
manuscri
nivolumab
jpeg
nanowires
enfermed
aflat
eigenvalue
pyrroliz
envelope
sergio
##education
distinctive
microalgae
bioavailability
tsinghua
fostering
pemasaran
telehealth
hadoop
dg
fb
ferg
font
fulf
gull
kv
mcle
nay
sop
verma
wick
yaw
zing
zur
##iper
##bah
##aids
##fit
##kowski
##pd
##tem
##tien
##enna
##energy
##estim
##arna
intimacy
##ecia
##elt
##etcher
prohib
degener
##uni
orph
spacing
spacer
spencer
apnea
modelo
shir
##orton
##hah
politi
amine
##ledger
##erta
soap
flap
declar
organism
secrets
accred
monolithic
cellul
##onscious
subram
guil
memristor
##ereign
##opharm
engineer
stresses
photographs
presenting
bennett
auger
southwest
polyester
herbert
drip
telep
answers
##otted
phenotypic
mediator
brake
christina
##ohist
##piration
authoritarian
cropping
cerevis
mirna
athle
pipel
##rapping
locking
domestica
tactics
organisasi
routes
javier
dictionaries
leaning
eduardo
drawings
parasites
sylvia
glutath
streptomyces
beetle
mastoiditis
kahn
assembled
scaffold
macrophages
grafting
constructivist
kubern
ldpc
desktop
alumina
pmsm
enclos
afghanistan
subsequent
mangrove
atherosclerosis
ascorbic
hemodialysis
cartilage
antimalarial
cameroon
ats
bomb
cyn
cros
ft
garg
hsp
kans
kanker
lund
msc
pew
rin
sj
sole
sven
xml
##uin
##aud
##now
##nlp
##5c
##lag
##law
##kind
##jana
##orth
##orad
##arat
anode
##eles
##eted
##asw
##olus
##ulence
##odel
rey
chips
##apunov
##ando
resulting
syd
trec
clip
altitude
##tsch
diaph
perb
stretching
intrad
embr
##allic
leuc
parties
grazing
##orski
biore
medica
attainment
highl
cargo
##upaten
rising
psychopathology
musa
##flows
outward
deletion
collocation
nozzle
natal
ether
urs
eruption
postural
topsis
termination
augment
augmenting
miles
extens
accessible
cyberc
groundnut
damping
isolates
provably
christi
neurodeg
concentric
yourself
rupture
satellites
thrust
browser
fungus
cannot
cytotoxicity
##ozoic
preferred
perfection
lyapunov
gateway
##idiol
minimalism
rnns
semiconduc
socioc
societal
metaphys
anticip
##rofen
ricardo
microprocessor
polymorphisms
kabupaten
seminarians
paraphr
cancers
jakarta
tiktok
psicologia
repetition
elicitation
corticoster
prakash
lasso
evaporation
portrait
biomimetic
h1n1
malnutrition
rosemary
spoilage
biofilms
phytoplankton
009
92
cen
cater
dave
draft
dss
jumping
kb
lights
mou
mau
sari
wnt
##hp
##91
##zar
##ktur
##pene
##3o4
##urfaces
##etting
##acil
##amatan
churn
enlight
syring
spon
pride
prone
traces
##performance
clearance
unethical
suffer
##quan
##akumar
##akrish
phy
arrow
##ayashi
sevent
biol
amd
megan
mega
timber
caroline
##iotherapy
undergrad
childs
superf
eddy
discurs
##ieri
##ichannel
allergic
universit
ethan
xxxxxx
november
readings
##ostatic
operasi
silent
factorial
pressures
cats
catfish
pening
nutric
minimax
panic
electrostatic
legislation
accelerate
summarizing
doug
menu
onto
phenotype
mediates
utilitarian
dupl
##ranate
mayer
caso
##iii
ethnography
pretreatment
counterfe
cocoa
nitin
owned
electromy
##organization
likely
##faatan
##ulosic
mineralization
metamorphic
flavor
##cycle
rheological
mehta
tipos
bibliotec
hazardous
archaeological
kinds
equalization
asymptomatic
##oglobulin
antisocial
subtypes
butterfly
applicability
moocs
flavonoids
empresa
estudio
yusuf
hemorrhage
beautif
lncr
gyroscope
autopsy
trinidad
cartoon
bargaining
quadruped
lstms
foreground
cannabinoid
prototypical
gospel
resistivity
cerevisiae
400
74
difer
gates
gbs
jum
kann
kont
kamp
kessler
lite
mcl
ntr
nie
pk
tyler
v4
##data
##lov
##page
##tance
##whe
##wani
##inating
anf
##odend
##oside
##osacchar
ch4
##ocaine
##ffman
##utable
##adju
spss
adri
alat
asking
##ifery
##obs
diodes
##aksh
##echat
seen
transverse
emulation
##ivari
impuls
parity
paracetam
##arean
infiltration
cortisol
medio
queen
mead
highschool
pointing
carc
flax
flick
edges
subcutaneous
cypr
representational
formative
colloidal
postgraduate
generalize
clinics
repurch
vertic
valle
recommended
adapted
icml
111
bald
calculating
millen
normalizing
governments
lips
menur
##apped
vulva
tanaka
ambide
titles
##hydroph
zeolite
restorative
mortar
explained
rapidly
##attention
anthropomorphic
tropics
lactate
fischer
gelatin
bahan
echocardi
kamal
diagnosed
##hardt
##foot
tunneling
mustafa
terapia
hiring
jenkins
hydroponics
mycobacterium
forced
scaffolds
proportional
deductive
hydrolys
flavonoid
arbuscular
apprec
oyster
adrenal
surfactant
vibrational
paediatric
arsenic
interoperability
dqn
##stroke
empowering
malocclusion
pyrrolizidine
glutathione
kubernetes
86
bb
bina
cus
cns
gaz
goss
keg
kode
kala
lh
nac
pist
piv
suction
tony
trophic
witten
##b3
##non
##lat
##log
##lies
##tas
##orical
intitle
##isk
##edge
##ecu
##etamine
##asha
##asaki
##embr
##idge
##odeling
##osal
toe
##otropy
##otopy
exception
modulates
resins
dish
clo
alop
alain
##oba
phant
arti
##aye
##ricks
pari
heid
heater
##oub
##ende
desulf
quest
agencies
mica
microl
developers
weigh
blur
caracter
##iotis
esg
impacto
eda
102
digesti
risky
redef
artifical
sexism
composting
##aei
readers
brew
transformative
goat
quantile
curse
ocd
##u0010
recommending
learnin
cryo
investigate
herr
assistants
##otto
instances
directors
isolate
earths
burning
principled
specialized
##publ
vegf
adju
dysplasia
##rinting
##kerja
##glass
vegetarian
exploit
invertebr
ciph
kompet
flooding
nucleation
constructive
cashless
rationalism
punjab
obstetric
supports
gaba
metamaterials
hispanic
referral
bilingualism
recipe
filler
neoadju
utter
bakteri
existential
interferometer
officinale
hirsch
lavender
bifur
omnidirectional
hamiltonian
servoing
alvarez
glue
nematodes
consultation
temporally
distinguishing
trastornos
weaknesses
fantasy
##holders
##amethasone
alejandro
cryopreservation
monsoon
doctrine
arquitect
peningkatan
paracetamol
digestibility
94
aks
aval
burs
ck
cess
duk
dini
fum
fad
fot
fighting
gle
hps
iec
jang
jimm
kd
ler
lies
ladder
ned
nath
overse
rental
sb
v3
##lik
##rino
##fication
##gis
##erol
##arily
##rou
##ecs
##emens
theft
forage
proximate
dean
tot
coming
##apac
spider
cliff
alba
20th
##ako
ary
argin
perry
intestine
multipath
##ibo
teoria
grains
biot
pola
amor
amaran
amanda
managem
abel
##erte
##virus
franch
dynamically
subj
##inae
capillary
##beration
geochemistry
endoscopy
##aska
##even
noah
lifting
novice
papad
limestone
gendered
correlational
maha
orientations
failed
initio
holy
mueller
conceptualizing
parser
##harvest
francesca
sandwich
chromatin
justification
raft
invariances
##saan
falling
1966
kalim
ballast
pembang
takashi
domestication
thresholds
nicol
reproducibility
ijc
recognize
attract
arctic
nadu
florian
aleks
spotting
lgbtq
trapping
campaigns
khalid
transfers
lobe
chimpan
dexter
alterations
meteorological
cirrh
lubricant
seizures
saeed
scopus
hessian
##olipid
micronut
##anguage
geometrical
sifat
autobiographical
february
212
bold
cage
ea
hb
hew
ikan
kats
nist
rong
seth
sull
sourcing
tess
tomm
tiger
vascul
xai
##hh
##oit
##eff
##new
##lund
##yon
##rual
##rank
##rano
##fusc
##wig
##erus
##aler
##orp
##orie
##anus
anore
##emotion
##step
##ulan
##igital
##ucion
##abd
##opausal
##ovan
##owa
acting
spaw
##ept
##eptic
##ifikasi
dix
##akul
##actyl
##aina
arms
arena
scann
struc
eman
atoms
coul
leh
##orty
beads
bien
polit
mei
so2
smile
##visor
flies
loci
risiko
retr
positively
mechanistic
ministry
xxxxxxx
##acca
employer
webb
governing
academia
randomization
estudi
herpes
helical
complicated
septic
macd
functionalized
123
brooks
##inkle
legged
##beat
tunn
ontological
##diagn
tubular
137
##idades
adopted
owen
parker
polarity
woody
pipes
subsurface
1964
hypotheses
ngo
##amei
cours
##ologicas
shareholder
larry
bowman
inpatient
biopsy
hawking
anisotropy
pupil
ischemia
gibson
ferrite
symbolism
dehydration
binge
supervisor
omnichannel
##rophysiological
suzanne
hydrocarbon
alleviation
condensation
decoupling
polysaccharides
##birth
comorbid
midwifery
regenerative
zhejiang
menopause
biblical
##aboost
contagion
plankton
columbia
complaints
hiroshi
cifar
##inflamm
berkeley
sociocultural
neoadjuvant
arginine
fs
gumbel
het
istan
jm
lord
luck
might
pter
pets
qtl
wer
yol
zel
##itif
##location
##rent
##f3
##tar
##tles
##inase
##esive
##arn
inactivation
##itol
##roy
##ented
##etre
themes
##odo
proy
chet
##abetic
##plets
##aping
##oves
exit
resusc
alon
unic
unstable
##ductive
interru
shiv
recycle
perawat
##ayers
sev
intram
leach
parv
bei
##rolimus
relu
relativity
generations
colin
hyal
##lux
##luids
econ
moth
langevin
semen
carla
brasil
crc
cyb
serving
comparator
ending
##othorax
concise
materi
questionaire
wordnet
govind
irre
hyperledger
##partic
myopia
biostim
avatar
latch
fauna
keyn
warren
immunology
hardening
regularizing
legisl
cardiology
tunisia
paying
hamid
hammer
biologically
##wait
googles
cuts
sintering
metabolite
cmip
spline
raising
frontier
phonetic
voices
baggage
stabilized
mandatory
laporan
konstantin
tailings
mountains
reciproc
tribal
integrals
stopping
yamag
latino
##hedral
connectome
tdcs
dermatology
prescribing
fdtd
transcranial
ingredient
artemisia
##detection
lokal
polyphenol
masonry
eutectic
elaboration
kashmir
postmodernism
depresi
tandem
vowel
delinquency
matteo
##itoneal
hernandez
quercus
pemanfaatan
fergus
beautiful
overseas
4g
award
ajay
cw
cym
eph
euk
frog
hl
hsu
haus
habilidad
kass
kok
kdd
katherine
lump
mour
nach
nox
nsa
outer
rb
sous
tender
vp
xv
zoo
##burn
##uya
##eks
##f4
##fp
##food
##oresis
##uras
conifer
##usting
chai
toc
##apers
exports
##epatan
##ologica
##ensors
##ipot
apar
apex
interg
interesting
arbe
arora
pervasive
deter
##ardt
tek
eval
##acker
desal
##unding
##lung
##egranate
##strateg
ecot
regard
preb
preoperative
caroten
marks
flag
##ribe
##uble
##2010
planet
adversary
antipsych
slang
flowers
teresa
potter
testbed
##auth
##ificacion
verifiable
importancia
##biased
molars
110
11th
anger
fishery
trustzone
mills
berts
vanishing
tuna
bilstm
habib
payload
boris
1971
orthop
tsai
contactless
senescence
retailers
axi
synchronized
1969
##antha
invertible
compensated
klas
biped
rogue
##arthy
serverless
bisnis
##otoxin
didier
walkability
tcp
luminescence
monthly
frost
toxoplas
nvidia
vikings
sovereign
transgenic
livelihoods
##natural
saccadic
stoichi
precursor
belgium
photodet
reconciliation
cardiomyopathy
hipertensi
peninsula
disagre
advocacy
pemberian
emocional
ferreira
cephal
microcontroller
istanbul
resuscitation
63
9th
ao
b12
dess
fg
hg
hj
harsh
ips
lt
mites
mds
maker
nol
nip
pich
tch
tata
tional
vat
xbox
##itic
##hari
##d4
##die
##uatan
##meth
##rem
##rna
##xiang
##jakan
##erd
##itons
##atem
##rote
##etha
##state
##agar
##imin
##opol
enables
enrico
##ango
trench
asam
unbal
scul
intang
emir
deterg
teg
relacion
##uginosa
appoint
whale
engage
soon
carmen
diffuse
sensemaking
boul
segmented
filament
nost
slice
calab
amongst
matern
##rowth
logo
dimin
curved
clinically
##architect
harvey
setup
triage
biosensor
##modium
pulses
disordered
meanings
aeruginosa
egocentric
liquef
##minth
ramp
tuned
burke
tales
couples
conducted
followed
gramm
radiography
preserved
ruiz
lithography
bailey
experimentation
messaging
lucy
1961
spirulina
##apsed
ssve
tactical
pertum
chaudh
reforms
fragmented
frankenstein
##otechnical
simplifying
kuwait
hindu
castro
kirk
intersections
rheology
mehmet
imperative
pubmed
nervosa
cookies
epithelium
##oquin
typhoon
euclide
snapshot
microservice
quaternary
osmosis
##aruhi
empresas
tungsten
twisted
schultz
disposal
inteligencia
anticoagulant
hussain
hurricane
withdrawal
lifespan
euclidean
bum
cynth
census
fent
fans
fuck
famous
hary
jazz
kod
kiss
lich
mention
nave
ostr
pedic
pai
rim
trol
tions
xian
##iad
##san
##dit
##uang
##zano
##zadeh
##rids
##fets
##fred
##pedia
##tag
##gado
##tika
##oras
##ecimiento
##acity
##omide
##ilers
##stor
staining
conception
##lege
##ogh
##ograft
chau
##ocus
ort
spro
pruss
dislocation
##vitis
shunt
recom
perpet
scrip
strict
emulsion
##ibert
parap
covering
grab
iss
##esty
##lyn
##endo
medications
appear
whether
schiff
selig
feb
timm
##erton
poth
knitted
nonprof
superresolution
invention
matematic
##awati
##axial
##tifications
visualisation
cret
##afar
##yme
106
progester
digits
joanna
geograph
endow
endophy
tweet
##otherap
embank
remot
remaja
uranium
profes
calf
calend
postcol
lau
handic
breach
photore
director
laying
##ounting
uncovering
ansys
articular
maxill
integrin
homotopy
kej
successive
immunoglobulin
bands
predictable
parallelism
burst
dissatisfaction
##electronic
provides
sanjay
austria
radioactivity
distill
hamlet
cereal
boxes
farah
pelajar
multiclass
religiosity
splicing
phonetics
salesman
1963
symbols
pendek
christophe
considered
ellen
deficient
chickens
##wald
jacobs
neonates
doses
tailed
##relation
algal
scatter
##ophysics
tipo
yamamoto
leonard
duty
lazy
hermann
laurent
pomegranate
uterus
bottlenecks
expatriate
energies
##uguese
ransom
discontinuous
mahmoud
carbohydrate
vannamei
##hypertensive
neoliberalism
trustworthiness
pemerik
vomiting
cytokines
superpixel
oxalic
camouflage
portrayal
##ithecus
kebijakan
arquitectura
habilidades
cynthia
73
71
cited
d2
dale
e1a
hund
hail
igor
iphone
lumin
mq
rul
rham
sult
void
wages
yoon
##hex
##ska
##oce
##oad
##mand
##mach
##multi
##yper
##full
##kova
##xing
##alco
##anism
##anza
##itro
##iso
##elis
##eley
##asthan
thro
##acid
##acio
##illy
##channel
rez
rebound
reengineering
chern
##ocortic
##imens
##plain
never
apart
##akers
intergroup
metro
##assembly
emi
##rica
##encial
grap
relati
desa
destin
##athin
assault
abou
genera
coloring
methode
##unders
##egal
##ertal
##ientos
##inde
##ubs
##ylobacter
maturation
bru
subd
subsp
cruz
guava
##afi
mempeng
outline
outli
loh
buyer
##itsch
identifies
##ofen
greene
postn
equivari
composing
potent
customized
##scan
##keit
##u0011
diagnose
##ativas
purple
circadian
hered
inferior
hospitalization
confin
128
##ijk
ramos
positional
northwest
interpretations
occurring
tuber
tanaman
maslow
neurot
proteomic
pss
orthodontics
##140
dysp
ruang
bonded
professionalism
##eliac
raja
crypto
jacqu
starter
##heimer
anthropomorphism
madh
carcinogenic
facilitation
tenure
cosmology
erratum
pinus
fragments
premen
masters
decentralization
campylobacter
nadia
orders
solubil
agreements
##iscus
reservoirs
reconfiguration
gymnas
oblig
dexamethasone
assemblages
##burgh
##physical
sophie
carolina
mcdonald
neglect
shufflenet
electrospun
cigarette
psikologi
ganglia
retrofitting
griffith
noninvasive
benthic
invisible
##itabine
photodiode
metaphysics
undergraduates
hyalur
outliers
aq
bord
bates
bamb
dict
fom
hin
kac
mers
miz
mhz
nass
paz
rio
ratt
sail
tach
uz
vall
vote
witt
zach
##iable
##sum
##side
##bek
##eus
##nb
##lad
##cia
##gins
##wc
##wir
##tized
##ineral
##antia
inov
##elets
thre
##omum
##emp
##ularities
##igong
replace
##ogging
##reated
##rive
chance
chew
dea
debor
##therm
##imotor
##utor
##andibular
##yson
residence
compe
trach
##ensity
##eway
phobia
intergenerational
##ayas
strat
emuls
coex
multig
lea
bek
##ugl
##rams
abbas
scho
generational
colitis
##trust
ect
bloch
fletcher
sensation
glac
##oye
synch
##uprofen
supercritical
superhydroph
imager
##orea
geochemical
estimators
waterfall
antihypertensive
synthase
postharvest
facile
topologies
logar
##enzie
analyst
euv
catar
bats
cope
helm
##ontology
derech
##ogeneity
reflux
tomer
confined
##ittal
brother
duality
crowdf
sunil
dissipation
##electro
ultrathin
scheduler
budaya
ctc
hamming
radiographic
reprogram
polymerase
firmware
actors
cleav
yields
chlorine
middleware
lymphatic
publisher
pm10
darpa
laptop
##disi
ovary
hivaids
##2o4
wheeled
nuclei
nicole
mastery
paddy
checkpoint
ibuprofen
interviewing
001
arrest
unemploy
shells
nanofiber
sudden
penetrating
hurt
##healthy
vertebr
deposited
mucosa
intervals
v2x
rashid
microrna
tradeoffs
supercapacitor
supercapacitors
diatom
hollywood
metagenomic
frederick
metaheuristic
immobilization
tackling
reynolds
especial
immunosup
scaveng
spondyl
dimitrios
thousand
precautions
polystyrene
sausage
cricket
alopecia
adjuvant
anorexia
estudiantes
ssvep
pertumbuhan
hundred
93
aero
bard
boss
bones
cet
cafe
dia
dsp
fos
gaw
hock
hpc
hcv
kate
mous
myl
mays
nour
nominal
nrf
och
ted
wend
zoon
##eing
##978
##lining
##yst
##yak
##ction
##vf
##vari
##kg
##kata
##wari
##wind
##enas
##orr
##itures
##isp
##eco
##idu
##amis
react
reactors
choud
neoc
enjoy
rese
comprom
acqu
disagg
asa
##elligence
shig
shake
artikel
pereira
##istence
##anca
##anton
ply
##entice
##entitious
bez
elaine
infinity
polyl
queu
able
timeline
approval
decades
booster
qualification
edwin
##2013
patents
loops
reduct
defensive
formulas
alloc
universals
ethos
slide
affirm
urdu
laund
cameron
ulc
projected
maths
mathew
sensorimotor
hyperactivity
##coal
vaccin
president
below
adaptations
pengen
##etida
sucrose
massimo
bioactivity
hypoglyc
warn
saunders
12th
##initis
plasmodium
utilisation
prosody
akad
cuis
daniele
modularity
fixing
##leton
wayne
cavities
baum
cdc
mahar
mississ
bulb
pendulum
chinensis
taken
cheating
epidemics
romania
floods
rationality
ethiopian
cannabidiol
albumin
stratig
mentha
biofuel
multisensory
ketogenic
##vinyl
adenoc
interferon
decreases
##olymers
ns1
##rystalline
victimization
transductive
miniature
placenta
explosion
liberalization
contraceptive
encounters
fleet
paranormal
favor
tariff
sindrome
manufacturer
##3n4
##ococcal
arthroplasty
artisanal
paraphrasing
repurchase
pembangunan
mempengaruhi
69
87
bia
bism
cing
cite
dn
ease
gyp
heng
jat
jers
jans
kak
kru
lady
mines
piz
tos
uri
vander
##sha
##bral
##9000
##lis
##ytic
##follow
##ania
##itated
##itaire
##istique
##ectile
##urunan
##asz
##raying
##chat
##earm
reus
##ogi
##ffe
##oping
neotrop
enl
modulating
resection
trash
disent
adi
adaboost
basel
dieter
##akk
phased
rectification
scap
intoler
empt
marrow
evang
gratitude
trail
isab
asser
amend
abys
abusive
agrawal
##arious
obtaining
##strong
fees
visit
visco
humid
soul
simone
senses
##upan
incontin
microd
guitar
environmentally
cape
temp
archit
##unga
endemic
deleg
specimen
##ophora
##ochlor
volcano
granger
throughout
corrections
norbert
##escens
##abilitation
gregor
fibromy
graduation
##u0012
neurology
helminth
##ogenes
1103
biomaterial
##uitary
##arkan
hypnosis
warf
calculate
portland
portuguese
berdas
mutants
jurid
##ijn
denial
liposome
crowding
##represent
mena
arabica
packed
violet
##gaard
wheeler
manipulating
##proceed
coupler
reflecting
borides
hook
holm
opportunistic
muti
activating
motivated
seni
rajasthan
castil
chromatic
explanatory
amplifiers
ashraf
babies
starb
reply
bags
possibility
easily
binomial
isoiec
crowdsensing
anaemia
nanocellulose
containers
dominic
incorporated
bowen
phoneme
nanofluids
schmitt
margins
judgement
sylv
interferometry
catalysis
ohio
tendin
mythology
outbreaks
dwelling
cultivated
ernie
pesant
metacognitive
responding
subtropical
metodo
myeloma
interleaved
fibroblast
affordances
himalaya
laksh
hwang
dangers
##ocyanin
##agnetism
confirmation
gustav
nepali
suggestions
robbins
convenience
adventure
territorial
inoculation
desalination
postcolonial
pemeriksaan
rhamn
postnatal
5d
ain
bump
cx
dz
gj
gat
gome
hinge
ily
jens
lenti
laf
mock
mung
nao
ppt
purity
porph
saj
tau
tucker
vet
vive
zar
##iary
##iologic
##bio
##uels
##e9
##mr
##mog
##cock
##rator
##fb
##fic
##fill
##finite
##tf
##gam
##jah
##1c
##110
##erve
##arov
##ingan
inap
anto
##atha
##edur
forex
##chai
rewriting
##essment
chiral
##umes
##unen
##abric
##adal
exotic
resampling
trache
clause
ada
admm
##ells
unidirectional
rectified
perox
##assic
##assum
scoli
##ibia
leib
hee
oppon
trag
##rolith
##esta
schwar
blow
humerus
##ikov
carroll
flaw
##ylon
videog
supram
brenda
subh
inspect
##azaki
##oxic
gamb
endoplas
patil
grig
xxxvideo
remaining
sampled
policing
demographics
employed
##ectiveness
papua
freight
examine
verifying
learnable
ferrous
guido
southeastern
negara
probabilities
annih
reconstruct
##arketing
steph
precast
saur
##backs
minima
goodwin
palae
houses
xnxxx
convergent
menstrual
wait
cerem
cu2
ineff
solidification
harmonics
zea
kaiming
princess
judicial
##iferative
##pcr
phytochemistry
makanan
##arbox
fragile
##rock
oxidase
discussions
expressing
jerry
necrosis
arrhyth
collisions
adenosine
isotopes
neuromuscular
colonialism
extraversion
bureau
ralf
millennial
pillar
thaliana
thrombocyt
unfolding
suzuki
artemis
aspirin
sysml
polyphenols
marshall
tectonic
stitching
homosexuality
centrifugal
legitimacy
interdependence
##aniline
nielsen
subtraction
irrigated
phosphorylation
transceiver
accreditation
phantom
emirates
seligman
logarithm
crowdfunding
pengenalan
berdasarkan
##proceedings
bess
bust
bae
barium
fft
kell
kew
luke
niss
notion
pard
rectal
wechat
yes
yogy
##irosis
##bh
##ease
##yder
##vet
##jad
##wo
##8d
##tiques
##erank
##enching
##ingement
##icides
often
##itri
##robot
##urized
##olition
stur
starc
convey
##ogo
##oski
##atients
##plement
##opus
enum
syrup
ack
clad
clone
al2o3
unilateral
##ainan
shab
shep
shade
seism
manila
mantle
##ivia
192
1957
elias
elbow
cov2
heal
##avement
##illar
ami
abo
scha
schem
hyun
hyacin
##yna
eccv
##ioter
##indust
produccion
##ylase
superhard
##ypical
##yman
problemas
solder
archival
musik
positiv
delving
former
roi
miniat
##clin
remarks
swab
morale
facenet
##linger
reparam
familial
americas
illin
primitives
pender
implementasi
esters
bali
plato
resistor
precoding
keys
proprio
accessing
minimize
millet
continuing
nanopar
##1234
scalar
fundus
periods
laboral
lama
walled
dysmen
halide
sinensis
armstrong
tabu
giri
therapist
bhat
##imento
cytochrome
dermal
dermis
aquifer
ventures
cientific
##obacterial
forwarding
bernstein
jonas
franklin
##wright
fabricated
feldman
absorbing
##immers
mpeg
##foil
dispatch
pagerank
##rodinger
lignocell
hematoma
sesam
funnel
cracks
##ophilia
refrigeration
kulit
necessity
telemetry
largest
yoshida
distinguish
##augment
holland
metapopulation
populism
insecticide
vigna
criminology
takahashi
whistleblowing
monolayer
zingiber
enclosure
semiconductors
lncrna
ntrk
nonprofit
pendekatan
superhydrophobic
mississipp
jersey
fibromyalgia
pesantren
scoliosis
yogyakarta
hyacinth
76
700mhz
arif
cah
dt
ebook
gn
gand
gond
goth
gels
iam
jelly
kron
lug
lenn
miel
nus
nice
pde
rj
sati
seng
t5
tep
tsp
takes
yl
zw
zha
zyg
##bet
##oil
##uated
##uhiro
##mor
##mine
##nr
##n2
##zberg
##long
##rc
##fir
##fruit
##pic
##onan
antit
##asome
##idate
stance
stuttering
##agasc
conject
##rev
##essa
##essen
##rians
debi
##pls
##adis
##adir
##aporn
##optim
##ystis
disapp
asma
unbiased
##duced
interrog
transdermal
intonation
cointegration
plaus
marian
traine
##astatin
##oux
quint
technol
abras
##undo
##arie
weeds
educating
##enez
sok
smok
##vistic
boiler
nonsm
##ylate
##tising
frida
fringe
economia
109
cultured
##ashvili
virulence
roz
stressors
urb
canines
concret
enhancer
morf
publicly
camel
novels
turismo
freebase
primate
caten
biomaterials
counts
motorcycle
extrap
hypot
refining
##uantit
immunohist
karnat
petrol
doub
simplex
scalability
violencia
certified
recorded
recordings
18th
##iosa
lambert
crimes
hamburg
orthopa
ensembling
##pired
discriminator
rajesh
pairing
tags
fpgas
symbiotic
madagasc
keras
owners
##arbon
donation
pertanian
moderators
hopkins
mitigate
soda
catalyzed
todays
multisensor
clayton
hedging
##oplast
suspended
adenovirus
kolmog
pituitary
bpmn
decreased
expenditures
gardner
disciplinary
##ografia
gibber
distantly
microgrids
lynn
captcha
attenuates
henderson
saleh
cancellation
refugees
metropolis
dreams
neuropsychology
nicotine
latihan
calibrated
manusia
mechat
mollus
forgery
navigating
surfactants
biogeography
wavenet
multistage
nikolaos
surrounding
tattoo
antarctic
neutrophil
shooting
pajak
adjacent
maneuver
seventh
echocardiography
cirrhosis
stoichiometry
embankment
equivariant
gymnastics
cleavage
enumeration
002
84
bmi
benson
cim
cram
cake
csi
eaves
hif
klin
khad
nine
nhs
psi
rbf
sarg
tts
xiong
##held
##dt
##e0
##mant
##t1
##tons
##wang
##tiy
##inia
##alap
##enal
##arro
andor
##elors
##idian
stub
staging
##chao
reject
onboard
chil
chuan
##plus
##utter
##oprot
orang
entor
usia
reservation
restra
clique
artical
##itions
perp
sexx
multilabel
multifunctional
levi
marek
traps
##ouz
infom
##uga
obfusc
fee
soi
designers
electroph
workflows
##unctive
mona
improvis
finfet
gujar
##iteracy
sold
implic
framenet
##ashtra
ended
malik
##inspired
salience
virt
servers
no2
allison
allograft
minute
##odext
valuable
crossover
demo
greens
liability
longer
transformed
analyzer
##zzles
ilmu
penicillin
circles
esther
johns
milan
achilles
continuance
industrialization
wales
heartbeat
northeastern
japonica
dct
130
##proof
electrically
##atalysis
kimia
##oxidase
mered
metabolomics
explainability
lymphocyte
rainbow
sigm
marcel
infrastructures
congo
containment
##opathic
botnet
album
biomassa
behav
latex
ketamine
pumpkin
please
kurd
supplementary
carriers
##atalyst
saddle
bibliography
yolo9000
hydroxychlor
raoult
scrub
ripple
suture
pomdp
##nikov
##kesmas
hydroponic
intracranial
rhetorical
larson
struggles
pluripot
noctur
dangerous
##ocytic
tricks
silicone
hemorrhagic
encephal
##romycin
kobayashi
coagulation
##iculata
##2seq
sociolinguistics
patterning
bereavement
unwrapping
ultrasonography
dolphin
bragg
##acrylate
embarazo
recruiting
noodles
##othiazide
aflatoxin
sydney
irrevers
grammars
progesterone
cataract
nrf2
intolerance
empty
starbucks
illinois
madagascar
017
cern
dk
hens
igg
kis
lpc
liao
m2
maya
pork
pach
rai
rica
stic
sans
sato
tul
vy
vie
wand
wedding
yag
yap
zain
zimm
##making
##nxx
##rul
##gd
##gens
##gren
##inth
##orrhea
##anica
##anova
anita
##uridad
thier
##emark
conceptions
##earing
projective
##riosis
ches
dext
##therap
comsol
##ithi
##oted
##oped
compilation
ala
##ensitivity
apache
intert
shankar
##rombo
##istas
atypical
##orta
elk
medias
methan
abm
mohan
carab
consulting
knight
iden
boat
boud
secara
fruct
digitization
overflow
geotechnical
endanger
defending
pekerja
##urship
corrective
swimmers
upgrad
breed
clinico
physically
sensorless
thermoplastic
irene
hyperglyc
##ollo
suppliers
steer
olga
shares
factores
harold
penurunan
smaller
bala
continue
palmer
melon
egfr
bandgap
denit
denmark
phenology
burton
fabian
dissimilar
traditions
##rogenic
magnification
fats
cuestion
talents
holmes
haar
juncea
merah
pelayanan
multicriter
mitra
pipelines
judge
degrading
degraded
tolerability
mos2
mandible
cytotoxic
kerat
citra
colonoscopy
tracks
##emantic
predation
predators
moderator
magnetost
supportive
sistemas
stratification
##karni
eyew
jerome
feasible
melanie
nighttime
diptera
photosynthetic
decreasing
epileptic
ricc
polyps
triangular
khalifa
bicycle
refrigerator
buyers
amylase
zahra
adsorbent
himalayan
astronomy
endorsement
##izzard
torsion
polycyclic
reticulum
nanocrystals
exclusive
hegem
dorsal
overdent
nanorods
theodore
laboratories
absenteeism
bishop
##iflora
porcine
ttttt
acculturation
leopard
intraday
jimmy
biostimulant
ostrac
ransomware
laundry
adenocarcinoma
disentanglement
reparameter
kolmogorov
aav
cane
cuck
d3
fda
git
gob
gabor
huan
hla
hatch
iit
iber
jel
jigs
kee
kaly
nairo
oint
pess
sog
sain
sina
sony
tind
wass
yaz
yemen
##ihan
##uis
##lonal
##rach
##pour
##jen
##qr
##alistic
##esia
##arts
##icia
##icles
##icidal
anj
##atu
##uric
##omir
##emism
fores
cholec
##oprol
##ovsky
enz
aco
##eprint
trunk
clostr
adnan
##ifeng
##ellin
uni
unhealthy
##assi
emnlp
atopic
##ivation
##ancangan
parth
elig
covalent
hebre
##ouk
##iannis
agrib
##xton
##tress
##ervice
feet
carval
convective
persalin
##inescent
glomer
prototypes
microphone
extremes
textures
segnet
tempr
1021
1093
surveying
joan
##flies
##evic
mald
salah
reinforce
specif
slov
slack
demod
mori
morning
postmen
opera
causation
plantation
temperate
numeric
bened
densities
molyb
estuar
phaseolus
taxonom
masses
avoc
lattices
stored
confocal
129
##mea
##meier
##109
juris
occur
modernization
separator
alternate
##redit
##conv
ensuring
alexandra
downstream
##puting
proteases
orthosis
antara
csf
zeeman
piles
##olitical
monoclonal
runners
irrational
bagging
stabilizer
##world
##rafts
oceanic
therapeutics
nucleotide
cristian
constitutive
sixth
falc
ambiental
wounds
capsules
proofs
toothp
hydraz
preschoolers
nadine
gods
depressed
arbitrage
mehdi
sugges
curvilinear
enriching
bangsa
glutam
muslims
brady
nvm
efektif
napus
sacred
myeloid
crawling
trimester
nigel
chalmers
hoffmann
polysaccharide
kpop
puskesmas
motifs
##specific
trastorno
gripper
estrategias
patriarchy
mnemonic
olympic
antidepressant
hysteresis
formulasi
escalation
chakraborty
athletic
extensible
gossip
##embrane
cybern
intangible
cretaceous
maxillof
deborah
queuing
warfarin
persalinan
3xxx
azz
biss
gs
gog
gif
golf
heck
ibs
jw
jacc
kund
lf
pn
pint
pumping
sot
vdo
vpn
wc
wig
zub
##iw
##bak
##etine
##matism
##4c
##lib
##yong
##czyk
##fur
##pread
##2s
##2f
##weg
##tizing
##alore
##antine
##itta
##atore
##ethe
##omatosis
theater
##term
reich
##ogr
##thesis
##plat
##otroph
##opos
orn
##ovo
##ineal
spur
spind
spraying
disson
adder
asim
##anson
##obate
suj
apical
interactivity
shum
shading
##rometer
scia
strang
##rictive
atr
##enci
evidential
##este
biotechn
##ramine
surpass
autof
obstruction
developement
##ync
eclip
fek
esr
electoral
##ftus
accrual
charts
charged
##ups
evaluasi
superint
protests
locating
crp
##ymethyl
105
loftus
##aii
domination
servi
notify
perceive
histopathological
minh
##escale
swap
barnes
questioning
acidity
creep
dimethyl
curtis
exams
steff
ferrom
fluent
helmet
114
116
integrators
milton
bioinspired
faisal
tomographic
paid
richter
immuno
vanity
dampak
microscop
mediators
iiot
heads
##kyo
specialization
librarian
##alitis
writer
stimulated
excited
radiological
visualizations
firewall
cd4
murder
sheets
calling
wilt
bulimia
interpol
lucia
commercials
marcos
culinary
pembuatan
switchable
##metries
liku
crisp
tangent
tetracy
checker
cbct
aroma
received
neurosurgery
ebola
##enberger
towns
intercropping
leonardo
victorian
trouble
permeation
correspondences
kazakh
dbpedia
##tio3
##onoi
ernst
millennium
rounding
forcing
ambiguous
qiu
##orecep
thrombosis
hydrochlorothiazide
larsen
larger
clutter
##ocytosis
hourglass
securities
mumford
granularity
##covid
suffering
nutraceutical
lorenzo
merchant
elliot
delphi
leptosp
kramer
##lipidemia
photogrammetry
vertebral
inequity
mclean
diaphrag
cybercrime
sponge
cessation
spawning
tunnels
maternity
endowment
maharashtra
gomez
schwarz
conjecture
nonsmooth
karnataka
restraint
hydroxychloroquine
jigsaw
estuarine
78
81
astm
baz
bose
gating
garch
kut
kappa
lara
noth
nsp
pou
pico
rpa
sier
sich
sonic
tym
tsh
utt
vq
wort
yves
##uos
##uper
##uplication
##mask
##4d
##yers
##yun
##yuki
##cell
##front
##pain
##erom
##orc
##orub
anas
##atable
##edt
##urat
##urate
##asio
##omavirus
##stat
stall
reforestation
##ogels
##rein
prox
##abh
##ithyper
##utors
##otron
##opithecus
modis
##andar
##andran
resort
alison
##phia
##phalitis
effec
unsc
sue
sufficient
dihyd
diagonal
shor
sherman
##assay
##romic
##ayu
##ouracil
mane
##ustaka
imposs
plating
##ibi
ley
##entine
marble
elders
##rylic
amer
##rama
##blin
abus
schrodinger
##tras
timed
##ikawa
##fera
sma
smote
flare
sensed
deck
decont
##ynamic
##onde
studentstiab
fins
guilla
##afety
103
planing
memo
assessed
##azone
##oxetine
filipp
salad
salman
deli
domen
doming
antid
epi
##ofrenia
##cliff
etn
valuing
photothermal
##ressin
openai
logics
studentstw
empath
testim
backup
olson
penj
helix
##onto
articulated
probes
inferences
##ogenetics
blackwell
stepper
saha
confidential
panoptic
gasoline
bacterioc
##itto
berk
foil
documentary
hardy
##orphism
##ercetin
scaled
morphine
resiliency
resilien
burger
goldstein
nearly
dissip
ambulatory
initiated
writ
168
muth
ultraf
romero
francois
pelvis
clustered
ethnom
chloro
sandy
cocaine
##giou
voic
niobate
janet
##rhiza
outputs
sprint
keput
hopper
hopfield
##356
deficithyper
oxidized
reproducible
hdr
claude
##joint
disclosures
pronoun
portfolios
dorm
assignments
visceral
taping
##chaft
keywords
yunnan
glutamine
phytochemicals
lloyd
constructed
planner
perovskites
microparticle
lifelog
narcissistic
boyd
hendrik
screws
mcgrath
scaffolding
whitening
nosql
follower
decoupled
percolation
thirty
seamless
psyc
anhydride
uhf
unrest
antidiabetic
sarkar
##environment
paternal
truncated
warehousing
doyle
deliberate
encoded
unbalanced
remotely
disaggregation
abyssal
nairobi
deficithyperactivity
010
bers
bech
benc
baking
ced
cag
cory
curs
dsc
dying
ee
fay
gros
hc
iid
jill
lod
lop
nils
naga
oj
puc
pim
pud
rpl
t1
taw
vick
wes
yak
##hom
##hay
##d1
##drop
##a9
##eaux
##mun
##zhi
##range
##pit
##2a
##3k
##7a
##titial
##arak
inex
##itating
thumb
theta
foraging
##stack
##stere
##idos
steg
##rae
##tero
##terase
reass
##ograd
##review
##osen
chit
chik
##ocument
##uture
##uds
compr
tras
clon
claire
alo
alerts
basins
effusion
##forme
##elland
unim
unint
##ainen
phas
##ayama
deepwalk
marl
marvel
##pring
##endas
amster
quas
quiz
quenching
whales
ober
educator
blake
semisu
convnet
humanity
underp
edited
disconn
##207
adaption
soliton
archet
puffy
publik
radios
##aires
alliances
##ophot
##ophene
slic
##develop
auv
##cloud
##uksi
concert
##itio
morocc
facade
dirk
ultim
moves
marketplaces
analysts
silage
##u0014
myst
streets
##ullary
penye
daven
davide
polyvinyl
estrad
correlate
triad
integrate
##rehension
collaborations
brocas
damaged
luigi
liposomes
speeding
priy
simulate
viola
morphometric
stylegan
1800
sarcoma
contributes
piag
hapl
misuse
indicum
symptomatic
retailer
parameterization
seismicity
browning
blindness
##denum
pmma
nervi
aquap
winning
revisit
##anche
fmcg
fisica
impairments
pigeon
feminine
##design
ceiling
chiara
promotional
triggers
crowded
pedestrians
addressed
felipe
##dpg
##onymy
bisw
embryos
biocompati
minorities
gastroenter
aws
bakery
actuated
mercado
nakamura
cucurb
kitti
acetic
hvdc
recombination
mushrooms
scientist
jakob
maurice
biodegradation
##rahman
kandungan
pieces
nematode
rekam
crustal
venez
abbott
carnivore
fecal
nanowire
upsampling
voronoi
comorbidity
pranayam
tillage
intuitive
##ocarpus
punctuation
fowler
geolocation
highlights
perfectionism
parietal
dukungan
kalimantan
appointment
confinement
bismuth
cingulate
neotropical
enlarg
supramolecular
meredith
endangered
carvalho
postmenopausal
leptospirosis
keputusan
bist
bare
borders
fao
gop
gow
gins
gomes
kins
kraft
lus
lister
nog
pys
ress
rush
tant
tsy
vass
wad
yeh
zeh
##iencies
##hana
##bate
##ofer
##dem
##yrin
##inum
##alp
invers
##atr
##atura
andy
##urnal
##etr
theses
##omeration
##omandibular
##idazole
stol
##odin
##oderm
##ticum
##lef
proving
ching
chien
deh
tokyo
##ply
##udo
learing
##oprop
##andan
spastic
tru
trucks
basil
sugi
##qui
diary
phyc
peritoneal
datta
##allah
teat
martial
covert
heather
isomorphism
relate
##ouf
infancy
##ugan
attrition
moul
poon
poems
##ikit
predicate
flotation
decolon
##gorithm
secrec
acces
##oyl
charcoal
##yland
suppur
subp
cres
crist
1039
puerto
##oxicity
geophysical
positron
##ajima
malcol
radon
corrug
hydrology
swing
philadel
##boards
moreno
photoluminescence
terry
##ostom
##irez
##enzyme
##ascial
stealth
steels
hydrostatic
hybrids
densenet
primitive
catech
negatively
ica
adolec
annuity
##etik
retrieve
extend
faec
autonomic
saff
depthwise
bacteri
berhub
sleeve
legs
legend
tread
ramirez
cooperatives
satoshi
northwestern
mindful
horv
islamophobia
tuberos
rhin
auditors
hamza
duplication
owner
haas
sportswear
excip
giac
rajan
kras
kenji
messenger
cryptospor
babu
mesopor
quadr
courts
marcelo
##rogram
spruce
prednis
kepem
##gradient
parenteral
analogue
schizophren
pleasure
##oxygen
interstitial
staffing
##drug
anchors
interferometric
cyberspace
rossi
fredrickson
inteligence
lubrication
cookie
neuromarketing
benzo
hidup
friedrich
nodules
dawn
rizal
obli
ergonomic
suspensions
##ischen
cherry
manifestation
spillovers
strawberry
acquiring
reefs
provisioning
superconductivity
forums
clubs
gentrification
assumption
geopolymer
syndromes
##atidyl
ancestry
##openaeus
encapsulation
barcode
nudging
hydrodynamic
karyawan
galaxy
stromal
celebri
alienation
remedies
nikolay
neurobiology
bifurcation
pedicle
sultan
competit
choudh
incontinence
ineffective
lignocellulosic
debiasing
doubly
toothpaste
semisupervised
secrecy
malcolm
philadelphia
018
213
800
bap
bain
cuda
danny
erad
fmea
gb
gim
gok
gpus
hood
hale
hoss
jant
kese
kara
killing
lall
mj
nx
s2
sds
tosh
tidal
tqm
uf
vc
zaman
##b6
##math
##5d
##zn
##lah
##rze
##fm
##finding
##pdf
##gal
##0c
##onos
##align
##anyl
##esophageal
##arah
##ington
anaph
##atase
##urd
##urers
##elm
##elev
##acular
##actile
##ilance
##stre
##idus
##idase
stm
stal
stav
##odor
##odium
conoc
##amer
##amines
reim
##rez
chia
chow
chill
##atine
##owicz
modul
compaction
compute
prentice
clot
##ellers
unre
##vie
suther
##actable
shib
shrin
scin
scikit
seif
manch
atl
##ivos
detox
indium
##idefinite
evil
evap
isothermal
relaciones
##vern
biome
##ermo
whis
##atera
surv
surya
##egh
attacking
##ahi
carrot
##visual
decoders
impacted
matting
##oley
edgar
vivi
incub
##2011
104
functionals
servqual
##onalds
joe
solvers
patellar
salim
radish
colloc
reinhard
natalia
lowering
rooms
identifikasi
##bo3
moran
laughter
handheld
##ectivism
##tenberg
brains
braincomputer
##au0002
##keys
gradual
sumber
backdoor
euthan
sett
copula
unconscious
lossless
articulo
plata
angios
animated
depends
pavel
paula
palestine
snail
huffman
cardiopulmonary
institutes
nonlinearity
##holm
suspected
prosedur
##atinib
##affer
khaled
##itizing
nanostructured
reflector
abstracts
revista
gaut
16s
haemat
phosphatidyl
gastrop
wildfire
osse
reception
##nelle
pharmacist
farid
priorities
multicore
approximating
mitral
meso
juj
bagasse
##anthin
neutrino
cascades
situated
adjustable
ciencias
makers
externalities
bernd
bernhard
lyrics
tangible
ijsr
umbil
jacobi
catholic
longev
dominated
tailored
complementarity
lenses
##ocalization
referring
oleh
ariz
ariel
hayes
alfonso
bonn
dipole
##oblastic
observe
deeplearning
fluxes
taiwanese
vinyl
disciplines
ace2
riparian
discretization
craving
pfas
##olecules
malignancy
lynch
episode
##razole
autocor
kahlo
supervisory
mansour
erythemat
##tista
osmotic
endometriosis
holdings
silkworm
shawn
endorsements
cementitious
excellent
mistakes
interconnected
circumst
homelessness
slabs
gossy
occlusal
eigenvalues
ancestral
ioannis
believe
geodesic
barnard
cunning
kaufman
vygotsky
censorship
syringae
counterfeit
artists
macdonald
relativistic
hyaluronic
scavenging
tendinopathy
antoine
starcraft
##clinical
plausible
pluripotent
guillaume
mesoporous
oblivious
longevity
210
3g
339
creat
crafting
celiac
danc
drog
ged
gag
geh
gta
jj
jared
lipp
mlp
pj
pests
p450
satis
sonia
someth
tj
tash
zika
##hang
##hik
##sion
##oum
##mah
##maps
##lt
##lla
##rile
##tech
##gra
##gow
##gety
##inism
##induced
##enos
##eners
##orh
##anter
##itant
##urative
##olens
##idt
##choline
##aments
##leak
##osition
##rients
##unal
##abet
##adhy
##apt
##opis
##overn
exergy
enrique
##ystic
##eptide
clement
##phus
##pheric
effectivity
unions
##quist
phras
perancangan
scient
streng
seung
manoj
manfred
##ricing
atkinson
coumar
leung
indications
beha
hek
##ryption
##tividad
opens
oppos
##ongan
classfication
quartz
schir
schist
##unde
researching
fe3o4
langer
semim
designer
##hips
sims
##tinib
workspace
##emicarb
imagined
##such
microstructural
brent
subsc
subgroup
##sychology
ski
##205
industrie
##evsky
epitax
##forcement
embed
corrid
histone
minat
slaves
profil
erin
##hei
photores
danish
directive
goes
randall
landau
familia
augus
##ulla
polyd
helpless
112
mckin
expense
pedot
hype
##aminase
macroscopic
confuc
confir
palestin
brook
governmental
metalorganic
mutu
router
personas
lipoprotein
reasoned
jamming
classifcation
antibakter
150
masl
##roidism
##ulfide
fewer
downs
aggregates
psa
##rington
authorities
radiomics
tolu
translator
merit
firefly
baud
stylistics
povidone
shapiro
athan
kaizen
senam
restoring
polarimetric
mahesh
raul
runoff
##schitz
anthropological
ngos
cheung
ventric
fatima
##iyi
pythag
rumen
construccion
phyll
venk
stratified
larval
droplets
sugars
peptid
facilitates
fidgety
licens
licensing
prostheses
##plasticity
u0001
iraqi
##volutional
typhi
toxins
lynda
municipality
estres
conductance
crawler
antivacc
##rophysiology
metasurfaces
sickle
zirconium
multiplexing
cluttered
consommation
##fuzz
catchment
lysine
##species
familiarity
multimode
rugby
sapiens
gymnema
algoritma
entomology
lethal
volunteers
fistula
barangay
pipelined
mauro
vallejo
appreciation
disagreement
liquefaction
reductase
penderita
gothic
multicriteria
clostridium
eligibility
molybdenum
avocado
umbilical
something
015
235
9001
bann
c2
cpr
cps
eq
evel
fn
fou
houd
hana
hscs
lance
lax
lets
mard
mite
pong
pci
pisa
rana
sear
sram
sander
tav
tics
ubi
vt
vice
went
waj
wider
zon
zol
##hinal
##say
##oot
##oidea
##nation
##nec
##zys
##lh
##lusion
##litz
##yin
##rance
##f6
##vor
##p1
##pool
##gp
##gos
##grade
##watch
##erer
##esan
##ingu
##icative
anac
##itatif
##atsu
##isierung
##entry
##elearning
##iloc
stear
stake
stamp
##odb
##amen
##ref
##oscope
chlam
chander
##izability
##izatio
spong
spots
disput
disassembly
##acho
##phrine
studie
##quar
shil
arna
##ighth
##ancang
1930
multibody
##pred
parc
elf
tramad
biogenic
commands
##ynet
eck
mok
preview
soh
##iof
conspir
boiling
nonst
childbirth
internship
invariants
##olev
##axanthin
subun
subtitle
##iere
##afing
##ternational
##isser
##flora
puzzles
collect
specimens
eps
epic
##iedades
grit
grac
grinding
etanol
remember
firing
dani
encode
mathieu
materialism
##olla
myr
southwestern
triz
angles
taxus
biotic
##ektif
##raga
warp
tomor
saito
foetida
liquor
illicit
packages
priya
violations
horror
goldrick
susanne
##atio3
provinc
fatal
rapd
braking
brazz
mastitis
neuroend
borrowing
wrinkle
165
australopithecus
dublin
cyclodext
##alamic
ultrahigh
mirr
josh
murine
##olitics
##kanen
##oeba
mesos
intensification
mosfets
##urgy
sigir
alkyl
glycemic
ballet
adjusted
ciud
losing
spanning
everyone
breakfast
incorporation
cvd
ayur
##ybin
keto
didactic
multipliers
arbitration
katz
gears
sylvest
bioprinting
mccarthy
barton
mildew
branched
incompress
laurence
kiw
discretion
yarn
chunk
triangulation
bifida
adulter
pillars
crawford
dubai
npk
illustrated
comportamiento
alvaro
enviromental
epigenetics
glycop
startups
mobilenetv2
barrett
cesarean
precursors
sporting
##bourne
announcements
cranial
kearifan
installation
##lotte
derek
burgess
##aswamy
##akrishnan
bibliotecas
clifford
dexterous
##alcoholic
orthopaedic
gujarat
magnetostrictive
dissonance
moroccan
celebrities
shrinking
erythematosus
corridors
tramadol
234
ahn
bans
baj
bitter
eve
fing
fry
fals
gats
gmail
hacc
jaff
kick
lk
lia
lill
luka
mocking
nina
nau
oocyte
ports
qt
rani
rye
s1
tle
tup
varg
yuri
##iated
##bard
##a2
##mb
##9c
##zhen
##lus
##cline
##f8
##famil
##pack
##tree
##tze
##gare
##gung
##gcn
##xial
##7b
##inasi
##enment
##anat
##esch
ingu
##icha
anes
anod
anwar
##rob
andres
##etra
##asking
thios
##acti
##idong
##agus
##cheng
##usch
##tham
##ucault
##abu
neal
compart
##achal
alim
##phos
2030
##obal
##object
dik
##akar
shore
arising
##assp
coat
##antz
1956
1958
leap
##entially
martha
##prints
indus
indole
##aryotes
##arev
##verat
corel
coleman
mein
obrien
ectop
visu
blades
carpal
electros
##ocks
distor
glow
glabra
charlotte
matsu
edent
edema
vij
viable
incis
finishing
brca
brux
##afari
##201
tempo
107
johan
joanne
solved
industria
##ausch
serra
##ophytes
hydrate
concussion
##incare
generalised
gover
robustly
customs
repatri
##science
lightning
##enzo
myo
tournam
inductance
feeds
constellation
linearization
##ounts
polycarb
119
promises
saft
accessed
##ropha
bacterium
##icted
immunomod
##101
karst
convert
tumours
isolating
meny
ontario
maximize
phenotyping
rotate
radiofrequency
centralization
rhodes
conductors
daniela
psiloc
fractured
omics
preservice
nasional
prostat
wearing
##calc
krug
callus
madrid
src
levin
inverters
dermoscopy
cerebrov
ipil
switches
huber
consequence
romanian
departments
pinn
porno
oscillating
sabine
botany
bleph
jaund
biofuels
evolved
doris
pumped
viscous
cuttings
##party
neighborhoods
chambers
jiawei
logistica
##atalysts
cowork
watermelon
phillippines
hematological
sketches
##amycin
u0004
rhizosphere
rhizobium
##ophilus
gluten
psychoanaly
krishnan
dyeing
kathleen
refrigerant
democra
widely
litopenaeus
georgia
dynasty
nlg
stomach
temporomandibular
amelior
ameloblastoma
##classification
bentonite
shelter
lettuce
actinid
pollutant
eisen
amidst
encephalitis
hakim
hemisphere
sarcasm
carbohydrates
hofst
conferences
dollar
intuition
tremor
surprising
completely
jamaica
srinivas
electroencephalography
giorgio
reluctance
ipv6
glossary
unequal
parliamentary
ophthalm
prohibited
nitinol
haryana
griffiths
pizza
opponent
spindle
delirium
davenport
euthanasia
gossyp
cunningham
antibakteri
disputes
aal
ait
ail
bk
bong
brick
cine
caj
dion
duch
eep
fencing
gott
hts
iga
igbt
jd
klu
lomb
mile
mere
naw
n2o
oto
pray
rov
rcs
t2
tare
uric
vd
viz
vogel
wed
wife
##hem
##hep
##hetic
##aion
##ej
##mul
##mate
##zad
##zenet
##cw
##vac
##vist
##tation
##witch
##qin
##erb
##inks
##enol
##enbaum
##oru
##anj
anos
##itness
##atell
##isol
##root
##urin
thur
##oment
##emnt
##ulacion
styrene
##rax
##odem
##cho
##ched
conce
reposition
ongoing
##rion
##rizio
devel
toh
##unle
##abia
##imura
##ionics
##uder
##apar
##tingia
spa
disinformation
clt
alber
alias
asuhan
##quest
dihydro
##akin
##aksi
##actone
sheh
arteries
##ivility
imprint
coin
multifactor
##prac
##ideo
##aval
isometric
##endi
##illas
infra
infill
cornel
desease
bij
medina
managemen
##ismus
quim
appeal
techno
technic
agn
agus
suresh
##seismic
##egu
sox
##fertil
##oku
communis
estil
floss
##indus
##tins
idf
##arte
##artan
nond
classifications
edn
eduk
incarc
##inaz
caputo
doh
cyto
memes
johans
psychol
overc
patron
##ashto
redistribution
##askar
pei
malawi
speciation
##ommuting
labs
##tilis
grat
rojas
corru
remodeling
profits
employers
encroach
topographic
quantify
monitors
devil
##u0015
neurolog
learnig
primaria
negeri
118
responsibilities
anglic
expir
succes
pedersen
davidson
standar
propensity
##hyper
immunization
immunological
##108
berb
foucault
definicion
render
lego
informacion
ppp
separated
##ceptive
155
lesbian
rosal
borer
followers
gaur
gaas
holt
include
majors
fitz
muff
##ohar
##lycer
gastritis
christos
##player
halogen
shipyard
antrop
decompositions
svp
racing
mortgage
casp
pacl
baba
calls
called
rankine
taguchi
habitats
kerr
glucos
##rotus
tamper
mangement
hopping
constructs
lyons
cathodic
escala
rigorous
sabah
botanical
dentition
santri
durable
ibn
abnormality
##imbangan
acetone
anticipation
pleu
frictional
multitasking
interpretive
##oblast
steroid
pestel
metastases
dutta
stigm
cartesian
hexagonal
jarak
gadget
clarity
aurora
eliminating
##osomiasis
homeschool
kualitatif
rearrang
requests
siblings
##dynamics
bryan
supraseg
lutz
scoping
ungu
torsional
systolic
rakesh
neglected
networ
fermi
appendix
phillipines
admitted
herzberg
hannah
bharat
prepare
##speech
atiyah
waktu
statins
spreadsheet
revitalization
mccullough
fathers
sterilization
energetic
manuscript
##liest
##emotional
sousa
prussian
premenstrual
reprogramming
jatropha
vivek
miniaturized
upgrading
reparameterization
cuckoo
amsterdam
penyebab
sutherland
evapotrans
##leakage
helplessness
psilocybin
jaundice
encroachment
230
330
aro
aac
bom
cog
ctr
cte
ccd
dign
dota
dahl
eun
eust
eich
fts
fong
faw
gase
hik
hsi
ipc
kro
kast
kush
lute
mug
mating
mhd
nou
olu
rnas
sst
siti
taf
vast
vries
yon
zong
##iability
##bite
##eiro
##eksi
##mons
##mnet
##lane
##lofen
##yama
##cool
##cont
##rust
##tun
##gr
##jam
##willi
##tib
##tiz
##inar
##inka
##ortical
anem
##itat
##isel
##edema
andrograph
##elic
##olio
##ileg
##star
##stalk
##uly
##rable
##agy
##aginal
##agawa
##chs
##chy
##chem
chuk
dever
tou
##thon
comet
##irk
##plankton
##adia
##opoly
nev
resverat
prere
try
alban
##phon
modelos
interpr
shru
shrivastava
perawatan
peroxidase
##asso
contest
##ayah
scrib
##ighter
##iste
mani
##ivo
impurity
imports
1950
leb
maroc
indication
indias
beacon
##ousness
opposition
dataflow
info
commuting
qubit
##ultur
surab
##seg
weaning
##eney
motive
popl
##atica
simd
simons
flush
##indic
##inders
decid
##ropathy
##arty
optimality
##oyi
mata
##aware
locate
economical
##armacy
capable
##202
lincol
joining
implied
reddit
##brach
singularities
speculation
consuming
##odef
stressed
demys
##eye
fires
baron
composed
campan
##ostat
carbam
##tao
africas
##arger
ols
guides
##ativos
harper
primal
constants
##biosis
estado
##kii
##eseed
##shi
##shell
biosensors
taxp
diabetics
macaque
broude
inhom
karth
walmart
##123
hemt
hemts
chennai
ramadan
lipschitz
explorations
burk
inhibit
alignments
santi
brah
porters
competences
neuroticism
navier
##135
vegan
curricular
rehab
lidocaine
cmc
subsidence
sheath
photoacoustic
hashimoto
quadcop
vo2
fluorouracil
elekt
execu
majority
commercialization
michigan
darts
glycyr
glycerol
julio
embeddedness
happens
markovian
cohesive
divided
simultaneously
##iyu
rodent
reforming
swarms
##hoot
attractive
santa
spinning
palmprint
neurosci
leaks
varic
motherhood
vedios
stevens
negotiations
algangan
cobit
jordanian
kolkata
mppt
ugly
awak
syllab
hawkins
leptin
mohsen
pasca
hungarian
llc
clarification
##hsan
superconductor
clearing
strike
prisoners
supervisors
sacrif
ubiquitin
sickness
guaranteed
stomatal
neuropsychological
calibrating
iqbal
carboxylic
oversampling
1111j
mfcc
occluded
lizard
aberration
perkembangan
doxorub
frustration
infantil
##itaxel
chylothorax
subsidy
geomagnetic
lycopers
gastrectomy
##children
abandoned
##adaptive
aneurysm
papillomavirus
##anosoma
rechargeable
bhattacharya
##knowledge
constantin
enfermedades
enlightenment
superficial
discursive
cyprus
millenials
pivot
exceptional
redefining
detergent
timmerman
profesional
photorealistic
cuisine
##abricated
videogames
gambaran
arrhythmia
logarithmic
improvisation
thierry
eyewitness
kalyan
corrugated
tuberosum
##adhyay
venkates
gatsby
prerequis
lincoln
83
911
a1
aims
bem
bant
bari
bricks
cach
cables
ddr
fug
fumar
heme
ie
kathy
lying
mature
nid
nard
oat
plex
ria
rack
ried
raff
rover
seller
tug
tinc
tanner
vanc
xuan
yen
yee
##hos
##hof
##hiko
##bec
##mont
##micro
##nap
##zee
##zek
##lysis
##yal
##yao
##fah
##kk
##kul
##6a
##xiety
##xuan
##jn
##jak
##alid
##enian
##enheit
##aric
inade
inproceedings
##icacion
##ecology
##acology
##emory
##emaker
##iland
stator
##ticia
##ticular
##chang
##eart
##esse
##oslav
dey
##umo
##abin
##irj
##imide
imid
##nings
orp
##izadeh
expor
exacer
envelopment
enalap
##tinger
modulate
usual
resear
prp
tril
alps
##phot
##forms
apost
shira
##assar
strings
emerald
##ivision
impacting
##arden
multin
multiplayer
beb
beban
##times
travers
##endor
##endation
amos
##ianism
whose
##aluation
##sek
autor
weis
weib
ecc
blasting
blender
langauge
engl
carry
##iox
convolu
persis
##indo
distancia
##ropri
nonalcoholic
glas
##oyu
monkeys
incivility
frans
microbe
microeconomics
bring
bras
brett
##iera
##isex
memris
psycholingu
overexpression
however
geost
##bred
##inska
sala
deline
delgado
nato
natasha
minnes
slices
remains
typography
concaten
concurrency
searchable
dirac
logit
innovativeness
determines
octop
##ventional
plantarum
virtuales
factories
relatedness
futur
##compar
ic50
iccv
driessen
advancements
inferred
trif
colored
##etium
sucking
homography
preced
partum
propiedades
124
##idding
bertr
bandpass
snyder
hemodynamic
##itories
ppo
rotations
headache
namibia
sanj
anthrac
##proving
sexually
concentrated
electrons
participate
butyl
tumorigen
nurture
radiative
momord
actuation
companys
multicast
cd73
mirzak
raise
fungsi
ashish
voter
eleg
1965
##words
phyto
##mixt
ventral
divine
fisik
midas
ssr
node2vec
henri
muntingia
ozonation
vacancy
cornell
deformations
telecommuting
bengali
renewal
ketepatan
vedeo
territory
florence
anchoring
budgetary
utara
nerves
##ufried
sedimentary
clinicians
cartel
tensions
aceh
cyanide
transcriptomic
deviations
oligosacchar
ranges
kristina
kulkarni
bogdan
weekly
registered
scandina
pamela
latit
ewom
potentilla
memorization
brachy
vernacular
retardant
piperita
finnish
congruence
insufficiency
microblogs
factuality
appetite
beverages
reluctant
binarized
thalassemia
wimax
agglomeration
duplicate
kampung
impulsivity
biotech
politeness
##inflammatory
proyect
ecotourism
photodetector
nostalgia
ortega
kejadian
jacqueline
obligations
derecho
hockey
reseach
cuestionario
jaccard
unscented
impossible
berhubungan
distortions
paclitaxel
resveratrol
inadequ
enalapril
memristive
##ufriedenheit
238
a2
aub
baw
bals
boll
btc
cinc
cef
dill
dune
eosin
faz
feline
gour
grim
gaj
gives
hcl
ih
ipa
ks
lr
moc
nug
nair
norton
oro
pace
pee
rv
ration
rop
rok
rams
sx
sine
sow
ssc
tation
tent
tyr
toni
vault
wag
weng
yav
yoshi
zim
ziel
##ivitis
##bok
##brain
##ook
##dha
##e6
##nement
##yas
##cing
##cid
##vit
##kok
##ptic
##gel
##anya
##isco
##roth
##roduction
##elson
thrombo
##omance
##omechanical
##ulants
##idiv
##agl
##change
reem
##ositis
##rift
chell
dei
##umor
##plate
imo
##opre
##ovid
syz
acro
spod
spend
spleen
trp
distinction
clitor
aloud
##obility
##obiology
##iping
##qua
pham
shams
shedding
recidiv
argu
systematics
sealing
##anck
##iban
leather
marion
##prud
parse
tradisi
isotropic
##area
infestation
assoc
assays
pollin
polishing
amput
##bler
schwe
##egos
weyl
##ynch
##ishman
educativa
moun
performanc
preem
prehist
engle
##ferro
carica
##inesterase
flem
flesh
##ilee
invitro
##awesi
incubation
discapac
microenvironment
microleakage
risc
realized
retaining
memper
comparision
solitary
geiger
lozano
poses
##askan
peat
twel
specified
laba
allows
xxxv
slender
affiliation
##deo
auf
##esharing
erl
demolition
##itik
baru
upaya
upgrade
##ercio
breg
campo
photograph
ult
##tening
cured
connective
landfill
##u0013
##zzo
benif
bender
##linical
metaanalysis
penrose
investigacion
##ouni
herd
smallholder
anglo
nuts
wiring
brandon
propri
##rophication
aeronet
brock
normality
karol
roadway
legends
competitions
informational
sunlight
##liff
vulgare
fabry
##conf
prosper
rhinos
pores
budgets
orthod
vega
differentiating
cyclones
dryer
mohamad
reprod
presentations
fairy
toronto
stylization
multicent
galer
woods
krzys
heparin
browsing
##ogenicity
quadric
adolescentes
cerebrosp
cerebellar
maml
sdr
adjustments
fisioter
perfomance
freshness
untreated
##no2
fragility
oscillatory
mariam
simplicity
##iformes
flyback
districts
ribosomal
##relations
##enthal
espina
missions
biopsych
villages
steroids
folkl
clinician
sulawesi
conserved
kwon
terrorist
consolid
wanita
##ophyllum
gemc
shaming
marxism
arrangements
kecamatan
unfair
encounter
tamilnad
suggested
stripping
newtonian
##physics
yoav
intersectionality
multiculturalism
affordance
contingent
saccades
scandal
hymenoptera
heterostructures
honor
horticultural
ignition
akira
trypanosoma
mnemonics
metaheuristics
hallucination
polypharmacy
antidepressants
fucking
##washing
vendor
mutagenic
##hotra
##ztof
arthropod
adequacy
stenosis
endocrin
lepidoptera
fulfill
perbanding
nutricion
##odendron
subjectivity
ferguson
toxoplasma
calabura
pothole
endophytic
subspaces
castillo
ilya
endoplasmic
obfuscation
dormancy
estradiol
piaget
kinship
jujube
arizona
kiwif
haccp
cerebrovascular
executives
krzysztof
cerebrospinal
folklore
tamilnadu
239
b6
bend
bauer
crom
dwell
ehealth
gom
kj
kag
kato
lank
lbp
mub
pitt
sank
stil
tx
telling
vial
wings
wides
wlan
zag
##has
##b1
##dia
##dine
##dust
##uw
##md
##mis
##zin
##zal
##zers
##lop
##card
##control
##rar
##fried
##kb
##kah
##pf
##gression
##onent
##erch
##inition
##aldehyde
##enix
inund
##atric
##rok
##ecom
##ecki
##entos
##elen
##etter
##asila
##olate
##omal
##omeric
##emum
##ulat
##iditas
##amia
reu
##ospora
chari
##atique
##impin
##imientos
##utuhan
##udan
##opamine
##opogon
ornam
exopl
compris
disulfide
##ualan
alib
##ologico
asm
##ipine
unesco
undef
##query
dibor
diaper
phoen
reck
arro
perenc
perbank
scoo
seaf
intox
##iston
emf
emper
mant
detec
##antas
plum
multiband
martian
##prec
indi
effector
##rylam
opencl
gratification
##athon
##blasts
##isman
apprehension
obsc
weaving
weeks
##rosy
moor
humph
diffr
charantia
protects
incid
subord
guilt
##iero
##ymes
linbo3
##issi
##oxane
trainings
casein
malus
malhotra
characterize
speculative
epstein
##ursement
architects
rost
##ometri
centres
samir
ers
demography
democr
##eya
transferred
cambi
photographic
zhan
complexities
irina
examinations
temperament
sustaining
panda
##ulli
catcher
icc
##kiewicz
maxilla
magdal
##fully
trips
mcwilli
annular
liberia
macular
macmill
##ennial
nitrous
propylene
##oticus
reductions
treebank
##ouli
capacitors
##ijs
##aranja
thomson
morphable
screens
vulcan
##115
biliary
goldman
##resp
narayanan
strokes
##electronics
naming
anthel
131
multimodel
hoang
##157
duties
140
##ohex
pcm
romance
boxing
##gestive
giul
querying
raju
rajiv
irony
ethnographic
chloroquine
pasteur
browne
elek
sril
sdm
darknet
1016s
hydrogenation
fmcw
tenant
communicable
tacit
gallic
pornography
pancasila
mmc
##amanan
recognising
yogh
receive
tailoring
absorptive
ebv
neuropathic
moistur
jenny
pleural
multiplicative
shuang
##rusor
pitts
gearbox
tendency
introduced
konsum
bucket
deadline
deadlock
luminescent
gardening
attributions
etika
herbicides
dnns
alteration
##ktomi
deconvolutional
validating
plague
scarab
batholith
chalc
sharpness
reserach
reachability
roadside
##patrick
landslides
ponds
plurality
witness
kebutuhan
offerings
eutrophication
encapsulated
surprise
siegel
reperc
mejor
galaxies
rubinstein
tiempo
scotland
optoelectronic
renee
crosstalk
pewarna
carcass
menurut
##electrochemical
enjoyment
reusable
juridique
annihil
thrombocytopenia
conveyor
extrapolation
irreversible
hebrew
eclipse
steffen
aquaponics
suppurative
jantung
incompressible
thiosemicarb
edentulous
actinidiae
anglicisms
pleurotus
evapotranspiration
minnesota
mirzakhani
perbandingan
kiwifruit
undefined
216
4v
bax
bola
cds
croc
dma
eocene
fell
gpr
gaus
jl
jf
jt
jody
karm
kuk
nz
pays
pnp
pumps
rico
riy
soss
tls
tien
taint
v1
vole
wies
weg
wester
wisc
zan
zul
##hit
##heng
##huber
##oza
##lable
##lstm
##kop
##tage
##erra
##inic
##alization
ingen
##atti
##isian
##ecy
##urine
##urban
##etts
##acute
##ilicate
##sters
##stones
##idata
##idhar
##ravel
##amba
##ampled
##terity
prover
##riax
chief
comedy
##uclear
##uno
##unet
##unity
##iris
##irani
##utative
imam
##apha
##opressin
orland
moderated
##angled
clays
adr
alaska
efferv
##obenz
##ipt
##ipel
phthal
shing
##eche
perd
##utional
##istor
##usto
##ivac
detr
detention
lehr
##orte
deeps
##tivos
openc
socket
relapsed
##endum
##hawar
desain
amal
amines
quercetin
wholes
agil
##enges
colostr
##erved
##enetic
regist
blum
soz
##iken
conson
flores
boh
boon
bout
organize
##oyama
edin
##tificial
fraser
brin
brut
textural
capping
skopos
overt
adaptively
##urred
defend
serbia
serrano
internationalisation
literasi
slit
##cl2
etude
erasure
crosslin
facets
ito
photodynamic
personalities
terra
##ethics
goats
patterned
##sci
##screen
curl
curation
fibrous
steatosis
skilled
nursery
benoit
negro
pengel
115
magma
baltic
platoon
maas
milking
intrins
extro
saif
127
palmar
melody
melbourne
acharya
immunodef
##102
failing
definite
##hadi
passer
mutational
rouge
damper
##129
##ijun
dennett
lipo
mainland
arabian
morphing
liveness
andrei
andrey
##117
##differ
manipul
186
scheduled
raphael
braille
yangtze
exposing
adultos
multimodality
borges
boredom
hamm
autoencoding
texting
majid
##laim
stimulate
##piratory
radiometer
cereals
translated
cleft
##opsies
tabular
pelati
senegal
religions
astrocytes
astaxanthin
profitabilitas
gestalt
voip
##sche
citric
oceans
balloon
cheap
msds
##gggg
andrews
pigments
pvt
counselors
reformulation
cemento
marius
flywhe
seasons
zhuang
ribo
hills
lindsay
tribological
##aksanaan
mikolov
awake
rdma
montreal
exponent
gonad
physiotherap
##00000000
pestle
harvester
lauren
jaringan
##phalus
angeles
spheres
microprop
kawasaki
bradley
gabriela
electrocatalytic
bachelor
described
diarization
innoc
gingivitis
jewel
comunication
squeezenet
noble
##asyon
sungai
dissociative
auctions
newspapers
aspiration
cepa
noncoding
brushless
bronchopulmonary
dummy
barcoding
schulz
srinivasan
##american
hydrodynamics
controversy
hutch
vendors
disruptors
appeals
euphemism
mxene
tyrosine
sufferage
anfis
vertically
lipstick
fumig
amaranthus
retracted
destinations
solubilizing
unemployed
affirmative
isabelle
nocturnal
riccardo
likuiditas
kazakhstan
diaphragm
sierra
##cliffe
dissipative
unintended
biswas
manchester
surabaya
quadcopter
momordica
scandinavian
widespread
perbankan
macmillan
yoghurt
##riaxone
013
214
6g
ation
aod
auc
bn
bati
bacc
cumin
cush
cct
dud
dome
dhan
drafting
fomo
jug
kale
kail
kham
kali
kuantit
loy
mae
mba
mazz
none
nabil
pik
rie
somm
torn
tense
ust
wiz
woo
yok
yaman
zare
zeta
##iensis
##hid
##b4
##uisme
##etin
##eenth
##mil
##mind
##zewski
##lak
##liness
##c5
##ced
##commun
##fg
##fac
##pting
##pong
##3a
##toc
##won
##wara
##tiroid
##alm
##alog
##icans
##isse
##asim
##asub
thakur
##olv
forearm
sts
##odiaz
##chol
constr
##usiness
##iging
##igold
##ogic
##ogly
ons
##esson
##ocom
##abah
##irub
##imation
##imumab
##apur
##apati
neem
modulators
usenix
aci
##achy
alme
##ifting
##obis
univer
apri
diurnal
shaf
shuk
arach
stron
seab
intact
##ivores
##ancial
detrusor
##arda
coerc
193
1953
1951
maril
graves
##esto
infin
##orsky
##athematics
technetium
agv
##enga
selatan
##tridge
weathering
feyn
moj
robo
semidefinite
poker
##ikar
##iksi
smt
simpson
sensitized
secular
accidental
synapse
monster
brenn
insulating
##naz
progen
psychologist
intelligibility
##ixing
##flik
cultur
peaks
distributive
deleu
radion
drinks
##isional
histori
##eyan
airspace
facs
barnett
readmission
##hetics
ull
customization
movi
##rada
randomly
randomness
octa
valv
temperatur
epiderm
futsal
cryogenic
negation
esthetic
##valence
colorful
expensive
##omyosarcoma
libro
manufactured
warcraft
refine
refuse
doesnt
renato
vanets
##web
##ictions
liposomal
siemens
##rically
scalp
professions
phenotypes
fabrizio
##research
##rogenesis
fatma
prosopis
##poo
133
porcel
##idado
squat
inclination
ortho
adjusting
titan
titration
stereot
oss
junk
acceptable
pharmacogn
merge
azo
observable
caul
theraphy
kaolin
motivate
morales
pastoral
saver
cryptanalysis
mdd
xiaof
courier
##rotactile
ballistic
accountant
donors
tiab
antony
counsell
likert
lagoon
lagrange
cinematic
koen
dispersed
contractors
vibrio
shareholders
married
albino
rcts
configurable
ribeiro
##oplasty
pavements
wiki
wikidata
accumulated
pitaya
veil
seq2seq
hawaii
adhesives
##planar
angiogenesis
waveguides
ulcerative
vaugh
dunn
asperger
stripe
placed
eugen
kyung
souza
conjugated
##volatile
frontalization
pharmacokinetic
bureaucratic
beginners
instantaneous
sparql
ludwig
econometrics
lahore
mongodb
eurasian
pencil
cecilia
advisor
cochlear
entrance
prokaryotic
mintzberg
depresion
disinfectant
##ococci
##onitrile
##blockchain
mindsets
oryza
agronomic
instructors
transposable
plurilinguisme
deflection
accompan
dijkstra
pietro
elisabeth
ambidex
herrera
avalanche
chimpanzee
micronutrients
reciprocity
eukaryotic
arbeits
klasifikasi
naveen
coexistence
hypoglycemia
viscoelastic
nanopartikel
morfologi
entorhinal
maxillofacial
surpassing
superintelligence
nothing
penjualan
anaphora
phrasal
palestinian
mesoscale
inguinal
goverment
gratton
homeschooling
syllabus
multinomial
bertrand
discapacidad
galerkin
gemcitabine
phoenix
0000
3x
bpr
bock
batio3
cair
c3n4
dand
dunc
dawa
foun
hul
hild
hanna
ike
kogn
kart
krim
kull
kwan
lom
lasting
mage
mga
mda
nif
nacl
pangan
p300
qigong
r2
riding
rasa
sers
sard
sss
ture
tive
vaz
welling
wett
xvi
xception
##iencia
##hum
##sic
##social
##shaw
##bj
##bents
##bacter
##bub
##oher
##dropping
##uating
##aiton
##mg
##nce
##nell
##lm
##leman
##yel
##comm
##court
##f0
##fus
##vial
##kal
##kine
##priv
##gc
##016
##jid
##jung
##waves
##qs
##tige
##onov
##inent
##alus
##enburg
##iten
##atech
##ecvf
##elyn
##etron
theano
##ilops
##sthe
##stander
stalk
##aghi
##chia
conve
congestive
##uso
##ogra
##ogaster
##rex
##osel
chr
##atie
##ithromycin
##apine
##opod
##ovir
exosomes
modi
##angas
syrian
sput
##epar
admixt
alem
alth
alif
##pharm
##ologis
diare
phis
phage
shall
reclos
aryl
perineal
##assa
##assan
contours
##ayat
seid
intense
genres
195
1952
multiword
##ibrill
covers
gravel
trailing
##avia
isabel
bystander
relie
##estar
##005
apples
##ynd
ecos
feather
timely
regress
regimen
bland
blume
blanco
poetic
soaking
##gankov
carm
markedness
knots
approaching
dece
nont
nonvolatile
supra
##viral
finish
subtilis
insulated
##nessee
##2021
liner
servic
intelligences
solo
soldi
##azawa
puffer
afect
##evan
singer
collectors
noor
allost
##tillation
##exam
##married
##torial
##ofa
centroid
rememb
swan
##abilty
calvin
postm
chemorad
pathologic
##oidosis
camell
personalised
potency
##tigo
freed
##rado
irwin
oconn
philippou
verlag
neurol
sums
preserve
urbanisation
differently
introvert
inducible
addis
belcher
linearity
iceland
helium
integrator
mci
libs
stepping
medicare
refram
##enny
propell
winding
121
interventional
enteric
karin
definisi
instal
snack
snakes
roux
##126
essence
individualized
menj
transitioning
morphogenesis
modernity
headphone
birk
ieeecvf
##contin
alexa
akbar
masashi
neurotrans
ukraine
ambass
girard
adopt
holoth
##ystems
piotr
adjoint
ionization
ionizing
##irov
indicate
accepted
##veda
observing
kaiser
piping
abstin
ingestion
pretrain
lymphoblastic
cryptosystem
fallacy
helpfulness
fpn
jeong
gerhard
darkness
glucocortic
locke
mangost
macrobrach
fisika
stackelberg
freshmen
predatory
bimodal
pinter
chih
magnetron
trigg
umum
##ygium
cfrp
multilingualism
vibrating
vibrotactile
konflik
ebg
##domain
diagnoses
jerzy
refinery
kiran
kirch
neoplas
lemma
themsel
hematology
dbscan
gardens
josef
rhizoc
ripening
antecedent
peshawar
##depression
##razine
prophet
marginalized
appropriation
applicable
sinusitis
tlx
ductile
alessandra
nwabia
delivered
tgf
appren
potentially
paintings
nivel
morbid
festivals
cholang
robertson
propositions
diatoms
eccentricity
chrysanth
catheterization
utaut2
dashboard
hudson
subculture
reverberation
rituals
elliott
oryz
sponsorship
certificate
vapour
tehran
pericard
briggs
aegilops
arvind
orphan
atsushi
kansei
bioreactor
ijcai
emanuel
govindarajan
orthopedic
pichler
calendar
##machine
zoonotic
delegation
positivism
eavesdropping
domenico
empathetic
writers
ventricle
conspiracy
glycoprotein
##ileged
exacerb
syzygium
twelve
##rylamide
anthelmin
immunodeficiency
pelatihan
##asubram
soldiers
5s
aura
bail
bits
bmc
dao
dams
dtc
eig
fok
fenn
gale
gree
gren
gizzard
h7
hutan
ilex
jem
kers
krom
kao
kano
kagan
lian
lone
mpa
mika
nter
oler
pum
prib
pont
pda
pva
pause
qam
qsar
qirj
rms
rival
tauss
ue
v5
woj
xer
xrf
yer
zil
##oes
##ohn
##ozzi
##a6
##aul
##e2
##zema
##yros
##rong
##rata
##vv
##xis
##jau
##witz
##tides
##onau
##inning
##algorithm
##eneration
##inga
##icry
ants
##atta
##uron
##asti
thio
##access
##acios
##omat
##omann
##emon
##emik
theori
std
striving
##odong
##agem
##chel
##chenko
##veen
##amo
##leaf
refact
##essori
defer
##thor
comercio
##umm
##umers
##uning
##imum
##plications
##planes
##ionine
ench
modifying
acryl
##uality
unste
unmarried
apollo
##quet
##eware
interim
metron
shoe
contoh
analis
transvers
transduction
##uston
datos
coop
##anted
plut
multiresolution
##ibat
marching
elective
everg
evening
##tima
##oua
cori
cornea
biologi
quo
quasil
agius
##009
autologous
weil
##erges
timer
performed
##ahed
seminary
##ikation
cara
carne
groove
newcom
##titative
##erna
deceptive
boar
organoids
seclusion
synaps
##eeb
##wards
##tifolia
incon
##supervised
discounting
sketching
##eena
repress
arche
redactable
mali
##otho
delle
formats
antip
serve
epigen
programa
programmer
slc
slur
slotted
affection
remitt
erm
smartwatch
##itize
calm
calder
notation
airflow
barber
longa
longformer
##inality
##ethnic
pott
repar
creatin
turtles
fasttext
fuji
##ounding
##nette
planta
silhou
docentes
ferment
factored
artemia
tourette
##pss
catt
cryptic
##ospital
polyaniline
icassp
paints
1126
1186
cardior
##omatics
mcquar
preclinical
partur
paola
goodman
brocc
foams
petra
petersen
electrodep
passivation
walton
snr
miami
ppe
rotavirus
##111
delivering
enso
ensure
ideological
experiencing
centerline
rhino
rhabd
germplasm
decomposing
misunder
##wavel
kimber
authorization
##ushima
presenteeism
pharmaco
martina
parsons
faroo
pelagic
mayores
rajeev
kenyan
deriving
wilkins
bhag
executable
habitos
stabilize
dilat
##plantation
dermoscopic
ellips
cadcam
pigmented
tacotron
coffea
##wells
pradeep
oscillators
##faat
rigging
##opathies
punica
vidal
piero
prolactin
moodle
biocompos
inspire
drawbacks
tribe
segmental
##ilmaz
suspicious
hussein
bergman
sadism
montessori
nowcasting
niloticus
bibliographic
watermark
significantly
rebell
substitute
konsent
trout
prefabricated
naked
ridesharing
bangun
contaminacion
branches
benzene
benzodiaz
cabbage
pickering
tanks
##aceted
cubes
gliomas
theoretically
polymorphic
obligation
##enerative
chimeric
marginalization
ciclo
forcasting
nationwide
skipping
diclofen
embodiment
bundles
sophia
mcdonalds
microorganism
affordable
submerg
georgios
nlrp
##rocessing
catastroph
pondok
lutein
veneers
honeypots
tectonics
surgeons
