{"version":"1.0","truncation":null,"padding":null,"added_tokens":[{"id":0,"special":true,"content":"[UNK]","single_word":false,"lstrip":false,"rstrip":false,"normalized":false},{"id":1,"special":true,"content":"[CLS]","single_word":false,"lstrip":false,"rstrip":false,"normalized":false},{"id":2,"special":true,"content":"[SEP]","single_word":false,"lstrip":false,"rstrip":false,"normalized":false},{"id":3,"special":true,"content":"[PAD]","single_word":false,"lstrip":false,"rstrip":false,"normalized":false},{"id":4,"special":true,"content":"[MASK]","single_word":false,"lstrip":false,"rstrip":false,"normalized":false}],"normalizer":{"type":"Sequence","normalizers":[{"type":"NFD"},{"type":"StripAccents"}]},"pre_tokenizer":{"type":"Whitespace"},"post_processor":{"type":"TemplateProcessing","single":[{"SpecialToken":{"id":"[CLS]","type_id":0}},{"Sequence":{"id":"A","type_id":0}},{"SpecialToken":{"id":"[SEP]","type_id":0}}],"pair":[{"SpecialToken":{"id":"[CLS]","type_id":0}},{"Sequence":{"id":"A","type_id":0}},{"SpecialToken":{"id":"[SEP]","type_id":0}},{"Sequence":{"id":"B","type_id":1}},{"SpecialToken":{"id":"[SEP]","type_id":1}}],"special_tokens":{"[CLS]":{"id":"[CLS]","ids":[1],"tokens":["[CLS]"]},"[SEP]":{"id":"[SEP]","ids":[2],"tokens":["[SEP]"]}}},"decoder":null,"model":{"type":"WordPiece","unk_token":"[UNK]","continuing_subword_prefix":"##","max_input_chars_per_word":100,"vocab":{"[UNK]":0,"[CLS]":1,"[SEP]":2,"[PAD]":3,"[MASK]":4,"0":5,"1":6,"2":7,"3":8,"4":9,"5":10,"6":11,"7":12,"8":13,"9":14,"a":15,"b":16,"c":17,"d":18,"e":19,"f":20,"g":21,"h":22,"i":23,"j":24,"k":25,"l":26,"m":27,"n":28,"o":29,"p":30,"q":31,"r":32,"s":33,"t":34,"u":35,"v":36,"w":37,"x":38,"y":39,"z":40,"##n":41,"##t":42,"##i":43,"##p":44,"##a":45,"##h":46,"##r":47,"##m":48,"##y":49,"##l":50,"##g":51,"##o":52,"##e":53,"##u":54,"##c":55,"##k":56,"##s":57,"##b":58,"##d":59,"##f":60,"##z":61,"##w":62,"##v":63,"##1":64,"##0":65,"##4":66,"##2":67,"##j":68,"##3":69,"##q":70,"##x":71,"##8":72,"##9":73,"##6":74,"##5":75,"##7":76,"##ti":77,"##on":78,"##in":79,"##er":80,"##al":81,"##en":82,"##or":83,"##tion":84,"##an":85,"##es":86,"##ar":87,"##ing":88,"in":89,"##ic":90,"an":91,"##ation":92,"of":93,"##it":94,"##at":95,"##is":96,"##ed":97,"##ec":98,"##ro":99,"and":100,"##ur":101,"##ent":102,"##el":103,"##et":104,"##as":105,"##ac":106,"th":107,"##ol":108,"##em":109,"##om":110,"the":111,"##il":112,"for":113,"##st":114,"##ul":115,"##id":116,"st":117,"##ce":118,"##ra":119,"##od":120,"##ag":121,"##tic":122,"##ch":123,"##ve":124,"##ear":125,"con":126,"##us":127,"##am":128,"##ig":129,"##og":130,"##le":131,"re":132,"##ter":133,"on":134,"##ity":135,"##re":136,"##ect":137,"##ng":138,"##os":139,"##ess":140,"pro":141,"##ri":142,"de":143,"ch":144,"to":145,"##ers":146,"##th":147,"##um":148,"##oc":149,"com":150,"##uc":151,"##un":152,"##ab":153,"##ir":154,"##ati":155,"##im":156,"##ff":157,"##ith":158,"##pl":159,"im":160,"##ut":161,"##ning":162,"##ad":163,"##ion":164,"##ork":165,"##ment":166,"lear":167,"##ap":168,"##ud":169,"##ot":170,"##op":171,"##ov":172,"##ial":173,"##iz":174,"learning":175,"##ia":176,"or":177,"##ine":178,"with":179,"ne":180,"##ow":181,"##etw":182,"##ure":183,"en":184,"ex":185,"##ement":186,"mod":187,"##ting":188,"##for":189,"##ical":190,"##and":191,"us":192,"##ence":193,"##age":194,"##ang":195,"res":196,"##ys":197,"comp":198,"##ate":199,"sy":200,"ac":201,"##ep":202,"sp":203,"##etwork":204,"network":205,"tr":206,"pr":207,"##ication":208,"##per":209,"cl":210,"dis":211,"ad":212,"##ual":213,"##ach":214,"##ance":215,"bas":216,"al":217,"##ph":218,"##olog":219,"eff":220,"as":221,"##ans":222,"##ens":223,"##if":224,"##ural":225,"##ob":226,"##form":227,"##ip":228,"##tive":229,"##ell":230,"un":231,"su":232,"##vi":233,"##ts":234,"ap":235,"##ection":236,"##duc":237,"20":238,"based":239,"##qu":240,"stud":241,"model":242,"di":243,"##ak":244,"##act":245,"##ain":246,"##ew":247,"##stem":248,"ph":249,"rec":250,"met":251,"sh":252,"##ization":253,"ar":254,"##ition":255,"inter":256,"##ech":257,"system":258,"##ge":259,"##ass":260,"cont":261,"##ution":262,"per":263,"anal":264,"##rom":265,"##ay":266,"se":267,"using":268,"sc":269,"##igh":270,"str":271,"trans":272,"int":273,"##ist":274,"man":275,"gen":276,"em":277,"##ric":278,"##our":279,"##ust":280,"mul":281,"at":282,"##der":283,"##ory":284,"det":285,"##anc":286,"dat":287,"##ies":288,"##iv":289,"imp":290,"##ard":291,"co":292,"##ant":293,"##all":294,"multi":295,"pl":296,"deep":297,"##ysis":298,"##ib":299,"le":300,"##vel":301,"##enti":302,"##ort":303,"19":304,"##enc":305,"##ative":306,"networks":307,"te":308,"mar":309,"##ign":310,"##ations":311,"##pr":312,"##ology":313,"cov":314,"ind":315,"analysis":316,"par":317,"##ide":318,"effect":319,"el":320,"##ents":321,"neural":322,"be":323,"ev":324,"he":325,"##tim":326,"##ase":327,"##ary":328,"gra":329,"##ry":330,"op":331,"##ous":332,"##tiv":333,"##olution":334,"from":335,"##av":336,"tra":337,"##ack":338,"##ated":339,"##rol":340,"data":341,"by":342,"is":343,"##ast":344,"##are":345,"soc":346,"rel":347,"##est":348,"##ou":349,"##ace":350,"##end":351,"##ill":352,"##ver":353,"##ly":354,"inf":355,"201":356,"cor":357,"##ha":358,"##ong":359,"des":360,"bi":361,"##ility":362,"##ors":363,"med":364,"##ath":365,"covid":366,"##earch":367,"##ational":368,"detection":369,"pol":370,"##ug":371,"ass":372,"##erm":373,"class":374,"am":375,"##ian":376,"manag":377,"##echn":378,"comm":379,"##ram":380,"meth":381,"##cess":382,"study":383,"##ism":384,"qu":385,"##bl":386,"image":387,"##ult":388,"app":389,"ab":390,"techn":391,"##ater":392,"##ogn":393,"gener":394,"##00":395,"##view":396,"wh":397,"##tics":398,"ag":399,"sur":400,"sch":401,"##eng":402,"social":403,"hy":404,"##action":405,"##able":406,"##vers":407,"method":408,"col":409,"sel":410,"##ood":411,"##und":412,"me":413,"management":414,"##alu":415,"##ild":416,"mic":417,"##lu":418,"##xt":419,"##tical":420,"##ari":421,"##plication":422,"control":423,"aut":424,"##se":425,"##velop":426,"ob":427,"##ties":428,"##tr":429,"##eg":430,"##ating":431,"##ject":432,"##ice":433,"develop":434,"##ature":435,"##ification":436,"we":437,"##yn":438,"##str":439,"##uct":440,"research":441,"ec":442,"##erv":443,"fe":444,"review":445,"vis":446,"##alth":447,"tim":448,"att":449,"##erg":450,"##ene":451,"##ining":452,"##ular":453,"##ention":454,"##ros":455,"##ish":456,"bl":457,"educ":458,"lang":459,"reg":460,"mo":461,"mach":462,"high":463,"##ert":464,"##ah":465,"perform":466,"##led":467,"rob":468,"##ics":469,"pre":470,"##onom":471,"appro":472,"##ik":473,"hum":474,"##ability":475,"##xx":476,"health":477,"po":478,"sem":479,"eng":480,"so":481,"##pt":482,"langu":483,"pred":484,"car":485,"graph":486,"design":487,"##nal":488,"##ron":489,"##gan":490,"##io":491,"mark":492,"performance":493,"gro":494,"##ognition":495,"##fer":496,"##ession":497,"##ient":498,"conv":499,"process":500,"sm":501,"kn":502,"application":503,"##ale":504,"##line":505,"language":506,"new":507,"##atic":508,"##vis":509,"##ital":510,"predic":511,"cons":512,"##ord":513,"##hip":514,"##int":515,"es":516,"##ive":517,"##ering":518,"##ok":519,"diff":520,"##ight":521,"pers":522,"##ulation":523,"development":524,"sim":525,"##formation":526,"##ines":527,"commun":528,"fl":529,"##ie":530,"machine":531,"##ern":532,"##tit":533,"time":534,"##ind":535,"recognition":536,"##ile":537,"##havi":538,"##tin":539,"##port":540,"human":541,"elect":542,"##rib":543,"behavi":544,"approach":545,"##ock":546,"##ures":547,"##ption":548,"##ency":549,"##ery":550,"dist":551,"##por":552,"sens":553,"education":554,"convolution":555,"dec":556,"struct":557,"##gor":558,"##rop":559,"##one":560,"work":561,"id":562,"##ite":563,"optim":564,"produc":565,"know":566,"bo":567,"##art":568,"impact":569,"##ective":570,"systems":571,"##unc":572,"online":573,"##ann":574,"effects":575,"sec":576,"##ub":577,"non":578,"##ft":579,"organ":580,"##acter":581,"under":582,"##king":583,"self":584,"qual":585,"##ledge":586,"gl":587,"classification":588,"acc":589,"syn":590,"##oy":591,"##ynam":592,"char":593,"##ithm":594,"##up":595,"##out":596,"evalu":597,"knowledge":598,"##ond":599,"information":600,"effic":601,"super":602,"##tis":603,"vide":604,"##ological":605,"##yl":606,"algor":607,"child":608,"##ne":609,"mat":610,"##ience":611,"##uring":612,"##te":613,"##ax":614,"convolutional":615,"##aw":616,"algorithm":617,"##sy":618,"##iqu":619,"inv":620,"##ental":621,"##emic":622,"fact":623,"intern":624,"vi":625,"mon":626,"theory":627,"differ":628,"sup":629,"loc":630,"##tif":631,"##ole":632,"##ateg":633,"##yp":634,"tre":635,"##ple":636,"200":637,"teach":638,"##ward":639,"##riv":640,"inc":641,"##acy":642,"cell":643,"fr":644,"##ail":645,"##ome":646,"imag":647,"influ":648,"##uction":649,"##su":650,"##vir":651,"extr":652,"##20":653,"visual":654,"disc":655,"impro":656,"fin":657,"##ore":658,"##les":659,"micro":660,"##ium":661,"##iness":662,"##ee":663,"##ware":664,"ed":665,"##unction":666,"students":667,"br":668,"##tivity":669,"##na":670,"dynam":671,"##ination":672,"text":673,"surve":674,"ins":675,"strateg":676,"##ier":677,"##mentation":678,"compu":679,"cr":680,"##viron":681,"##ower":682,"ris":683,"sub":684,"##esent":685,"##ized":686,"exper":687,"##ons":688,"gu":689,"real":690,"spe":691,"environ":692,"##ool":693,"econom":694,"quality":695,"##ina":696,"autom":697,"cap":698,"##arm":699,"models":700,"seg":701,"intell":702,"seman":703,"environment":704,"##vised":705,"##eh":706,"##iel":707,"##lex":708,"##af":709,"##rain":710,"sk":711,"##ential":712,"##rim":713,"##pos":714,"##ration":715,"ret":716,"object":717,"##ym":718,"technology":719,"##raph":720,"##ness":721,"##esis":722,"tem":723,"##ise":724,"lin":725,"plan":726,"cy":727,"##een":728,"video":729,"##ings":730,"survey":731,"##sych":732,"##erap":733,"expl":734,"media":735,"prog":736,"behavior":737,"resp":738,"mem":739,"bus":740,"vari":741,"function":742,"dig":743,"##ral":744,"##ty":745,"chang":746,"##iter":747,"repr":748,"modeling":749,"##ension":750,"do":751,"##blem":752,"identi":753,"serv":754,"jo":755,"risk":756,"assess":757,"##tern":758,"problem":759,"##ugh":760,"##onal":761,"evaluation":762,"intellig":763,"##ets":764,"##ix":765,"##ates":766,"phys":767,"##eter":768,"compar":769,"mob":770,"arch":771,"adap":772,"meas":773,"##ung":774,"##iss":775,"over":776,"##ren":777,"mus":778,"use":779,"sol":780,"##az":781,"pat":782,"represent":783,"how":784,"##itive":785,"##ich":786,"psych":787,"advers":788,"fre":789,"##ber":790,"##ash":791,"##ox":792,"##ities":793,"##fl":794,"##atis":795,"fram":796,"jour":797,"indust":798,"semantic":799,"training":800,"betw":801,"between":802,"are":803,"pu":804,"estim":805,"cult":806,"improv":807,"out":808,"prediction":809,"ge":810,"##usion":811,"lo":812,"fil":813,"end":814,"red":815,"##ety":816,"##aj":817,"##ank":818,"pos":819,"def":820,"af":821,"##ask":822,"##urr":823,"##ergy":824,"gam":825,"relations":826,"school":827,"case":828,"segmentation":829,"nan":830,"business":831,"water":832,"journal":833,"##ences":834,"##ev":835,"##arial":836,"##ivers":837,"pati":838,"##br":839,"##its":840,"mal":841,"##man":842,"distrib":843,"bu":844,"##ai":845,"sal":846,"tw":847,"##ator":848,"pe":849,"via":850,"##otion":851,"character":852,"##ross":853,"##lation":854,"scale":855,"power":856,"sing":857,"attention":858,"##ograph":859,"adversarial":860,"##oth":861,"rein":862,"prac":863,"communication":864,"digital":865,"del":866,"##oring":867,"##ars":868,"dom":869,"local":870,"##ins":871,"##aus":872,"energy":873,"##rough":874,"rad":875,"vir":876,"role":877,"##forc":878,"dr":879,"##air":880,"integ":881,"toward":882,"##ue":883,"##omm":884,"##struction":885,"anti":886,"lab":887,"form":888,"##old":889,"##als":890,"coll":891,"##echan":892,"ep":893,"spec":894,"emb":895,"what":896,"##ision":897,"ser":898,"##ane":899,"care":900,"publ":901,"3d":902,"##ere":903,"##oph":904,"level":905,"dep":906,"##ping":907,"##til":908,"##arge":909,"all":910,"lif":911,"optimization":912,"sign":913,"assessment":914,"reinforc":915,"##och":916,"grow":917,"nat":918,"##itect":919,"methods":920,"##ework":921,"##mar":922,"no":923,"##ex":924,"low":925,"##ied":926,"##ancer":927,"##osis":928,"gre":929,"##urity":930,"food":931,"soft":932,"##ield":933,"##urs":934,"##dition":935,"##erapy":936,"gr":937,"techniqu":938,"eth":939,"generation":940,"##eness":941,"univers":942,"architect":943,"##etic":944,"ro":945,"structure":946,"##istic":947,"mechan":948,"organization":949,"mobile":950,"engine":951,"##agn":952,"perce":953,"##ploy":954,"##nn":955,"sl":956,"dise":957,"children":958,"intelligence":959,"corr":960,"through":961,"nor":962,"framework":963,"efficient":964,"cancer":965,"hist":966,"10":967,"min":968,"liter":969,"ear":970,"applications":971,"##icial":972,"artif":973,"##uk":974,"program":975,"you":976,"##pression":977,"relationship":978,"##edd":979,"identif":980,"##ave":981,"##estion":982,"##ode":983,"##ector":984,"emotion":985,"##tor":986,"##de":987,"aff":988,"##of":989,"vol":990,"impl":991,"sex":992,"##cl":993,"stress":994,"##omet":995,"xxx":996,"phil":997,"glob":998,"##eting":999,"##ld":1000,"prot":1001,"dynamic":1002,"hyd":1003,"##ource":1004,"treat":1005,"##com":1006,"rem":1007,"au":1008,"##urrent":1009,"typ":1010,"##ices":1011,"cent":1012,"valu":1013,"##acc":1014,"##oud":1015,"estimation":1016,"natural":1017,"er":1018,"##ma":1019,"consum":1020,"##esc":1021,"factors":1022,"sam":1023,"sw":1024,"ur":1025,"international":1026,"##esh":1027,"financ":1028,"##ick":1029,"map":1030,"##anding":1031,"##abil":1032,"polic":1033,"chall":1034,"prof":1035,"lead":1036,"##lish":1037,"smart":1038,"##bo":1039,"growth":1040,"##df":1041,"cross":1042,"conc":1043,"##ipp":1044,"##aking":1045,"large":1046,"coron":1047,"proper":1048,"la":1049,"##gen":1050,"##astic":1051,"artificial":1052,"##ete":1053,"treatment":1054,"adv":1055,"enh":1056,"##ey":1057,"cal":1058,"dem":1059,"global":1060,"##iti":1061,"mor":1062,"reinforcement":1063,"##ays":1064,"its":1065,"synth":1066,"embedd":1067,"et":1068,"can":1069,"among":1070,"post":1071,"##eric":1072,"air":1073,"face":1074,"science":1075,"equ":1076,"nov":1077,"##unt":1078,"security":1079,"##ae":1080,"##ake":1081,"not":1082,"teaching":1083,"web":1084,"bar":1085,"##ison":1086,"compos":1087,"mater":1088,"##oci":1089,"influence":1090,"veh":1091,"##ements":1092,"fir":1093,"li":1094,"##asi":1095,"computer":1096,"transfer":1097,"vehic":1098,"##inc":1099,"clust":1100,"towards":1101,"about":1102,"processing":1103,"fac":1104,"##oss":1105,"translation":1106,"hand":1107,"##nov":1108,"financial":1109,"life":1110,"during":1111,"domain":1112,"employ":1113,"underst":1114,"english":1115,"##ference":1116,"##erc":1117,"chem":1118,"memory":1119,"path":1120,"bre":1121,"##face":1122,"up":1123,"long":1124,"search":1125,"marketing":1126,"it":1127,"##oid":1128,"transform":1129,"##idence":1130,"##ression":1131,"feature":1132,"robot":1133,"public":1134,"##ose":1135,"decision":1136,"single":1137,"flow":1138,"task":1139,"sequ":1140,"##cept":1141,"change":1142,"##ema":1143,"##he":1144,"pap":1145,"recomm":1146,"##ading":1147,"##rial":1148,"cam":1149,"dan":1150,"speech":1151,"service":1152,"general":1153,"cloud":1154,"phot":1155,"state":1156,"question":1157,"personal":1158,"##izing":1159,"##ally":1160,"##ectiv":1161,"extraction":1162,"##ler":1163,"patients":1164,"ox":1165,"##duction":1166,"##ext":1167,"industry":1168,"enhanc":1169,"ter":1170,"associ":1171,"architecture":1172,"images":1173,"##row":1174,"##inal":1175,"dir":1176,"##istics":1177,"##ible":1178,"clin":1179,"##eth":1180,"##ost":1181,"word":1182,"199":1183,"##son":1184,"##amil":1185,"robust":1186,"##ana":1187,"##ress":1188,"activity":1189,"disease":1190,"ul":1191,"enc":1192,"top":1193,"##10":1194,"understanding":1195,"##ling":1196,"supervised":1197,"##irus":1198,"##omen":1199,"zh":1200,"gov":1201,"##ases":1202,"term":1203,"china":1204,"novel":1205,"##acking":1206,"pot":1207,"context":1208,"quan":1209,"##itation":1210,"driv":1211,"cust":1212,"##ership":1213,"open":1214,"spati":1215,"engineering":1216,"##atures":1217,"acid":1218,"project":1219,"wor":1220,"go":1221,"##ten":1222,"culture":1223,"rand":1224,"log":1225,"pattern":1226,"##atory":1227,"rep":1228,"math":1229,"prote":1230,"representation":1231,"policy":1232,"##sc":1233,"mov":1234,"custom":1235,"cre":1236,"##ner":1237,"physical":1238,"properties":1239,"acad":1240,"innov":1241,"multiple":1242,"block":1243,"two":1244,"##iency":1245,"##ying":1246,"software":1247,"2020":1248,"spect":1249,"production":1250,"ste":1251,"market":1252,"##ire":1253,"dim":1254,"##ronic":1255,"medical":1256,"##ton":1257,"light":1258,"support":1259,"##ban":1260,"material":1261,"brain":1262,"sensor":1263,"##avirus":1264,"##ta":1265,"economic":1266,"fast":1267,"##pect":1268,"tur":1269,"##za":1270,"field":1271,"cur":1272,"automatic":1273,"##tig":1274,"##ants":1275,"test":1276,"##net":1277,"##aly":1278,"##ples":1279,"fib":1280,"philipp":1281,"therm":1282,"priv":1283,"adaptive":1284,"fu":1285,"carb":1286,"monit":1287,"hyper":1288,"##ecting":1289,"cost":1290,"##ography":1291,"therapy":1292,"##ission":1293,"literature":1294,"random":1295,"govern":1296,"##iety":1297,"techniques":1298,"challeng":1299,"##rad":1300,"ir":1301,"##tice":1302,"university":1303,"ent":1304,"oper":1305,"##tual":1306,"##co":1307,"determ":1308,"##ones":1309,"##tivation":1310,"##ound":1311,"##au":1312,"##ffic":1313,"##ao":1314,"##ke":1315,"complex":1316,"student":1317,"identification":1318,"mining":1319,"##els":1320,"grad":1321,"interaction":1322,"computing":1323,"experim":1324,"coronavirus":1325,"comb":1326,"##ize":1327,"##arch":1328,"##vention":1329,"oc":1330,"##ching":1331,"condition":1332,"cri":1333,"persp":1334,"generative":1335,"aud":1336,"clinical":1337,"##ces":1338,"exam":1339,"planning":1340,"perception":1341,"vacc":1342,"##pervised":1343,"studies":1344,"distribution":1345,"ben":1346,"mental":1347,"off":1348,"conn":1349,"cogn":1350,"##ms":1351,"sil":1352,"build":1353,"group":1354,"caus":1355,"##ste":1356,"##ific":1357,"land":1358,"analy":1359,"tool":1360,"emp":1361,"sum":1362,"##ages":1363,"ver":1364,"tes":1365,"##brid":1366,"##asc":1367,"space":1368,"import":1369,"measur":1370,"sars":1371,"##u00":1372,"features":1373,"thre":1374,"unsu":1375,"value":1376,"val":1377,"plant":1378,"recommend":1379,"dev":1380,"##idual":1381,"##ute":1382,"filter":1383,"##outh":1384,"##par":1385,"internet":1386,"challenges":1387,"afric":1388,"##oll":1389,"unsupervised":1390,"back":1391,"##elling":1392,"hydro":1393,"##mal":1394,"famil":1395,"neu":1396,"temper":1397,"world":1398,"oil":1399,"simulation":1400,"##lam":1401,"imm":1402,"virtual":1403,"suppl":1404,"sust":1405,"##poral":1406,"diagn":1407,"doc":1408,"drug":1409,"##ults":1410,"point":1411,"##ected":1412,"synthesis":1413,"##arg":1414,"cognitive":1415,"##uted":1416,"strategy":1417,"india":1418,"##atisf":1419,"resolution":1420,"saf":1421,"##fact":1422,"##ogy":1423,"pdf":1424,"action":1425,"academic":1426,"##cle":1427,"pres":1428,"##ined":1429,"##emb":1430,"comparison":1431,"community":1432,"##inese":1433,"women":1434,"sustain":1435,"respon":1436,"strategies":1437,"guid":1438,"##hn":1439,"cnn":1440,"##ody":1441,"ol":1442,"their":1443,"##onic":1444,"factor":1445,"chinese":1446,"fer":1447,"related":1448,"evolution":1449,"history":1450,"shar":1451,"num":1452,"##zz":1453,"satisf":1454,"##ument":1455,"learn":1456,"nurs":1457,"my":1458,"##imate":1459,"free":1460,"clustering":1461,"problems":1462,"##rete":1463,"concept":1464,"urban":1465,"response":1466,"different":1467,"epid":1468,"monitoring":1469,"art":1470,"tracking":1471,"skill":1472,"sym":1473,"stre":1474,"americ":1475,"##lin":1476,"##ps":1477,"pop":1478,"##han":1479,"divers":1480,"##ek":1481,"cir":1482,"carbon":1483,"hybrid":1484,"lim":1485,"evidence":1486,"attack":1487,"##ativ":1488,"pand":1489,"##cop":1490,"##iver":1491,"algorithms":1492,"music":1493,"partic":1494,"intro":1495,"customer":1496,"mechanism":1497,"dimension":1498,"##ators":1499,"selection":1500,"view":1501,"pur":1502,"mot":1503,"lay":1504,"##ada":1505,"inves":1506,"satisfaction":1507,"##cri":1508,"tour":1509,"il":1510,"induc":1511,"pen":1512,"dens":1513,"leadership":1514,"statis":1515,"##ham":1516,"construction":1517,"philippines":1518,"##ull":1519,"##ior":1520,"##active":1521,"soil":1522,"gender":1523,"flu":1524,"press":1525,"prim":1526,"meta":1527,"temperature":1528,"green":1529,"feed":1530,"south":1531,"##ibility":1532,"##ape":1533,"job":1534,"aug":1535,"const":1536,"har":1537,"##osp":1538,"eu":1539,"dav":1540,"poly":1541,"second":1542,"cry":1543,"peng":1544,"##bi":1545,"solution":1546,"linear":1547,"##ris":1548,"##land":1549,"princ":1550,"region":1551,"game":1552,"##ks":1553,"##lo":1554,"add":1555,"improving":1556,"bat":1557,"cat":1558,"mol":1559,"set":1560,"datas":1561,"neg":1562,"2019":1563,"fut":1564,"vehicle":1565,"ans":1566,"##ya":1567,"adapt":1568,"implement":1569,"##oun":1570,"type":1571,"##rient":1572,"##ude":1573,"##val":1574,"cop":1575,"reading":1576,"shot":1577,"bel":1578,"unc":1579,"artic":1580,"investig":1581,"##ule":1582,"param":1583,"loss":1584,"motion":1585,"ic":1586,"##anking":1587,"aware":1588,"wast":1589,"##ening":1590,"chain":1591,"##asting":1592,"##oper":1593,"temporal":1594,"thin":1595,"innovation":1596,"her":1597,"##inary":1598,"environmental":1599,"big":1600,"##11":1601,"infer":1602,"ww":1603,"joint":1604,"##ange":1605,"dynamics":1606,"series":1607,"##ength":1608,"##order":1609,"corpor":1610,"consumer":1611,"hel":1612,"##ki":1613,"pain":1614,"report":1615,"prob":1616,"appl":1617,"dri":1618,"advanc":1619,"small":1620,"product":1621,"correl":1622,"##ogen":1623,"effectiv":1624,"max":1625,"hier":1626,"card":1627,"auto":1628,"bay":1629,"##olar":1630,"manu":1631,"early":1632,"spatial":1633,"##sp":1634,"that":1635,"##abor":1636,"organizational":1637,"circ":1638,"bal":1639,"biom":1640,"agric":1641,"##19":1642,"tri":1643,"law":1644,"##uit":1645,"color":1646,"las":1647,"surface":1648,"##ica":1649,"##oma":1650,"comput":1651,"making":1652,"mathema":1653,"mag":1654,"##ality":1655,"building":1656,"user":1657,"bios":1658,"effectiveness":1659,"##ason":1660,"integr":1661,"plat":1662,"##ming":1663,"ang":1664,"adol":1665,"##ese":1666,"##ury":1667,"ma":1668,"py":1669,"auth":1670,"##ful":1671,"der":1672,"##ror":1673,"##aster":1674,"##ote":1675,"vision":1676,"distributed":1677,"##urn":1678,"##rab":1679,"##own":1680,"tax":1681,"ann":1682,"traffic":1683,"##sh":1684,"##ites":1685,"sci":1686,"mc":1687,"family":1688,"##rology":1689,"ling":1690,"contr":1691,"protein":1692,"fem":1693,"nut":1694,"climate":1695,"exp":1696,"##overy":1697,"recon":1698,"##ited":1699,"representations":1700,"hierarch":1701,"contin":1702,"##acts":1703,"index":1704,"agricult":1705,"##etes":1706,"poli":1707,"john":1708,"relation":1709,"perspective":1710,"suc":1711,"respons":1712,"future":1713,"short":1714,"##eti":1715,"##acion":1716,"##ving":1717,"##ont":1718,"mil":1719,"content":1720,"##ean":1721,"resource":1722,"phase":1723,"practice":1724,"systematic":1725,"electric":1726,"##ani":1727,"ai":1728,"safety":1729,"##ata":1730,"mass":1731,"ped":1732,"rate":1733,"##ara":1734,"semi":1735,"cells":1736,"embedding":1737,"##eless":1738,"bio":1739,"av":1740,"one":1741,"critical":1742,"order":1743,"recurrent":1744,"##ully":1745,"##ified":1746,"bene":1747,"will":1748,"edge":1749,"psychology":1750,"recommendation":1751,"anim":1752,"need":1753,"tel":1754,"body":1755,"##chain":1756,"diab":1757,"retri":1758,"bert":1759,"##omy":1760,"motor":1761,"##era":1762,"##ople":1763,"##orn":1764,"##any":1765,"##oding":1766,"age":1767,"##ogene":1768,"intr":1769,"label":1770,"behaviour":1771,"accur":1772,"forec":1773,"importance":1774,"code":1775,"##aling":1776,"attit":1777,"##hi":1778,"pharm":1779,"##eme":1780,"introduction":1781,"bank":1782,"frequ":1783,"adolesc":1784,"##eval":1785,"people":1786,"www":1787,"##reh":1788,"genetic":1789,"datab":1790,"source":1791,"testing":1792,"##eck":1793,"sep":1794,"resist":1795,"coun":1796,"malays":1797,"hear":1798,"issu":1799,"supply":1800,"##reg":1801,"prom":1802,"chann":1803,"benef":1804,"depend":1805,"senti":1806,"paper":1807,"expression":1808,"potential":1809,"##amin":1810,"##ometric":1811,"manufact":1812,"quantit":1813,"adaptation":1814,"lib":1815,"##ark":1816,"step":1817,"lat":1818,"collabor":1819,"black":1820,"##hood":1821,"ext":1822,"wir":1823,"##uss":1824,"vaccination":1825,"2018":1826,"peri":1827,"##illance":1828,"pandemic":1829,"net":1830,"##oder":1831,"implementation":1832,"emerg":1833,"comparative":1834,"david":1835,"##osph":1836,"economy":1837,"hyp":1838,"fa":1839,"##ancy":1840,"optical":1841,"hom":1842,"brand":1843,"characteristics":1844,"sensing":1845,"year":1846,"stock":1847,"mix":1848,"##enza":1849,"motivation":1850,"privacy":1851,"##ources":1852,"epidemic":1853,"##put":1854,"answ":1855,"virology":1856,"inj":1857,"sequence":1858,"##etric":1859,"##rag":1860,"measurement":1861,"iot":1862,"##med":1863,"autonom":1864,"##olic":1865,"dataset":1866,"compreh":1867,"heter":1868,"blockchain":1869,"stand":1870,"##netic":1871,"experience":1872,"depression":1873,"key":1874,"imaging":1875,"compl":1876,"ke":1877,"##ci":1878,"tourism":1879,"emotional":1880,"first":1881,"medic":1882,"##ertain":1883,"skills":1884,"hosp":1885,"##book":1886,"after":1887,"obs":1888,"optimal":1889,"event":1890,"thermal":1891,"##aces":1892,"##ero":1893,"##iting":1894,"##yle":1895,"effective":1896,"prec":1897,"higher":1898,"radi":1899,"pul":1900,"##isation":1901,"corporate":1902,"##yt":1903,"##quir":1904,"##mod":1905,"stor":1906,"ref":1907,"mac":1908,"nit":1909,"##enn":1910,"cultural":1911,"influenza":1912,"tom":1913,"efficiency":1914,"affect":1915,"sa":1916,"##que":1917,"orient":1918,"pa":1919,"##ley":1920,"##ther":1921,"hospital":1922,"##pling":1923,"chemical":1924,"prop":1925,"functional":1926,"active":1927,"bayes":1928,"war":1929,"anx":1930,"wind":1931,"##ike":1932,"fish":1933,"2016":1934,"three":1935,"current":1936,"##ka":1937,"fuzz":1938,"##ologies":1939,"##oice":1940,"minim":1941,"retrieval":1942,"part":1943,"##ino":1944,"vit":1945,"wang":1946,"##ade":1947,"employee":1948,"home":1949,"##roph":1950,"pan":1951,"##eral":1952,"nursing":1953,"sentiment":1954,"hot":1955,"disorder":1956,"gas":1957,"depth":1958,"##16":1959,"fusion":1960,"est":1961,"##iam":1962,"##ections":1963,"transport":1964,"weight":1965,"empir":1966,"##uan":1967,"##rix":1968,"access":1969,"structural":1970,"frequency":1971,"##xic":1972,"conf":1973,"into":1974,"bacter":1975,"well":1976,"cyber":1977,"##gh":1978,"##ensive":1979,"distance":1980,"reality":1981,"aer":1982,"gene":1983,"##back":1984,"inference":1985,"vers":1986,"##tices":1987,"africa":1988,"##hy":1989,"intervention":1990,"##ds":1991,"pal":1992,"##ict":1993,"mapping":1994,"##eler":1995,"driven":1996,"2017":1997,"ground":1998,"##sor":1999,"stat":2000,"quantitative":2001,"composition":2002,"##lor":2003,"##war":2004,"quant":2005,"anxiety":2006,"services":2007,"wireless":2008,"concrete":2009,"agg":2010,"##room":2011,"enter":2012,"##hael":2013,"calc":2014,"bro":2015,"##gn":2016,"good":2017,"empirical":2018,"mel":2019,"stoch":2020,"immun":2021,"mean":2022,"##nxx":2023,"rich":2024,"##me":2025,"diversity":2026,"assist":2027,"inh":2028,"stochastic":2029,"experimental":2030,"wave":2031,"198":2032,"quantum":2033,"does":2034,"uncertain":2035,"vs":2036,"defin":2037,"##ured":2038,"convers":2039,"##ble":2040,"europ":2041,"eg":2042,"electronic":2043,"induced":2044,"success":2045,"##isis":2046,"##ived":2047,"matrix":2048,"##ging":2049,"##ven":2050,"incre":2051,"platform":2052,"malaysia":2053,"##had":2054,"noise":2055,"port":2056,"normal":2057,"##idd":2058,"hous":2059,"2015":2060,"##position":2061,"graphs":2062,"##mon":2063,"##ainst":2064,"dial":2065,"materials":2066,"ber":2067,"##arc":2068,"molec":2069,"continu":2070,"book":2071,"fail":2072,"mill":2073,"##ott":2074,"hierarchical":2075,"manufacturing":2076,"##oor":2077,"kar":2078,"anom":2079,"industrial":2080,"pet":2081,"patient":2082,"improved":2083,"##rome":2084,"surg":2085,"teachers":2086,"automated":2087,"ren":2088,"##arse":2089,"ach":2090,"colle":2091,"why":2092,"fo":2093,"michael":2094,"localization":2095,"bet":2096,"document":2097,"matching":2098,"government":2099,"##way":2100,"invest":2101,"young":2102,"vector":2103,"gradient":2104,"standard":2105,"pass":2106,"targ":2107,"capital":2108,"van":2109,"##u000":2110,"diagnosis":2111,"american":2112,"##vision":2113,"##ef":2114,"##uh":2115,"pressure":2116,"count":2117,"blood":2118,"##iger":2119,"##iat":2120,"regular":2121,"signal":2122,"laser":2123,"##ij":2124,"bound":2125,"trust":2126,"mut":2127,"##otic":2128,"characterization":2129,"road":2130,"heat":2131,"wal":2132,"##ink":2133,"##ectional":2134,"electro":2135,"hard":2136,"##ries":2137,"against":2138,"synd":2139,"adver":2140,"summar":2141,"gan":2142,"##12":2143,"play":2144,"practices":2145,"##we":2146,"autonomous":2147,"database":2148,"##ye":2149,"dam":2150,"discrim":2151,"##plications":2152,"##itt":2153,"##ato":2154,"jur":2155,"##itter":2156,"proc":2157,"sn":2158,"##enet":2159,"reduction":2160,"##min":2161,"personality":2162,"acceler":2163,"##inger":2164,"##aging":2165,"##ocol":2166,"##itch":2167,"tree":2168,"##ray":2169,"mode":2170,"leg":2171,"descri":2172,"polym":2173,"integrated":2174,"sched":2175,"accoun":2176,"inst":2177,"stability":2178,"den":2179,"waste":2180,"rou":2181,"psychological":2182,"band":2183,"##her":2184,"liqu":2185,"technique":2186,"##urve":2187,"##bal":2188,"transm":2189,"exerc":2190,"nanop":2191,"differential":2192,"##ids":2193,"regression":2194,"diabetes":2195,"metal":2196,"##ura":2197,"##idation":2198,"link":2199,"##ometry":2200,"heart":2201,"channel":2202,"##ilar":2203,"##ider":2204,"conference":2205,"primary":2206,"##be":2207,"##artic":2208,"##iction":2209,"dimensional":2210,"##ides":2211,"##angl":2212,"hu":2213,"##ends":2214,"medi":2215,"capac":2216,"associated":2217,"person":2218,"hem":2219,"micros":2220,"dual":2221,"ram":2222,"compon":2223,"investigation":2224,"mi":2225,"organic":2226,"cardi":2227,"flex":2228,"lip":2229,"sle":2230,"layer":2231,"fed":2232,"##qual":2233,"crow":2234,"dou":2235,"##otyp":2236,"isol":2237,"teacher":2238,"##urveillance":2239,"farm":2240,"competi":2241,"##istry":2242,"identity":2243,"##oul":2244,"reason":2245,"##ervation":2246,"##orph":2247,"agent":2248,"statistical":2249,"biosurveillance":2250,"foc":2251,"size":2252,"remote":2253,"##bert":2254,"cooper":2255,"solar":2256,"12":2257,"tun":2258,"stream":2259,"sat":2260,"##berg":2261,"men":2262,"fuzzy":2263,"results":2264,"inform":2265,"##aran":2266,"direct":2267,"tum":2268,"advertis":2269,"banking":2270,"reconstruction":2271,"lu":2272,"integration":2273,"definition":2274,"overview":2275,"main":2276,"speed":2277,"##ias":2278,"parti":2279,"##repr":2280,"college":2281,"conver":2282,"##ume":2283,"association":2284,"constrain":2285,"##riting":2286,"simple":2287,"strength":2288,"accounting":2289,"##tal":2290,"forecasting":2291,"changes":2292,"sustainable":2293,"games":2294,"modelling":2295,"sparse":2296,"position":2297,"programming":2298,"national":2299,"##ising":2300,"chen":2301,"bayesian":2302,"##pus":2303,"infr":2304,"resistance":2305,"##mented":2306,"##erce":2307,"instit":2308,"correlation":2309,"syndrome":2310,"variational":2311,"##care":2312,"zhang":2313,"patterns":2314,"ess":2315,"##agement":2316,"metab":2317,"trade":2318,"##stm":2319,"line":2320,"##rist":2321,"##ves":2322,"##uch":2323,"indiv":2324,"##ights":2325,"##pret":2326,"##rical":2327,"##con":2328,"metric":2329,"sent":2330,"ont":2331,"##ules":2332,"##round":2333,"##ats":2334,"ill":2335,"mind":2336,"issues":2337,"classroom":2338,"protocol":2339,"improve":2340,"arab":2341,"jam":2342,"skin":2343,"species":2344,"##linear":2345,"##emia":2346,"deg":2347,"team":2348,"##ories":2349,"virus":2350,"scal":2351,"north":2352,"##ger":2353,"forest":2354,"price":2355,"molecular":2356,"pri":2357,"xnxx":2358,"classif":2359,"residual":2360,"##app":2361,"benefits":2362,"pack":2363,"efficacy":2364,"morph":2365,"andre":2366,"pregn":2367,"##hol":2368,"individual":2369,"bias":2370,"load":2371,"fund":2372,"thom":2373,"##ely":2374,"maxim":2375,"##entif":2376,"##tity":2377,"answering":2378,"mechanical":2379,"sleep":2380,"jap":2381,"##tian":2382,"products":2383,"antib":2384,"##mann":2385,"##tism":2386,"pose":2387,"##allel":2388,"interpret":2389,"##tra":2390,"feedback":2391,"##hadap":2392,"specific":2393,"entrepr":2394,"mig":2395,"##ments":2396,"nanopartic":2397,"hor":2398,"explor":2399,"##ters":2400,"diet":2401,"##odes":2402,"nonlinear":2403,"breast":2404,"wa":2405,"viol":2406,"period":2407,"style":2408,"##water":2409,"##aining":2410,"negative":2411,"compression":2412,"scre":2413,"dialog":2414,"ah":2415,"##ini":2416,"processes":2417,"storage":2418,"##ourse":2419,"thinking":2420,"heterogene":2421,"predict":2422,"area":2423,"fiber":2424,"##res":2425,"entity":2426,"scene":2427,"attrib":2428,"nutri":2429,"rot":2430,"##ga":2431,"requir":2432,"2010":2433,"functions":2434,"driving":2435,"terhadap":2436,"occ":2437,"2013":2438,"poll":2439,"simul":2440,"2014":2441,"target":2442,"summarization":2443,"resil":2444,"liv":2445,"##tery":2446,"vul":2447,"parallel":2448,"gh":2449,"##ots":2450,"earth":2451,"##use":2452,"##15":2453,"states":2454,"similar":2455,"population":2456,"developing":2457,"intelligent":2458,"##itor":2459,"thesis":2460,"phen":2461,"##enting":2462,"anten":2463,"fab":2464,"transition":2465,"reduc":2466,"##bial":2467,"intention":2468,"common":2469,"some":2470,"##ita":2471,"##igation":2472,"profession":2473,"stem":2474,"oral":2475,"types":2476,"sector":2477,"interp":2478,"error":2479,"attacks":2480,"gold":2481,"voc":2482,"modern":2483,"hab":2484,"##uce":2485,"##si":2486,"##di":2487,"healthcare":2488,"liquid":2489,"regul":2490,"labor":2491,"whe":2492,"movement":2493,"determin":2494,"##aph":2495,"collaborative":2496,"align":2497,"##ano":2498,"##vement":2499,"##ja":2500,"approaches":2501,"inhib":2502,"sus":2503,"##xim":2504,"islam":2505,"anomaly":2506,"bil":2507,"##ding":2508,"##ney":2509,"enhanced":2510,"sit":2511,"##icit":2512,"##ense":2513,"achie":2514,"cer":2515,"seed":2516,"dna":2517,"##ollow":2518,"entreprene":2519,"##icon":2520,"##atio":2521,"shape":2522,"exercise":2523,"magnetic":2524,"educational":2525,"##orders":2526,"manip":2527,"plants":2528,"separ":2529,"util":2530,"element":2531,"jurnal":2532,"bur":2533,"nam":2534,"deliv":2535,"bir":2536,"videos":2537,"##li":2538,"tradition":2539,"##to":2540,"implications":2541,"plas":2542,"controlled":2543,"governance":2544,"##arian":2545,"##press":2546,"##ky":2547,"##ables":2548,"head":2549,"pay":2550,"##po":2551,"sharing":2552,"city":2553,"four":2554,"diss":2555,"applied":2556,"pak":2557,"wat":2558,"##oms":2559,"##ocation":2560,"transformer":2561,"san":2562,"ii":2563,"##red":2564,"##rogen":2565,"ens":2566,"near":2567,"##mark":2568,"##ze":2569,"facial":2570,"kin":2571,"altern":2572,"predicting":2573,"lingu":2574,"schedul":2575,"##cep":2576,"anth":2577,"stro":2578,"tub":2579,"##ella":2580,"robert":2581,"positive":2582,"ak":2583,"nav":2584,"record":2585,"weak":2586,"##chron":2587,"##orts":2588,"radio":2589,"##ss":2590,"ultr":2591,"##stein":2592,"##ba":2593,"##ows":2594,"##place":2595,"##elect":2596,"##istration":2597,"princi":2598,"pc":2599,"abd":2600,"##ru":2601,"##hu":2602,"##ochem":2603,"libr":2604,"uncertainty":2605,"magn":2606,"chronic":2607,"sun":2608,"##13":2609,"failure":2610,"##iology":2611,"##ea":2612,"enhancement":2613,"cos":2614,"read":2615,"uav":2616,"aspect":2617,"delivery":2618,"demand":2619,"continuous":2620,"##bor":2621,"##itative":2622,"##struct":2623,"sar":2624,"prov":2625,"##umar":2626,"##vities":2627,"device":2628,"lstm":2629,"nar":2630,"cycle":2631,"versus":2632,"exploring":2633,"alex":2634,"##ender":2635,"used":2636,"more":2637,"##aya":2638,"cryst":2639,"find":2640,"formation":2641,"special":2642,"japan":2643,"##elet":2644,"structures":2645,"cu":2646,"mas":2647,"##rum":2648,"extract":2649,"bra":2650,"dc":2651,"mathematics":2652,"rap":2653,"embeddings":2654,"tan":2655,"disorders":2656,"reasoning":2657,"aust":2658,"awar":2659,"##ographic":2660,"##gar":2661,"##quis":2662,"attitude":2663,"##atan":2664,"##comes":2665,"##ali":2666,"prepar":2667,"##ressive":2668,"##ida":2669,"working":2670,"guided":2671,"writing":2672,"##atin":2673,"rh":2674,"##uck":2675,"society":2676,"indones":2677,"##idad":2678,"sexual":2679,"center":2680,"status":2681,"##eration":2682,"fine":2683,"les":2684,"trial":2685,"differences":2686,"##jective":2687,"medicine":2688,"enterpr":2689,"##14":2690,"##asing":2691,"##raft":2692,"zero":2693,"##urance":2694,"ray":2695,"yang":2696,"outcomes":2697,"pros":2698,"shop":2699,"remov":2700,"acti":2701,"political":2702,"##da":2703,"##oles":2704,"few":2705,"##roid":2706,"chris":2707,"##aneous":2708,"##18":2709,"##raw":2710,"things":2711,"bench":2712,"focus":2713,"indian":2714,"2011":2715,"fore":2716,"##ula":2717,"##ief":2718,"strategic":2719,"##ostic":2720,"##ances":2721,"principles":2722,"##athy":2723,"reaction":2724,"hypert":2725,"bangl":2726,"fat":2727,"##ena":2728,"down":2729,"nuc":2730,"regulation":2731,"numer":2732,"density":2733,"##umin":2734,"adults":2735,"central":2736,"por":2737,"measuring":2738,"##ios":2739,"resources":2740,"##cin":2741,"##ulf":2742,"kh":2743,"tal":2744,"##aff":2745,"environments":2746,"neuro":2747,"liu":2748,"heterogeneous":2749,"ros":2750,"when":2751,"engagement":2752,"##copy":2753,"detecting":2754,"technologies":2755,"bri":2756,"##lp":2757,"##ulum":2758,"expos":2759,"cou":2760,"compet":2761,"similarity":2762,"si":2763,"##entific":2764,"niger":2765,"qualitative":2766,"internal":2767,"tools":2768,"aggreg":2769,"pada":2770,"evaluating":2771,"film":2772,"od":2773,"##ions":2774,"##epend":2775,"2012":2776,"consumption":2777,"lam":2778,"autism":2779,"advanced":2780,"bey":2781,"abstr":2782,"awareness":2783,"germ":2784,"scholar":2785,"nature":2786,"##000":2787,"nutrition":2788,"##encing":2789,"##ouse":2790,"news":2791,"purch":2792,"##gb":2793,"##ola":2794,"scheduling":2795,"daniel":2796,"foreign":2797,"##ended":2798,"princip":2799,"distil":2800,"commerce":2801,"##pa":2802,"without":2803,"behavioral":2804,"##tine":2805,"##mad":2806,"crim":2807,"##iang":2808,"impacts":2809,"discovery":2810,"ct":2811,"##uel":2812,"autoenc":2813,"multimod":2814,"confl":2815,"concent":2816,"computational":2817,"adult":2818,"base":2819,"bud":2820,"##iatric":2821,"##verse":2822,"##less":2823,"##itiz":2824,"amb":2825,"thomas":2826,"##uation":2827,"##quisition":2828,"bor":2829,"##aker":2830,"nano":2831,"audit":2832,"##ees":2833,"activities":2834,"##eters":2835,"transmission":2836,"##istan":2837,"prevention":2838,"gram":2839,"##ints":2840,"refl":2841,"beam":2842,"experi":2843,"advant":2844,"augmented":2845,"article":2846,"company":2847,"surgery":2848,"ga":2849,"rice":2850,"conduc":2851,"accurate":2852,"propag":2853,"##hen":2854,"agriculture":2855,"electrical":2856,"traditional":2857,"lung":2858,"devices":2859,"##pu":2860,"##pro":2861,"ham":2862,"stroke":2863,"##icing":2864,"grid":2865,"na":2866,"solutions":2867,"##17":2868,"ho":2869,"decom":2870,"rural":2871,"sampling":2872,"composite":2873,"predictive":2874,"electron":2875,"steel":2876,"##eu":2877,"##ift":2878,"dental":2879,"follow":2880,"gir":2881,"##izer":2882,"##abilities":2883,"fract":2884,"beyond":2885,"fully":2886,"##ony":2887,"schools":2888,"##aruh":2889,"##ather":2890,"scientific":2891,"like":2892,"conditions":2893,"##oman":2894,"exch":2895,"mechanisms":2896,"oriented":2897,"orig":2898,"hol":2899,"##oling":2900,"vehicles":2901,"fault":2902,"wr":2903,"analytics":2904,"squ":2905,"uk":2906,"adop":2907,"reli":2908,"ha":2909,"tex":2910,"##lyc":2911,"investment":2912,"biological":2913,"##ibration":2914,"cred":2915,"core":2916,"turb":2917,"resilience":2918,"numerical":2919,"acquisition":2920,"##oney":2921,"location":2922,"william":2923,"mu":2924,"veg":2925,"##wa":2926,"##enge":2927,"practical":2928,"##oh":2929,"initi":2930,"##ope":2931,"female":2932,"admin":2933,"united":2934,"du":2935,"##angan":2936,"acous":2937,"advertising":2938,"##ending":2939,"structured":2940,"##ious":2941,"fit":2942,"##itas":2943,"reference":2944,"economics":2945,"theore":2946,"volume":2947,"da":2948,"ps":2949,"##bers":2950,"traject":2951,"incl":2952,"ion":2953,"##ystem":2954,"being":2955,"antenna":2956,"##alam":2957,"acute":2958,"##ectives":2959,"##50":2960,"orth":2961,"##erty":2962,"##let":2963,"##zing":2964,"camera":2965,"mixed":2966,"iee":2967,"##time":2968,"sound":2969,"##ring":2970,"##uration":2971,"##etry":2972,"ethics":2973,"pi":2974,"##estic":2975,"trends":2976,"maj":2977,"differenti":2978,"multimodal":2979,"##la":2980,"elder":2981,"peer":2982,"##cent":2983,"mis":2984,"contrib":2985,"determination":2986,"austral":2987,"##ico":2988,"tis":2989,"##aria":2990,"adj":2991,"interactive":2992,"led":2993,"cycl":2994,"pengaruh":2995,"##atal":2996,"mask":2997,"stim":2998,"##eal":2999,"oxide":3000,"sustainability":3001,"stage":3002,"##aves":3003,"dry":3004,"productivity":3005,"fri":3006,"transformation":3007,"dop":3008,"##itis":3009,"guide":3010,"recovery":3011,"crisis":3012,"institution":3013,"gast":3014,"song":3015,"solving":3016,"deng":3017,"emission":3018,"agricultural":3019,"##gu":3020,"ine":3021,"##tification":3022,"curric":3023,"##gin":3024,"##org":3025,"mathematical":3026,"sentence":3027,"dys":3028,"##tile":3029,"##ele":3030,"rev":3031,"christ":3032,"indonesia":3033,"diseases":3034,"protection":3035,"meaning":3036,"reson":3037,"secondary":3038,"tit":3039,"wall":3040,"##iation":3041,"##oti":3042,"examples":3043,"ultras":3044,"kim":3045,"ow":3046,"peter":3047,"interface":3048,"##portun":3049,"paul":3050,"yu":3051,"18":3052,"traum":3053,"fertil":3054,"infection":3055,"ethical":3056,"particip":3057,"eeg":3058,"##entic":3059,"##ava":3060,"##ascular":3061,"kern":3062,"challenge":3063,"number":3064,"your":3065,"contact":3066,"opportun":3067,"white":3068,"nanoparticles":3069,"gar":3070,"brid":3071,"logic":3072,"tumor":3073,"cut":3074,"gap":3075,"wild":3076,"##ala":3077,"obes":3078,"randomized":3079,"nur":3080,"tissu":3081,"##play":3082,"improvement":3083,"fix":3084,"recent":3085,"perceived":3086,"wel":3087,"exc":3088,"moham":3089,"relationships":3090,"##electric":3091,"instruction":3092,"##oxid":3093,"repro":3094,"countries":3095,"om":3096,"encry":3097,"african":3098,"list":3099,"phosph":3100,"##pir":3101,"modal":3102,"activ":3103,"ieee":3104,"##ca":3105,"sports":3106,"independ":3107,"spectral":3108,"private":3109,"discrimin":3110,"stere":3111,"european":3112,"goog":3113,"##eman":3114,"methodology":3115,"lee":3116,"197":3117,"solid":3118,"##bs":3119,"comprehension":3120,"but":3121,"fra":3122,"has":3123,"alco":3124,"bid":3125,"##ira":3126,"audio":3127,"tens":3128,"chemistry":3129,"tol":3130,"scheme":3131,"coding":3132,"wide":3133,"ship":3134,"less":3135,"##ises":3136,"recep":3137,"##ceed":3138,"finance":3139,"hal":3140,"##iro":3141,"##rative":3142,"##ush":3143,"youth":3144,"preserv":3145,"13":3146,"##ori":3147,"modular":3148,"removal":3149,"detect":3150,"crop":3151,"probabil":3152,"routing":3153,"indic":3154,"workplace":3155,"sample":3156,"ultra":3157,"##eline":3158,"##ado":3159,"cere":3160,"barri":3161,"latent":3162,"##ball":3163,"conceptual":3164,"##ullying":3165,"##ump":3166,"author":3167,"lid":3168,"##ji":3169,"##acement":3170,"##phone":3171,"intrusion":3172,"nigeria":3173,"ant":3174,"##osystem":3175,"chat":3176,"1010":3177,"##irectional":3178,"bond":3179,"sin":3180,"##ker":3181,"##tions":3182,"box":3183,"microbi":3184,"edition":3185,"topic":3186,"parameters":3187,"adolescents":3188,"range":3189,"2008":3190,"conditional":3191,"2009":3192,"mom":3193,"ru":3194,"absor":3195,"xxxx":3196,"fair":3197,"##los":3198,"##fe":3199,"##wave":3200,"##uls":3201,"robots":3202,"computation":3203,"description":3204,"corpus":3205,"secure":3206,"measure":3207,"look":3208,"probabilistic":3209,"toxic":3210,"exposure":3211,"##sing":3212,"##oo":3213,"##ander":3214,"affecting":3215,"technical":3216,"particle":3217,"richard":3218,"pakistan":3219,"##erated":3220,"##ora":3221,"##osa":3222,"arm":3223,"polymer":3224,"visualization":3225,"james":3226,"az":3227,"cle":3228,"##ran":3229,"##ount":3230,"##urb":3231,"connected":3232,"belief":3233,"fire":3234,"##ved":3235,"voice":3236,"##nam":3237,"##lab":3238,"##udes":3239,"glass":3240,"##ko":3241,"##faces":3242,"pharmac":3243,"assisted":3244,"mer":3245,"propos":3246,"filtering":3247,"best":3248,"harm":3249,"nas":3250,"##nel":3251,"martin":3252,"flexible":3253,"double":3254,"across":3255,"acoustic":3256,"elderly":3257,"eye":3258,"mri":3259,"plastic":3260,"animal":3261,"comprehensive":3262,"##ground":3263,"scen":3264,"diffic":3265,"franc":3266,"respir":3267,"tor":3268,"##bra":3269,"##hyd":3270,"metabol":3271,"other":3272,"##struc":3273,"hypertension":3274,"act":3275,"preval":3276,"firm":3277,"found":3278,"alignment":3279,"conflict":3280,"decomposition":3281,"present":3282,"##ochemical":3283,"finger":3284,"os":3285,"sv":3286,"intra":3287,"driver":3288,"curriculum":3289,"##ns":3290,"capacity":3291,"prior":3292,"##vide":3293,"##auss":3294,"kore":3295,"nlp":3296,"##bas":3297,"##ett":3298,"##rating":3299,"jun":3300,"finite":3301,"vulner":3302,"far":3303,"yield":3304,"accuracy":3305,"##pe":3306,"##ativity":3307,"##rin":3308,"basic":3309,"injury":3310,"ontology":3311,"requirements":3312,"exchange":3313,"old":3314,"##eli":3315,"accept":3316,"muscle":3317,"ka":3318,"obesity":3319,"##har":3320,"sport":3321,"query":3322,"exploration":3323,"pollution":3324,"literacy":3325,"ba":3326,"robotic":3327,"matter":3328,"pov":3329,"##ismic":3330,"advances":3331,"reh":3332,"employees":3333,"library":3334,"civ":3335,"prost":3336,"return":3337,"spectrum":3338,"##atives":3339,"##quality":3340,"##zym":3341,"cho":3342,"##ops":3343,"polar":3344,"childhood":3345,"##oli":3346,"pel":3347,"##ama":3348,"alcohol":3349,"levels":3350,"tab":3351,"##mer":3352,"repor":3353,"restor":3354,"##eph":3355,"consist":3356,"jos":3357,"sever":3358,"##off":3359,"transl":3360,"difference":3361,"proced":3362,"mir":3363,"sen":3364,"##va":3365,"##ube":3366,"2005":3367,"gi":3368,"neigh":3369,"##rich":3370,"perceptions":3371,"google":3372,"bit":3373,"ca":3374,"dense":3375,"therap":3376,"##iding":3377,"scalable":3378,"binary":3379,"##ova":3380,"validation":3381,"##ture":3382,"objects":3383,"allocation":3384,"rock":3385,"wear":3386,"way":3387,"deb":3388,"##akes":3389,"approxim":3390,"authentic":3391,"2007":3392,"sympt":3393,"essential":3394,"ratio":3395,"##lear":3396,"pregnancy":3397,"income":3398,"battery":3399,"observ":3400,"professional":3401,"induction":3402,"rest":3403,"generalized":3404,"shap":3405,"invol":3406,"raj":3407,"cluster":3408,"liver":3409,"cs":3410,"kumar":3411,"rac":3412,"girl":3413,"biod":3414,"explain":3415,"ra":3416,"##zo":3417,"compan":3418,"sea":3419,"biology":3420,"learners":3421,"better":3422,"cm":3423,"lith":3424,"side":3425,"multic":3426,"machines":3427,"ath":3428,"md":3429,"2006":3430,"parameter":3431,"##tt":3432,"##itz":3433,"choice":3434,"total":3435,"dependent":3436,"cas":3437,"##anol":3438,"foot":3439,"mort":3440,"thr":3441,"years":3442,"responses":3443,"mah":3444,"discrete":3445,"physics":3446,"statistics":3447,"prevalence":3448,"wood":3449,"##xxx":3450,"measures":3451,"component":3452,"ast":3453,"blu":3454,"iron":3455,"##ges":3456,"assessing":3457,"contextual":3458,"satell":3459,"hong":3460,"pp":3461,"chlor":3462,"synchron":3463,"sand":3464,"##30":3465,"neur":3466,"antioxid":3467,"career":3468,"cd":3469,"ts":3470,"anat":3471,"##igen":3472,"##ropy":3473,"root":3474,"interactions":3475,"nitrogen":3476,"midd":3477,"proceed":3478,"propagation":3479,"##ien":3480,"##yan":3481,"##ared":3482,"fluid":3483,"federated":3484,"##ii":3485,"ecosystem":3486,"annot":3487,"##gl":3488,"variable":3489,"##ford":3490,"cooperative":3491,"gal":3492,"styl":3493,"##rian":3494,"indoor":3495,"##pers":3496,"##cal":3497,"diffusion":3498,"##load":3499,"ax":3500,"mit":3501,"##bit":3502,"chrom":3503,"relig":3504,"##ough":3505,"volt":3506,"projects":3507,"##ores":3508,"##oyal":3509,"retail":3510,"may":3511,"augmentation":3512,"sav":3513,"##amp":3514,"prin":3515,"tissue":3516,"lym":3517,"##ooth":3518,"input":3519,"ethn":3520,"moral":3521,"mr":3522,"concep":3523,"compound":3524,"ken":3525,"rf":3526,"detector":3527,"##iotic":3528,"sensors":3529,"equations":3530,"16":3531,"##25":3532,"pret":3533,"articles":3534,"full":3535,"##iers":3536,"##over":3537,"experiment":3538,"achievement":3539,"adoption":3540,"park":3541,"setting":3542,"hep":3543,"past":3544,"##set":3545,"##elines":3546,"pricing":3547,"bacteria":3548,"pip":3549,"##ients":3550,"##omic":3551,"histor":3552,"antim":3553,"##plas":3554,"jus":3555,"marine":3556,"abs":3557,"doi":3558,"twitter":3559,"tasks":3560,"##astr":3561,"circuit":3562,"determinants":3563,"##pled":3564,"constraints":3565,"occup":3566,"alternative":3567,"experiences":3568,"##actic":3569,"motiv":3570,"fash":3571,"partial":3572,"violence":3573,"shopping":3574,"15":3575,"vitamin":3576,"lidar":3577,"ranking":3578,"semantics":3579,"coc":3580,"hash":3581,"causes":3582,"have":3583,"kr":3584,"##inking":3585,"veget":3586,"mur":3587,"##100":3588,"##ulin":3589,"coord":3590,"cover":3591,"##emble":3592,"bone":3593,"gauss":3594,"pil":3595,"biomed":3596,"pep":3597,"delay":3598,"values":3599,"crypt":3600,"##ique":3601,"invent":3602,"##band":3603,"radar":3604,"instr":3605,"relational":3606,"attitudes":3607,"counter":3608,"entrepreneurs":3609,"pix":3610,"river":3611,"spl":3612,"##ree":3613,"seismic":3614,"invari":3615,"explan":3616,"profit":3617,"mixt":3618,"kernel":3619,"fashion":3620,"clos":3621,"travel":3622,"who":3623,"speaking":3624,"navigation":3625,"brow":3626,"mess":3627,"xx":3628,"##kn":3629,"##wan":3630,"##uments":3631,"disaster":3632,"inflam":3633,"ampl":3634,"middle":3635,"concepts":3636,"##bu":3637,"##ench":3638,"##the":3639,"within":3640,"rapid":3641,"poverty":3642,"##come":3643,"##ateral":3644,"wavel":3645,"theoretical":3646,"dalam":3647,"blind":3648,"monoc":3649,"degrad":3650,"pac":3651,"##iance":3652,"fung":3653,"##oders":3654,"##ota":3655,"##ival":3656,"##idity":3657,"##ogram":3658,"ban":3659,"##sa":3660,"commit":3661,"insurance":3662,"photo":3663,"deno":3664,"purchase":3665,"##kan":3666,"##att":3667,"agents":3668,"trajectory":3669,"##omb":3670,"place":3671,"damage":3672,"gest":3673,"tag":3674,"##iop":3675,"ash":3676,"universal":3677,"bidirectional":3678,"##men":3679,"ensemble":3680,"preserving":3681,"jac":3682,"than":3683,"unified":3684,"shoul":3685,"dialogue":3686,"##aries":3687,"ing":3688,"phone":3689,"pair":3690,"##onia":3691,"comple":3692,"emerging":3693,"toler":3694,"modified":3695,"resid":3696,"fraud":3697,"survi":3698,"membr":3699,"##icro":3700,"##ulus":3701,"##igning":3702,"##ifer":3703,"equation":3704,"coping":3705,"##ogenic":3706,"14":3707,"oste":3708,"sed":3709,"##get":3710,"theories":3711,"fraction":3712,"bab":3713,"run":3714,"##acting":3715,"##anda":3716,"independent":3717,"isolation":3718,"##zation":3719,"controller":3720,"defect":3721,"lymph":3722,"jud":3723,"##den":3724,"reviews":3725,"miss":3726,"variation":3727,"proceedings":3728,"aid":3729,"##cher":3730,"distillation":3731,"ju":3732,"mes":3733,"star":3734,"death":3735,"classes":3736,"generalization":3737,"iv":3738,"xia":3739,"intens":3740,"generating":3741,"workers":3742,"##flow":3743,"sales":3744,"pse":3745,"##ourc":3746,"complexity":3747,"##ez":3748,"adh":3749,"##otherapy":3750,"enterprise":3751,"programs":3752,"synthetic":3753,"##aceu":3754,"##abilitation":3755,"satellite":3756,"bh":3757,"sources":3758,"explo":3759,"nurses":3760,"##yr":3761,"##tioning":3762,"causal":3763,"evolutionary":3764,"separation":3765,"bott":3766,"fp":3767,"hr":3768,"enzym":3769,"parad":3770,"constit":3771,"upd":3772,"enhancing":3773,"luc":3774,"analys":3775,"##encies":3776,"adolescent":3777,"fall":3778,"fron":3779,"##itivity":3780,"2004":3781,"credit":3782,"heav":3783,"##ishing":3784,"rank":3785,"##rement":3786,"arg":3787,"signific":3788,"voltage":3789,"ele":3790,"##aka":3791,"##ercial":3792,"deriv":3793,"call":3794,"rain":3795,"biomedical":3796,"##itting":3797,"##rap":3798,"microwave":3799,"story":3800,"papers":3801,"encoder":3802,"verification":3803,"bad":3804,"##word":3805,"##ectivity":3806,"milk":3807,"pseud":3808,"##ests":3809,"anc":3810,"civil":3811,"vo":3812,"transaction":3813,"handbook":3814,"irr":3815,"perspectives":3816,"40":3817,"due":3818,"quad":3819,"retention":3820,"measurements":3821,"completion":3822,"recommender":3823,"##sch":3824,"##ional":3825,"reinforced":3826,"landsc":3827,"fluor":3828,"she":3829,"means":3830,"america":3831,"gaussian":3832,"fruit":3833,"ner":3834,"##rick":3835,"crystal":3836,"communities":3837,"bag":3838,"##iological":3839,"##pc":3840,"##gi":3841,"##78":3842,"##ami":3843,"sense":3844,"##ocr":3845,"exec":3846,"interest":3847,"tensor":3848,"very":3849,"stabil":3850,"2000":3851,"nets":3852,"sequential":3853,"##astruct":3854,"mad":3855,"vic":3856,"##cer":3857,"chap":3858,"##plant":3859,"cate":3860,"mos":3861,"anthrop":3862,"pow":3863,"##iment":3864,"maps":3865,"##copic":3866,"increase":3867,"bul":3868,"rna":3869,"##ras":3870,"##ili":3871,"##ria":3872,"##aching":3873,"politics":3874,"##anth":3875,"parents":3876,"2003":3877,"cyt":3878,"inflamm":3879,"mand":3880,"commercial":3881,"vaccine":3882,"drop":3883,"##fulness":3884,"habit":3885,"cann":3886,"kal":3887,"mich":3888,"rub":3889,"##rh":3890,"leaf":3891,"major":3892,"if":3893,"unit":3894,"ng":3895,"relev":3896,"discourse":3897,"balance":3898,"mainten":3899,"glyc":3900,"je":3901,"ali":3902,"century":3903,"ict":3904,"screening":3905,"policies":3906,"needs":3907,"islamic":3908,"##aceutical":3909,"##olo":3910,"##erson":3911,"asia":3912,"iter":3913,"loyal":3914,"wil":3915,"##agram":3916,"##sequ":3917,"imagery":3918,"words":3919,"##ised":3920,"five":3921,"pm":3922,"##iling":3923,"adam":3924,"lev":3925,"events":3926,"help":3927,"transcri":3928,"benchmark":3929,"marc":3930,"symb":3931,"responsibility":3932,"emergency":3933,"categor":3934,"rates":3935,"##estern":3936,"##odynam":3937,"see":3938,"smartphone":3939,"sig":3940,"vel":3941,"##urg":3942,"profile":3943,"questionna":3944,"slam":3945,"transformers":3946,"maintenance":3947,"cour":3948,"ker":3949,"##osh":3950,"regularization":3951,"encryption":3952,"##ame":3953,"neut":3954,"geometry":3955,"russ":3956,"inver":3957,"##amine":3958,"usage":3959,"cereb":3960,"##ct":3961,"elements":3962,"##onomy":3963,"subject":3964,"dengan":3965,"ger":3966,"##ila":3967,"expect":3968,"usa":3969,"parsing":3970,"creativity":3971,"regional":3972,"sor":3973,"ecological":3974,"criter":3975,"architectures":3976,"companies":3977,"correction":3978,"migration":3979,"##isa":3980,"##vely":3981,"background":3982,"rehabilitation":3983,"ni":3984,"##60":3985,"##ocom":3986,"compress":3987,"objective":3988,"operation":3989,"bacterial":3990,"nurse":3991,"mam":3992,"##ted":3993,"##ists":3994,"fields":3995,"jan":3996,"mim":3997,"##rip":3998,"##aki":3999,"phyt":4000,"hardware":4001,"infrared":4002,"antioxidant":4003,"dog":4004,"##eling":4005,"older":4006,"radiation":4007,"vocab":4008,"codes":4009,"sr":4010,"##olf":4011,"selective":4012,"oxy":4013,"denoising":4014,"dar":4015,"earthqu":4016,"dil":4017,"ef":4018,"##ulations":4019,"##embly":4020,"##ycl":4021,"##cc":4022,"spir":4023,"5g":4024,"sulf":4025,"##by":4026,"infrastruct":4027,"linguistic":4028,"contribution":4029,"wu":4030,"##ela":4031,"asym":4032,"manif":4033,"risks":4034,"poss":4035,"##u0000":4036,"hypoth":4037,"heavy":4038,"east":4039,"##itary":4040,"##ocial":4041,"activation":4042,"scan":4043,"entropy":4044,"silicon":4045,"reliability":4046,"acceptance":4047,"##alt":4048,"##rog":4049,"##ylene":4050,"2001":4051,"cul":4052,"derm":4053,"eas":4054,"pemb":4055,"##mi":4056,"##22":4057,"banglad":4058,"pend":4059,"sd":4060,"enab":4061,"managing":4062,"##vent":4063,"##ulary":4064,"##ritis":4065,"markov":4066,"loop":4067,"##icrobial":4068,"kid":4069,"male":4070,"und":4071,"synt":4072,"trees":4073,"cellular":4074,"casc":4075,"ye":4076,"bin":4077,"rgb":4078,"##uits":4079,"##ception":4080,"coh":4081,"gran":4082,"vitro":4083,"haz":4084,"ms":4085,"site":4086,"##atch":4087,"orientation":4088,"loyalty":4089,"lap":4090,"money":4091,"##ret":4092,"markets":4093,"tak":4094,"##oe":4095,"suic":4096,"combining":4097,"avoid":4098,"##u0002":4099,"components":4100,"opportunities":4101,"##jection":4102,"combined":4103,"weakly":4104,"expans":4105,"inventory":4106,"aqu":4107,"osc":4108,"roles":4109,"sist":4110,"trading":4111,"addiction":4112,"maximum":4113,"reducing":4114,"restoration":4115,"dark":4116,"tam":4117,"identifying":4118,"broad":4119,"symptoms":4120,"outcome":4121,"limit":4122,"arth":4123,"array":4124,"frame":4125,"##eshold":4126,"ball":4127,"##gence":4128,"conservation":4129,"gluc":4130,"supervision":4131,"mobility":4132,"output":4133,"webs":4134,"lact":4135,"win":4136,"carcin":4137,"##esti":4138,"board":4139,"subs":4140,"logistics":4141,"cit":4142,"##uate":4143,"exter":4144,"alk":4145,"aging":4146,"day":4147,"ip":4148,"oce":4149,"formal":4150,"europe":4151,"##tle":4152,"track":4153,"plate":4154,"colon":4155,"manipulation":4156,"##read":4157,"fundam":4158,"vocabulary":4159,"jul":4160,"pem":4161,"##ove":4162,"embedded":4163,"hiv":4164,"kom":4165,"rules":4166,"##pal":4167,"communications":4168,"example":4169,"guidelines":4170,"burn":4171,"lock":4172,"##oon":4173,"##otics":4174,"organizations":4175,"bangladesh":4176,"composites":4177,"preparation":4178,"adjust":4179,"fm":4180,"table":4181,"##entive":4182,"che":4183,"electrom":4184,"crime":4185,"kine":4186,"##dis":4187,"graphene":4188,"imagenet":4189,"##anch":4190,"##agen":4191,"##tering":4192,"##otype":4193,"mang":4194,"agile":4195,"##awa":4196,"threat":4197,"antimicrobial":4198,"##ml":4199,"##omorph":4200,"##gg":4201,"##ungan":4202,"facil":4203,"groups":4204,"competition":4205,"##40":4206,"##tik":4207,"force":4208,"##occ":4209,"##adi":4210,"##ighting":4211,"##ophy":4212,"christian":4213,"ultrasound":4214,"son":4215,"simult":4216,"own":4217,"cognition":4218,"fati":4219,"ov":4220,"stack":4221,"revis":4222,"hydrogen":4223,"##kin":4224,"##ident":4225,"17":4226,"##metric":4227,"firms":4228,"hub":4229,"##agnetic":4230,"areas":4231,"robustness":4232,"situ":4233,"right":4234,"##vant":4235,"##ials":4236,"implicit":4237,"plasma":4238,"abuse":4239,"highly":4240,"lithium":4241,"##raf":4242,"domestic":4243,"diagnostic":4244,"drugs":4245,"happ":4246,"trop":4247,"##ni":4248,"cong":4249,"##umb":4250,"##utes":4251,"fis":4252,"##ql":4253,"android":4254,"##asa":4255,"##ased":4256,"balanc":4257,"living":4258,"respiratory":4259,"ci":4260,"reve":4261,"##verage":4262,"buying":4263,"hotel":4264,"kep":4265,"##atics":4266,"##uth":4267,"##craft":4268,"##wor":4269,"11":4270,"ek":4271,"sensitive":4272,"switch":4273,"##weight":4274,"instance":4275,"##nor":4276,"designing":4277,"learned":4278,"street":4279,"boundary":4280,"competitive":4281,"entrepreneurship":4282,"mak":4283,"vent":4284,"##lan":4285,"##ird":4286,"strong":4287,"relax":4288,"banks":4289,"alumin":4290,"##ips":4291,"##ortex":4292,"corona":4293,"transportation":4294,"competence":4295,"christoph":4296,"##orge":4297,"musc":4298,"weighted":4299,"barriers":4300,"efl":4301,"##cs":4302,"##obacter":4303,"##illus":4304,"assembly":4305,"account":4306,"andrew":4307,"los":4308,"##ypt":4309,"div":4310,"iso":4311,"variability":4312,"pharmaceutical":4313,"legal":4314,"2d":4315,"ss":4316,"registration":4317,"linking":4318,"reduce":4319,"operations":4320,"spr":4321,"que":4322,"facebook":4323,"macro":4324,"fundamental":4325,"hall":4326,"perf":4327,"interventions":4328,"following":4329,"questionnaire":4330,"##therapy":4331,"##aps":4332,"microbial":4333,"##itig":4334,"discrimination":4335,"administration":4336,"approximation":4337,"landscape":4338,"oxygen":4339,"mid":4340,"property":4341,"constrained":4342,"aggregation":4343,"threshold":4344,"hair":4345,"ell":4346,"infrastructure":4347,"rule":4348,"##udi":4349,"unt":4350,"##oids":4351,"##heim":4352,"autoencoder":4353,"don":4354,"forward":4355,"strain":4356,"train":4357,"socio":4358,"##neum":4359,"fresh":4360,"signals":4361,"equity":4362,"##monary":4363,"ocean":4364,"pig":4365,"##ua":4366,"##icity":4367,"2002":4368,"increment":4369,"crowds":4370,"australia":4371,"neighbor":4372,"##arb":4373,"genome":4374,"##ehold":4375,"shared":4376,"sciences":4377,"inequality":4378,"simultaneous":4379,"meng":4380,"ten":4381,"##ariate":4382,"wheel":4383,"king":4384,"##bot":4385,"##ulator":4386,"##rosion":4387,"cardiac":4388,"hydrox":4389,"external":4390,"cause":4391,"cad":4392,"hop":4393,"mesh":4394,"##ream":4395,"coating":4396,"ide":4397,"##38":4398,"##idae":4399,"module":4400,"impair":4401,"communic":4402,"concentration":4403,"gel":4404,"##200":4405,"emotions":4406,"##des":4407,"##usive":4408,"##cn":4409,"users":4410,"wheat":4411,"##amb":4412,"transplant":4413,"atm":4414,"behaviors":4415,"ceram":4416,"expansion":4417,"tac":4418,"##34":4419,"##iles":4420,"philos":4421,"classifier":4422,"length":4423,"##iy":4424,"medium":4425,"sensitivity":4426,"coff":4427,"reward":4428,"employment":4429,"##66":4430,"ability":4431,"##onomic":4432,"important":4433,"##ytes":4434,"cities":4435,"course":4436,"western":4437,"prefer":4438,"##iento":4439,"##oster":4440,"invariant":4441,"##2o":4442,"examination":4443,"therapeu":4444,"make":4445,"fuel":4446,"intensity":4447,"mm":4448,"##rit":4449,"##oto":4450,"##ramid":4451,"questions":4452,"vulnerability":4453,"##print":4454,"mexic":4455,"##rosp":4456,"decisions":4457,"injection":4458,"cosm":4459,"receptor":4460,"cases":4461,"mitig":4462,"anton":4463,"##odon":4464,"pert":4465,"variables":4466,"bim":4467,"ko":4468,"##qa":4469,"this":4470,"##ster":4471,"##encia":4472,"kl":4473,"pixel":4474,"incremental":4475,"##rium":4476,"regen":4477,"flight":4478,"pneum":4479,"##anal":4480,"##udinal":4481,"display":4482,"##ensis":4483,"##ultural":4484,"extreme":4485,"saliency":4486,"depart":4487,"nucle":4488,"mortality":4489,"degradation":4490,"bullying":4491,"##sm":4492,"##ache":4493,"flood":4494,"pyth":4495,"finding":4496,"kidney":4497,"roman":4498,"sod":4499,"##zil":4500,"pin":4501,"chi":4502,"##porary":4503,"analyzing":4504,"som":4505,"##bre":4506,"##ika":4507,"##ployment":4508,"21":4509,"rum":4510,"##eries":4511,"cha":4512,"##ewater":4513,"smith":4514,"egypt":4515,"pra":4516,"##pan":4517,"analisis":4518,"cold":4519,"bib":4520,"pv":4521,"span":4522,"robotics":4523,"porn":4524,"##no":4525,"##idden":4526,"rod":4527,"rail":4528,"##fol":4529,"##oral":4530,"print":4531,"manual":4532,"which":4533,"##ario":4534,"healthy":4535,"consider":4536,"metabolism":4537,"##ourcing":4538,"xu":4539,"integrating":4540,"femin":4541,"bern":4542,"gall":4543,"##rous":4544,"##vex":4545,"compens":4546,"grained":4547,"err":4548,"grammar":4549,"moment":4550,"epidem":4551,"tut":4552,"##yc":4553,"##39":4554,"underwater":4555,"encoding":4556,"named":4557,"various":4558,"mutual":4559,"##una":4560,"genes":4561,"magnet":4562,"ti":4563,"consequ":4564,"##athan":4565,"##riction":4566,"##illing":4567,"##inding":4568,"##clusion":4569,"calibration":4570,"longit":4571,"clean":4572,"membrane":4573,"viv":4574,"##grad":4575,"##eding":4576,"conversational":4577,"avi":4578,"##met":4579,"moder":4580,"parent":4581,"oxid":4582,"origin":4583,"participation":4584,"lower":4585,"ve":4586,"##embl":4587,"panel":4588,"ana":4589,"static":4590,"##ayer":4591,"##rone":4592,"couns":4593,"laboratory":4594,"reproduc":4595,"101016":4596,"##orpor":4597,"##roc":4598,"reform":4599,"only":4600,"aspects":4601,"commitment":4602,"jon":4603,"chick":4604,"shift":4605,"smooth":4606,"speaker":4607,"issue":4608,"ce":4609,"##asis":4610,"station":4611,"modulation":4612,"adsor":4613,"teen":4614,"##pose":4615,"factorization":4616,"wastewater":4617,"abstract":4618,"##tial":4619,"##ologi":4620,"attach":4621,"pulse":4622,"historical":4623,"monocular":4624,"25":4625,"##effic":4626,"##hao":4627,"immune":4628,"##well":4629,"##24":4630,"##inf":4631,"##asive":4632,"##rey":4633,"pyramid":4634,"avail":4635,"labeling":4636,"promotion":4637,"coupled":4638,"authentication":4639,"bah":4640,"rights":4641,"start":4642,"upper":4643,"pediatric":4644,"aerial":4645,"mediated":4646,"##enz":4647,"forens":4648,"rele":4649,"proposal":4650,"fpga":4651,"##29":4652,"##inity":4653,"opin":4654,"volati":4655,"housing":4656,"crowd":4657,"fake":4658,"node":4659,"ze":4660,"##gue":4661,"cris":4662,"reth":4663,"proteins":4664,"critic":4665,"ech":4666,"este":4667,"panc":4668,"##pdf":4669,"prem":4670,"many":4671,"defic":4672,"swarm":4673,"extended":4674,"longitudinal":4675,"west":4676,"##house":4677,"##work":4678,"##ovascular":4679,"tests":4680,"records":4681,"should":4682,"faster":4683,"##ilib":4684,"##obic":4685,"generator":4686,"geometric":4687,"collaboration":4688,"nuclear":4689,"trauma":4690,"han":4691,"##rate":4692,"##elle":4693,"progress":4694,"normalization":4695,"##rase":4696,"military":4697,"frag":4698,"hd":4699,"hidden":4700,"lik":4701,"sets":4702,"##go":4703,"construc":4704,"scaling":4705,"affects":4706,"##fa":4707,"##ulos":4708,"##atitis":4709,"next":4710,"trig":4711,"intellect":4712,"advantage":4713,"advantages":4714,"fixed":4715,"relaxation":4716,"##cd":4717,"most":4718,"defense":4719,"earthquake":4720,"##nia":4721,"albert":4722,"covid19":4723,"quanti":4724,"innovative":4725,"jacob":4726,"gain":4727,"spaces":4728,"##oxide":4729,"nic":4730,"##ester":4731,"##opter":4732,"##oking":4733,"creative":4734,"standards":4735,"##21":4736,"##edia":4737,"changing":4738,"probability":4739,"criteria":4740,"therapeutic":4741,"30":4742,"##ho":4743,"##wal":4744,"surfaces":4745,"frank":4746,"texture":4747,"turbine":4748,"##graph":4749,"##elli":4750,"co2":4751,"viet":4752,"##box":4753,"##ematic":4754,"alph":4755,"inspir":4756,"collection":4757,"oscill":4758,"technological":4759,"persist":4760,"implant":4761,"cement":4762,"kel":4763,"tang":4764,"##itors":4765,"##entang":4766,"##char":4767,"##ogical":4768,"coast":4769,"grade":4770,"trained":4771,"manager":4772,"break":4773,"house":4774,"printing":4775,"sti":4776,"##ima":4777,"spread":4778,"methyl":4779,"##acing":4780,"##lands":4781,"lingual":4782,"calcium":4783,"anatomy":4784,"##u0000u0000":4785,"pad":4786,"##rid":4787,"##dm":4788,"##etch":4789,"formulation":4790,"brown":4791,"cb":4792,"##ometer":4793,"cla":4794,"esc":4795,"love":4796,"metrics":4797,"survival":4798,"chapter":4799,"carcinoma":4800,"##80":4801,"repl":4802,"##akan":4803,"elastic":4804,"infant":4805,"copper":4806,"##eleton":4807,"ly":4808,"ta":4809,"##35":4810,"##ynth":4811,"ecology":4812,"sensory":4813,"patch":4814,"spatio":4815,"interpretable":4816,"cand":4817,"hen":4818,"prun":4819,"automation":4820,"personalized":4821,"creation":4822,"brazil":4823,"##oni":4824,"##eta":4825,"presence":4826,"mun":4827,"##ulated":4828,"check":4829,"coeffic":4830,"microf":4831,"compliance":4832,"huang":4833,"lag":4834,"nm":4835,"pict":4836,"##asp":4837,"phyl":4838,"relative":4839,"derived":4840,"um":4841,"##zan":4842,"##aman":4843,"##rif":4844,"traits":4845,"influencing":4846,"clouds":4847,"wavelet":4848,"fractional":4849,"hi":4850,"multiv":4851,"malware":4852,"bol":4853,"cf":4854,"dose":4855,"##ways":4856,"precision":4857,"##dy":4858,"##ister":4859,"##veraging":4860,"breath":4861,"intellectual":4862,"fog":4863,"##tica":4864,"uses":4865,"cloth":4866,"##ologic":4867,"ja":4868,"refr":4869,"fracture":4870,"styles":4871,"exploiting":4872,"mn":4873,"##bility":4874,"##zi":4875,"humans":4876,"##aily":4877,"spectros":4878,"cataly":4879,"blue":4880,"cot":4881,"lon":4882,"##organ":4883,"##idi":4884,"aircraft":4885,"utilization":4886,"fatigue":4887,"##tain":4888,"##yg":4889,"##sen":4890,"anne":4891,"##iler":4892,"coal":4893,"movie":4894,"cardiovascular":4895,"japanese":4896,"stereo":4897,"constitu":4898,"esteem":4899,"rig":4900,"rab":4901,"organis":4902,"salt":4903,"connection":4904,"pedag":4905,"converter":4906,"joseph":4907,"atmosph":4908,"sab":4909,"points":4910,"captioning":4911,"##lingual":4912,"office":4913,"pedest":4914,"pulmonary":4915,"python":4916,"cav":4917,"##ectomy":4918,"coher":4919,"amaz":4920,"substr":4921,"promo":4922,"resonance":4923,"rethinking":4924,"##etal":4925,"##eller":4926,"contain":4927,"equilib":4928,"diverse":4929,"conversion":4930,"vietnam":4931,"ven":4932,"##yer":4933,"great":4934,"consumers":4935,"metabolic":4936,"arabic":4937,"principle":4938,"discriminative":4939,"cath":4940,"##ffer":4941,"##ically":4942,"##erman":4943,"matth":4944,"earning":4945,"packaging":4946,"coffee":4947,"bec":4948,"cin":4949,"comparing":4950,"##hua":4951,"eric":4952,"gate":4953,"tv":4954,"##atus":4955,"carlo":4956,"item":4957,"bridge":4958,"##normal":4959,"##otive":4960,"##jo":4961,"wei":4962,"ok":4963,"tet":4964,"##oly":4965,"##ectors":4966,"modification":4967,"contem":4968,"salient":4969,"additive":4970,"consequences":4971,"bear":4972,"era":4973,"descent":4974,"pregnant":4975,"cerebral":4976,"bip":4977,"cash":4978,"gis":4979,"##ament":4980,"alz":4981,"alge":4982,"boost":4983,"nanot":4984,"narrative":4985,"kes":4986,"##isy":4987,"##opath":4988,"##ikasi":4989,"confidence":4990,"attribute":4991,"aes":4992,"arom":4993,"hind":4994,"yout":4995,"##ologia":4996,"perm":4997,"decent":4998,"george":4999,"##ues":5000,"##itching":5001,"##vier":5002,"medication":5003,"simpl":5004,"progressive":5005,"##inson":5006,"absorption":5007,"24":5008,"ty":5009,"##rot":5010,"express":5011,"mobil":5012,"animals":5013,"entrepreneur":5014,"reporting":5015,"##ny":5016,"##ei":5017,"##ona":5018,"prosp":5019,"##ensus":5020,"lex":5021,"languages":5022,"recommendations":5023,"documents":5024,"surgical":5025,"birth":5026,"##usc":5027,"##advant":5028,"moving":5029,"herit":5030,"minimal":5031,"mixture":5032,"mouse":5033,"##down":5034,"disabilities":5035,"recogn":5036,"multilingual":5037,"tea":5038,"##rought":5039,"phenomen":5040,"fabric":5041,"citiz":5042,"master":5043,"oz":5044,"##64":5045,"discuss":5046,"singh":5047,"turk":5048,"drive":5049,"bot":5050,"rat":5051,"##ersonal":5052,"estimating":5053,"handw":5054,"batch":5055,"indicators":5056,"powder":5057,"hypothesis":5058,"gps":5059,"##ito":5060,"##opathy":5061,"disclos":5062,"ethiop":5063,"tele":5064,"ble":5065,"every":5066,"stef":5067,"pancre":5068,"six":5069,"##omes":5070,"##ulose":5071,"disadvant":5072,"iran":5073,"race":5074,"tin":5075,"##iform":5076,"pron":5077,"tomato":5078,"ambient":5079,"fertilizer":5080,"##70":5081,"scler":5082,"insect":5083,"tomography":5084,"##rained":5085,"contras":5086,"hypers":5087,"cast":5088,"daily":5089,"sap":5090,"##kat":5091,"compounds":5092,"vl":5093,"prel":5094,"healing":5095,"preference":5096,"iterative":5097,"rout":5098,"##yb":5099,"distr":5100,"incorpor":5101,"influences":5102,"##2020":5103,"##elihood":5104,"errors":5105,"denti":5106,"##nas":5107,"##90":5108,"##ales":5109,"inverse":5110,"transpar":5111,"para":5112,"corn":5113,"##ether":5114,"silver":5115,"taxonomy":5116,"positioning":5117,"svm":5118,"ancient":5119,"relevance":5120,"sant":5121,"yog":5122,"##xiv":5123,"theor":5124,"maria":5125,"linguistics":5126,"justice":5127,"cannab":5128,"##tors":5129,"neon":5130,"shad":5131,"attr":5132,"agency":5133,"##ashi":5134,"repair":5135,"suicide":5136,"fal":5137,"fly":5138,"##ians":5139,"##utation":5140,"listening":5141,"rational":5142,"##mo":5143,"mice":5144,"obst":5145,"pathway":5146,"contract":5147,"occupational":5148,"nik":5149,"rating":5150,"answer":5151,"##rations":5152,"films":5153,"stephen":5154,"alexander":5155,"hip":5156,"jean":5157,"pun":5158,"rc":5159,"##rication":5160,"##function":5161,"abnormal":5162,"##flo":5163,"elementary":5164,"veloc":5165,"contemporary":5166,"ku":5167,"tail":5168,"vibration":5169,"zinc":5170,"chin":5171,"##pectral":5172,"household":5173,"##sk":5174,"##23":5175,"##ecti":5176,"##emy":5177,"##tives":5178,"department":5179,"dos":5180,"wound":5181,"##win":5182,"##rik":5183,"##illa":5184,"schiz":5185,"poor":5186,"monte":5187,"palm":5188,"interpersonal":5189,"##isi":5190,"deform":5191,"compact":5192,"dispers":5193,"##ifi":5194,"domin":5195,"combination":5196,"filters":5197,"##ogenesis":5198,"horm":5199,"attachment":5200,"ib":5201,"third":5202,"resta":5203,"##ifying":5204,"insights":5205,"democr":5206,"dependency":5207,"portfol":5208,"interpretation":5209,"tropical":5210,"our":5211,"ri":5212,"##fall":5213,"##arth":5214,"##itus":5215,"##ols":5216,"##ulate":5217,"convex":5218,"##imb":5219,"spin":5220,"networking":5221,"explaining":5222,"mineral":5223,"##board":5224,"connectivity":5225,"sodium":5226,"decentral":5227,"contrastive":5228,"bac":5229,"pier":5230,"##ulating":5231,"muse":5232,"publish":5233,"datasets":5234,"biomass":5235,"instrument":5236,"irrigation":5237,"website":5238,"electromagnetic":5239,"dur":5240,"vac":5241,"##67":5242,"##sts":5243,"mindfulness":5244,"##fr":5245,"alb":5246,"convergence":5247,"kenya":5248,"manifold":5249,"vivo":5250,"drought":5251,"##activity":5252,"they":5253,"##ulties":5254,"chip":5255,"lean":5256,"selected":5257,"minimum":5258,"platforms":5259,"books":5260,"eating":5261,"kon":5262,"york":5263,"##do":5264,"there":5265,"##chool":5266,"score":5267,"mari":5268,"bangla":5269,"paradig":5270,"fel":5271,"##thers":5272,"morphology":5273,"payment":5274,"autoencoders":5275,"release":5276,"cv":5277,"##65":5278,"nepal":5279,"samples":5280,"switching":5281,"alzheim":5282,"##rens":5283,"prod":5284,"asian":5285,"##isms":5286,"controll":5287,"weather":5288,"address":5289,"dietary":5290,"tolerance":5291,"multivariate":5292,"restaur":5293,"##rof":5294,"##igu":5295,"##ifier":5296,"rece":5297,"automotive":5298,"##olding":5299,"sequences":5300,"beta":5301,"athl":5302,"pedestrian":5303,"cortex":5304,"##ils":5305,"marri":5306,"surveillance":5307,"##operative":5308,"##cious":5309,"wearable":5310,"ay":5311,"eb":5312,"gut":5313,"mell":5314,"##chem":5315,"##ulty":5316,"where":5317,"##ikan":5318,"angle":5319,"extension":5320,"toxicity":5321,"tod":5322,"##kh":5323,"stra":5324,"colum":5325,"korea":5326,"##ls":5327,"##uption":5328,"iner":5329,"##asan":5330,"dielectric":5331,"##pres":5332,"emissions":5333,"vib":5334,"##ux":5335,"##omics":5336,"##insic":5337,"tuning":5338,"brief":5339,"christopher":5340,"youtube":5341,"lar":5342,"rr":5343,"tong":5344,"##dp":5345,"seas":5346,"regard":5347,"##iotics":5348,"sistem":5349,"philosophy":5350,"vid":5351,"##emporal":5352,"leak":5353,"kam":5354,"kong":5355,"##ratic":5356,"##ades":5357,"share":5358,"parental":5359,"biof":5360,"noisy":5361,"grass":5362,"##escence":5363,"1999":5364,"increasing":5365,"prospect":5366,"difficulties":5367,"bed":5368,"##ogl":5369,"apple":5370,"isolated":5371,"institutional":5372,"consistency":5373,"diction":5374,"live":5375,"rog":5376,"##asion":5377,"##earance":5378,"goal":5379,"complement":5380,"initial":5381,"doped":5382,"taking":5383,"##osting":5384,"##otrop":5385,"##anger":5386,"##version":5387,"gaming":5388,"buildings":5389,"beng":5390,"##etary":5391,"diam":5392,"caps":5393,"germany":5394,"revolution":5395,"involvement":5396,"nerve":5397,"amazon":5398,"cerv":5399,"fan":5400,"lens":5401,"prag":5402,"##aga":5403,"beh":5404,"apps":5405,"matlab":5406,"directed":5407,"##iorg":5408,"##ontal":5409,"stimulation":5410,"prospective":5411,"binding":5412,"##cor":5413,"##28":5414,"##onics":5415,"##ily":5416,"##chi":5417,"suppor":5418,"lightweight":5419,"conversation":5420,"untuk":5421,"rah":5422,"##wood":5423,"##onym":5424,"##emen":5425,"##tina":5426,"update":5427,"regeneration":5428,"ket":5429,"ved":5430,"##nostic":5431,"##iate":5432,"##yte":5433,"##ette":5434,"tuberc":5435,"prelim":5436,"basis":5437,"multis":5438,"placement":5439,"##luid":5440,"##iversity":5441,"##media":5442,"dh":5443,"fear":5444,"##nd":5445,"##ahan":5446,"affective":5447,"telec":5448,"passive":5449,"museum":5450,"gab":5451,"host":5452,"##arin":5453,"##entia":5454,"##entier":5455,"##onald":5456,"server":5457,"alloy":5458,"analytical":5459,"circular":5460,"##opsis":5461,"opinion":5462,"ment":5463,"##eet":5464,"##imm":5465,"sugar":5466,"diagram":5467,"charge":5468,"topology":5469,"neurop":5470,"attributes":5471,"principal":5472,"adjustment":5473,"##eb":5474,"##kar":5475,"##dd":5476,"heur":5477,"##enda":5478,"##ajaran":5479,"applying":5480,"renal":5481,"##mm":5482,"##dom":5483,"##olation":5484,"prol":5485,"tooth":5486,"##ococc":5487,"##ulture":5488,"wwwx":5489,"config":5490,"drying":5491,"coordin":5492,"spectroscopy":5493,"jack":5494,"##ken":5495,"##so":5496,"norm":5497,"classifiers":5498,"beliefs":5499,"habitat":5500,"rnn":5501,"##ximate":5502,"acet":5503,"arxiv":5504,"##ardi":5505,"zhou":5506,"channels":5507,"morphological":5508,"##ares":5509,"stan":5510,"grav":5511,"semicon":5512,"physic":5513,"publication":5514,"sliding":5515,"benefit":5516,"explanations":5517,"yan":5518,"##68":5519,"subst":5520,"##arma":5521,"camp":5522,"layout":5523,"northern":5524,"annotation":5525,"wet":5526,"##2v":5527,"store":5528,"##ardo":5529,"country":5530,"lipid":5531,"jer":5532,"native":5533,"##top":5534,"terms":5535,"experiments":5536,"##video":5537,"pseudo":5538,"heritage":5539,"dro":5540,"gans":5541,"##ilt":5542,"##ectal":5543,"peru":5544,"##iana":5545,"investigating":5546,"nutrient":5547,"calculation":5548,"miller":5549,"preliminary":5550,"bow":5551,"##oj":5552,"##ortion":5553,"proof":5554,"decoder":5555,"hydra":5556,"drone":5557,"mood":5558,"pump":5559,"rol":5560,"##yu":5561,"##45":5562,"##uran":5563,"##ago":5564,"##ocal":5565,"evol":5566,"prostate":5567,"disclosure":5568,"democracy":5569,"warm":5570,"##vin":5571,"##esp":5572,"##ingual":5573,"stev":5574,"clay":5575,"renew":5576,"possible":5577,"hazard":5578,"das":5579,"ml":5580,"ring":5581,"##ensi":5582,"consensus":5583,"diagnos":5584,"chatbot":5585,"pruning":5586,"bis":5587,"late":5588,"nick":5589,"##97":5590,"##uli":5591,"prices":5592,"enhance":5593,"neuros":5594,"merg":5595,"##pentier":5596,"##tia":5597,"##emes":5598,"reverse":5599,"disability":5600,"phon":5601,"soci":5602,"labour":5603,"korean":5604,"procedure":5605,"##ecurity":5606,"##idth":5607,"distric":5608,"maternal":5609,"get":5610,"ware":5611,"##ermal":5612,"cnns":5613,"cyberb":5614,"streaming":5615,"coupling":5616,"semiconduc":5617,"raw":5618,"var":5619,"##rs":5620,"##ives":5621,"costs":5622,"glucose":5623,"inspired":5624,"50":5625,"dor":5626,"ij":5627,"jord":5628,"lou":5629,"rib":5630,"rats":5631,"thor":5632,"spo":5633,"filip":5634,"zhu":5635,"summ":5636,"wash":5637,"projection":5638,"alg":5639,"hydrog":5640,"velocity":5641,"portfolio":5642,"##bar":5643,"##27":5644,"offlo":5645,"arc":5646,"interview":5647,"##echnology":5648,"moist":5649,"mother":5650,"##aire":5651,"canada":5652,"lessons":5653,"ethiopia":5654,"##otox":5655,"degree":5656,"institutions":5657,"foundations":5658,"fmri":5659,"tai":5660,"##nt":5661,"##zh":5662,"charles":5663,"operating":5664,"forecast":5665,"ahmed":5666,"dram":5667,"##len":5668,"##ulosis":5669,"##cholar":5670,"##apor":5671,"analog":5672,"safe":5673,"cmos":5674,"hill":5675,"##urt":5676,"##urch":5677,"asset":5678,"collective":5679,"views":5680,"refin":5681,"benchmar":5682,"ey":5683,"tib":5684,"##fs":5685,"##erior":5686,"##plastic":5687,"negoti":5688,"enterprises":5689,"hed":5690,"nad":5691,"sg":5692,"refer":5693,"cord":5694,"dementia":5695,"goals":5696,"mexico":5697,"pav":5698,"alert":5699,"arr":5700,"nanof":5701,"gait":5702,"francis":5703,"pembel":5704,"fak":5705,"let":5706,"was":5707,"##fac":5708,"metam":5709,"scat":5710,"left":5711,"match":5712,"creating":5713,"adsorption":5714,"forensic":5715,"##itual":5716,"colour":5717,"mount":5718,"convolutions":5719,"insp":5720,"acids":5721,"precip":5722,"##eletal":5723,"consistent":5724,"jenn":5725,"tech":5726,"uv":5727,"##hr":5728,"##rel":5729,"##cy":5730,"##jan":5731,"##sten":5732,"metals":5733,"optimized":5734,"equip":5735,"topological":5736,"lind":5737,"##iar":5738,"forests":5739,"##osity":5740,"unem":5741,"amino":5742,"expert":5743,"##argeting":5744,"1998":5745,"maize":5746,"fairness":5747,"severe":5748,"significance":5749,"transcription":5750,"equilibrium":5751,"100":5752,"##ynchron":5753,"overl":5754,"parametric":5755,"bilingual":5756,"avoidance":5757,"##ococcus":5758,"citation":5759,"gated":5760,"##33":5761,"##tination":5762,"##renia":5763,"##nover":5764,"guidance":5765,"lexical":5766,"gun":5767,"pic":5768,"##eliness":5769,"##plan":5770,"esp":5771,"childrens":5772,"findings":5773,"##rd":5774,"least":5775,"visualizing":5776,"##aze":5777,"##ophys":5778,"reduced":5779,"pilot":5780,"offloading":5781,"draw":5782,"mt":5783,"nec":5784,"vag":5785,"any":5786,"parenting":5787,"meat":5788,"charpentier":5789,"growing":5790,"diabetic":5791,"saving":5792,"did":5793,"ple":5794,"waves":5795,"##ptive":5796,"##acchar":5797,"##amination":5798,"recip":5799,"metaph":5800,"monitor":5801,"vertical":5802,"complete":5803,"compensation":5804,"cob":5805,"his":5806,"lines":5807,"ming":5808,"##aut":5809,"##ski":5810,"##field":5811,"##adian":5812,"metode":5813,"##rolysis":5814,"##iko":5815,"embry":5816,"curve":5817,"antibacter":5818,"##ruit":5819,"##teries":5820,"shah":5821,"visc":5822,"worksh":5823,"italy":5824,"southern":5825,"individuals":5826,"horiz":5827,"fabrication":5828,"habits":5829,"missing":5830,"inflammatory":5831,"preferences":5832,"cotton":5833,"wolf":5834,"antic":5835,"explainable":5836,"nd":5837,"neck":5838,"##ille":5839,"incidence":5840,"turn":5841,"dimensions":5842,"microscopy":5843,"title":5844,"ot":5845,"##ih":5846,"##lic":5847,"aden":5848,"##pted":5849,"identify":5850,"protocols":5851,"enzyme":5852,"breathing":5853,"entrepreneurial":5854,"##aro":5855,"trend":5856,"segment":5857,"collision":5858,"note":5859,"differentiation":5860,"dy":5861,"##cion":5862,"diver":5863,"shock":5864,"##arios":5865,"distributions":5866,"cohort":5867,"cervical":5868,"jones":5869,"sis":5870,"sah":5871,"##ece":5872,"##ovol":5873,"trace":5874,"##ello":5875,"##ayan":5876,"assign":5877,"flav":5878,"ghana":5879,"susp":5880,"gastric":5881,"scenes":5882,"##estinal":5883,"schizoph":5884,"ari":5885,"java":5886,"pid":5887,"classical":5888,"convention":5889,"room":5890,"preschool":5891,"medicinal":5892,"friction":5893,"lake":5894,"ole":5895,"##rus":5896,"##atum":5897,"##overing":5898,"suit":5899,"##rosis":5900,"##2019":5901,"variations":5902,"globalization":5903,"supplement":5904,"linked":5905,"farming":5906,"nutritional":5907,"biodiversity":5908,"rfid":5909,"##ius":5910,"##fish":5911,"##che":5912,"shu":5913,"leaves":5914,"##oxy":5915,"1997":5916,"turnover":5917,"##rup":5918,"shell":5919,"arbit":5920,"studying":5921,"accum":5922,"signaling":5923,"constra":5924,"resistant":5925,"saudi":5926,"cutting":5927,"coverage":5928,"eastern":5929,"fus":5930,"domains":5931,"flows":5932,"##otypes":5933,"teams":5934,"traumatic":5935,"synchronous":5936,"reproductive":5937,"regarding":5938,"drag":5939,"##nx":5940,"##enberg":5941,"developmental":5942,"limited":5943,"jeff":5944,"substrate":5945,"duration":5946,"fur":5947,"had":5948,"kol":5949,"pall":5950,"zone":5951,"##sis":5952,"##dc":5953,"##ife":5954,"soccer":5955,"whole":5956,"smes":5957,"boosting":5958,"capture":5959,"##manuel":5960,"customers":5961,"##rophic":5962,"situation":5963,"##owski":5964,"fatty":5965,"aw":5966,"hass":5967,"wik":5968,"##enth":5969,"##oscopic":5970,"displ":5971,"##phen":5972,"leveraging":5973,"police":5974,"exploratory":5975,"aided":5976,"burnout":5977,"loneliness":5978,"mp":5979,"rhe":5980,"##lim":5981,"##din":5982,"##fare":5983,"##110":5984,"##itos":5985,"##iture":5986,"##edom":5987,"##acle":5988,"staff":5989,"##apore":5990,"##aks":5991,"inters":5992,"conscious":5993,"##tish":5994,"predictions":5995,"mechanics":5996,"##space":5997,"counting":5998,"aeros":5999,"analyses":6000,"marriage":6001,"tay":6002,"##oz":6003,"##98":6004,"inp":6005,"serum":6006,"walk":6007,"##omorphic":6008,"algebra":6009,"kir":6010,"##57":6011,"anch":6012,"##edy":6013,"interference":6014,"quasi":6015,"works":6016,"databases":6017,"activated":6018,"jordan":6019,"fig":6020,"jin":6021,"##tur":6022,"##enter":6023,"##ador":6024,"presc":6025,"carri":6026,"corruption":6027,"minimization":6028,"message":6029,"paradigm":6030,"dend":6031,"##rak":6032,"disch":6033,"sug":6034,"sha":6035,"mary":6036,"##tiveness":6037,"eco":6038,"feas":6039,"timing":6040,"mutation":6041,"argument":6042,"##odynamic":6043,"district":6044,"pembelajaran":6045,"ug":6046,"##mail":6047,"##gs":6048,"##26":6049,"##otemporal":6050,"annual":6051,"ovarian":6052,"wen":6053,"depress":6054,"touch":6055,"visible":6056,"optimizing":6057,"accident":6058,"edward":6059,"universities":6060,"1995":6061,"validity":6062,"observation":6063,"inhibition":6064,"gastro":6065,"alpha":6066,"antibacterial":6067,"bod":6068,"lack":6069,"rd":6070,"##fo":6071,"##ript":6072,"##ione":6073,"neo":6074,"phd":6075,"paras":6076,"oxidation":6077,"immig":6078,"##ulsive":6079,"adhd":6080,"aluminum":6081,"shadow":6082,"page":6083,"##utive":6084,"##37":6085,"##isting":6086,"##idine":6087,"chest":6088,"export":6089,"meh":6090,"blended":6091,"flor":6092,"purpose":6093,"regions":6094,"circuits":6095,"profitability":6096,"trib":6097,"targeting":6098,"##oft":6099,"shear":6100,"loading":6101,"singapore":6102,"potato":6103,"hospitality":6104,"pacific":6105,"file":6106,"hus":6107,"pt":6108,"tip":6109,"wine":6110,"##ket":6111,"##ustion":6112,"containing":6113,"##ernand":6114,"careg":6115,"transactions":6116,"kinetics":6117,"crowdsourcing":6118,"cache":6119,"ice":6120,"lateral":6121,"mik":6122,"nil":6123,"##dr":6124,"usability":6125,"##dering":6126,"cooling":6127,"multimedia":6128,"##urrence":6129,"analytic":6130,"inclusion":6131,"hashing":6132,"constraint":6133,"hay":6134,"sud":6135,"##cience":6136,"conj":6137,"##uma":6138,"##iah":6139,"##actor":6140,"meg":6141,"simon":6142,"##ennis":6143,"cooperation":6144,"coordination":6145,"banana":6146,"cyberbullying":6147,"##ses":6148,"##99":6149,"proxim":6150,"multit":6151,"##tinc":6152,"textual":6153,"physiological":6154,"logistic":6155,"combin":6156,"ahmad":6157,"budget":6158,"friend":6159,"tutor":6160,"kat":6161,"##hann":6162,"##door":6163,"##inter":6164,"##ementing":6165,"##iano":6166,"pooling":6167,"electricity":6168,"successful":6169,"nanoparticle":6170,"administ":6171,"mellitus":6172,"tuberculosis":6173,"fill":6174,"god":6175,"##kins":6176,"##sn":6177,"##du":6178,"##3d":6179,"##urement":6180,"##idal":6181,"demon":6182,"regularized":6183,"apl":6184,"khan":6185,"pub":6186,"##tz":6187,"##eed":6188,"##eur":6189,"##isal":6190,"##ellular":6191,"charging":6192,"##being":6193,"farmers":6194,"illness":6195,"screen":6196,"##graduate":6197,"matthew":6198,"##cholarorg":6199,"section":6200,"##ju":6201,"##elf":6202,"cham":6203,"##fore":6204,"emmanuel":6205,"specification":6206,"religion":6207,"##ovolta":6208,"##enia":6209,"stop":6210,"##leg":6211,"plane":6212,"labels":6213,"going":6214,"gesture":6215,"precipitation":6216,"nag":6217,"sad":6218,"##las":6219,"##edic":6220,"asynchron":6221,"equival":6222,"spatiotemporal":6223,"popular":6224,"layers":6225,"descript":6226,"rotation":6227,"polarization":6228,"balancing":6229,"neighborhood":6230,"##2vec":6231,"bak":6232,"lig":6233,"##iton":6234,"##ember":6235,"stak":6236,"revers":6237,"editing":6238,"improves":6239,"minor":6240,"direction":6241,"movements":6242,"particles":6243,"citizens":6244,"decentralized":6245,"border":6246,"gear":6247,"ji":6248,"lem":6249,"##ipl":6250,"##rant":6251,"##ulic":6252,"##ocytes":6253,"imper":6254,"marg":6255,"approximate":6256,"integral":6257,"##ochond":6258,"simulated":6259,"reflection":6260,"fitness":6261,"mohammad":6262,"quantization":6263,"television":6264,"gpu":6265,"vary":6266,"##wise":6267,"##emann":6268,"##omatic":6269,"##pler":6270,"##forest":6271,"generic":6272,"attentive":6273,"viral":6274,"chains":6275,"simulations":6276,"mimo":6277,"perturb":6278,"lect":6279,"made":6280,"##part":6281,"thick":6282,"##emat":6283,"deformation":6284,"seq":6285,"##iving":6286,"grain":6287,"infants":6288,"locally":6289,"cybers":6290,"twin":6291,"thermo":6292,"families":6293,"interpre":6294,"returns":6295,"earnings":6296,"theorem":6297,"workshop":6298,"jia":6299,"kan":6300,"##hard":6301,"##anium":6302,"##asser":6303,"french":6304,"influenc":6305,"##ajar":6306,"percept":6307,"##head":6308,"contrast":6309,"intrinsic":6310,"melan":6311,"mohamed":6312,"front":6313,"coastal":6314,"promoting":6315,"renewable":6316,"pit":6317,"zhao":6318,"##oir":6319,"##zed":6320,"##jay":6321,"reti":6322,"syl":6323,"biometric":6324,"polyn":6325,"prevent":6326,"readiness":6327,"stabilization":6328,"cow":6329,"##47":6330,"##oreg":6331,"##idikan":6332,"spring":6333,"appearance":6334,"forms":6335,"biomark":6336,"mitigation":6337,"equipment":6338,"bub":6339,"l2":6340,"night":6341,"sites":6342,"vr":6343,"##ault":6344,"##vic":6345,"##eri":6346,"##eras":6347,"stable":6348,"chao":6349,"spinal":6350,"truth":6351,"addition":6352,"##arities":6353,"rise":6354,"empower":6355,"verbal":6356,"drivers":6357,"dependence":6358,"tunnel":6359,"asth":6360,"ethnic":6361,"happiness":6362,"chicken":6363,"perceptual":6364,"ein":6365,"##pp":6366,"##lity":6367,"##cha":6368,"##ime":6369,"uniform":6370,"##roll":6371,"disturb":6372,"explicit":6373,"photovolta":6374,"animation":6375,"partn":6376,"anomal":6377,"derivatives":6378,"berg":6379,"furn":6380,"sri":6381,"##metry":6382,"##omon":6383,"##tered":6384,"lor":6385,"put":6386,"##bn":6387,"##48":6388,"##amiento":6389,"disp":6390,"##pta":6391,"skeleton":6392,"erp":6393,"operational":6394,"actu":6395,"judg":6396,"yeast":6397,"incorporating":6398,"yam":6399,"imbal":6400,"schm":6401,"knee":6402,"defined":6403,"batteries":6404,"##iasis":6405,"observations":6406,"neonatal":6407,"seasonal":6408,"dong":6409,"##nes":6410,"##ril":6411,"##fort":6412,"directions":6413,"##ethyl":6414,"penet":6415,"amplifier":6416,"hun":6417,"must":6418,"rom":6419,"##nan":6420,"##can":6421,"##iber":6422,"pendidikan":6423,"bon":6424,"sak":6425,"terap":6426,"##ovic":6427,"alf":6428,"interc":6429,"slow":6430,"institute":6431,"crops":6432,"around":6433,"bell":6434,"lond":6435,"##cr":6436,"##55":6437,"##alg":6438,"##uri":6439,"cond":6440,"##uda":6441,"basin":6442,"recurs":6443,"plug":6444,"island":6445,"doiorg":6446,"##ommun":6447,"curv":6448,"soils":6449,"hearing":6450,"##giene":6451,"dictionary":6452,"semiconductor":6453,"nich":6454,"pestic":6455,"ross":6456,"##zen":6457,"##aton":6458,"##ilm":6459,"sharma":6460,"obj":6461,"preven":6462,"repe":6463,"expon":6464,"racial":6465,"pepti":6466,"scanning":6467,"wire":6468,"##tique":6469,"cheng":6470,"##ioni":6471,"enrich":6472,"unkn":6473,"##0000":6474,"adverse":6475,"stein":6476,"pharmacy":6477,"momentum":6478,"inertial":6479,"pod":6480,"ut":6481,"##32":6482,"##eland":6483,"reserv":6484,"leon":6485,"indigen":6486,"extrem":6487,"volum":6488,"feeding":6489,"integrity":6490,"texts":6491,"compressed":6492,"haw":6493,"nerv":6494,"tap":6495,"though":6496,"ord":6497,"recruit":6498,"biop":6499,"controlling":6500,"##tifying":6501,"1994":6502,"colorectal":6503,"predictors":6504,"ultrasonic":6505,"bp":6506,"dm":6507,"gon":6508,"##alah":6509,"shi":6510,"interfer":6511,"extracting":6512,"musical":6513,"1011":6514,"cattle":6515,"procurement":6516,"antibiotic":6517,"harmonic":6518,"csr":6519,"symbolic":6520,"coefficient":6521,"dip":6522,"lew":6523,"mouth":6524,"ting":6525,"##ataly":6526,"##ager":6527,"exist":6528,"arts":6529,"##oke":6530,"insulin":6531,"templ":6532,"handling":6533,"welding":6534,"senior":6535,"zak":6536,"##raining":6537,"sociology":6538,"mont":6539,"##health":6540,"fibers":6541,"wellbeing":6542,"accelerating":6543,"crystall":6544,"heuristic":6545,"##yen":6546,"tow":6547,"##obl":6548,"detail":6549,"options":6550,"##xxxx":6551,"both":6552,"matric":6553,"##ause":6554,"nearest":6555,"transplantation":6556,"kem":6557,"thy":6558,"scott":6559,"multil":6560,"physio":6561,"concern":6562,"introduc":6563,"tube":6564,"german":6565,"dropout":6566,"enabled":6567,"vill":6568,"##lier":6569,"##sl":6570,"##idopsis":6571,"##iaz":6572,"##andra":6573,"##anced":6574,"##posit":6575,"connections":6576,"assistance":6577,"fourier":6578,"pcr":6579,"reports":6580,"girls":6581,"facilit":6582,"unknown":6583,"hans":6584,"mission":6585,"##matic":6586,"##69":6587,"##alan":6588,"dee":6589,"union":6590,"leuk":6591,"agre":6592,"hygiene":6593,"freedom":6594,"offic":6595,"waterm":6596,"##odynamics":6597,"seeking":6598,"london":6599,"fid":6600,"kons":6601,"tend":6602,"wom":6603,"##rec":6604,"##fc":6605,"##via":6606,"forces":6607,"ster":6608,"alm":6609,"##ours":6610,"before":6611,"marker":6612,"epil":6613,"leaders":6614,"sequencing":6615,"fermentation":6616,"myth":6617,"think":6618,"groundwater":6619,"centered":6620,"closed":6621,"epidemiology":6622,"prospects":6623,"asynchronous":6624,"kenn":6625,"##qi":6626,"##chair":6627,"deposition":6628,"modality":6629,"##pert":6630,"units":6631,"##illary":6632,"cellulose":6633,"signature":6634,"profiles":6635,"movies":6636,"inductive":6637,"syntax":6638,"stefan":6639,"deformable":6640,"aque":6641,"din":6642,"gur":6643,"lep":6644,"merc":6645,"##level":6646,"intermed":6647,"flash":6648,"mcc":6649,"##point":6650,"british":6651,"presentation":6652,"football":6653,"impairment":6654,"bibli":6655,"considerations":6656,"demonstr":6657,"indigenous":6658,"pd":6659,"wise":6660,"##tl":6661,"##atur":6662,"##olas":6663,"systemic":6664,"corrosion":6665,"outbre":6666,"salmon":6667,"##uki":6668,"##ochemistry":6669,"hydroxy":6670,"ceramic":6671,"restaurant":6672,"filipino":6673,"refinement":6674,"benchmarking":6675,"faktor":6676,"unemployment":6677,"latin":6678,"##ride":6679,"intensive":6680,"##airy":6681,"10100":6682,"limb":6683,"harv":6684,"electronics":6685,"williams":6686,"##worth":6687,"jennifer":6688,"28":6689,"cpu":6690,"jian":6691,"pts":6692,"pest":6693,"venti":6694,"yolo":6695,"##economic":6696,"##idering":6697,"##ritic":6698,"##atif":6699,"show":6700,"worker":6701,"nanos":6702,"same":6703,"coronary":6704,"photos":6705,"empathy":6706,"##param":6707,"reactions":6708,"significant":6709,"ownership":6710,"moisture":6711,"woman":6712,"##cut":6713,"##elial":6714,"##etti":6715,"phill":6716,"times":6717,"sexy":6718,"faces":6719,"##cipl":6720,"obser":6721,"package":6722,"lesion":6723,"victor":6724,"##analysis":6725,"atmospheric":6726,"container":6727,"disadvantages":6728,"polynom":6729,"lub":6730,"oh":6731,"##aine":6732,"##usa":6733,"##osocial":6734,"proces":6735,"##une":6736,"shif":6737,"intel":6738,"biog":6739,"fred":6740,"estimates":6741,"steam":6742,"trials":6743,"##ogenetic":6744,"fungi":6745,"##ynthesis":6746,"##espond":6747,"bill":6748,"now":6749,"##hz":6750,"##chlor":6751,"option":6752,"##estr":6753,"decre":6754,"keyword":6755,"window":6756,"estab":6757,"increased":6758,"players":6759,"bottom":6760,"printed":6761,"dw":6762,"dairy":6763,"sql":6764,"##eld":6765,"##otes":6766,"asph":6767,"metall":6768,"deeper":6769,"isot":6770,"generated":6771,"correspond":6772,"quantification":6773,"populations":6774,"focused":6775,"purchasing":6776,"restric":6777,"adhes":6778,"picture":6779,"photovoltaic":6780,"##oom":6781,"margin":6782,"cosmetic":6783,"lign":6784,"vert":6785,"##prop":6786,"anderson":6787,"##olith":6788,"##ilities":6789,"metast":6790,"heating":6791,"##oken":6792,"leader":6793,"tanzan":6794,"aggregate":6795,"defects":6796,"categorization":6797,"buck":6798,"pear":6799,"##49":6800,"anis":6801,"onc":6802,"idea":6803,"malaria":6804,"1996":6805,"lattice":6806,"acceleration":6807,"mediating":6808,"arabidopsis":6809,"prepared":6810,"phosphor":6811,"##chemical":6812,"inspection":6813,"assignment":6814,"bou":6815,"hir":6816,"rare":6817,"sectional":6818,"##nut":6819,"##him":6820,"##kit":6821,"##essel":6822,"##izers":6823,"perme":6824,"##ugg":6825,"extracts":6826,"solub":6827,"chemotherapy":6828,"limits":6829,"immunity":6830,"mitochond":6831,"##rospective":6832,"aviation":6833,"bearing":6834,"steven":6835,"bart":6836,"ns":6837,"pasc":6838,"siam":6839,"tec":6840,"##olov":6841,"contamination":6842,"##anne":6843,"slot":6844,"barb":6845,"helic":6846,"estate":6847,"birds":6848,"##gbt":6849,"reliable":6850,"execution":6851,"schizophrenia":6852,"von":6853,"vas":6854,"##rat":6855,"##cast":6856,"reb":6857,"##rie":6858,"imitation":6859,"##eption":6860,"##ante":6861,"desc":6862,"implementing":6863,"sympos":6864,"##ritten":6865,"complementary":6866,"rs":6867,"##zer":6868,"##58":6869,"##afa":6870,"##manent":6871,"numbers":6872,"angi":6873,"genetics":6874,"feasibility":6875,"##nis":6876,"##ku":6877,"##odic":6878,"dead":6879,"##pher":6880,"##ailand":6881,"searching":6882,"directional":6883,"##scale":6884,"pneumonia":6885,"distress":6886,"asthma":6887,"22":6888,"dream":6889,"fol":6890,"gy":6891,"gil":6892,"hoc":6893,"wifi":6894,"##hal":6895,"##rig":6896,"##uf":6897,"##fig":6898,"##inear":6899,"##inform":6900,"anter":6901,"imped":6902,"##okine":6903,"##anka":6904,"lifest":6905,"1992":6906,"##cope":6907,"contracts":6908,"limitations":6909,"cannabis":6910,"aqueous":6911,"symposium":6912,"average":6913,"##uting":6914,"##oda":6915,"church":6916,"##aving":6917,"infections":6918,"schol":6919,"treated":6920,"incom":6921,"ethanol":6922,"terr":6923,"australian":6924,"mirror":6925,"sclerosis":6926,"tc":6927,"tro":6928,"##ince":6929,"anna":6930,"them":6931,"retin":6932,"height":6933,"##anna":6934,"fibre":6935,"combustion":6936,"jonathan":6937,"handwritten":6938,"establish":6939,"ale":6940,"jing":6941,"laz":6942,"ways":6943,"##atri":6944,"##ensen":6945,"##obia":6946,"##hai":6947,"biot":6948,"losses":6949,"textile":6950,"foundation":6951,"cascade":6952,"organisational":6953,"varying":6954,"deepl":6955,"muc":6956,"pom":6957,"stig":6958,"upt":6959,"##ectic":6960,"##olym":6961,"reas":6962,"##ocard":6963,"##ested":6964,"profiling":6965,"pathways":6966,"terminal":6967,"preservation":6968,"inhibitor":6969,"enabling":6970,"syntactic":6971,"hydraulic":6972,"just":6973,"tm":6974,"##anes":6975,"##role":6976,"##akis":6977,"contamin":6978,"appra":6979,"##iley":6980,"##evin":6981,"1993":6982,"expend":6983,"##rophy":6984,"walking":6985,"porous":6986,"racism":6987,"explanation":6988,"tao":6989,"commons":6990,"smoking":6991,"monetary":6992,"archae":6993,"outs":6994,"peel":6995,"vehicular":6996,"1990":6997,"actions":6998,"wwwxxx":6999,"dougl":7000,"waters":7001,"axis":7002,"substit":7003,"hubungan":7004,"epilep":7005,"##map":7006,"##uz":7007,"##enko":7008,"##itude":7009,"##rod":7010,"thailand":7011,"tracing":7012,"interior":7013,"seaw":7014,"ammon":7015,"meeting":7016,"laws":7017,"##structure":7018,"debt":7019,"##discipl":7020,"revisiting":7021,"microfluid":7022,"maritime":7023,"27":7024,"cuc":7025,"ig":7026,"lic":7027,"ses":7028,"vectors":7029,"##bc":7030,"multilevel":7031,"indices":7032,"moh":7033,"considering":7034,"capability":7035,"architectural":7036,"oct":7037,"sediment":7038,"dogs":7039,"column":7040,"summary":7041,"last":7042,"nak":7043,"rid":7044,"vascular":7045,"##mission":7046,"##gun":7047,"##inder":7048,"##essive":7049,"hex":7050,"processor":7051,"realistic":7052,"philip":7053,"urinary":7054,"synthes":7055,"harves":7056,"targets":7057,"advertisement":7058,"iii":7059,"download":7060,"fractures":7061,"instructional":7062,"recruitment":7063,"matrices":7064,"tanzania":7065,"cod":7066,"cass":7067,"hid":7068,"mild":7069,"##53":7070,"##eda":7071,"##iva":7072,"pla":7073,"pref":7074,"branch":7075,"sketch":7076,"topics":7077,"determining":7078,"hemat":7079,"abdul":7080,"chromat":7081,"##otropic":7082,"consciousness":7083,"rao":7084,"zeal":7085,"##isc":7086,"##ady":7087,"spars":7088,"polyp":7089,"variance":7090,"philippine":7091,"##ontrol":7092,"adolescence":7093,"interpolation":7094,"inhibitors":7095,"dysfunction":7096,"prosth":7097,"lapar":7098,"scattering":7099,"cp":7100,"kill":7101,"pick":7102,"##hib":7103,"##oys":7104,"##titis":7105,"##imension":7106,"##iza":7107,"##phones":7108,"atlan":7109,"organisation":7110,"##ichi":7111,"catal":7112,"authors":7113,"informal":7114,"rubber":7115,"wheelchair":7116,"oxidative":7117,"bipolar":7118,"accumulation":7119,"anterior":7120,"cn":7121,"cab":7122,"##mp":7123,"bioc":7124,"organizing":7125,"##urring":7126,"conditioning":7127,"compositional":7128,"snow":7129,"accelerator":7130,"raman":7131,"phosphate":7132,"inverter":7133,"athletes":7134,"supporting":7135,"warehouse":7136,"conventional":7137,"dol":7138,"kaz":7139,"mening":7140,"roy":7141,"take":7142,"##national":7143,"##rill":7144,"##alian":7145,"##isl":7146,"##force":7147,"artery":7148,"invasive":7149,"johnson":7150,"periph":7151,"##quiry":7152,"bridging":7153,"neutral":7154,"ptsd":7155,"zealand":7156,"kas":7157,"kind":7158,"lac":7159,"##eto":7160,"##atively":7161,"baseline":7162,"cohen":7163,"coli":7164,"ideal":7165,"##till":7166,"oxford":7167,"descriptive":7168,"abstractive":7169,"residential":7170,"aerosol":7171,"gri":7172,"##eno":7173,"##ente":7174,"##irm":7175,"resnet":7176,"compass":7177,"spot":7178,"spain":7179,"evaluate":7180,"outdoor":7181,"nanoc":7182,"greg":7183,"version":7184,"illum":7185,"barrier":7186,"procedures":7187,"spiritual":7188,"##odontic":7189,"nickel":7190,"jose":7191,"much":7192,"pup":7193,"##uum":7194,"##jar":7195,"##erts":7196,"##aled":7197,"##oline":7198,"sme":7199,"gamma":7200,"examining":7201,"flux":7202,"herbal":7203,"interpreting":7204,"douglas":7205,"hole":7206,"##sky":7207,"##omer":7208,"##thal":7209,"bases":7210,"##ques":7211,"##geting":7212,"##aceae":7213,"subjective":7214,"retrospective":7215,"electrode":7216,"microsoft":7217,"flexibility":7218,"rhiz":7219,"cyclic":7220,"discharge":7221,"80":7222,"bang":7223,"db":7224,"dut":7225,"kur":7226,"lan":7227,"lie":7228,"##rane":7229,"##inting":7230,"##ortic":7231,"##emi":7232,"##plet":7233,"permanent":7234,"undergraduate":7235,"connect":7236,"constant":7237,"kinder":7238,"alkal":7239,"trigger":7240,"pine":7241,"pasi":7242,"##earning":7243,"##ograf":7244,"##eping":7245,"##othy":7246,"playing":7247,"route":7248,"bacillus":7249,"friendly":7250,"vin":7251,"die":7252,"diode":7253,"transist":7254,"party":7255,"cart":7256,"decon":7257,"links":7258,"prototype":7259,"laur":7260,"oils":7261,"wavegu":7262,"##wei":7263,"streams":7264,"utility":7265,"##borne":7266,"budgeting":7267,"friends":7268,"likelihood":7269,"##36":7270,"chec":7271,"parts":7272,"characteristic":7273,"##escent":7274,"synchronization":7275,"101016j":7276,"persistent":7277,"multitask":7278,"eti":7279,"fdi":7280,"honey":7281,"narc":7282,"session":7283,"##hed":7284,"##jun":7285,"##icum":7286,"##ads":7287,"##apping":7288,"result":7289,"incenti":7290,"psychiatric":7291,"radical":7292,"neurom":7293,"trip":7294,"statement":7295,"##itted":7296,"informed":7297,"##itization":7298,"split":7299,"spanish":7300,"taiwan":7301,"cele":7302,"fun":7303,"jar":7304,"kw":7305,"peg":7306,"ric":7307,"tell":7308,"##tc":7309,"##mas":7310,"##acin":7311,"conform":7312,"spoken":7313,"recycl":7314,"arter":7315,"scr":7316,"lexic":7317,"autoreg":7318,"attend":7319,"##inton":7320,"patent":7321,"journals":7322,"regulatory":7323,"fried":7324,"##optera":7325,"washing":7326,"tion":7327,"yong":7328,"##pass":7329,"##rated":7330,"##mic":7331,"##kle":7332,"##volution":7333,"##araj":7334,"##thes":7335,"##umab":7336,"##ires":7337,"learner":7338,"actor":7339,"##ards":7340,"cook":7341,"multid":7342,"distant":7343,"incentive":7344,"geo":7345,"promote":7346,"conductivity":7347,"21st":7348,"fernand":7349,"ki":7350,"yun":7351,"inquiry":7352,"##asts":7353,"queries":7354,"agro":7355,"glut":7356,"cali":7357,"myocard":7358,"informatics":7359,"talent":7360,"differentiable":7361,"bonding":7362,"microbiota":7363,"mixtures":7364,"fundamentals":7365,"deficiency":7366,"citizenship":7367,"thickness":7368,"00":7369,"erosion":7370,"herm":7371,"kit":7372,"nir":7373,"##ycle":7374,"##oint":7375,"##ubl":7376,"##uries":7377,"##ided":7378,"teeth":7379,"crack":7380,"histogram":7381,"sweet":7382,"gradients":7383,"sentences":7384,"typh":7385,"yoga":7386,"lifestyle":7387,"kle":7388,"sic":7389,"##oa":7390,"##icate":7391,"forget":7392,"starch":7393,"##aded":7394,"multiscale":7395,"##ophil":7396,"bounds":7397,"contextualized":7398,"religious":7399,"stacked":7400,"volatility":7401,"tutorial":7402,"sos":7403,"##ged":7404,"##59":7405,"##aku":7406,"seb":7407,"##tration":7408,"##ophyl":7409,"clinic":7410,"ocular":7411,"schedule":7412,"pipe":7413,"elev":7414,"clothing":7415,"turkey":7416,"empowerment":7417,"uptake":7418,"atlantic":7419,"pasien":7420,"gard":7421,"lum":7422,"lot":7423,"##nm":7424,"##td":7425,"##osing":7426,"tract":7427,"appar":7428,"inside":7429,"gupta":7430,"ulcer":7431,"caused":7432,"herb":7433,"##conduc":7434,"29":7435,"bron":7436,"gao":7437,"hp":7438,"tu":7439,"stages":7440,"complications":7441,"##irect":7442,"managers":7443,"characters":7444,"terti":7445,"balanced":7446,"##itosan":7447,"recursive":7448,"bug":7449,"hpl":7450,"jung":7451,"lighting":7452,"sul":7453,"selling":7454,"tension":7455,"##tio":7456,"##stan":7457,"##oshi":7458,"##abeth":7459,"disentang":7460,"##romb":7461,"multipl":7462,"agnostic":7463,"behavio":7464,"optimisation":7465,"planar":7466,"##ographical":7467,"delta":7468,"posterior":7469,"strept":7470,"name":7471,"reproduction":7472,"tagging":7473,"##ocompos":7474,"asymmetric":7475,"gad":7476,"jen":7477,"ngu":7478,"sut":7479,"##auc":7480,"##esium":7481,"##ominal":7482,"##amy":7483,"isch":7484,"transformational":7485,"benj":7486,"goods":7487,"focal":7488,"abdel":7489,"concentrations":7490,"inflammation":7491,"arbitr":7492,"taylor":7493,"cybersecurity":7494,"multilayer":7495,"ace":7496,"kor":7497,"ll":7498,"u000":7499,"##pi":7500,"##ht":7501,"##idents":7502,"##adder":7503,"##mental":7504,"##ellow":7505,"unmann":7506,"flo":7507,"month":7508,"gamification":7509,"##coin":7510,"welfare":7511,"fluorescence":7512,"transcript":7513,"spoof":7514,"impedance":7515,"equal":7516,"nod":7517,"sir":7518,"##itarian":7519,"##asia":7520,"##aper":7521,"disru":7522,"uns":7523,"sham":7524,"emitting":7525,"psycho":7526,"faced":7527,"massive":7528,"##emantics":7529,"juven":7530,"cultiv":7531,"kinetic":7532,"ellip":7533,"counseling":7534,"managerial":7535,"suitability":7536,"unmanned":7537,"cra":7538,"dj":7539,"hung":7540,"hamil":7541,"jiang":7542,"##nik":7543,"##osome":7544,"##oscopy":7545,"modules":7546,"compare":7547,"##phal":7548,"##ancing":7549,"marco":7550,"##arium":7551,"ecomm":7552,"1991":7553,"supported":7554,"rough":7555,"lesions":7556,"diamond":7557,"26":7558,"jay":7559,"pf":7560,"sag":7561,"##urable":7562,"##imeter":7563,"##ismo":7564,"markers":7565,"persu":7566,"discre":7567,"formula":7568,"jointly":7569,"##aciones":7570,"palsy":7571,"odometry":7572,"hepat":7573,"osteo":7574,"availability":7575,"discussion":7576,"published":7577,"illumination":7578,"mg":7579,"tian":7580,"##van":7581,"##itance":7582,"##uld":7583,"scoring":7584,"##rological":7585,"brun":7586,"occlusion":7587,"offline":7588,"##bridge":7589,"symmetric":7590,"malaysian":7591,"bitcoin":7592,"replacement":7593,"him":7594,"tar":7595,"##itten":7596,"##ilation":7597,"reven":7598,"fruits":7599,"discipl":7600,"epith":7601,"olive":7602,"correlates":7603,"attribution":7604,"##cepti":7605,"brian":7606,"squares":7607,"encrypted":7608,"available":7609,"reservoir":7610,"eigen":7611,"gaze":7612,"io":7613,"lane":7614,"mine":7615,"pas":7616,"##pur":7617,"##kol":7618,"##ido":7619,"gray":7620,"##asty":7621,"##aterial":7622,"microg":7623,"estimate":7624,"obsessive":7625,"funds":7626,"microbiome":7627,"sigma":7628,"musculos":7629,"dentist":7630,"evolving":7631,"fes":7632,"juan":7633,"kap":7634,"nc":7635,"naf":7636,"ub":7637,"yi":7638,"##keletal":7639,"##ono":7640,"anak":7641,"inflation":7642,"floor":7643,"suppression":7644,"capabilities":7645,"##ittle":7646,"ensembl":7647,"doi10":7648,"executive":7649,"candid":7650,"rigid":7651,"dendritic":7652,"womens":7653,"##imensional":7654,"incentives":7655,"fi":7656,"ran":7657,"ras":7658,"##burg":7659,"##44":7660,"##alia":7661,"##agh":7662,"##agg":7663,"chun":7664,"##otomy":7665,"enti":7666,"compressive":7667,"compulsive":7668,"interfaces":7669,"mothers":7670,"pathology":7671,"operator":7672,"expressions":7673,"grounded":7674,"voting":7675,"phytochemical":7676,"antonio":7677,"neuroscience":7678,"peripheral":7679,"nguyen":7680,"fro":7681,"lec":7682,"uter":7683,"wing":7684,"##iri":7685,"##east":7686,"##aged":7687,"reactive":7688,"devi":7689,"tox":7690,"sph":7691,"spine":7692,"spray":7693,"##ologie":7694,"api":7695,"##aterials":7696,"mush":7697,"moderating":7698,"##auty":7699,"depressive":7700,"curvature":7701,"recycling":7702,"tertiary":7703,"kun":7704,"tank":7705,"##bing":7706,"inception":7707,"##icious":7708,"##educ":7709,"##olin":7710,"resol":7711,"transient":7712,"beet":7713,"##aste":7714,"##oui":7715,"automata":7716,"frameworks":7717,"clusters":7718,"immers":7719,"##ogenous":7720,"mixing":7721,"pretraining":7722,"agreement":7723,"outbreak":7724,"ecommerce":7725,"lgbt":7726,"pie":7727,"rach":7728,"rip":7729,"sob":7730,"##pen":7731,"##col":7732,"alan":7733,"beauty":7734,"##trans":7735,"conserv":7736,"patrick":7737,"publishing":7738,"photoc":7739,"aggression":7740,"write":7741,"muham":7742,"inclusive":7743,"tactile":7744,"cavity":7745,"rrl":7746,"appraisal":7747,"curr":7748,"gig":7749,"gym":7750,"hors":7751,"va":7752,"##uter":7753,"##orb":7754,"##istive":7755,"##eced":7756,"##opor":7757,"disinf":7758,"tekn":7759,"loan":7760,"##eva":7761,"drinking":7762,"grand":7763,"demographic":7764,"graduate":7765,"angel":7766,"essay":7767,"indicator":7768,"tongue":7769,"asphalt":7770,"hart":7771,"jr":7772,"yar":7773,"##lets":7774,"##kes":7775,"bean":7776,"cars":7777,"graphical":7778,"##azole":7779,"##berry":7780,"hydrop":7781,"valve":7782,"triang":7783,"detectors":7784,"alzheimers":7785,"feng":7786,"gib":7787,"##kov":7788,"##43":7789,"##opt":7790,"##aryng":7791,"##enger":7792,"microp":7793,"##egrad":7794,"accord":7795,"matters":7796,"outlier":7797,"throughput":7798,"encoders":7799,"latency":7800,"ontologies":7801,"vocational":7802,"neighb":7803,"neurons":7804,"kalman":7805,"wilson":7806,"narciss":7807,"aj":7808,"ira":7809,"##light":7810,"##day":7811,"chan":7812,"transduc":7813,"plann":7814,"agenda":7815,"carlos":7816,"##io2":7817,"##unciation":7818,"physiology":7819,"ern":7820,"liang":7821,"understand":7822,"injuries":7823,"targeted":7824,"criminal":7825,"settings":7826,"false":7827,"harvesting":7828,"cub":7829,"##born":7830,"##orrh":7831,"##ogonal":7832,"proj":7833,"##uding":7834,"##ifera":7835,"cool":7836,"esl":7837,"decoding":7838,"cultures":7839,"##hyth":7840,"maximization":7841,"wideband":7842,"ecosystems":7843,"baby":7844,"pierre":7845,"##oglob":7846,"date":7847,"dance":7848,"dnn":7849,"##tu":7850,"##carb":7851,"##zy":7852,"##with":7853,"##uman":7854,"##apse":7855,"division":7856,"##ains":7857,"elim":7858,"##erma":7859,"methane":7860,"microc":7861,"dynamical":7862,"malign":7863,"reconfig":7864,"andrea":7865,"hipp":7866,"lav":7867,"##iff":7868,"##pet":7869,"anonym":7870,"##timate":7871,"fever":7872,"muslim":7873,"cameras":7874,"associations":7875,"##aux":7876,"hierarchy":7877,"foam":7878,"instagram":7879,"periodic":7880,"talk":7881,"fingerpr":7882,"lymphocytes":7883,"colonial":7884,"chaos":7885,"feminism":7886,"chromatography":7887,"waveguide":7888,"gift":7889,"ny":7890,"pec":7891,"##ulators":7892,"##odi":7893,"construct":7894,"##opoul":7895,"clar":7896,"##obile":7897,"dioxide":7898,"##ryst":7899,"##2018":7900,"insider":7901,"geography":7902,"allen":7903,"reputation":7904,"determine":7905,"angular":7906,"rendering":7907,"coherent":7908,"aa":7909,"aur":7910,"casting":7911,"gord":7912,"roll":7913,"##nets":7914,"##hs":7915,"##ois":7916,"##ser":7917,"##db":7918,"##73":7919,"##ored":7920,"##aca":7921,"##osom":7922,"spher":7923,"intake":7924,"assurance":7925,"educacion":7926,"gli":7927,"redund":7928,"lifel":7929,"olig":7930,"seeds":7931,"libraries":7932,"bottlen":7933,"coherence":7934,"behavioural":7935,"osteoarth":7936,"categ":7937,"tentang":7938,"xin":7939,"##oplas":7940,"##sr":7941,"##88":7942,"anemia":7943,"##olec":7944,"##ods":7945,"##chen":7946,"##amide":7947,"really":7948,"poison":7949,"developments":7950,"##tite":7951,"extrac":7952,"linn":7953,"cyan":7954,"collagen":7955,"epist":7956,"egg":7957,"##uchi":7958,"manipulator":7959,"##olester":7960,"severity":7961,"sdn":7962,"siamese":7963,"##disciplinary":7964,"jav":7965,"kab":7966,"##nosis":7967,"##ped":7968,"##acer":7969,"chitosan":7970,"resin":7971,"shr":7972,"industries":7973,"singular":7974,"centric":7975,"valuation":7976,"auditing":7977,"ferr":7978,"accelerated":7979,"antibody":7980,"auditory":7981,"trajectories":7982,"garlic":7983,"scenarios":7984,"krish":7985,"cryptography":7986,"victim":7987,"configuration":7988,"cyl":7989,"pag":7990,"##62":7991,"##eria":7992,"##roup":7993,"##ulant":7994,"assembl":7995,"schemes":7996,"flat":7997,"workload":7998,"boot":7999,"literary":8000,"financing":8001,"facility":8002,"##oidal":8003,"occurrence":8004,"intentions":8005,"bird":8006,"transparency":8007,"dent":8008,"gc":8009,"lun":8010,"lyn":8011,"##rants":8012,"##max":8013,"##dh":8014,"##42":8015,"##abi":8016,"dies":8017,"while":8018,"##tified":8019,"brass":8020,"affected":8021,"biomechan":8022,"lux":8023,"suscepti":8024,"titanium":8025,"lockdown":8026,"henry":8027,"viscosity":8028,"thyroid":8029,"benjamin":8030,"3rd":8031,"60":8032,"daw":8033,"kang":8034,"##tition":8035,"##older":8036,"phrase":8037,"sho":8038,"##title":8039,"##atorial":8040,"leading":8041,"triple":8042,"province":8043,"theoretic":8044,"##label":8045,"arbitrary":8046,"category":8047,"23":8048,"beck":8049,"dl":8050,"fiction":8051,"hur":8052,"pb":8053,"riz":8054,"##network":8055,"##opic":8056,"##ovsk":8057,"interv":8058,"polys":8059,"schw":8060,"graphics":8061,"programm":8062,"aux":8063,"spectrom":8064,"polymorph":8065,"capacitor":8066,"derivative":8067,"winter":8068,"reveals":8069,"crispr":8070,"califor":8071,"myocardial":8072,"32":8073,"##pson":8074,"##ui":8075,"##kel":8076,"##alk":8077,"##anz":8078,"##iciency":8079,"##ulo":8080,"boy":8081,"belt":8082,"arabia":8083,"susan":8084,"square":8085,"turbul":8086,"railway":8087,"siswa":8088,"juvenile":8089,"37":8090,"dye":8091,"kath":8092,"kaw":8093,"pes":8094,"yolov":8095,"debl":8096,"##thetic":8097,"eliz":8098,"##atern":8099,"consol":8100,"france":8101,"##olds":8102,"treatments":8103,"translating":8104,"neuron":8105,"plateau":8106,"facilities":8107,"wwwxnxx":8108,"carrier":8109,"autoregressive":8110,"musculoskeletal":8111,"bic":8112,"cro":8113,"fint":8114,"hil":8115,"kad":8116,"nv":8117,"wasser":8118,"thai":8119,"##otor":8120,"highway":8121,"##arten":8122,"##aje":8123,"computers":8124,"terror":8125,"randomised":8126,"drift":8127,"extra":8128,"##process":8129,"shapes":8130,"arthritis":8131,"revisited":8132,"phylogenetic":8133,"dispersion":8134,"compassion":8135,"2nd":8136,"cel":8137,"td":8138,"tah":8139,"##wb":8140,"##width":8141,"##ener":8142,"##aptic":8143,"##iao":8144,"click":8145,"metac":8146,"##isme":8147,"atten":8148,"carl":8149,"compared":8150,"greek":8151,"gras":8152,"##esco":8153,"belajar":8154,"difficulty":8155,"sheet":8156,"##partum":8157,"physiotherapy":8158,"veter":8159,"##py":8160,"##fi":8161,"antis":8162,"##omo":8163,"##osk":8164,"##ims":8165,"acm":8166,"mediter":8167,"generate":8168,"##onomics":8169,"businesses":8170,"notes":8171,"potentials":8172,"andreas":8173,"##aphyl":8174,"burden":8175,"magnesium":8176,"khal":8177,"opportunity":8178,"looking":8179,"vegetable":8180,"hydrogel":8181,"ery":8182,"qa":8183,"##oqu":8184,"##zioni":8185,"##vey":8186,"##ects":8187,"deployment":8188,"##ands":8189,"recomb":8190,"coup":8191,"##allow":8192,"indirect":8193,"controls":8194,"england":8195,"georg":8196,"calculus":8197,"dissert":8198,"##videos":8199,"vein":8200,"constituent":8201,"hindi":8202,"expenditure":8203,"hplc":8204,"##emanticscholarorg":8205,"fetal":8206,"##uge":8207,"##dep":8208,"##anan":8209,"##agation":8210,"compati":8211,"##aint":8212,"psychosocial":8213,"grey":8214,"##matical":8215,"smartphones":8216,"hyperspectral":8217,"revenue":8218,"brad":8219,"bull":8220,"equality":8221,"hat":8222,"xiang":8223,"##cv":8224,"stone":8225,"##essing":8226,"clear":8227,"optics":8228,"infecti":8229,"timothy":8230,"semin":8231,"designs":8232,"zheng":8233,"intrac":8234,"assistant":8235,"anthony":8236,"##paign":8237,"anteced":8238,"##based":8239,"refriger":8240,"gravity":8241,"checking":8242,"gang":8243,"gpt":8244,"rose":8245,"saw":8246,"##rans":8247,"##54":8248,"##raz":8249,"##aba":8250,"peace":8251,"backprop":8252,"autonomy":8253,"cues":8254,"scenario":8255,"pairs":8256,"symbol":8257,"stiff":8258,"commonsense":8259,"dust":8260,"dock":8261,"pages":8262,"tick":8263,"vital":8264,"##2d":8265,"##iders":8266,"email":8267,"##ricular":8268,"##iveness":8269,"schema":8270,"##rosoph":8271,"eds":8272,"protective":8273,"create":8274,"curc":8275,"silica":8276,"fuzzing":8277,"##otyping":8278,"scales":8279,"sarah":8280,"descriptions":8281,"xiao":8282,"suspension":8283,"observer":8284,"##ranean":8285,"pent":8286,"rl":8287,"##mond":8288,"##gent":8289,"##opl":8290,"dex":8291,"##opy":8292,"##ibular":8293,"paraph":8294,"trap":8295,"##ega":8296,"developed":8297,"maturity":8298,"textbook":8299,"quantifying":8300,"homes":8301,"pulp":8302,"contributions":8303,"vacuum":8304,"elliptic":8305,"bov":8306,"cum":8307,"gem":8308,"ian":8309,"lc":8310,"wis":8311,"yas":8312,"##rp":8313,"##iral":8314,"##iments":8315,"basket":8316,"##elly":8317,"##ainting":8318,"sher":8319,"subspace":8320,"capt":8321,"framing":8322,"##uke":8323,"canadian":8324,"myc":8325,"##shore":8326,"1989":8327,"bilateral":8328,"achieving":8329,"##ariants":8330,"orthogonal":8331,"pepper":8332,"aquatic":8333,"congestion":8334,"cleaning":8335,"chinas":8336,"gabri":8337,"mushroom":8338,"ht":8339,"hos":8340,"kual":8341,"mall":8342,"yuan":8343,"##low":8344,"comfort":8345,"resc":8346,"##ansi":8347,"transf":8348,"atomic":8349,"plus":8350,"epis":8351,"doctor":8352,"harris":8353,"emergence":8354,"##ulsion":8355,"horizontal":8356,"##ommunication":8357,"##informatics":8358,"osteoarthritis":8359,"dots":8360,"foss":8361,"hate":8362,"wan":8363,"##uary":8364,"##olia":8365,"##uta":8366,"modes":8367,"asper":8368,"##assium":8369,"##iesel":8370,"erg":8371,"paths":8372,"academy":8373,"pdfss":8374,"fungal":8375,"cinema":8376,"##mailcom":8377,"emmanuelle":8378,"chaotic":8379,"##atalytic":8380,"##ophyll":8381,"bure":8382,"kevin":8383,"obl":8384,"pale":8385,"ral":8386,"chim":8387,"##obi":8388,"##ellar":8389,"interval":8390,"aged":8391,"crm":8392,"mini":8393,"laun":8394,"transformations":8395,"hotels":8396,"polymers":8397,"abstraction":8398,"beams":8399,"bulk":8400,"pronunciation":8401,"gm":8402,"nel":8403,"sz":8404,"tat":8405,"##pri":8406,"##deh":8407,"##75":8408,"##oro":8409,"##arking":8410,"##agent":8411,"##rio":8412,"client":8413,"charger":8414,"discovering":8415,"##ipped":8416,"irrad":8417,"complexes":8418,"accessibility":8419,"##metics":8420,"origins":8421,"fingerprint":8422,"paradox":8423,"ceramics":8424,"partnership":8425,"according":8426,"infectious":8427,"euc":8428,"hend":8429,"sang":8430,"sativ":8431,"##idis":8432,"##iran":8433,"sperm":8434,"unp":8435,"diar":8436,"salinity":8437,"operators":8438,"grading":8439,"layered":8440,"partitioning":8441,"pipeline":8442,"gestational":8443,"russian":8444,"fiscal":8445,"drama":8446,"kinderg":8447,"bm":8448,"cc":8449,"hv":8450,"mb":8451,"##2b":8452,"inversion":8453,"##omas":8454,"stri":8455,"once":8456,"shen":8457,"##ilding":8458,"ecg":8459,"visibility":8460,"cyc":8461,"serial":8462,"foods":8463,"competency":8464,"constitution":8465,"asympt":8466,"muhammad":8467,"qing":8468,"##ioc":8469,"##fet":8470,"##wr":8471,"##ered":8472,"##rote":8473,"chart":8474,"##akh":8475,"scaff":8476,"manage":8477,"coaching":8478,"produced":8479,"integrative":8480,"10110":8481,"purification":8482,"screw":8483,"fourth":8484,"shoulder":8485,"courses":8486,"kerja":8487,"subjects":8488,"hormone":8489,"##tinction":8490,"california":8491,"elizabeth":8492,"drain":8493,"rud":8494,"rang":8495,"sara":8496,"still":8497,"vessel":8498,"##bb":8499,"##93":8500,"##anum":8501,"##icts":8502,"##rea":8503,"adher":8504,"perovsk":8505,"destination":8506,"##ylic":8507,"factory":8508,"final":8509,"serious":8510,"##gener":8511,"etzioni":8512,"campaign":8513,"labeled":8514,"snap":8515,"exercises":8516,"utilizing":8517,"distilling":8518,"excitation":8519,"mohammed":8520,"persistence":8521,"pedagogy":8522,"template":8523,"forgetting":8524,"##ampling":8525,"marx":8526,"##eholder":8527,"respond":8528,"remove":8529,"postpartum":8530,"entry":8531,"torque":8532,"anthropology":8533,"freshwater":8534,"##organic":8535,"substance":8536,"inpainting":8537,"exponential":8538,"lewis":8539,"fintech":8540,"mediterranean":8541,"kot":8542,"v2":8543,"vapor":8544,"##lip":8545,"##cap":8546,"##61":8547,"##isons":8548,"forc":8549,"proph":8550,"cher":8551,"apr":8552,"secret":8553,"superconduc":8554,"nanocompos":8555,"breeding":8556,"##ematics":8557,"cambridge":8558,"threats":8559,"##factual":8560,"sepsis":8561,"regulated":8562,"tolerant":8563,"citrus":8564,"constructing":8565,"pancreatic":8566,"tiny":8567,"obstacle":8568,"retinal":8569,"multidimensional":8570,"aph":8571,"dennis":8572,"kah":8573,"say":8574,"##yo":8575,"##eros":8576,"inn":8577,"##ediation":8578,"##elo":8579,"##ston":8580,"comment":8581,"envi":8582,"prison":8583,"alter":8584,"autoc":8585,"poetry":8586,"distortion":8587,"workflow":8588,"greece":8589,"swed":8590,"logical":8591,"microserv":8592,"cosmetics":8593,"##structured":8594,"##brahim":8595,"russia":8596,"volatile":8597,"transparent":8598,"terapi":8599,"describ":8600,"reasons":8601,"gordon":8602,"##olesterol":8603,"diesel":8604,"bam":8605,"estr":8606,"sew":8607,"wi":8608,"##pati":8609,"##hl":8610,"##63":8611,"##oning":8612,"##ontin":8613,"##oric":8614,"##icip":8615,"dehyd":8616,"tob":8617,"orange":8618,"##andro":8619,"metod":8620,"##tivitas":8621,"biochemical":8622,"fluct":8623,"centers":8624,"laura":8625,"karl":8626,"transitions":8627,"reflective":8628,"fixation":8629,"michel":8630,"efek":8631,"aluminium":8632,"smoothing":8633,"marginal":8634,"leukemia":8635,"watermarking":8636,"tecn":8637,"bos":8638,"qi":8639,"vik":8640,"vinc":8641,"##77":8642,"stu":8643,"optic":8644,"##ego":8645,"locom":8646,"caption":8647,"johann":8648,"useful":8649,"uncon":8650,"increases":8651,"investor":8652,"reflect":8653,"shaping":8654,"ozone":8655,"schmid":8656,"salmonella":8657,"bach":8658,"gross":8659,"##pea":8660,"##rases":8661,"##yi":8662,"##bach":8663,"##tise":8664,"##enes":8665,"##agers":8666,"caries":8667,"humanoid":8668,"editor":8669,"guo":8670,"italian":8671,"valley":8672,"davis":8673,"respiration":8674,"##basis":8675,"choosing":8676,"pm25":8677,"prescrib":8678,"bubble":8679,"penetration":8680,"entities":8681,"eug":8682,"kub":8683,"rear":8684,"##pon":8685,"##lines":8686,"##o4":8687,"##bell":8688,"##wide":8689,"##vc":8690,"##inus":8691,"##itan":8692,"##edi":8693,"computed":8694,"##ify":8695,"skip":8696,"alloys":8697,"photonic":8698,"topical":8699,"curves":8700,"tourist":8701,"requirement":8702,"storyt":8703,"broadband":8704,"warming":8705,"negotiation":8706,"jeffrey":8707,"displacement":8708,"##olymer":8709,"susceptibility":8710,"canc":8711,"naz":8712,"rect":8713,"sale":8714,"##enium":8715,"exact":8716,"trait":8717,"##uncture":8718,"myel":8719,"pursu":8720,"precise":8721,"luis":8722,"professionals":8723,"lamb":8724,"grammatical":8725,"microbiology":8726,"running":8727,"anchor":8728,"volumetric":8729,"phosphorus":8730,"mend":8731,"##anti":8732,"##omi":8733,"##uler":8734,"comun":8735,"trich":8736,"coral":8737,"amyl":8738,"colony":8739,"ecu":8740,"##othermal":8741,"advance":8742,"automatically":8743,"massage":8744,"including":8745,"chloride":8746,"neuronal":8747,"sulfur":8748,"cultivation":8749,"dermat":8750,"capsule":8751,"poisoning":8752,"wasserstein":8753,"aus":8754,"dun":8755,"tog":8756,"##uates":8757,"##bed":8758,"##arter":8759,"##acet":8760,"stain":8761,"clim":8762,"such":8763,"plac":8764,"teori":8765,"parking":8766,"whats":8767,"round":8768,"##lamps":8769,"jobs":8770,"partially":8771,"coreference":8772,"dilem":8773,"hassan":8774,"stakeholder":8775,"thought":8776,"correspondence":8777,"gcn":8778,"hm":8779,"jew":8780,"lanka":8781,"little":8782,"##itiv":8783,"##kt":8784,"##bage":8785,"##inite":8786,"##unan":8787,"##artz":8788,"##azine":8789,"dimensionality":8790,"peny":8791,"nitride":8792,"packet":8793,"daun":8794,"counterfactual":8795,"manifest":8796,"divor":8797,"brazilian":8798,"municip":8799,"imbalanced":8800,"objectives":8801,"deconvolution":8802,"cic":8803,"destr":8804,"ging":8805,"##46":8806,"thi":8807,"##amic":8808,"requ":8809,"reuse":8810,"onset":8811,"##ovirus":8812,"adc":8813,"script":8814,"atlas":8815,"##tron":8816,"newborn":8817,"implants":8818,"concurrent":8819,"diversification":8820,"interpretability":8821,"plasm":8822,"expectations":8823,"springer":8824,"multispectral":8825,"bootst":8826,"bing":8827,"fif":8828,"ky":8829,"nu":8830,"nash":8831,"##cnn":8832,"##vo":8833,"##ici":8834,"tran":8835,"##ensor":8836,"##vious":8837,"sebas":8838,"isra":8839,"##ugal":8840,"colomb":8841,"potassium":8842,"contrac":8843,"deterministic":8844,"delayed":8845,"enzymes":8846,"##cutaneous":8847,"oncology":8848,"stigma":8849,"##opoulos":8850,"kec":8851,"sac":8852,"sib":8853,"yin":8854,"##rt":8855,"##asional":8856,"##acial":8857,"##agon":8858,"oren":8859,"graphic":8860,"##awatan":8861,"memb":8862,"digit":8863,"geographic":8864,"malicious":8865,"characterizing":8866,"faculty":8867,"landmark":8868,"electroc":8869,"lives":8870,"regulations":8871,"biodiesel":8872,"rainfall":8873,"cascaded":8874,"nanotechnology":8875,"riemann":8876,"pragmatic":8877,"arrang":8878,"metaphor":8879,"pdfssemanticscholarorg":8880,"storytelling":8881,"lob":8882,"lumb":8883,"vine":8884,"##yar":8885,"##tier":8886,"##orec":8887,"thromb":8888,"##iman":8889,"orb":8890,"been":8891,"blast":8892,"predictor":8893,"powered":8894,"fibrosis":8895,"silva":8896,"hrm":8897,"relevant":8898,"mamm":8899,"##worm":8900,"behind":8901,"dentistry":8902,"mast":8903,"sik":8904,"yao":8905,"##uo":8906,"##car":8907,"##onut":8908,"##oria":8909,"##aram":8910,"chile":8911,"##ocyte":8912,"along":8913,"apopt":8914,"contex":8915,"abund":8916,"whit":8917,"##strual":8918,"##ishment":8919,"attentional":8920,"harness":8921,"applic":8922,"abdominal":8923,"pretrained":8924,"##building":8925,"bahasa":8926,"cfd":8927,"leakage":8928,"gastroint":8929,"preventing":8930,"spoofing":8931,"piezo":8932,"##lampsia":8933,"35":8934,"makes":8935,"pill":8936,"uwb":8937,"##rhe":8938,"##eo":8939,"##uhan":8940,"##econd":8941,"##using":8942,"mete":8943,"##bling":8944,"##tinct":8945,"##tistic":8946,"guar":8947,"doud":8948,"##acco":8949,"democ":8950,"##itian":8951,"photography":8952,"millimeter":8953,"simulator":8954,"weld":8955,"butter":8956,"vegetation":8957,"cheese":8958,"catalyst":8959,"algae":8960,"permeability":8961,"epilepsy":8962,"bootstrap":8963,"craw":8964,"ds":8965,"mec":8966,"zno":8967,"##inos":8968,"thal":8969,"##ados":8970,"##izes":8971,"##2016":8972,"insight":8973,"##ophag":8974,"pyr":8975,"definitions":8976,"lamp":8977,"credibility":8978,"vegetables":8979,"menggun":8980,"cvpr":8981,"nilai":8982,"intermediate":8983,"hippoc":8984,"stiffness":8985,"aids":8986,"fc":8987,"gestion":8988,"kids":8989,"tp":8990,"##itives":8991,"##aa":8992,"##dl":8993,"##wm":8994,"##2c":8995,"##ened":8996,"ink":8997,"##ulse":8998,"straw":8999,"##forming":9000,"amir":9001,"##titude":9002,"subt":9003,"servo":9004,"##ichia":9005,"virgin":9006,"##coming":9007,"termin":9008,"republ":9009,"mcg":9010,"hierarchies":9011,"steps":9012,"instability":9013,"proposed":9014,"caregiver":9015,"intercultural":9016,"dissertation":9017,"##dehy":9018,"bif":9019,"kris":9020,"til":9021,"##cale":9022,"##bolic":9023,"##jee":9024,"##erning":9025,"##oming":9026,"##ocene":9027,"##uca":9028,"##abolic":9029,"aless":9030,"genomic":9031,"##anto":9032,"marie":9033,"assay":9034,"##egan":9035,"poult":9036,"repres":9037,"deficit":9038,"forming":9039,"correlated":9040,"continual":9041,"millenn":9042,"ambigu":9043,"sinus":9044,"##structive":9045,"coconut":9046,"anaer":9047,"oscillator":9048,"vedio":9049,"mitochondrial":9050,"hamilton":9051,"cable":9052,"hope":9053,"hiro":9054,"nap":9055,"##iet":9056,"##path":9057,"##etooth":9058,"##emics":9059,"staphyl":9060,"reef":9061,"chal":9062,"##plac":9063,"##plete":9064,"alle":9065,"manaj":9066,"##astoma":9067,"quatern":9068,"##azz":9069,"breaking":9070,"conduct":9071,"eleph":9072,"teenagers":9073,"alzheimer":9074,"wikip":9075,"einstein":9076,"ventilation":9077,"doudna":9078,"menggunakan":9079,"poultry":9080,"gian":9081,"hs":9082,"np":9083,"nig":9084,"ori":9085,"##tm":9086,"##tw":9087,"##eds":9088,"##rays":9089,"adul":9090,"recall":9091,"##awan":9092,"automobile":9093,"buffer":9094,"##acci":9095,"hands":9096,"warning":9097,"priors":9098,"periodontal":9099,"rotor":9100,"fertility":9101,"tablet":9102,"court":9103,"##yclop":9104,"sulfate":9105,"ideas":9106,"impaired":9107,"communicative":9108,"feminist":9109,"eryth":9110,"45":9111,"dic":9112,"hao":9113,"##mhz":9114,"##esa":9115,"##eses":9116,"##raj":9117,"##usi":9118,"depos":9119,"##udio":9120,"spont":9121,"##enses":9122,"cortical":9123,"biases":9124,"##001":9125,"algorithmic":9126,"nanom":9127,"buy":9128,"built":9129,"salud":9130,"signatures":9131,"lifetime":9132,"cream":9133,"densely":9134,"puls":9135,"milling":9136,"##inkler":9137,"kiner":9138,"radiotherapy":9139,"squee":9140,"doppler":9141,"observational":9142,"involved":9143,"bluetooth":9144,"wwwxnxxcom":9145,"adherence":9146,"gastrointestinal":9147,"dating":9148,"mans":9149,"ryan":9150,"trim":9151,"##pin":9152,"##raction":9153,"##guna":9154,"##uous":9155,"##esi":9156,"##agai":9157,"propor":9158,"acup":9159,"interle":9160,"intent":9161,"mars":9162,"commod":9163,"appropri":9164,"mems":9165,"practition":9166,"depriv":9167,"irreg":9168,"carbonate":9169,"##ullah":9170,"indexing":9171,"waveform":9172,"berbasis":9173,"##conn":9174,"loaded":9175,"difficult":9176,"ivan":9177,"today":9178,"combinatorial":9179,"bath":9180,"jes":9181,"koh":9182,"lamin":9183,"wong":9184,"##mitt":9185,"##life":9186,"##onn":9187,"##alis":9188,"##aco":9189,"##ensing":9190,"shin":9191,"plag":9192,"preec":9193,"electrol":9194,"decay":9195,"members":9196,"doing":9197,"fibro":9198,"windows":9199,"1985":9200,"boundaries":9201,"bandwidth":9202,"initiative":9203,"psic":9204,"nervous":9205,"existence":9206,"cucum":9207,"sparsity":9208,"dot":9209,"fle":9210,"ls":9211,"mitch":9212,"zn":9213,"##ners":9214,"##tick":9215,"##tha":9216,"##umi":9217,"##imming":9218,"spike":9219,"beverage":9220,"##2017":9221,"defining":9222,"signs":9223,"volley":9224,"proficiency":9225,"causality":9226,"##regation":9227,"homomorphic":9228,"refuge":9229,"portable":9230,"regularity":9231,"heterogeneity":9232,"biodegrad":9233,"dilated":9234,"##opathology":9235,"telecommunication":9236,"101007":9237,"ischemic":9238,"divorce":9239,"spontaneous":9240,"bund":9241,"filling":9242,"gdp":9243,"jp":9244,"jak":9245,"pitch":9246,"##hm":9247,"##rison":9248,"##95":9249,"reactor":9250,"##osi":9251,"##ospor":9252,"acquir":9253,"unf":9254,"string":9255,"transgen":9256,"plain":9257,"isa":9258,"frames":9259,"epig":9260,"##tility":9261,"grasp":9262,"spectra":9263,"reported":9264,"liberal":9265,"sounds":9266,"omn":9267,"##learning":9268,"glycol":9269,"proximal":9270,"lexicon":9271,"ensembles":9272,"anaerobic":9273,"kinerja":9274,"gor":9275,"garc":9276,"hone":9277,"ibrahim":9278,"##esthes":9279,"enforc":9280,"ads":9281,"week":9282,"supervis":9283,"extractive":9284,"microstructure":9285,"##issa":9286,"##brity":9287,"samuel":9288,"connecting":9289,"hydrochlor":9290,"motors":9291,"maur":9292,"responsible":9293,"extending":9294,"partner":9295,"personnel":9296,"indonesian":9297,"independence":9298,"instruments":9299,"accountability":9300,"perfect":9301,"constituents":9302,"contexts":9303,"preeclampsia":9304,"4th":9305,"jess":9306,"kul":9307,"nike":9308,"vox":9309,"##rence":9310,"##mt":9311,"##bil":9312,"antiv":9313,"##urface":9314,"##elity":9315,"##idential":9316,"##agan":9317,"acl":9318,"recre":9319,"##athi":9320,"decline":9321,"##anner":9322,"benz":9323,"valid":9324,"brands":9325,"nitrate":9326,"hospitals":9327,"##rophys":9328,"tunable":9329,"antibiotics":9330,"fitting":9331,"ssd":9332,"recognizing":9333,"administrative":9334,"##aryngeal":9335,"wikipedia":9336,"joy":9337,"junction":9338,"nation":9339,"nom":9340,"nob":9341,"##cation":9342,"##icz":9343,"##asm":9344,"strip":9345,"##amel":9346,"replication":9347,"como":9348,"##phys":9349,"cox":9350,"cooking":9351,"meets":9352,"newton":9353,"##integ":9354,"##ieu":9355,"##text":9356,"##untary":9357,"mediation":9358,"vulnerabilities":9359,"translate":9360,"placebo":9361,"categories":9362,"aromath":9363,"fen":9364,"iod":9365,"rash":9366,"sf":9367,"sou":9368,"sax":9369,"rejection":9370,"##thy":9371,"##imiento":9372,"genus":9373,"evans":9374,"mooc":9375,"##ptions":9376,"ferro":9377,"purpos":9378,"illust":9379,"kinase":9380,"nasal":9381,"roger":9382,"having":9383,"rust":9384,"ying":9385,"##sim":9386,"##valu":9387,"##86":9388,"ther":9389,"##raine":9390,"##amm":9391,"##uddin":9392,"reser":9393,"weights":9394,"journey":9395,"define":9396,"##ommod":9397,"campus":9398,"##ethylene":9399,"drives":9400,"guideline":9401,"##hani":9402,"expand":9403,"keyp":9404,"pca":9405,"narrow":9406,"##olingu":9407,"##2o3":9408,"produk":9409,"controllable":9410,"sugarc":9411,"caff":9412,"mish":9413,"nin":9414,"qos":9415,"roth":9416,"tik":9417,"zir":9418,"##tist":9419,"##rah":9420,"##rav":9421,"congen":9422,"provision":9423,"spp":9424,"scar":9425,"covari":9426,"relay":9427,"##acea":9428,"amin":9429,"##deep":9430,"hydrol":9431,"offshore":9432,"empire":9433,"1984":9434,"documentation":9435,"sanitation":9436,"##hui":9437,"boron":9438,"pharmacological":9439,"komun":9440,"rodrig":9441,"pesticides":9442,"meteor":9443,"manajemen":9444,"volleyball":9445,"34":9446,"dub":9447,"kand":9448,"lars":9449,"nand":9450,"rav":9451,"rhyth":9452,"tn":9453,"##nat":9454,"##gers":9455,"##bur":9456,"##wen":9457,"##jud":9458,"inorganic":9459,"##acles":9460,"##ilia":9461,"excess":9462,"exhib":9463,"##ively":9464,"coarse":9465,"election":9466,"infarc":9467,"##nea":9468,"solve":9469,"programme":9470,"encyclop":9471,"##auf":9472,"distributional":9473,"corpora":9474,"manuel":9475,"player":9476,"tumors":9477,"livelihood":9478,"resonant":9479,"sheep":9480,"ceo":9481,"drawing":9482,"conjug":9483,"anomalies":9484,"65":9485,"bog":9486,"caching":9487,"sov":9488,"soph":9489,"triv":9490,"wage":9491,"##bel":9492,"##xy":9493,"##etta":9494,"##omnia":9495,"##unte":9496,"##adium":9497,"extinction":9498,"dipl":9499,"coated":9500,"trad":9501,"whey":9502,"##ertz":9503,"airborne":9504,"opening":9505,"innovations":9506,"audi":9507,"correlations":9508,"##omyces":9509,"emergent":9510,"##structures":9511,"specialist":9512,"inequal":9513,"halal":9514,"communicate":9515,"keseh":9516,"polynomial":9517,"spherical":9518,"grasping":9519,"backpropagation":9520,"kindergarten":9521,"cz":9522,"gary":9523,"jane":9524,"pon":9525,"packing":9526,"##bank":9527,"##fast":9528,"##vol":9529,"##inant":9530,"##eni":9531,"##tera":9532,"neph":9533,"existing":9534,"shallow":9535,"deepf":9536,"##ubes":9537,"superior":9538,"##awi":9539,"economies":9540,"peak":9541,"##oringa":9542,"radial":9543,"bark":9544,"encoun":9545,"toolkit":9546,"bioinformatics":9547,"##ogeneous":9548,"reflex":9549,"1987":9550,"alexand":9551,"focusing":9552,"shaped":9553,"axial":9554,"echo":9555,"boltz":9556,"annealing":9557,"actuator":9558,"kenneth":9559,"pascal":9560,"##dehyde":9561,"sugarcane":9562,"aortic":9563,"duc":9564,"fox":9565,"kos":9566,"kai":9567,"prad":9568,"push":9569,"row":9570,"want":9571,"were":9572,"##cence":9573,"##bf":9574,"##bin":9575,"##bes":9576,"##dal":9577,"##fly":9578,"##information":9579,"##reat":9580,"spill":9581,"sugg":9582,"metad":9583,"##eger":9584,"crude":9585,"memories":9586,"embod":9587,"ethylene":9588,"norms":9589,"sharp":9590,"federal":9591,"ghz":9592,"holistic":9593,"osm":9594,"hepatitis":9595,"descriptor":9596,"arterial":9597,"##osomal":9598,"rescue":9599,"apoptosis":9600,"boltzmann":9601,"arim":9602,"ron":9603,"##tp":9604,"##uy":9605,"##dynam":9606,"##icus":9607,"##icle":9608,"ofdm":9609,"##opes":9610,"##izi":9611,"org":9612,"march":9613,"##endra":9614,"meditation":9615,"weighting":9616,"move":9617,"vijay":9618,"softmax":9619,"##escu":9620,"airport":9621,"##nett":9622,"##acional":9623,"nitric":9624,"plasticity":9625,"occupancy":9626,"sgd":9627,"uganda":9628,"lifelong":9629,"deblurring":9630,"kesehatan":9631,"aar":9632,"dup":9633,"pg":9634,"zah":9635,"##oi":9636,"##uro":9637,"##fram":9638,"reposit":9639,"##imetric":9640,"close":9641,"##ifa":9642,"suz":9643,"scope":9644,"##ancia":9645,"##ivity":9646,"multiview":9647,"carol":9648,"patric":9649,"##exual":9650,"103":9651,"posture":9652,"stephan":9653,"masks":9654,"authority":9655,"osteopor":9656,"##u0000u0000u0000u0000":9657,"publications":9658,"supplementation":9659,"minority":9660,"disturbance":9661,"fd":9662,"hinton":9663,"nw":9664,"tl":9665,"wax":9666,"##sal":9667,"##05":9668,"##2p":9669,"##tium":9670,"##rose":9671,"##urus":9672,"enf":9673,"##forward":9674,"comport":9675,"pras":9676,"shield":9677,"percent":9678,"atrial":9679,"##illo":9680,"##orship":9681,"soyb":9682,"##ropol":9683,"peo":9684,"##ofem":9685,"##matics":9686,"macroph":9687,"fisher":9688,"1980":9689,"electrochemical":9690,"vulgar":9691,"orthodontic":9692,"mammal":9693,"aromatic":9694,"tibet":9695,"necess":9696,"demonstration":9697,"incomplete":9698,"transistor":9699,"celebrity":9700,"##oskeleton":9701,"ecuador":9702,"soybean":9703,"fam":9704,"holog":9705,"lup":9706,"moringa":9707,"tamil":9708,"variants":9709,"##iant":9710,"##lings":9711,"##gang":9712,"##key":9713,"##isch":9714,"##ulas":9715,"##rade":9716,"alv":9717,"##phy":9718,"##enson":9719,"coil":9720,"##ryl":9721,"escher":9722,"electrosp":9723,"accommod":9724,"visually":9725,"insulator":9726,"explos":9727,"xxxxx":9728,"laplac":9729,"##arga":9730,"penal":9731,"scienti":9732,"##iatry":9733,"##orphic":9734,"viruses":9735,"classifying":9736,"liquidity":9737,"written":9738,"piec":9739,"songs":9740,"committe":9741,"coefficients":9742,"dragon":9743,"rheum":9744,"perturbations":9745,"##omonas":9746,"##roleum":9747,"consolidation":9748,"irregular":9749,"dd":9750,"jet":9751,"pure":9752,"vae":9753,"zones":9754,"##iative":9755,"##je":9756,"##tional":9757,"cholesterol":9758,"spam":9759,"clock":9760,"transc":9761,"obstructive":9762,"##axis":9763,"crash":9764,"volunte":9765,"blocks":9766,"mcd":9767,"breastfe":9768,"sunny":9769,"##atherine":9770,"pelvic":9771,"anatom":9772,"##plasia":9773,"##ocrine":9774,"##iliary":9775,"mergers":9776,"biogas":9777,"gifted":9778,"harnessing":9779,"31":9780,"kant":9781,"nos":9782,"nico":9783,"width":9784,"wiley":9785,"##rang":9786,"##mc":9787,"##mat":9788,"##lock":9789,"##ck":9790,"##ems":9791,"##oso":9792,"##umann":9793,"##imi":9794,"##iming":9795,"##adic":9796,"phrases":9797,"shang":9798,"arn":9799,"intestinal":9800,"multiagent":9801,"paran":9802,"graft":9803,"##oks":9804,"workforce":9805,"##arta":9806,"brit":9807,"##aja":9808,"entail":9809,"worlds":9810,"artem":9811,"particulate":9812,"probe":9813,"rhet":9814,"quadratic":9815,"expectation":9816,"stationary":9817,"intersection":9818,"biomarker":9819,"harvard":9820,"hack":9821,"mw":9822,"nodes":9823,"##kl":9824,"##arrol":9825,"##icion":9826,"##rov":9827,"##entes":9828,"##utan":9829,"neil":9830,"als":9831,"unifying":9832,"phones":9833,"seven":9834,"atom":9835,"multinational":9836,"trav":9837,"##athic":9838,"command":9839,"##velopment":9840,"insomnia":9841,"##ymal":9842,"linux":9843,"progression":9844,"artifacts":9845,"afford":9846,"##bound":9847,"##meas":9848,"teamwork":9849,"resilient":9850,"competencies":9851,"ingred":9852,"##ycled":9853,"expressive":9854,"receiver":9855,"descriptors":9856,"furnace":9857,"proceso":9858,"restricted":9859,"anisotropic":9860,"republic":9861,"len":9862,"mud":9863,"sacc":9864,"upl":9865,"##racy":9866,"##mel":9867,"##inance":9868,"##agi":9869,"club":9870,"distinct":9871,"strugg":9872,"##aver":9873,"##lying":9874,"amph":9875,"cole":9876,"weap":9877,"bloom":9878,"edu":9879,"edible":9880,"##erapan":9881,"hyperbolic":9882,"trafficking":9883,"walker":9884,"##iosity":9885,"wavelength":9886,"sediments":9887,"dermatitis":9888,"phenomenon":9889,"lubric":9890,"barbara":9891,"sosial":9892,"shrink":9893,"##labeled":9894,"aromatherapy":9895,"encyclopedia":9896,"auction":9897,"ore":9898,"wol":9899,"##hd":9900,"##menting":9901,"##bean":9902,"##det":9903,"##acic":9904,"##stra":9905,"conting":9906,"##igar":9907,"##osine":9908,"chand":9909,"##umen":9910,"recycled":9911,"could":9912,"assets":9913,"quick":9914,"abilities":9915,"bladder":9916,"regret":9917,"prognosis":9918,"salic":9919,"singing":9920,"zhong":9921,"hydroph":9922,"neurological":9923,"##rable":9924,"expatri":9925,"responsive":9926,"##erald":9927,"petroleum":9928,"competitiveness":9929,"thompson":9930,"livest":9931,"determinant":9932,"discriminant":9933,"multicultural":9934,"sistema":9935,"addressing":9936,"biofilm":9937,"biomarkers":9938,"shifting":9939,"ubiqu":9940,"photocatalytic":9941,"bottleneck":9942,"antecedents":9943,"cycles":9944,"abundance":9945,"garcia":9946,"laplacian":9947,"gn":9948,"mys":9949,"rati":9950,"rut":9951,"wid":9952,"##lie":9953,"##west":9954,"##wick":9955,"inner":9956,"##isia":9957,"##acillus":9958,"##idium":9959,"metas":9960,"##haw":9961,"amy":9962,"##rones":9963,"accidents":9964,"speak":9965,"antigen":9966,"dimit":9967,"##zzle":9968,"penis":9969,"pengguna":9970,"xnxxcom":9971,"##appa":9972,"reader":9973,"participatory":9974,"##going":9975,"##otoxicity":9976,"reversible":9977,"escherichia":9978,"gol":9979,"gill":9980,"masc":9981,"send":9982,"sick":9983,"##group":9984,"stay":9985,"##agic":9986,"enamel":9987,"ask":9988,"managment":9989,"##ergic":9990,"joints":9991,"endomet":9992,"deliver":9993,"localized":9994,"valued":9995,"zhen":9996,"biosynthesis":9997,"broiler":9998,"1986":9999,"dissol":10000,"naive":10001,"choices":10002,"inputs":10003,"messages":10004,"surviv":10005,"romantic":10006,"rolling":10007,"equivalent":10008,"transducer":10009,"deprivation":10010,"baker":10011,"dow":10012,"hai":10013,"mhealth":10014,"nn":10015,"ward":10016,"##rys":10017,"##fit":10018,"##31":10019,"##rocess":10020,"##asy":10021,"##acl":10022,"##apia":10023,"bass":10024,"lei":10025,"##enced":10026,"bee":10027,"opt":10028,"abortion":10029,"persons":10030,"##inescence":10031,"deception":10032,"bright":10033,"##uez":10034,"epoxy":10035,"transforming":10036,"terrain":10037,"investigations":10038,"stories":10039,"aerobic":10040,"inher":10041,"password":10042,"conflicts":10043,"resonator":10044,"rocket":10045,"absol":10046,"cohes":10047,"bernard":10048,"pictures":10049,"rcnn":10050,"iraq":10051,"reconfigurable":10052,"aprend":10053,"infarction":10054,"cup":10055,"fasting":10056,"gay":10057,"give":10058,"lit":10059,"muk":10060,"raz":10061,"tb":10062,"##taining":10063,"##tir":10064,"##aris":10065,"forum":10066,"##stone":10067,"reach":10068,"##retion":10069,"##ologist":10070,"shrim":10071,"##sey":10072,"carn":10073,"invasion":10074,"adapting":10075,"buff":10076,"multiplex":10077,"challenging":10078,"verb":10079,"feedforward":10080,"1988":10081,"##ijing":10082,"##baum":10083,"everyday":10084,"repeat":10085,"epithelial":10086,"brassica":10087,"mitchell":10088,"inequalities":10089,"breastfeeding":10090,"dont":10091,"hang":10092,"rt":10093,"xl":10094,"##pat":10095,"##wer":10096,"##1a":10097,"##aru":10098,"antif":10099,"##strained":10100,"energ":10101,"contour":10102,"seiz":10103,"prev":10104,"psychotherapy":10105,"##anker":10106,"silk":10107,"landsl":10108,"polyethylene":10109,"entertain":10110,"melaton":10111,"frontal":10112,"kingdom":10113,"turkish":10114,"produce":10115,"hydrogels":10116,"francisco":10117,"mountain":10118,"overlapping":10119,"gonz":10120,"##usaha":10121,"nafld":10122,"colombia":10123,"cue":10124,"eh":10125,"gd":10126,"lisa":10127,"##list":10128,"##onate":10129,"##alo":10130,"##aten":10131,"##empl":10132,"##than":10133,"##adeh":10134,"##eps":10135,"unlabeled":10136,"sung":10137,"islands":10138,"agar":10139,"##tru":10140,"newsp":10141,"consomm":10142,"flipped":10143,"suppress":10144,"microorgan":10145,"surveys":10146,"swot":10147,"canal":10148,"associative":10149,"repeti":10150,"polyg":10151,"pyrolysis":10152,"grounding":10153,"reduces":10154,"stimuli":10155,"receptors":10156,"giant":10157,"motivational":10158,"##enchymal":10159,"keper":10160,"palliative":10161,"scholars":10162,"allevi":10163,"70":10164,"bd":10165,"hold":10166,"horn":10167,"kay":10168,"lati":10169,"psor":10170,"sid":10171,"ya":10172,"##bd":10173,"##fu":10174,"##qing":10175,"##56":10176,"##79":10177,"chu":10178,"##iae":10179,"metropol":10180,"transpor":10181,"##aired":10182,"calib":10183,"facts":10184,"costa":10185,"oli":10186,"telem":10187,"promotes":10188,"investors":10189,"informasi":10190,"vocal":10191,"differentially":10192,"atmosphere":10193,"sebagai":10194,"malignant":10195,"##esthesia":10196,"peoples":10197,"aper":10198,"pam":10199,"pang":10200,"rape":10201,"yo":10202,"##gy":10203,"##gmailcom":10204,"##vs":10205,"##onin":10206,"##iltration":10207,"##umping":10208,"##plasty":10209,"##ionic":10210,"spark":10211,"adip":10212,"supr":10213,"peril":10214,"##raphy":10215,"tempor":10216,"prognostic":10217,"roots":10218,"centre":10219,"willing":10220,"farmer":10221,"nutrients":10222,"half":10223,"##thetics":10224,"membranes":10225,"muscles":10226,"##rification":10227,"lecture":10228,"asperg":10229,"stainless":10230,"livestock":10231,"melatonin":10232,"bour":10233,"htt":10234,"ionic":10235,"kitch":10236,"lcd":10237,"xi":10238,"##rine":10239,"##yah":10240,"##esting":10241,"##acous":10242,"##oderma":10243,"comments":10244,"##imen":10245,"##apa":10246,"also":10247,"counc":10248,"##alli":10249,"assim":10250,"amount":10251,"##onomi":10252,"##2015":10253,"branding":10254,"realism":10255,"comparisons":10256,"##class":10257,"xxxcom":10258,"airline":10259,"bread":10260,"iris":10261,"greenhouse":10262,"telesc":10263,"essays":10264,"conducting":10265,"tissues":10266,"pharmacology":10267,"nasa":10268,"mandibular":10269,"mango":10270,"counselling":10271,"neuropsych":10272,"peptide":10273,"fidelity":10274,"floating":10275,"planned":10276,"guarant":10277,"acupuncture":10278,"vulgaris":10279,"bry":10280,"dyn":10281,"##o2":10282,"##icill":10283,"##static":10284,"##igence":10285,"##umm":10286,"##occo":10287,"##unk":10288,"##owing":10289,"true":10290,"shaw":10291,"intermitt":10292,"genre":10293,"emg":10294,"emitter":10295,"##antes":10296,"grating":10297,"##estrial":10298,"register":10299,"distancing":10300,"##tify":10301,"##onso":10302,"overload":10303,"format":10304,"slope":10305,"correct":10306,"miner":10307,"##coma":10308,"urine":10309,"zhi":10310,"ireland":10311,"combat":10312,"hydrocarb":10313,"catast":10314,"behaviours":10315,"mutations":10316,"roads":10317,"transmit":10318,"inhibit":10319,"absorber":10320,"##ceptions":10321,"granite":10322,"criticism":10323,"##uscular":10324,"concerns":10325,"microfluidic":10326,"sphere":10327,"##arrollo":10328,"aprendiz":10329,"90":10330,"certain":10331,"glu":10332,"hollow":10333,"ions":10334,"nemat":10335,"yosh":10336,"yellow":10337,"##vest":10338,"##inn":10339,"##ecom":10340,"##elman":10341,"##ersen":10342,"##thing":10343,"##atile":10344,"##izable":10345,"clut":10346,"season":10347,"empres":10348,"plur":10349,"plural":10350,"##encias":10351,"elite":10352,"amel":10353,"weiss":10354,"blog":10355,"##anni":10356,"transferable":10357,"polyphen":10358,"ordering":10359,"##rophot":10360,"dissoci":10361,"kernels":10362,"bonds":10363,"easy":10364,"##osterone":10365,"premature":10366,"aesthetic":10367,"campbell":10368,"condens":10369,"fingerprinting":10370,"luxury":10371,"recombinant":10372,"perovskite":10373,"enviro":10374,"schmidt":10375,"cucumber":10376,"komunikasi":10377,"arima":10378,"entertainment":10379,"dari":10380,"ew":10381,"gent":10382,"hull":10383,"later":10384,"luk":10385,"niv":10386,"wool":10387,"##hon":10388,"##rf":10389,"##gram":10390,"##bee":10391,"##onial":10392,"##anet":10393,"##iser":10394,"##rotor":10395,"stom":10396,"##atite":10397,"##viol":10398,"ardu":10399,"scand":10400,"methodologies":10401,"meal":10402,"crust":10403,"overcoming":10404,"grown":10405,"##ethane":10406,"keu":10407,"radiology":10408,"watson":10409,"sanitiz":10410,"sorting":10411,"##obacteria":10412,"punishment":10413,"athlete":10414,"metallic":10415,"irradiation":10416,"israel":10417,"epigene":10418,"caffe":10419,"donald":10420,"erik":10421,"lok":10422,"mangan":10423,"nested":10424,"xen":10425,"##yang":10426,"##eas":10427,"##inging":10428,"##asil":10429,"##strom":10430,"##odies":10431,"##osomes":10432,"##opo":10433,"enroll":10434,"exha":10435,"spik":10436,"clark":10437,"unique":10438,"emily":10439,"graf":10440,"##annel":10441,"glove":10442,"crise":10443,"gui":10444,"##isson":10445,"geology":10446,"penel":10447,"penerapan":10448,"southeast":10449,"fisheries":10450,"karen":10451,"microscopic":10452,"mindset":10453,"hoff":10454,"choi":10455,"several":10456,"citations":10457,"venture":10458,"pneumatic":10459,"items":10460,"pragmatics":10461,"##olithic":10462,"gregory":10463,"fossil":10464,"bureauc":10465,"unpaired":10466,"tobacco":10467,"locomotion":10468,"##rhea":10469,"representing":10470,"covariance":10471,"metadata":10472,"entailment":10473,"intermittent":10474,"fang":10475,"lte":10476,"pond":10477,"tern":10478,"##lar":10479,"##cg":10480,"##fd":10481,"##xia":10482,"##tie":10483,"come":10484,"##imetry":10485,"disamb":10486,"metform":10487,"shelf":10488,"perin":10489,"manus":10490,"leone":10491,"agility":10492,"hymen":10493,"performing":10494,"prejud":10495,"sof":10496,"idi":10497,"##insons":10498,"##inski":10499,"pathogenesis":10500,"symmetry":10501,"americans":10502,"painting":10503,"faith":10504,"vitam":10505,"instant":10506,"classrooms":10507,"wright":10508,"immigration":10509,"equivalence":10510,"helicopter":10511,"uterine":10512,"auxiliary":10513,"sebastian":10514,"staphylococcus":10515,"astr":10516,"dal":10517,"hig":10518,"lak":10519,"nl":10520,"others":10521,"quran":10522,"ronald":10523,"sae":10524,"ud":10525,"##hat":10526,"##mn":10527,"##stream":10528,"##ulatory":10529,"deaf":10530,"##ocyt":10531,"##ucle":10532,"implication":10533,"cortic":10534,"wein":10535,"researchers":10536,"machin":10537,"pointer":10538,"predator":10539,"solv":10540,"endors":10541,"norway":10542,"canon":10543,"photon":10544,"philippe":10545,"fermented":10546,"taxi":10547,"retriev":10548,"##holder":10549,"pakist":10550,"odor":10551,"pharmacokine":10552,"parkinsons":10553,"hepatic":10554,"mesenchymal":10555,"switched":10556,"alberto":10557,"catalytic":10558,"nanotubes":10559,"dosage":10560,"narcissism":10561,"couple":10562,"shrinkage":10563,"keperawatan":10564,"arduino":10565,"55":10566,"hit":10567,"kil":10568,"noc":10569,"save":10570,"zi":10571,"##pn":10572,"##pes":10573,"##cel":10574,"##bots":10575,"##jin":10576,"rek":10577,"##rition":10578,"deal":10579,"algin":10580,"scores":10581,"asses":10582,"wealth":10583,"producing":10584,"evaluations":10585,"expertise":10586,"##issance":10587,"##ichen":10588,"journalism":10589,"analyze":10590,"oliver":10591,"anime":10592,"quantity":10593,"pcb":10594,"essentials":10595,"cbt":10596,"pedagogical":10597,"pavement":10598,"##forestation":10599,"triggered":10600,"##rotein":10601,"pursuit":10602,"piezoelectric":10603,"congenital":10604,"bible":10605,"born":10606,"og":10607,"rans":10608,"tight":10609,"vene":10610,"##yd":10611,"##83":10612,"##onation":10613,"##amoto":10614,"##ried":10615,"too":10616,"##ably":10617,"##imo":10618,"##udge":10619,"acne":10620,"spac":10621,"pren":10622,"altru":10623,"meter":10624,"arb":10625,"robin":10626,"carib":10627,"supers":10628,"functioning":10629,"patel":10630,"##ajo":10631,"##abilidad":10632,"steve":10633,"contraction":10634,"expanding":10635,"##hiro":10636,"stimulus":10637,"dyslex":10638,"garbage":10639,"glasses":10640,"chlorophyll":10641,"missile":10642,"mnist":10643,"##ectively":10644,"louis":10645,"hunting":10646,"unconstrained":10647,"zircon":10648,"bent":10649,"cort":10650,"ik":10651,"jag":10652,"jason":10653,"ld":10654,"lanc":10655,"pyl":10656,"riv":10657,"tung":10658,"tables":10659,"taste":10660,"xix":10661,"xnx":10662,"##mium":10663,"##ville":10664,"##road":10665,"orch":10666,"##tingu":10667,"aspir":10668,"dias":10669,"##akter":10670,"arrays":10671,"designed":10672,"##rontal":10673,"##awat":10674,"microst":10675,"subm":10676,"geoff":10677,"enhances":10678,"spectrophot":10679,"steering":10680,"critique":10681,"primer":10682,"august":10683,"politic":10684,"certification":10685,"cycling":10686,"mitigating":10687,"simplified":10688,"prolif":10689,"flavon":10690,"proximity":10691,"cylind":10692,"jesus":10693,"shrimp":10694,"metformin":10695,"gf":10696,"hog":10697,"maz":10698,"wai":10699,"##sel":10700,"##tization":10701,"##array":10702,"conduction":10703,"replay":10704,"##ription":10705,"##plane":10706,"##opia":10707,"spending":10708,"truck":10709,"alt":10710,"##akat":10711,"##actors":10712,"shel":10713,"##arya":10714,"##enders":10715,"assum":10716,"##ahl":10717,"internasional":10718,"variety":10719,"grace":10720,"personalization":10721,"offset":10722,"immed":10723,"investing":10724,"colorization":10725,"watch":10726,"alternatives":10727,"##rupt":10728,"germination":10729,"stereotypes":10730,"observed":10731,"nucleus":10732,"breakdown":10733,"mobilenet":10734,"mastering":10735,"handwriting":10736,"seawater":10737,"plaque":10738,"meningkat":10739,"purposes":10740,"penelitian":10741,"bun":10742,"ding":10743,"ej":10744,"jas":10745,"lal":10746,"larg":10747,"litter":10748,"sys":10749,"sized":10750,"vad":10751,"xvideo":10752,"##eon":10753,"##uer":10754,"##cas":10755,"##wi":10756,"##85":10757,"##87":10758,"##enstein":10759,"fort":10760,"##idor":10761,"##iguation":10762,"##oglu":10763,"chic":10764,"##obacillus":10765,"unet":10766,"arist":10767,"transit":10768,"##entina":10769,"marsh":10770,"hein":10771,"abb":10772,"reddy":10773,"voluntary":10774,"morb":10775,"airbn":10776,"probing":10777,"shortest":10778,"county":10779,"egyp":10780,"passage":10781,"maintain":10782,"provider":10783,"fractal":10784,"gaps":10785,"debate":10786,"##ourced":10787,"mandarin":10788,"ventricular":10789,"sprinkler":10790,"obstacles":10791,"manifolds":10792,"jackson":10793,"divergence":10794,"introducing":10795,"rebec":10796,"redundancy":10797,"municipal":10798,"arrangement":10799,"dissolved":10800,"keuangan":10801,"airbnb":10802,"33":10803,"36":10804,"ara":10805,"bci":10806,"cep":10807,"hess":10808,"lad":10809,"lactic":10810,"vortex":10811,"##vas":10812,"##etz":10813,"##ulative":10814,"cone":10815,"##umer":10816,"networked":10817,"alarm":10818,"stretch":10819,"bioch":10820,"machining":10821,"prey":10822,"flower":10823,"monop":10824,"treating":10825,"explore":10826,"serge":10827,"engineers":10828,"slav":10829,"spatially":10830,"supplier":10831,"catch":10832,"taxation":10833,"dependencies":10834,"biased":10835,"manipulators":10836,"siw":10837,"nigerian":10838,"hasan":10839,"coco":10840,"mosqu":10841,"prak":10842,"influencer":10843,"ammonium":10844,"scratch":10845,"elimination":10846,"##processing":10847,"basketball":10848,"democratic":10849,"aperture":10850,"enrollment":10851,"gnn":10852,"jim":10853,"kp":10854,"lis":10855,"oph":10856,"punc":10857,"ung":10858,"##pot":10859,"##bp":10860,"##bow":10861,"##wang":10862,"theat":10863,"tough":10864,"##ocy":10865,"##inea":10866,"exoskeleton":10867,"actin":10868,"ade":10869,"aliment":10870,"##ensin":10871,"peroxide":10872,"##rying":10873,"infected":10874,"##ugu":10875,"assistive":10876,"amp":10877,"underground":10878,"##rivast":10879,"crf":10880,"experts":10881,"psychiatry":10882,"peels":10883,"drilling":10884,"leads":10885,"summer":10886,"linkage":10887,"##ould":10888,"luo":10889,"centrality":10890,"##centric":10891,"annotations":10892,"closure":10893,"expected":10894,"##obacterium":10895,"strains":10896,"startup":10897,"fragmentation":10898,"constructiv":10899,"##imbing":10900,"bengio":10901,"nanofib":10902,"vaginal":10903,"biometrics":10904,"nicholas":10905,"cnc":10906,"stuart":10907,"cows":10908,"dick":10909,"danger":10910,"fold":10911,"foll":10912,"lud":10913,"mong":10914,"moll":10915,"mason":10916,"naj":10917,"##iol":10918,"##oen":10919,"##96":10920,"##onacci":10921,"##alism":10922,"##icated":10923,"##rost":10924,"stew":10925,"tok":10926,"##abe":10927,"##utsch":10928,"##apan":10929,"spar":10930,"asd":10931,"contents":10932,"impulse":10933,"mart":10934,"##verbal":10935,"infl":10936,"bior":10937,"moon":10938,"##bris":10939,"##arsh":10940,"affinity":10941,"##ethanol":10942,"potenti":10943,"inferring":10944,"hypox":10945,"hetero":10946,"keeping":10947,"pollut":10948,"separable":10949,"pso":10950,"ruth":10951,"##ranial":10952,"annotated":10953,"##rhiz":10954,"klein":10955,"himal":10956,"microgrid":10957,"projections":10958,"bovine":10959,"elephant":10960,"honeyp":10961,"proliferation":10962,"abl":10963,"bes":10964,"cip":10965,"fav":10966,"kaj":10967,"xing":10968,"##loc":10969,"##edu":10970,"##iga":10971,"##ogens":10972,"##reading":10973,"##thermal":10974,"##under":10975,"##apes":10976,"restr":10977,"##quency":10978,"##iani":10979,"preprint":10980,"##iki":10981,"predicts":10982,"consult":10983,"bruce":10984,"endoth":10985,"##ographs":10986,"roof":10987,"##edding":10988,"icu":10989,"lawrence":10990,"calculations":10991,"1982":10992,"1983":10993,"bounded":10994,"plasmon":10995,"##hydro":10996,"analyse":10997,"tensorflow":10998,"ideology":10999,"acetyl":11000,"anomalous":11001,"terrestrial":11002,"kualitas":11003,"nelson":11004,"bambo":11005,"##ofemoral":11006,"cis":11007,"gp":11008,"iq":11009,"lending":11010,"sell":11011,"wit":11012,"##neg":11013,"##mia":11014,"##flu":11015,"##enets":11016,"##anian":11017,"##arity":11018,"ankle":11019,"##idirectional":11020,"##agin":11021,"##osexual":11022,"chol":11023,"chak":11024,"##ocent":11025,"##oven":11026,"##ovis":11027,"dispar":11028,"disrup":11029,"##obil":11030,"appr":11031,"rectif":11032,"performances":11033,"knn":11034,"##oked":11035,"##erner":11036,"memor":11037,"geop":11038,"##other":11039,"##embangan":11040,"urbanization":11041,"##link":11042,"magic":11043,"angela":11044,"sept":11045,"keith":11046,"uncertainties":11047,"hortic":11048,"beamforming":11049,"restriction":11050,"michelle":11051,"criterion":11052,"happy":11053,"cipher":11054,"microfinance":11055,"clothes":11056,"puberty":11057,"biotechnology":11058,"committee":11059,"penggunaan":11060,"disambiguation":11061,"perinatal":11062,"bots":11063,"cai":11064,"fec":11065,"lass":11066,"mail":11067,"##np":11068,"##eve":11069,"##feng":11070,"##inas":11071,"##oran":11072,"forg":11073,"##igan":11074,"##uns":11075,"compacting":11076,"##vian":11077,"strand":11078,"relief":11079,"agu":11080,"socialization":11081,"feel":11082,"carp":11083,"smoke":11084,"nonc":11085,"##away":11086,"patell":11087,"##ankar":11088,"barr":11089,"ups":11090,"##oides":11091,"fluency":11092,"polyc":11093,"paint":11094,"keyph":11095,"ego":11096,"crown":11097,"ahp":11098,"narra":11099,"tanah":11100,"divid":11101,"festiv":11102,"plasmonic":11103,"enferm":11104,"absolute":11105,"cg":11106,"eis":11107,"fate":11108,"lah":11109,"nether":11110,"rak":11111,"sacchar":11112,"xie":11113,"##mu":11114,"##lass":11115,"##bt":11116,"##entary":11117,"##osus":11118,"##atika":11119,"##opa":11120,"interd":11121,"atrous":11122,"leave":11123,"indica":11124,"elic":11125,"amid":11126,"quaran":11127,"selecting":11128,"##arians":11129,"soy":11130,"realtime":11131,"salv":11132,"gru":11133,"##boost":11134,"turning":11135,"belong":11136,"##u0004":11137,"walter":11138,"crystals":11139,"splitting":11140,"##yrene":11141,"fluorescent":11142,"inverted":11143,"unders":11144,"situational":11145,"mexican":11146,"ratings":11147,"diagnostics":11148,"eyes":11149,"guru":11150,"##kolah":11151,"lunar":11152,"johannes":11153,"embodied":11154,"ratios":11155,"meningkatkan":11156,"rebecca":11157,"##rivastava":11158,"each":11159,"ful":11160,"hour":11161,"haj":11162,"oy":11163,"rus":11164,"sas":11165,"sund":11166,"tier":11167,"##gets":11168,"##vd":11169,"##51":11170,"##anas":11171,"##ecraft":11172,"##acia":11173,"##ames":11174,"retic":11175,"##utz":11176,"##achi":11177,"alger":11178,"efflu":11179,"asr":11180,"unstructured":11181,"emo":11182,"mario":11183,"surrog":11184,"blank":11185,"##uber":11186,"econometric":11187,"drink":11188,"notification":11189,"facing":11190,"carbox":11191,"audience":11192,"##factory":11193,"circle":11194,"keb":11195,"molecules":11196,"akunt":11197,"excell":11198,"russell":11199,"broadcast":11200,"coordinate":11201,"hpv":11202,"ambiguity":11203,"willingness":11204,"aspergillus":11205,"kitchen":11206,"egyptian":11207,"aure":11208,"cys":11209,"cant":11210,"dans":11211,"foster":11212,"gw":11213,"kra":11214,"lp":11215,"ou":11216,"pus":11217,"raf":11218,"tone":11219,"##rass":11220,"##bus":11221,"##bir":11222,"##fect":11223,"##icin":11224,"##strak":11225,"##ulting":11226,"chair":11227,"##ucks":11228,"studi":11229,"##ista":11230,"##anta":11231,"margar":11232,"begin":11233,"humidity":11234,"optimize":11235,"lost":11236,"slag":11237,"protected":11238,"calidad":11239,"word2vec":11240,"silic":11241,"measured":11242,"polyur":11243,"normalized":11244,"##anglement":11245,"capacitance":11246,"funding":11247,"providers":11248,"rosen":11249,"texas":11250,"masked":11251,"earthquakes":11252,"iranian":11253,"telecom":11254,"physicochemical":11255,"repeated":11256,"##aturated":11257,"bruno":11258,"neighbour":11259,"epistem":11260,"lumbar":11261,"repository":11262,"osteoporosis":11263,"psoriasis":11264,"council":11265,"bamboo":11266,"patellofemoral":11267,"cao":11268,"eight":11269,"gly":11270,"gulf":11271,"kri":11272,"mist":11273,"overs":11274,"tors":11275,"tio2":11276,"##n1":11277,"##iances":11278,"##oin":11279,"##uity":11280,"##atosis":11281,"##eted":11282,"##etah":11283,"##idin":11284,"sta":11285,"debris":11286,"adren":11287,"basal":11288,"##ipe":11289,"seal":11290,"beijing":11291,"moore":11292,"simil":11293,"underlying":11294,"subgraph":11295,"dressing":11296,"percep":11297,"camb":11298,"vera":11299,"temperatures":11300,"induces":11301,"circum":11302,"strengthening":11303,"navig":11304,"ready":11305,"mrna":11306,"motivations":11307,"disasters":11308,"pairwise":11309,"websites":11310,"revealed":11311,"philosoph":11312,"##odontics":11313,"##olytic":11314,"disadvantage":11315,"dasar":11316,"aplikasi":11317,"pesticide":11318,"##parametric":11319,"disentangled":11320,"immersive":11321,"episodic":11322,"accommodation":11323,"prejudice":11324,"pakistani":11325,"averaging":11326,"cem":11327,"dp":11328,"dag":11329,"hon":11330,"hern":11331,"mech":11332,"qr":11333,"##rish":11334,"##oter":11335,"##cam":11336,"##tiles":11337,"##olip":11338,"deha":11339,"chess":11340,"##izz":11341,"disab":11342,"admission":11343,"effort":11344,"##echt":11345,"##haus":11346,"desarrollo":11347,"micror":11348,"flour":11349,"##inda":11350,"##pora":11351,"decou":11352,"##anny":11353,"ethere":11354,"swimming":11355,"upon":11356,"added":11357,"magne":11358,"pedro":11359,"panor":11360,"conversations":11361,"standardization":11362,"legacy":11363,"hemorrh":11364,"antennas":11365,"aligned":11366,"rosa":11367,"acquisitions":11368,"dopamine":11369,"##osaic":11370,"murray":11371,"coatings":11372,"##olytica":11373,"santos":11374,"##edicine":11375,"enrichment":11376,"##oblastoma":11377,"adhesion":11378,"preparedness":11379,"dutch":11380,"discipline":11381,"turbulence":11382,"##reatment":11383,"britain":11384,"aim":11385,"dod":11386,"ginger":11387,"lys":11388,"mf":11389,"mack":11390,"nish":11391,"pwm":11392,"vor":11393,"xue":11394,"##local":11395,"##eets":11396,"##dar":11397,"##ww":11398,"##91":11399,"##erge":11400,"##atz":11401,"##omp":11402,"##ulti":11403,"##osecond":11404,"##thood":11405,"##imaging":11406,"orbit":11407,"##angi":11408,"trast":11409,"##aches":11410,"interconn":11411,"impression":11412,"##entin":11413,"desk":11414,"##ermann":11415,"meet":11416,"regime":11417,"robinson":11418,"humor":11419,"##ront":11420,"discontin":11421,"brush":11422,"solvent":11423,"defenses":11424,"nanow":11425,"delhi":11426,"auditor":11427,"worldwide":11428,"mycor":11429,"maxillary":11430,"homeless":11431,"##ghz":11432,"payments":11433,"lesson":11434,"since":11435,"prioritization":11436,"##itzer":11437,"amplitude":11438,"cadmium":11439,"forensics":11440,"aesthetics":11441,"attrac":11442,"hormones":11443,"controllers":11444,"##facial":11445,"bodies":11446,"aplic":11447,"soluble":11448,"craig":11449,"##oglobin":11450,"plagiar":11451,"alginate":11452,"jie":11453,"mate":11454,"penc":11455,"yus":11456,"##psych":11457,"##ll":11458,"##eties":11459,"##cp":11460,"##94":11461,"##enty":11462,"##elastic":11463,"##etching":11464,"##omod":11465,"##ogel":11466,"##oglyc":11467,"chron":11468,"##uto":11469,"##udy":11470,"phishing":11471,"scop":11472,"amorph":11473,"surfact":11474,"researches":11475,"markus":11476,"##okes":11477,"insulation":11478,"integer":11479,"grant":11480,"##auge":11481,"latest":11482,"molecule":11483,"syndrom":11484,"procras":11485,"partition":11486,"golden":11487,"recording":11488,"##otid":11489,"chatbots":11490,"symptom":11491,"amplification":11492,"alkali":11493,"##omorphism":11494,"rewards":11495,"nmr":11496,"thoracic":11497,"perturbation":11498,"spectrometry":11499,"microservices":11500,"together":11501,"commodity":11502,"assimilation":11503,"ethereum":11504,"jal":11505,"lov":11506,"nancy":11507,"pension":11508,"rw":11509,"tennis":11510,"u00":11511,"would":11512,"##peng":11513,"##hil":11514,"##holic":11515,"##mus":11516,"##kumar":11517,"##wana":11518,"##3c":11519,"##76":11520,"these":11521,"##unting":11522,"##api":11523,"trat":11524,"trick":11525,"##ensory":11526,"##ellulose":11527,"##alling":11528,"evapor":11529,"trab":11530,"##ribution":11531,"nonverbal":11532,"synerg":11533,"mats":11534,"brach":11535,"cruc":11536,"##azi":11537,"##evolution":11538,"drum":11539,"dirich":11540,"##taut":11541,"operative":11542,"teleph":11543,"frequent":11544,"snake":11545,"##berger":11546,"converters":11547,"rotating":11548,"regulating":11549,"alternating":11550,"odont":11551,"wrong":11552,"nasoph":11553,"tsun":11554,"juice":11555,"mimic":11556,"bengal":11557,"chamber":11558,"lignin":11559,"angiot":11560,"archaeology":11561,"ammonia":11562,"attendance":11563,"perilaku":11564,"bs":11565,"gos":11566,"ign":11567,"pore":11568,"sind":11569,"tari":11570,"tld":11571,"##ghan":11572,"##cery":11573,"##far":11574,"##feld":11575,"##arum":11576,"##inge":11577,"##atter":11578,"##ately":11579,"##enta":11580,"##ulates":11581,"stars":11582,"##odal":11583,"deutsch":11584,"alone":11585,"diri":11586,"arithm":11587,"contro":11588,"##romy":11589,"parabolic":11590,"roberts":11591,"matem":11592,"cru":11593,"guy":11594,"skeletal":11595,"varieties":11596,"solanum":11597,"##oxacin":11598,"default":11599,"slab":11600,"##auer":11601,"fluids":11602,"##bias":11603,"copd":11604,"taxes":11605,"needle":11606,"minimizing":11607,"aggressive":11608,"shipping":11609,"stefano":11610,"attraction":11611,"metamaterial":11612,"linda":11613,"cobalt":11614,"melanoma":11615,"decrease":11616,"watershed":11617,"##islav":11618,"aprendizaje":11619,"##violet":11620,"canonical":11621,"microstrip":11622,"mosquito":11623,"quarantine":11624,"angiotensin":11625,"afl":11626,"bj":11627,"gum":11628,"kob":11629,"nations":11630,"##aug":11631,"##hop":11632,"##mir":11633,"##ych":11634,"##cz":11635,"##01":11636,"##orf":11637,"##edo":11638,"##economics":11639,"##ilis":11640,"##ocin":11641,"phases":11642,"sekolah":11643,"##ibilities":11644,"parag":11645,"beat":11646,"amyg":11647,"##blog":11648,"blo":11649,"grocery":11650,"##ieties":11651,"##ernet":11652,"incident":11653,"geographical":11654,"characterisation":11655,"roh":11656,"slip":11657,"novelty":11658,"fibrill":11659,"thermodynamics":11660,"limitation":11661,"required":11662,"scholarly":11663,"ultraviolet":11664,"adams":11665,"suicidal":11666,"ekonomi":11667,"insects":11668,"further":11669,"alfred":11670,"prefrontal":11671,"101109":11672,"adulthood":11673,"appropriate":11674,"voxel":11675,"caribbean":11676,"dirichlet":11677,"7th":11678,"ces":11679,"cec":11680,"hide":11681,"jump":11682,"tg":11683,"tilt":11684,"zimb":11685,"##72":11686,"##inet":11687,"##atia":11688,"pran":11689,"##phere":11690,"##ellation":11691,"deterior":11692,"elena":11693,"quarter":11694,"cola":11695,"##sex":11696,"obtain":11697,"##stract":11698,"supercap":11699,"industri":11700,"twist":11701,"sludge":11702,"##clr":11703,"globally":11704,"protect":11705,"postoperative":11706,"##inalis":11707,"bioactive":11708,"inhal":11709,"##venous":11710,"saturation":11711,"migrant":11712,"##market":11713,"kinematics":11714,"prosocial":11715,"wildlife":11716,"abscess":11717,"critically":11718,"citizen":11719,"##zhou":11720,"divergent":11721,"judgment":11722,"almost":11723,"outsourcing":11724,"laparoscopic":11725,"bronch":11726,"transcriptome":11727,"discrep":11728,"polysacchar":11729,"kubern":11730,"aki":11731,"bob":11732,"jj":11733,"nail":11734,"##don":11735,"##enic":11736,"##atoid":11737,"##elin":11738,"revised":11739,"##imer":11740,"##izacion":11741,"##encephal":11742,"compiler":11743,"##acher":11744,"diat":11745,"weber":11746,"feeling":11747,"carbo":11748,"##ioid":11749,"processed":11750,"optimizer":11751,"strategi":11752,"cracking":11753,"##uktur":11754,"olfactory":11755,"hybridization":11756,"negl":11757,"helping":11758,"autoimm":11759,"lingk":11760,"panels":11761,"compositionality":11762,"tradeoff":11763,"##rawal":11764,"dengue":11765,"tensile":11766,"mahm":11767,"savings":11768,"ethnicity":11769,"parkinson":11770,"quadrotor":11771,"stir":11772,"phenomena":11773,"embryonic":11774,"friendship":11775,"teknologi":11776,"yolov3":11777,"olivier":11778,"dac":11779,"dang":11780,"hell":11781,"kent":11782,"rick":11783,"turing":11784,"za":11785,"##kas":11786,"##base":11787,"##bits":11788,"##ertion":11789,"##estine":11790,"offer":11791,"##acon":11792,"##aculture":11793,"##imoto":11794,"exclusion":11795,"distingu":11796,"alum":11797,"rech":11798,"metap":11799,"##timacy":11800,"abu":11801,"select":11802,"motif":11803,"realization":11804,"##raphic":11805,"endocrine":11806,"grids":11807,"protecting":11808,"swine":11809,"ocr":11810,"bandit":11811,"illusion":11812,"specificity":11813,"kinematic":11814,"demands":11815,"tablets":11816,"countermeas":11817,"socioeconomic":11818,"because":11819,"##ayanan":11820,"husk":11821,"tingkat":11822,"isotope":11823,"wwwxxxcom":11824,"cassava":11825,"drainage":11826,"vincent":11827,"acquired":11828,"http":11829,"##acoustic":11830,"manganese":11831,"plagiarism":11832,"5th":11833,"grip":11834,"giving":11835,"netw":11836,"rend":11837,"u0000":11838,"xyl":11839,"##tec":11840,"##ostr":11841,"##bm":11842,"##bul":11843,"##dam":11844,"##vasive":11845,"##rage":11846,"proposition":11847,"##atid":11848,"exempl":11849,"asi":11850,"##quin":11851,"shan":11852,"shim":11853,"datac":11854,"pool":11855,"productive":11856,"##neider":11857,"monot":11858,"locus":11859,"occl":11860,"supplements":11861,"settl":11862,"copy":11863,"advancement":11864,"extensive":11865,"compliant":11866,"investments":11867,"violent":11868,"periodon":11869,"phenolic":11870,"provide":11871,"porter":11872,"reflections":11873,"fertilizers":11874,"hasil":11875,"francesco":11876,"footprint":11877,"cryptoc":11878,"ancest":11879,"midw":11880,"##eholders":11881,"moderate":11882,"shuff":11883,"filled":11884,"village":11885,"##parameter":11886,"polynomials":11887,"eigenvalu":11888,"disinfection":11889,"##yarakat":11890,"excessive":11891,"##frame":11892,"patricia":11893,"immediate":11894,"kubernetes":11895,"dung":11896,"eut":11897,"euler":11898,"func":11899,"till":11900,"ves":11901,"wrist":11902,"##nic":11903,"##pace":11904,"##mesh":11905,"##uar":11906,"##tid":11907,"##eron":11908,"##iliation":11909,"##umental":11910,"##atik":11911,"##itha":11912,"##ateur":11913,"perc":11914,"mann":11915,"microm":11916,"nonparametric":11917,"discover":11918,"guang":11919,"archives":11920,"howard":11921,"##marks":11922,"typology":11923,"morocco":11924,"pathological":11925,"##rows":11926,"##pected":11927,"fibonacci":11928,"thermodynamic":11929,"triplet":11930,"manufactur":11931,"homo":11932,"berry":11933,"million":11934,"accelerometer":11935,"hui":11936,"microscope":11937,"lipolytica":11938,"federic":11939,"preparing":11940,"fertilization":11941,"listed":11942,"activism":11943,"junior":11944,"invariance":11945,"granular":11946,"embryo":11947,"stakeholders":11948,"enriched":11949,"extremely":11950,"etiology":11951,"sweden":11952,"dilemma":11953,"salicylic":11954,"antifung":11955,"##usahaan":11956,"dyslexia":11957,"emoji":11958,"attractiveness":11959,"05":11960,"ferm":11961,"iz":11962,"jain":11963,"kelly":11964,"lm":11965,"leng":11966,"pile":11967,"pms":11968,"sarc":11969,"vern":11970,"##hart":11971,"##rr":11972,"##ounc":11973,"##bone":11974,"##js":11975,"##84":11976,"##89":11977,"##atar":11978,"thym":11979,"##omial":11980,"chrys":11981,"##uctive":11982,"##abstract":11983,"##adores":11984,"ence":11985,"##ysun":11986,"actual":11987,"disk":11988,"advis":11989,"alice":11990,"una":11991,"recession":11992,"beef":11993,"nonneg":11994,"##ylation":11995,"archive":11996,"##ankton":11997,"practic":11998,"ethic":11999,"102":12000,"morgan":12001,"##steine":12002,"myan":12003,"constructions":12004,"continental":12005,"petri":12006,"passing":12007,"magnitude":12008,"preterm":12009,"##plastics":12010,"##yclic":12011,"columns":12012,"hedge":12013,"caregivers":12014,"lecun":12015,"compatibility":12016,"prenatal":12017,"theatre":12018,"keyphrase":12019,"polyurethane":12020,"trastorn":12021,"bending":12022,"cau":12023,"fon":12024,"gyn":12025,"pab":12026,"qian":12027,"tsu":12028,"##tan":12029,"##gas":12030,"##uv":12031,"##uana":12032,"##jit":12033,"##ecd":12034,"##agne":12035,"##reen":12036,"nex":12037,"##actory":12038,"##iba":12039,"quin":12040,"eccentric":12041,"optimum":12042,"guest":12043,"diges":12044,"outage":12045,"malay":12046,"assessments":12047,"##ukin":12048,"forecasts":12049,"homogeneous":12050,"radius":12051,"simulating":12052,"providing":12053,"masyarakat":12054,"murphy":12055,"exploitation":12056,"transactional":12057,"geriatric":12058,"haze":12059,"arthur":12060,"muscular":12061,"escape":12062,"coalition":12063,"rabbit":12064,"promoter":12065,"physician":12066,"vagina":12067,"figure":12068,"phillip":12069,"substitution":12070,"fernando":12071,"asymptotic":12072,"estrateg":12073,"prescribed":12074,"minerals":12075,"biochar":12076,"netherlands":12077,"tldr":12078,"fibrillation":12079,"360":12080,"43":12081,"hak":12082,"haf":12083,"ipo":12084,"tect":12085,"##pear":12086,"##eep":12087,"##ders":12088,"##jiang":12089,"##roach":12090,"##acza":12091,"##activation":12092,"chung":12093,"prest":12094,"divide":12095,"sheng":12096,"##athering":12097,"##ultysun":12098,"micron":12099,"variant":12100,"##urrency":12101,"canine":12102,"steady":12103,"hypergraph":12104,"vaccines":12105,"familiar":12106,"pengetah":12107,"implemented":12108,"stocks":12109,"tomas":12110,"menop":12111,"strengths":12112,"phenol":12113,"##ucker":12114,"holly":12115,"squam":12116,"shipbuilding":12117,"giov":12118,"retailing":12119,"coca":12120,"enzymatic":12121,"lucas":12122,"ekstrak":12123,"tutoring":12124,"become":12125,"##facultysun":12126,"adhesive":12127,"histograms":12128,"##ophagy":12129,"pulsed":12130,"caffeine":12131,"narratives":12132,"nonnegative":12133,"##facultysunacza":12134,"bao":12135,"hag":12136,"ibu":12137,"lans":12138,"nt":12139,"pir":12140,"tann":12141,"##itin":12142,"##hous":12143,"##wall":12144,"##vm":12145,"##71":12146,"##ormal":12147,"sto":12148,"revision":12149,"entr":12150,"##andon":12151,"##eptive":12152,"##obot":12153,"##ipation":12154,"perl":12155,"manure":12156,"coag":12157,"leverage":12158,"elmo":12159,"issn":12160,"commission":12161,"##bles":12162,"abor":12163,"fei":12164,"subset":12165,"digestion":12166,"psychometric":12167,"##floxacin":12168,"defence":12169,"delays":12170,"greedy":12171,"mapp":12172,"papaya":12173,"copyr":12174,"platelet":12175,"mcm":12176,"ageing":12177,"wellness":12178,"capitalism":12179,"##u0006":12180,"roadmap":12181,"weakness":12182,"initiation":12183,"june":12184,"traveling":12185,"paced":12186,"categorical":12187,"rgbd":12188,"reveal":12189,"coordinates":12190,"jeremy":12191,"letters":12192,"horizon":12193,"harvest":12194,"establishment":12195,"microfluidics":12196,"fernandez":12197,"yarrow":12198,"hvac":12199,"fluctu":12200,"rodriguez":12201,"altruism":12202,"amorphous":12203,"arithmetic":12204,"pengetahuan":12205,"bf":12206,"done":12207,"haptic":12208,"jaw":12209,"ping":12210,"utaut":12211,"wake":12212,"zhe":12213,"##uasan":12214,"##74":12215,"##icular":12216,"##rees":12217,"##ocon":12218,"comorb":12219,"##udin":12220,"enough":12221,"adm":12222,"adrian":12223,"##ewise":12224,"arriv":12225,"seam":12226,"emph":12227,"##ournal":12228,"atrophy":12229,"beau":12230,"corne":12231,"append":12232,"undergoing":12233,"evaluative":12234,"patri":12235,"##ausal":12236,"lift":12237,"##comb":12238,"airplane":12239,"repell":12240,"harass":12241,"aerosp":12242,"polymeric":12243,"antibodies":12244,"migrants":12245,"##resolution":12246,"roberta":12247,"instructions":12248,"intravenous":12249,"lactobacillus":12250,"regener":12251,"bibl":12252,"simplification":12253,"##algia":12254,"zakat":12255,"phillips":12256,"pearl":12257,"persuasion":12258,"schwartz":12259,"##rosophila":12260,"wisdom":12261,"trivia":12262,"anatomical":12263,"drosophila":12264,"hough":12265,"mh":12266,"##rac":12267,"##rasi":12268,"##mes":12269,"##81":12270,"##eres":12271,"##alent":12272,"##icas":12273,"##icul":12274,"##ches":12275,"##uci":12276,"##abel":12277,"##otti":12278,"##ineering":12279,"##vies":12280,"interacting":12281,"multim":12282,"multiob":12283,"plc":12284,"leis":12285,"paris":12286,"bypass":12287,"##ahertz":12288,"preprocessing":12289,"##alez":12290,"secur":12291,"##2013":12292,"insectic":12293,"twenty":12294,"locality":12295,"##ophobia":12296,"universe":12297,"sla":12298,"##alypt":12299,"##zzi":12300,"##ogeny":12301,"females":12302,"perioperative":12303,"said":12304,"confirm":12305,"passenger":12306,"migraine":12307,"simulink":12308,"##omsky":12309,"sexuality":12310,"doping":12311,"meaningful":12312,"metabolites":12313,"procedural":12314,"bhatt":12315,"##urgery":12316,"macroeconomic":12317,"grassland":12318,"coordinated":12319,"crystallization":12320,"mercury":12321,"bioge":12322,"laparotomy":12323,"agroforest":12324,"rachel":12325,"horse":12326,"##titleabstract":12327,"pyrrol":12328,"deposits":12329,"refugee":12330,"antiviral":12331,"landslide":12332,"microorganisms":12333,"catastrophic":12334,"spiking":12335,"akuntansi":12336,"procrastination":12337,"nasopharyngeal":12338,"myanmar":12339,"yarrowia":12340,"ahead":12341,"brom":12342,"drones":12343,"holl":12344,"lett":12345,"nk":12346,"ost":12347,"pell":12348,"rm":12349,"ry":12350,"stit":12351,"xa":12352,"yos":12353,"##tes":12354,"##gage":12355,"##cm":12356,"##bic":12357,"##bent":12358,"##dan":12359,"##wu":12360,"##vae":12361,"##211":12362,"##jian":12363,"##idia":12364,"##odia":12365,"##used":12366,"chir":12367,"##ococ":12368,"perez":12369,"teens":12370,"elabor":12371,"aber":12372,"schl":12373,"semiotic":12374,"guer":12375,"retard":12376,"improvements":12377,"files":12378,"adversarially":12379,"employing":12380,"combine":12381,"statements":12382,"##arcin":12383,"rena":12384,"radioactive":12385,"uavs":12386,"conductive":12387,"cyclone":12388,"glycos":12389,"subjected":12390,"nicolas":12391,"wolfgang":12392,"vertex":12393,"solubility":12394,"##networks":12395,"kadar":12396,"capturing":12397,"squeeze":12398,"mishra":12399,"exhibition":12400,"newspaper":12401,"geoffrey":12402,"restruct":12403,"supercapac":12404,"cigar":12405,"dap":12406,"hann":12407,"sour":12408,"sizing":12409,"yad":12410,"##lav":12411,"##jk":12412,"##jas":12413,"##ulis":12414,"##usal":12415,"deploy":12416,"depres":12417,"chomsky":12418,"##atial":12419,"##atization":12420,"##otec":12421,"syst":12422,"shak":12423,"coch":12424,"##estration":12425,"socially":12426,"methodological":12427,"flip":12428,"mono":12429,"crises":12430,"##afe":12431,"##azo":12432,"malt":12433,"tweets":12434,"##ochrom":12435,"##archy":12436,"lands":12437,"backsc":12438,"ordered":12439,"stores":12440,"hemis":12441,"miguel":12442,"roberto":12443,"borne":12444,"priority":12445,"gius":12446,"tetra":12447,"vibr":12448,"getting":12449,"picking":12450,"##ophysical":12451,"traceability":12452,"preventive":12453,"officinalis":12454,"bibliometric":12455,"docker":12456,"prophyl":12457,"##icillin":12458,"belonging":12459,"arous":12460,"cock":12461,"dsm":12462,"h2":12463,"kash":12464,"naus":12465,"srin":12466,"vesti":12467,"##bon":12468,"##inin":12469,"##enzo":12470,"##anu":12471,"theology":12472,"dealing":12473,"##iones":12474,"encl":12475,"##eppe":12476,"shame":12477,"sek":12478,"genomics":12479,"atp":12480,"pars":12481,"parasi":12482,"poland":12483,"abc":12484,"obese":12485,"weed":12486,"##ished":12487,"engines":12488,"##ports":12489,"##system":12490,"##ypes":12491,"segregation":12492,"##bras":12493,"grades":12494,"statistic":12495,"##spec":12496,"nitro":12497,"paolo":12498,"fishes":12499,"ester":12500,"1981":12501,"transmitter":12502,"dissolution":12503,"hypertensive":12504,"haem":12505,"piper":12506,"aquaculture":12507,"pedagog":12508,"vlsi":12509,"ibm":12510,"restaurants":12511,"references":12512,"letter":12513,"metastatic":12514,"sobre":12515,"disinfect":12516,"terrorism":12517,"##oquine":12518,"vinegar":12519,"iodine":12520,"rhythm":12521,"75":12522,"duct":12523,"fool":12524,"folding":12525,"hou":12526,"hmm":12527,"kop":12528,"kha":12529,"koch":12530,"ln":12531,"mike":12532,"rp":12533,"wav":12534,"##lenet":12535,"##etics":12536,"##1b":12537,"##tious":12538,"##isha":12539,"##asure":12540,"thing":12541,"##agonal":12542,"rew":12543,"##essler":12544,"tobias":12545,"##umatic":12546,"alam":12547,"aloe":12548,"metagen":12549,"interdisciplinary":12550,"stres":12551,"##ancies":12552,"multist":12553,"beer":12554,"##ugging":12555,"##00mhz":12556,"schneider":12557,"selenium":12558,"gland":12559,"locations":12560,"estimator":12561,"endoscopic":12562,"pathogen":12563,"##heets":12564,"oxyt":12565,"ulrich":12566,"##fficient":12567,"pandemia":12568,"futures":12569,"paed":12570,"continuum":12571,"##otypic":12572,"christine":12573,"buddh":12574,"conductor":12575,"turbines":12576,"stereotype":12577,"1975":12578,"multichann":12579,"historia":12580,"semanticscholarorg":12581,"kepuasan":12582,"catheter":12583,"popularity":12584,"furniture":12585,"ventil":12586,"roughness":12587,"nanocomposites":12588,"rectang":12589,"transgender":12590,"percentage":12591,"masculin":12592,"gonzalez":12593,"##eastern":12594,"aureus":12595,"harassment":12596,"multichannel":12597,"978":12598,"cube":12599,"dft":12600,"eks":12601,"fuk":12602,"fasc":12603,"jc":12604,"jensen":12605,"kre":12606,"l1":12607,"mk":12608,"nah":12609,"noma":12610,"pull":12611,"roc":12612,"tir":12613,"tale":12614,"vqa":12615,"zig":12616,"##pre":12617,"##hel":12618,"##sd":12619,"##body":12620,"##edes":12621,"##ogan":12622,"##rips":12623,"##rique":12624,"##thus":12625,"##ocar":12626,"##uded":12627,"clas":12628,"adalah":12629,"alve":12630,"##ayo":12631,"elm":12632,"eva":12633,"graham":12634,"opioid":12635,"bike":12636,"educators":12637,"previous":12638,"##pture":12639,"newly":12640,"edit":12641,"member":12642,"dox":12643,"##flix":12644,"serot":12645,"##iedad":12646,"##generation":12647,"conditioned":12648,"helen":12649,"##shot":12650,"farms":12651,"loads":12652,"maximizing":12653,"names":12654,"contribute":12655,"chromosome":12656,"##plasm":12657,"motives":12658,"spiral":12659,"elasticity":12660,"pancreas":12661,"initialization":12662,"ligament":12663,"polyprop":12664,"frozen":12665,"##olecular":12666,"paraphrase":12667,"scientists":12668,"rheumatoid":12669,"stewart":12670,"disabled":12671,"copyright":12672,"leisure":12673,"nausea":12674,"250":12675,"gha":12676,"rdf":12677,"serg":12678,"sie":12679,"sink":12680,"sift":12681,"urea":12682,"xvideos":12683,"##nar":12684,"##hak":12685,"##hong":12686,"##mos":12687,"##yam":12688,"##fusion":12689,"##alin":12690,"##orm":12691,"another":12692,"##atos":12693,"##uras":12694,"##elia":12695,"##ilin":12696,"##idental":12697,"##odial":12698,"proactive":12699,"chill":12700,"##open":12701,"##owitz":12702,"disney":12703,"##akov":12704,"metah":12705,"scada":12706,"atari":12707,"imputation":12708,"multibox":12709,"plot":12710,"infinite":12711,"generators":12712,"##yne":12713,"redes":12714,"allium":12715,"posts":12716,"pathophys":12717,"carbide":12718,"motions":12719,"homosexual":12720,"##modern":12721,"portra":12722,"##entification":12723,"abdullah":12724,"##140":12725,"##puter":12726,"original":12727,"##ariah":12728,"wallace":12729,"pseudomonas":12730,"fluoride":12731,"iteration":12732,"neutron":12733,"congress":12734,"rumah":12735,"consideration":12736,"opinions":12737,"oscillation":12738,"implantation":12739,"becoming":12740,"dominant":12741,"##otoxic":12742,"overlap":12743,"imbalance":12744,"zakhar":12745,"crystalline":12746,"metastasis":12747,"hepatoc":12748,"ncov":12749,"conservative":12750,"html":12751,"eugene":12752,"practitioners":12753,"pharmacokinetics":12754,"september":12755,"multiobjective":12756,"##alyptus":12757,"4d":12758,"ae":12759,"dash":12760,"hugh":12761,"lai":12762,"mism":12763,"wars":12764,"yue":12765,"##rates":12766,"##cov":12767,"##sson":12768,"##xin":12769,"##52":12770,"##inate":12771,"##orous":12772,"anesthesia":12773,"##aser":12774,"##emination":12775,"stations":12776,"prok":12777,"proven":12778,"chond":12779,"##ocl":12780,"##imus":12781,"##uts":12782,"##adas":12783,"nep":12784,"enable":12785,"unex":12786,"2021":12787,"##ewski":12788,"interfacial":12789,"perk":12790,"plans":12791,"leo":12792,"marij":12793,"martine":12794,"##avan":12795,"societies":12796,"##essional":12797,"sms":12798,"known":12799,"boys":12800,"influential":12801,"##2012":12802,"microalg":12803,"join":12804,"geomet":12805,"afghan":12806,"hydrolysis":12807,"##itively":12808,"terahertz":12809,"causing":12810,"##ativa":12811,"biomim":12812,"precurs":12813,"##iropr":12814,"proposals":12815,"falls":12816,"cytometry":12817,"ifrs":12818,"tracker":12819,"avian":12820,"nicola":12821,"kelu":12822,"boosted":12823,"vlad":12824,"controllability":12825,"##iguing":12826,"diagrams":12827,"diagnosing":12828,"algebraic":12829,"washington":12830,"##arajan":12831,"currency":12832,"attenuation":12833,"destruction":12834,"##integration":12835,"inhibitory":12836,"foli":12837,"hours":12838,"ist":12839,"jm":12840,"jab":12841,"kum":12842,"mpc":12843,"otitis":12844,"sanc":12845,"##hole":12846,"##oag":12847,"##v2":12848,"##var":12849,"##jie":12850,"##erk":12851,"annal":12852,"##emediation":12853,"##ulia":12854,"onion":12855,"##ovich":12856,"envelop":12857,"uniqu":12858,"scans":12859,"##anco":12860,"surf":12861,"poisson":12862,"guard":12863,"retrof":12864,"##oxin":12865,"##echanical":12866,"greater":12867,"engineered":12868,"##agner":12869,"correcting":12870,"##cler":12871,"poster":12872,"##ativo":12873,"adding":12874,"herz":12875,"netflix":12876,"bounding":12877,"bandura":12878,"informative":12879,"watching":12880,"bridges":12881,"omega":12882,"army":12883,"compressing":12884,"##tikel":12885,"queue":12886,"dentin":12887,"drosten":12888,"hazards":12889,"judgments":12890,"grief":12891,"disruption":12892,"teknik":12893,"##zyk":12894,"veterinary":12895,"lambda":12896,"mammalian":12897,"rhetoric":12898,"pylori":12899,"similarities":12900,"df":12901,"ff":12902,"got":12903,"gust":12904,"kaf":12905,"##rint":12906,"##tible":12907,"##ald":12908,"intimate":12909,"##ische":12910,"##olysis":12911,"##ulu":12912,"stegan":12913,"##oge":12914,"##real":12915,"deposit":12916,"##ocyan":12917,"##anges":12918,"diana":12919,"arsen":12920,"perusahaan":12921,"analogy":12922,"##ourism":12923,"##idea":12924,"medie":12925,"amit":12926,"abiotic":12927,"blade":12928,"prep":12929,"graphite":12930,"flora":12931,"##annon":12932,"noncon":12933,"##sung":12934,"overf":12935,"endurance":12936,"antidep":12937,"##torch":12938,"protest":12939,"created":12940,"backward":12941,"harry":12942,"intriguing":12943,"hotsp":12944,"routine":12945,"capacitive":12946,"attributed":12947,"ghost":12948,"talking":12949,"psik":12950,"rocks":12951,"chromium":12952,"closer":12953,"nikola":12954,"stanislav":12955,"inpati":12956,"disturbances":12957,"facilitating":12958,"folk":12959,"gyros":12960,"typhoid":12961,"javasc":12962,"programmable":12963,"membership":12964,"enforcement":12965,"zimbab":12966,"antifungal":12967,"digestive":12968,"aerospace":12969,"restructuring":12970,"metaheur":12971,"bile":12972,"fant":12973,"hf":12974,"lda":12975,"mold":12976,"sne":12977,"ton":12978,"tas":12979,"ties":12980,"vign":12981,"zeng":12982,"##run":12983,"##lc":12984,"##glyc":12985,"##etion":12986,"##08":12987,"##xi":12988,"##onte":12989,"##itar":12990,"##atology":12991,"##uru":12992,"##etri":12993,"then":12994,"##olum":12995,"##ears":12996,"confer":12997,"##otation":12998,"##izen":12999,"modulus":13000,"##angu":13001,"alp":13002,"shakes":13003,"##asses":13004,"scrum":13005,"scorec":13006,"##ouri":13007,"##blast":13008,"surge":13009,"##engineering":13010,"sociales":13011,"attending":13012,"diffraction":13013,"##ondo":13014,"finn":13015,"##ungs":13016,"barc":13017,"manufacture":13018,"storm":13019,"##hypert":13020,"passion":13021,"ramesh":13022,"pollen":13023,"dissection":13024,"##structing":13025,"choose":13026,"joshua":13027,"involving":13028,"levy":13029,"seeing":13030,"communicating":13031,"rumination":13032,"mnem":13033,"straight":13034,"diameter":13035,"museums":13036,"physicians":13037,"dyes":13038,"imperfect":13039,"konsep":13040,"pearson":13041,"seaweed":13042,"alkaline":13043,"alkaloids":13044,"gabriel":13045,"suggestion":13046,"transporter":13047,"carbohyd":13048,"datacenter":13049,"corneal":13050,"hepatocellular":13051,"medieval":13052,"111":13053,"cation":13054,"craft":13055,"hci":13056,"liz":13057,"lived":13058,"nb":13059,"nord":13060,"ott":13061,"rasp":13062,"sint":13063,"ui":13064,"##hir":13065,"##km":13066,"##4a":13067,"##inated":13068,"thir":13069,"##ogging":13070,"chiropr":13071,"##abo":13072,"##apatite":13073,"modulated":13074,"ars":13075,"scanner":13076,"elast":13077,"##rolog":13078,"infusion":13079,"methanol":13080,"whist":13081,"autophagy":13082,"moz":13083,"##oko":13084,"##ieh":13085,"humanities":13086,"##ocket":13087,"knowing":13088,"collections":13089,"ethyl":13090,"barley":13091,"transforms":13092,"photod":13093,"testosterone":13094,"backbone":13095,"popul":13096,"corporation":13097,"magazine":13098,"taxonomic":13099,"reconc":13100,"##osphere":13101,"##model":13102,"immunotherapy":13103,"accounts":13104,"waq":13105,"sieg":13106,"1979":13107,"lymphoma":13108,"levine":13109,"klaus":13110,"teenage":13111,"gains":13112,"cbd":13113,"organisations":13114,"steiner":13115,"tendon":13116,"nanocryst":13117,"efektivitas":13118,"comportement":13119,"coleoptera":13120,"amygd":13121,"javascript":13122,"scorecard":13123,"58":13124,"giv":13125,"hiding":13126,"krist":13127,"ltd":13128,"nud":13129,"uh":13130,"uc":13131,"##pts":13132,"##power":13133,"##dle":13134,"##vy":13135,"##onet":13136,"##arcoma":13137,"##atas":13138,"##edness":13139,"##usan":13140,"##abl":13141,"##aden":13142,"excl":13143,"##andi":13144,"diseng":13145,"basics":13146,"##pha":13147,"##ologists":13148,"efforts":13149,"armed":13150,"intu":13151,"induce":13152,"paral":13153,"##arez":13154,"infan":13155,"autop":13156,"##oka":13157,"franz":13158,"subc":13159,"respect":13160,"joel":13161,"##flower":13162,"digitalization":13163,"noam":13164,"##abilitas":13165,"computerized":13166,"##ostasis":13167,"encour":13168,"polyph":13169,"helps":13170,"##spe":13171,"broken":13172,"nationalism":13173,"bilinear":13174,"tubes":13175,"costing":13176,"experiential":13177,"aster":13178,"updates":13179,"argentina":13180,"anthropogenic":13181,"neutrosoph":13182,"julie":13183,"gallium":13184,"epidemiological":13185,"connectionist":13186,"substrates":13187,"todd":13188,"matched":13189,"mitochondria":13190,"sesame":13191,"synthesizing":13192,"catalog":13193,"ioann":13194,"pectin":13195,"constitutional":13196,"electrocardi":13197,"biodegradable":13198,"ferroelectric":13199,"endothelial":13200,"surrogate":13201,"mappings":13202,"keluarga":13203,"neutrosophic":13204,"fas":13205,"father":13206,"lope":13207,"mint":13208,"oak":13209,"ride":13210,"tt":13211,"tid":13212,"vil":13213,"vow":13214,"wah":13215,"##lich":13216,"##zel":13217,"##itous":13218,"##ede":13219,"##ecycle":13220,"##igo":13221,"token":13222,"uso":13223,"resting":13224,"climbing":13225,"##former":13226,"##vio":13227,"contag":13228,"perfor":13229,"##ibil":13230,"ever":13231,"##ognitive":13232,"semeval":13233,"finland":13234,"##eek":13235,"insecurity":13236,"guill":13237,"dof":13238,"##ungen":13239,"usefulness":13240,"solids":13241,"labview":13242,"##uka":13243,"prototyping":13244,"postmodern":13245,"photometric":13246,"intrusive":13247,"sentinel":13248,"chemicals":13249,"versatile":13250,"electrodes":13251,"hemp":13252,"principals":13253,"##olingual":13254,"miscon":13255,"##otide":13256,"authenticity":13257,"mosfet":13258,"expectancy":13259,"efect":13260,"congru":13261,"stronger":13262,"zebra":13263,"claim":13264,"pancreatitis":13265,"durability":13266,"rogers":13267,"merging":13268,"podcast":13269,"tower":13270,"##jarah":13271,"triangle":13272,"biomechanics":13273,"ticket":13274,"eucalyptus":13275,"electrospun":13276,"piecewise":13277,"inheritance":13278,"telescope":13279,"machinery":13280,"aristot":13281,"toughness":13282,"honeypot":13283,"perceptron":13284,"tsunami":13285,"aver":13286,"ather":13287,"catherine":13288,"eri":13289,"gangl":13290,"hud":13291,"jh":13292,"oly":13293,"pink":13294,"uji":13295,"wrap":13296,"yous":13297,"##mund":13298,"##fan":13299,"##ws":13300,"##vili":13301,"##04":13302,"##92":13303,"##onas":13304,"##enne":13305,"##amol":13306,"##ameth":13307,"chandra":13308,"##thi":13309,"shale":13310,"genital":13311,"##alla":13312,"##encer":13313,"paru":13314,"corner":13315,"polish":13316,"amr":13317,"schul":13318,"socialism":13319,"knot":13320,"glauc":13321,"frust":13322,"insertion":13323,"males":13324,"buch":13325,"##ophen":13326,"signalling":13327,"encaps":13328,"##onica":13329,"probiotic":13330,"circulation":13331,"pytorch":13332,"keyboard":13333,"melting":13334,"colleges":13335,"##u0003":13336,"##u0005":13337,"##u0007":13338,"directly":13339,"phenyl":13340,"regulator":13341,"removing":13342,"exposed":13343,"aggregated":13344,"muj":13345,"garment":13346,"excav":13347,"starting":13348,"lactose":13349,"locked":13350,"inertia":13351,"configur":13352,"acetate":13353,"stanford":13354,"merger":13355,"displays":13356,"parasite":13357,"lemon":13358,"101111":13359,"details":13360,"detailed":13361,"deeplab":13362,"synthesized":13363,"aaai":13364,"krishna":13365,"fifth":13366,"orbital":13367,"lupus":13368,"arnold":13369,"consommateur":13370,"exhaust":13371,"giuseppe":13372,"antidepress":13373,"42":13374,"curing":13375,"duck":13376,"gong":13377,"hof":13378,"ia":13379,"iclr":13380,"mock":13381,"null":13382,"rome":13383,"sach":13384,"sif":13385,"sidd":13386,"sectors":13387,"vann":13388,"wsn":13389,"wagner":13390,"xg":13391,"yann":13392,"zer":13393,"zoom":13394,"##iec":13395,"##pol":13396,"##pix":13397,"##hing":13398,"##hou":13399,"##zone":13400,"##2se":13401,"##enh":13402,"##raham":13403,"##ampus":13404,"##ithub":13405,"neol":13406,"resistive":13407,"competing":13408,"compost":13409,"adel":13410,"adri":13411,"unse":13412,"suff":13413,"scarc":13414,"places":13415,"marina":13416,"agua":13417,"surround":13418,"schult":13419,"robb":13420,"##ikh":13421,"optimism":13422,"qualities":13423,"accent":13424,"extrusion":13425,"discount":13426,"solomon":13427,"##atism":13428,"schooling":13429,"histology":13430,"proton":13431,"typical":13432,"ultimate":13433,"mathematic":13434,"curiosity":13435,"##fficiency":13436,"offs":13437,"viewpoint":13438,"belg":13439,"warping":13440,"goodf":13441,"cardiomy":13442,"wafer":13443,"exchanger":13444,"toxicology":13445,"harmful":13446,"residents":13447,"luca":13448,"analysing":13449,"households":13450,"dominance":13451,"rahman":13452,"prolong":13453,"wetlands":13454,"lectures":13455,"peptides":13456,"apparatus":13457,"##stantin":13458,"disentangling":13459,"candidate":13460,"beetles":13461,"victims":13462,"tatto":13463,"nanomaterials":13464,"diplom":13465,"cohesion":13466,"epigenetic":13467,"vitamins":13468,"spectrophotometric":13469,"autoimmune":13470,"nexus":13471,"lansia":13472,"arousal":13473,"vestib":13474,"##clerosis":13475,"64":13476,"cyp":13477,"doll":13478,"diaz":13479,"ftir":13480,"mum":13481,"prab":13482,"tesis":13483,"zamb":13484,"##tory":13485,"##iu":13486,"##ais":13487,"##fire":13488,"##vr":13489,"##3n":13490,"##enk":13491,"anhyd":13492,"##eder":13493,"##uria":13494,"##olite":13495,"##uling":13496,"##ulous":13497,"##ague":13498,"toy":13499,"##uttering":13500,"##overs":13501,"neumann":13502,"spelling":13503,"trin":13504,"interplay":13505,"seat":13506,"cough":13507,"parl":13508,"##ryn":13509,"##vert":13510,"biochemistry":13511,"abe":13512,"meyer":13513,"processors":13514,"subsequ":13515,"##posing":13516,"cyst":13517,"door":13518,"salary":13519,"labelling":13520,"norman":13521,"autistic":13522,"internationalization":13523,"advent":13524,"morris":13525,"notch":13526,"silico":13527,"hydrodynam":13528,"additives":13529,"dialysis":13530,"standardized":13531,"walks":13532,"electroencephal":13533,"miy":13534,"absorb":13535,"closing":13536,"judith":13537,"mangro":13538,"halluc":13539,"cinnam":13540,"dispersal":13541,"felix":13542,"neuropathy":13543,"sociolingu":13544,"intelig":13545,"transistors":13546,"ernest":13547,"metacognition":13548,"sewage":13549,"dehydrogen":13550,"tilapia":13551,"gdpr":13552,"telephone":13553,"sriniv":13554,"overfitting":13555,"lopez":13556,"bhar":13557,"cac":13558,"ficus":13559,"huk":13560,"lion":13561,"msc":13562,"qiang":13563,"tad":13564,"##hot":13565,"##hara":13566,"##ozo":13567,"##sol":13568,"##v3":13569,"##orption":13570,"anand":13571,"##olu":13572,"##emaking":13573,"##standing":13574,"##americ":13575,"retina":13576,"##adh":13577,"##ader":13578,"##oten":13579,"claus":13580,"##formance":13581,"##uster":13582,"##alline":13583,"multiplication":13584,"beg":13585,"caring":13586,"##uba":13587,"##yler":13588,"##iques":13589,"bringing":13590,"overall":13591,"solver":13592,"patter":13593,"equine":13594,"immobil":13595,"probiotics":13596,"bankrupt":13597,"propulsion":13598,"continuity":13599,"peters":13600,"mutant":13601,"regulates":13602,"achiev":13603,"sunflower":13604,"cui":13605,"rhod":13606,"neuroimaging":13607,"baseball":13608,"1973":13609,"merch":13610,"motivasi":13611,"##school":13612,"##anthus":13613,"pemer":13614,"claims":13615,"venous":13616,"hypersonic":13617,"sapi":13618,"droplet":13619,"fusing":13620,"fusarium":13621,"florida":13622,"thermoelectric":13623,"establishing":13624,"license":13625,"gingival":13626,"tibetan":13627,"spacecraft":13628,"chicago":13629,"##ovisual":13630,"dehazing":13631,"discrepancy":13632,"countermeasures":13633,"fluctuations":13634,"agroforestry":13635,"bind":13636,"dg":13637,"fuc":13638,"github":13639,"hij":13640,"holding":13641,"kip":13642,"kav":13643,"psy":13644,"tic":13645,"##pak":13646,"##fel":13647,"##journal":13648,"##onucle":13649,"insu":13650,"##icide":13651,"##ectin":13652,"##elon":13653,"##elium":13654,"chocol":13655,"##imes":13656,"##utter":13657,"##optic":13658,"##anga":13659,"spreading":13660,"distinc":13661,"##ifiers":13662,"##obium":13663,"interoper":13664,"##avir":13665,"isbn":13666,"biob":13667,"##block":13668,"flame":13669,"##ubation":13670,"factual":13671,"##rime":13672,"geom":13673,"filtration":13674,"volcan":13675,"official":13676,"offenders":13677,"myers":13678,"ics":13679,"wastes":13680,"dried":13681,"##modular":13682,"converting":13683,"classify":13684,"ghosh":13685,"transitional":13686,"separate":13687,"##itized":13688,"polarized":13689,"taboo":13690,"prince":13691,"justin":13692,"pixels":13693,"residue":13694,"bottle":13695,"teenager":13696,"methylation":13697,"bleeding":13698,"substances":13699,"phonology":13700,"phonological":13701,"mounted":13702,"##legal":13703,"101002":13704,"shifts":13705,"streptococcus":13706,"diarrhea":13707,"riemannian":13708,"bundle":13709,"necessary":13710,"survivors":13711,"disparity":13712,"dividend":13713,"quarterly":13714,"lingkungan":13715,"triviaqa":13716,"martinez":13717,"goodfellow":13718,"diplomacy":13719,"500":13720,"6th":13721,"gg":13722,"hari":13723,"iw":13724,"sage":13725,"sided":13726,"tie":13727,"##iod":13728,"##hub":13729,"##human":13730,"##oints":13731,"##ever":13732,"##wh":13733,"##western":13734,"##tip":13735,"##iner":13736,"##esian":13737,"##aci":13738,"##activ":13739,"##ulmonary":13740,"reza":13741,"deple":13742,"complication":13743,"##imir":13744,"spent":13745,"tryp":13746,"truss":13747,"arun":13748,"contacts":13749,"##iberal":13750,"heg":13751,"ish":13752,"methylene":13753,"above":13754,"developer":13755,"##roscopic":13756,"humic":13757,"carto":13758,"##ietic":13759,"electrolysis":13760,"distal":13761,"securing":13762,"synaptic":13763,"viability":13764,"imagination":13765,"microblog":13766,"edmod":13767,"##ierung":13768,"cran":13769,"##ehe":13770,"##posable":13771,"temporary":13772,"planetary":13773,"nanor":13774,"pean":13775,"delph":13776,"formed":13777,"collins":13778,"##ophage":13779,"##eyer":13780,"barg":13781,"barry":13782,"##heet":13783,"turner":13784,"grouping":13785,"virtualization":13786,"penins":13787,"held":13788,"nutr":13789,"telework":13790,"medicines":13791,"portal":13792,"legi":13793,"maintaining":13794,"rotary":13795,"achieve":13796,"sanch":13797,"alexnet":13798,"masking":13799,"davies":13800,"1978":13801,"receptive":13802,
[...]
