[UNK]
[CLS]
[SEP]
[PAD]
[MASK]
0
1
2
3
4
5
6
7
8
9
a
b
c
d
e
f
g
h
i
j
k
l
m
n
o
p
q
r
s
t
u
v
w
x
y
z
##o
##c
##i
##a
##l
##9
##8
##e
##p
##t
##r
##b
##n
##2
##0
##1
##6
##u
##s
##m
##x
##k
##d
##g
##f
##z
##h
##y
##v
##3
##4
##w
##5
##7
##j
##q
##ti
##on
##er
##in
##al
##en
##or
##tion
##an
##es
##ar
##ing
in
##ic
an
of
##ation
##it
##at
##is
##ed
##ro
##ec
and
##ur
##ent
##el
##et
##as
th
##ac
##ol
##om
##em
the
##il
for
##st
##ul
##id
st
##ce
##ra
##od
##ag
##tic
##ch
##ve
con
##ear
##us
##am
##ig
##ter
##le
re
##og
on
##ity
##re
##ect
##ng
##ess
##os
pro
##ri
ch
de
##ers
to
##th
com
##um
##oc
##uc
##un
##ab
##ir
##ati
##ff
##im
##ith
##pl
##ut
im
##ning
##ad
##ion
##ork
##ment
##ud
lear
##ap
##ot
##op
or
##ov
##ial
##iz
learning
##ia
##ine
with
##ow
ne
##ure
##etw
ex
en
##ement
##ting
##for
mod
##ence
##ical
##and
us
##ys
res
##ang
comp
##ate
##age
sy
ac
sp
##ep
pr
tr
##etwork
##ication
network
##per
dis
cl
ad
##ual
##ach
##ance
al
bas
20
##ph
##olog
eff
as
##ens
##ans
##if
##ural
##form
##ob
##ip
##tive
##ell
un
##ts
##vi
su
ap
stud
##duc
##ection
##qu
based
model
di
##ak
##act
##ew
##stem
##ain
ph
inter
met
sh
rec
##ization
ar
##ech
##ition
system
##ge
per
##ass
cont
##ution
##rom
anal
##ay
sc
using
str
se
##igh
##our
trans
int
##ist
em
man
gen
##ric
##ust
at
##der
##ory
##iv
##ies
mul
##anc
dat
det
imp
##ard
co
##ant
##all
19
pl
##ysis
multi
##ib
le
##vel
##ort
deep
##enti
##enc
##ations
te
##ative
##ign
mar
##ology
##pr
networks
##ents
analysis
ind
par
effect
be
el
cov
##ide
##ase
ev
he
201
neural
##tim
from
##ary
##ry
##tiv
##ous
op
gra
tra
##olution
##ack
##av
is
##ated
by
##rol
soc
data
##ast
rel
##are
##est
##ou
##ace
##ly
##end
##ver
##ill
inf
##ha
cor
##ong
##ors
des
bi
##ational
##ility
med
##ath
##earch
ass
pol
##ug
##ian
am
##erm
covid
##echn
detection
class
study
comm
manag
##ram
meth
##cess
##bl
##ism
qu
app
##ult
wh
techn
##tics
ab
##view
image
##ater
##ogn
sch
gener
ag
sur
social
##action
##eng
##00
##able
col
sel
hy
method
##vers
##und
##ood
me
##ild
management
##lu
##alu
mic
##tical
appl
##velop
##ties
##xt
##ari
##se
control
aut
ob
develop
##ating
##eg
##tr
##ice
##ature
##ject
we
##uct
research
##ification
ec
##yn
##str
review
##erv
##erg
##alth
fe
##ish
tim
##ining
educ
vis
##ular
##ros
att
##ene
##ention
reg
mo
bl
high
perform
lang
mach
##ics
##nal
appro
##onom
eng
sem
pre
health
##led
rob
##ert
##ah
##ability
hum
##pt
po
##ik
so
pred
langu
##fer
car
##gan
##ron
performance
design
mark
gro
##ession
##io
graph
new
cons
process
application
##hip
##ognition
sm
##ient
kn
##ale
conv
##atic
pers
predic
##ital
##line
language
##ive
##vis
##xx
##ord
development
##ok
diff
##int
##ering
es
commun
##ulation
##formation
##ie
##tit
##havi
##ines
sim
##ight
fl
##ern
##ind
##ile
machine
##ption
time
behavi
##port
##tin
##rib
recognition
approach
elect
human
##ures
##ock
##ency
education
##por
dist
sens
dec
##ery
work
struct
##rop
convolution
##ective
##ite
##one
id
##gor
bo
##art
impact
systems
know
optim
produc
effects
##unc
organ
non
online
200
under
##ann
self
sec
##acter
##ub
##ft
##king
gl
qual
##ledge
##oy
acc
classification
child
syn
char
##ynam
##out
##up
##ological
##ience
##ond
information
evalu
intern
##sy
##ithm
##tis
effic
##yl
knowledge
##ee
##uring
super
inv
algor
vide
##iqu
##ental
mat
teach
##aw
students
fact
##ne
##ole
prot
algorithm
##ax
convolutional
theory
sup
##emic
##ateg
##ward
differ
ed
vi
##acy
##yp
##ree
##tif
mon
influ
loc
inc
##vir
##ple
##riv
fr
##ome
##ail
cell
imag
##su
##ore
disc
##uction
fin
##les
impro
##ium
micro
visual
##ons
##iness
br
##viron
##unction
exper
compu
extr
strateg
##tivity
dynam
ins
sub
##na
##ower
##ware
##ination
environ
cr
##ool
ris
gu
surve
real
10
##ier
spe
##ized
econom
##esent
seman
##mentation
text
environment
##ina
##arm
cap
quality
do
autom
intell
models
##ings
##eh
##rain
##lex
seg
##af
##20
##ential
##pos
##sych
sk
##iel
ret
##een
##rim
##ym
##ration
expl
technology
##vised
##ness
##esis
##raph
lin
behavior
tem
##ise
resp
jour
prog
cy
chang
object
video
plan
media
##iter
survey
bus
##erap
##ral
##ty
dig
mem
##ension
assess
##blem
function
vari
##ugh
serv
problem
risk
##tern
##ates
identi
phys
journal
##onal
modeling
compar
##ets
jo
repr
psych
use
evaluation
over
intellig
##reat
meas
how
adap
mob
##iss
##ix
arch
sol
##eter
##ren
##ities
##itive
##ich
##ber
mus
##fl
##az
impl
betw
##ung
pat
##atis
pu
##ox
between
fram
are
##ences
represent
indust
training
cult
out
relations
##ash
##ety
school
case
advers
ge
improv
##ergy
lo
semantic
red
##ivers
af
prediction
estim
##ank
end
##urr
fil
pos
gam
##usion
nan
def
##aj
##ask
business
##br
pati
tw
pe
bu
##its
##ev
water
##man
power
segmentation
distrib
##ross
character
prac
mal
##otion
##ins
##ai
##lation
##ator
communication
role
##oth
##arial
##oring
sing
sal
energy
via
##ograph
##rough
digital
toward
what
scale
del
vir
attention
dom
local
##aus
integ
publ
form
##ars
adversarial
##ue
##als
rad
rein
coll
anti
##struction
spec
##echan
##air
##ere
dr
##old
##ision
##omm
lab
ser
ep
##forc
level
emb
all
no
lif
care
##ane
##oph
sign
assessment
3d
##ping
dep
##arge
perce
optimization
##til
nat
##ex
##itect
grow
methods
##ework
##ied
univers
##och
low
vol
organization
techniqu
food
dise
##eness
##urs
soft
reinforc
##dition
##mar
##ield
##osis
gr
eth
##ancer
you
##ploy
##urity
architect
##erapy
ro
mobile
mechan
engine
##istic
ear
structure
##etic
international
through
generation
relationship
##agn
liter
corr
##ein
nor
##ave
children
program
applications
hist
framework
min
intelligence
efficient
##nn
##ector
##ld
##icial
sl
cancer
artif
emotion
xxx
##pression
##de
consum
aff
identif
##tor
au
##ode
##estion
##of
stress
glob
##edd
factors
##cl
##omet
##ices
cent
##uk
lead
sex
et
rem
dynamic
##esc
valu
##eting
hyd
typ
##ource
ur
sw
##urrent
treat
chall
##esh
##aking
prof
natural
##lish
sam
er
its
phil
##eric
##ma
##df
##acc
adv
polic
##anding
##oud
##unt
financ
estimation
##bo
can
##abil
map
science
proper
cross
conc
smart
dem
##ays
growth
##iti
##astic
##ick
global
##gen
##ey
enh
large
cal
mor
gre
synth
post
##ete
la
artificial
among
treatment
equ
nov
fir
##ference
mater
not
influence
coron
face
##oci
##ake
##ipp
computer
##ison
199
teaching
air
##ements
embedd
fac
li
it
bar
reinforcement
##inc
security
compos
employ
towards
during
##idence
##ae
translation
##nov
veh
chem
web
life
english
about
processing
vehic
underst
long
hand
transfer
financial
up
public
##oss
##cept
clust
##face
##erc
##ext
##asi
path
##he
change
decision
read
bre
##ectiv
domain
memory
##oid
robot
##ema
marketing
##ression
general
search
state
flow
transform
##ose
single
##rial
cam
service
phot
pap
task
disease
personal
feature
ox
speech
sequ
##ally
associ
recomm
##istics
patients
##izing
clin
##ler
question
dan
dir
2020
##duction
##row
enhanc
cloud
##son
ter
##ible
china
industry
wom
##inal
##amil
architecture
pdf
##eth
##te
extraction
images
##ost
##ress
enc
ul
word
wor
zh
gov
novel
understanding
##ership
robust
##ana
##ling
activity
pot
##itation
cust
top
context
go
engineering
##ases
acad
##atory
term
quan
##acking
spati
pattern
project
math
driv
open
supervised
##irus
culture
properties
policy
##ten
innov
custom
acid
rep
rand
log
##sc
##atures
##ner
spect
two
mov
material
##ying
physical
market
multiple
economic
representation
##ants
##tig
##ban
brain
university
##ronic
##pect
perception
##ire
cre
##iency
persp
dim
support
software
medical
##ples
block
production
tur
##ton
fre
##ta
##tice
carb
field
##ission
sensor
##iety
fast
##aly
therm
cur
##tual
challeng
automatic
fu
test
adaptive
##ound
##rad
light
interaction
techniques
priv
fib
ir
literature
##ones
##ecting
##avirus
##ography
student
complex
experim
##enz
determ
cost
therapy
govern
monit
##au
random
hyper
##ao
##ke
oper
computing
##els
exam
##tivation
ent
clinical
##ffic
##ms
##ages
mining
grad
cri
oc
##ize
comb
aud
studies
condition
philipp
##co
emp
##net
identification
cogn
build
mental
##vention
##ific
##ching
##ces
analy
off
world
##brid
##arch
distribution
conn
land
space
planning
tool
group
tes
val
ver
coronavirus
##oll
caus
challenges
##asc
sil
generative
measur
plant
##pervised
##ults
vacc
virtual
dev
##elling
sust
##outh
value
##u00
famil
import
neu
##idual
suppl
##par
their
sum
##ute
##lam
features
afric
back
##atisf
internet
filter
recommend
academic
oil
comparison
simulation
temper
##ected
ste
learn
unsu
hydro
cognitive
doc
##uted
synthesis
##mal
strategy
diagn
chines
sustain
##poral
sars
saf
india
unsupervised
##arg
imm
chinese
strategies
pres
drug
evidence
##ined
2019
point
respon
##irc
action
community
##ody
satisf
americ
ol
women
##ble
##fact
skill
concept
evolution
resolution
history
shar
##zz
num
fer
##onic
##hn
urban
sym
response
free
guid
factor
my
##ogy
##imate
related
different
problems
cnn
nurs
ben
##lin
##ument
partic
##rete
pop
carbon
art
monitoring
inves
green
tracking
hybrid
##cle
divers
clustering
press
##ators
lim
##han
view
epid
##ps
##cop
tour
dimension
satisfaction
##ativ
##iver
leadership
##ks
gender
intro
flu
pur
mechanism
stre
customer
attack
music
pand
eu
algorithms
induc
##cri
il
aug
statis
selection
feed
##ull
##ibility
soil
second
dens
mot
lay
har
south
##ham
construction
##ada
##active
region
temperature
fut
princ
solution
meta
prim
job
const
cat
##ape
add
##land
cry
pen
bel
mol
improving
##bi
##osp
##ris
investig
environmental
##com
that
bat
circ
adapt
game
linear
neg
##ude
dav
set
##lo
##oun
philippines
cop
implement
poly
reading
type
datas
vehicle
ic
peng
##order
thin
sci
unc
innovation
##ening
est
##val
chain
artic
organizational
##ange
her
ww
11
corpor
##ya
##ength
hel
dri
##olar
##rient
report
advanc
dynamics
##inary
##ule
loss
##ont
ans
big
##ki
small
effectiv
##oper
param
early
##ogen
consumer
shot
##asting
motion
temporal
spatial
compl
correl
wast
joint
series
perspective
aware
pain
##abor
law
prob
infer
making
##anking
max
mathema
biom
tri
product
mag
comput
adol
effectiveness
##ote
building
##ful
der
card
##ese
bal
hier
2018
##sp
bay
manu
las
##ury
plat
fem
##urn
surface
##aster
respons
##ality
integr
auth
agric
future
ling
vision
##oma
family
poli
##uit
mc
user
practice
ann
##ites
##ica
##ror
distributed
##ited
color
##sh
##ean
auto
climate
##ming
ang
exp
##acts
py
##ving
##own
traffic
systematic
bios
nut
##ason
protein
one
index
##eti
##19
attit
phase
ma
##ications
psychology
john
##overy
critical
recon
hierarch
tax
content
suc
contin
cells
representations
safety
need
contr
will
mass
2016
short
ped
tel
electric
##ior
##eless
agricult
##ani
relation
mil
issu
ai
resource
order
behaviour
body
net
##reh
age
adolesc
##ara
##etes
www
##rology
rate
##ully
av
bene
##ified
bio
##ata
##acion
##aling
2017
prom
##ople
edge
year
##era
frequ
coun
recurrent
retri
semi
##ogene
##chain
##omy
supply
##any
##eme
##oding
anim
introduction
embedding
bank
sep
##ek
diab
resist
chann
pharm
##ark
recommendation
forec
##orn
##eck
potential
##rab
##uss
black
accur
people
motor
adaptation
code
source
ext
intr
genetic
testing
importance
bert
malays
##osph
hear
characteristics
skills
collabor
2015
##eval
##hood
wir
lib
stock
##hi
paper
peri
##ometric
benef
depend
step
emerg
expression
brand
##reg
implementation
datab
senti
comparative
label
motivation
manufact
lat
compreh
##amin
quantit
inj
sensing
first
optical
experience
hyp
##put
##book
##ther
##oder
economy
##rag
emotional
after
fa
obs
##med
imaging
mix
##ources
##aces
privacy
pandemic
david
hom
autonom
cultural
##yt
##etric
stand
medic
measurement
heter
depression
##ci
##ancy
##olic
198
##ertain
##netic
sequence
tourism
corporate
stor
key
##mod
##ero
##quir
prec
dataset
iot
higher
effective
vaccination
##illance
blockchain
##enza
##yle
mac
pul
thermal
##emb
hosp
war
answ
disorder
ke
ref
##enn
empir
##ley
affect
part
##isation
##iting
wang
active
functional
epidemic
current
three
##iation
reality
nit
##oice
optimal
tom
teachers
structural
pa
well
event
##ike
##que
prop
##16
virology
anx
hot
chemical
sa
wind
efficiency
into
orient
##back
hospital
##pling
access
##room
##ections
fuzz
conf
##roph
vit
##ologies
minim
##ka
empirical
12
##tices
pan
##ived
cyber
xn
##ams
frequency
vers
##sor
bayes
##ensive
influenza
fish
stat
##gh
##eral
transport
distance
gas
##ade
##ict
services
weight
does
retrieval
##ino
##rix
home
sentiment
##10
mean
employee
nursing
##xic
##hy
rich
wireless
fusion
europ
experimental
anxiety
good
gene
ground
aer
bacter
intervention
calc
##eler
##uan
depth
##ds
assist
mapping
materials
##me
pal
africa
bro
##itt
mel
wave
##war
quant
load
colle
american
enter
success
conference
##lor
convers
##ainst
agg
composition
inference
driven
quantitative
concrete
diversity
electronic
inh
uncertain
ach
##ging
stoch
induced
why
molec
incre
quantum
young
port
book
platform
hous
##idd
##hael
stochastic
trust
mill
##position
##mon
##gn
##rome
immun
##ured
matrix
normal
noise
##ott
malaysia
##ef
fail
##ven
vs
##isis
surg
ber
dial
count
continu
fo
defin
kar
invest
patient
capital
automated
##vision
bet
pet
industrial
ren
manufacturing
hierarchical
van
improved
##iat
graphs
eg
##u000
##had
##way
electro
localization
##oor
road
proc
targ
##ries
characterization
pressure
government
standard
play
##inger
against
##ectional
blood
synd
document
diagnosis
##ids
signal
practices
laser
##arse
psychological
pass
heat
wal
bound
anom
michael
vector
metal
##12
hard
##ye
accoun
matching
##arc
inst
##aging
sle
gradient
##iger
##otic
##ends
band
personality
mut
##ink
leg
regular
autonomous
##ocol
##min
##itch
technique
##we
liqu
##idation
##ray
integrated
sn
mode
adver
polym
##uh
discrim
##itter
link
stability
descri
acceler
xnxx
reduction
##ato
nanop
channel
database
2013
mi
gan
hu
doi
tree
transm
teacher
##qual
exerc
2014
rou
summar
##ides
sched
waste
##iction
jur
##bal
differential
capac
##oul
dam
college
##artic
dual
investigation
##ias
associated
person
##berg
conver
##istry
##ider
org
##otyp
##orph
results
dimensional
##enet
primary
inform
##ometry
heart
##ura
competi
national
##ij
regression
chen
compon
hem
size
direct
##angl
association
den
##be
##ilar
##mented
farm
identity
remote
cardi
##her
2010
diabetes
dou
lip
statistical
tre
##ume
##riting
agent
organic
lu
micros
changes
tun
instit
fed
flex
ram
classroom
solar
strength
zhang
games
foc
cooper
##ervation
layer
fuzzy
accounting
overview
crow
##urve
integration
isol
tum
patterns
resistance
main
syndrome
sat
sustainable
reason
indiv
trade
sleep
infr
##agement
forecasting
modelling
##tism
##ights
si
metab
constrain
##bert
##ves
##round
##ters
##repr
speed
##linear
advertis
##tal
reconstruction
simple
##aran
banking
issues
parti
##erce
##ising
##pret
programming
##ger
##ules
protocol
deg
species
##urveillance
##uch
ess
definition
north
##rical
efficacy
improve
position
men
##pus
correlation
intention
mind
individual
ill
biosurveillance
line
metric
bayesian
arab
sparse
##iology
explor
molecular
sector
price
##care
forest
##app
jap
ont
jam
virus
##rist
earth
pack
##stm
sent
mechanical
feedback
scal
##ories
##emia
##ourse
classif
variational
thom
##ments
nonlinear
##ely
fund
##entif
predict
gh
2011
pp
interpret
skin
##mann
pri
bias
benefits
developing
simul
viol
transition
antib
##11
area
morph
##allel
negative
period
hor
##tra
##odes
products
maxim
some
##tian
profession
nanopartic
sun
processes
style
thinking
specific
breast
entrepr
requir
##aining
resil
residual
storage
pregn
phen
attrib
##vement
educational
anten
nutri
mig
voc
##tity
states
heterogene
fiber
liv
wa
achie
ah
##enting
diet
scre
poll
occ
answering
target
andre
##ots
dialog
##ini
intelligent
##ga
##itor
2012
functions
labor
rot
##li
regul
reduc
oral
modern
compression
driving
pose
##ollow
##water
vul
##pers
medi
population
##uce
##hol
##hadap
parallel
##tery
applied
common
liquid
sit
implications
lingu
##use
##oms
determin
approaches
stem
##ii
entity
whe
bur
islam
bil
thesis
##res
gold
exploring
fab
similar
collaborative
error
scene
head
magnetic
inhib
terhadap
##bial
sharing
attacks
summarization
four
hab
sus
##ita
positive
15
cer
city
##ena
##aph
##press
predicting
types
iee
exercise
wat
##ky
##igation
##atio
movement
near
##ano
##orders
dna
##ables
seed
enhanced
##icon
##vities
##ney
##to
controlled
##orts
governance
##icit
diss
plas
entreprene
##xim
##ense
pay
##arian
element
abd
##ocation
align
##struct
healthcare
18
util
separ
bir
##ding
nar
shape
more
##elect
##emical
stro
plants
princi
##cep
record
altern
ultr
nam
##rogen
videos
tradition
##ba
pak
tub
##red
kin
##ows
##ja
##itative
deliv
manip
##ru
mathematics
chronic
find
##ees
society
##mark
demand
prov
san
writing
##ea
anth
##place
##istration
japan
facial
##di
ens
robert
special
dc
##ella
indian
weak
##chron
anomaly
tan
##con
uncertainty
##comes
libr
versus
aust
magn
cryst
##rum
used
formation
attitude
working
jurnal
differences
failure
rap
radio
schedul
fat
nav
##bor
aspect
status
13
transformer
cos
##umar
acti
alex
pros
##oles
experi
##hu
strategic
structures
political
sar
##elet
outcomes
##stein
medicine
##ographic
enhancement
device
fore
##aya
les
prepar
cycle
reaction
ak
cu
disorders
ieee
delivery
indones
##ief
autism
bra
uav
continuous
##quis
nature
##ca
##po
##si
##ances
regulation
##jective
when
awar
trial
adults
##uck
mas
nuc
principles
##ios
##ender
lstm
##ze
stream
enterpr
zero
##gar
##pro
##ida
center
central
focus
bri
##atin
sexual
tal
extract
por
rh
liu
##ressive
cou
##ula
measuring
embeddings
shop
yang
##aneous
bangl
##asing
##raw
compet
##epend
environments
remov
engagement
od
things
numer
bench
##roid
hypert
##ions
ray
##eration
density
reasoning
##ulf
chris
qualitative
guided
down
##atan
neuro
foreign
few
##ali
##raft
internal
fine
##encing
##urance
advant
##ostic
augmented
##entific
##cin
ros
expos
##athy
##idad
##copy
##da
advanced
activities
bey
behavioral
purch
##aff
##ceed
technologies
##umin
resources
princip
tools
nutrition
germ
##ulum
detecting
impacts
heterogeneous
kh
uk
##15
##ats
##pu
consumption
lam
news
##itiz
awareness
without
evaluating
##lp
nano
refl
crim
##iang
commerce
scholar
##pa
niger
adult
film
##ended
computational
##mad
##ouse
semantics
similarity
aggreg
abstr
##verse
audit
##uel
confl
article
bor
multimod
bud
##aker
follow
thomas
##quisition
conduc
solutions
##iatric
##13
conditions
##less
base
transmission
rural
##ectives
ct
amb
concent
##ola
stroke
scheduling
trends
pada
na
##gb
##eters
##tine
electron
discovery
orig
197
daniel
surgery
rev
prevention
devices
##uation
ga
##enge
ho
gram
##14
##icing
##ift
##istan
prote
composite
##bas
##ints
electrical
predictive
ham
propag
beyond
company
distil
reli
##hen
16
like
initi
being
guide
volume
traditional
rice
2009
##ony
exch
decom
economics
scientific
autoenc
fully
adop
female
gir
contrib
willi
##ious
##18
vehicles
14
lung
ps
squ
accurate
2008
grid
##ather
schools
agriculture
hol
##ystem
##bers
investment
mechanisms
theore
admin
##000
fract
cred
perceptions
##ending
##abilities
wr
core
sampling
analytics
##ste
tex
interface
team
acous
incl
peer
your
acquisition
sustainability
fault
numerical
##ett
reference
mixed
du
dental
##time
austral
maj
##eu
united
biological
2005
antenna
##izer
relationships
steel
##ibration
location
meaning
da
##ope
oriented
practical
perceived
oxide
##oney
##zing
spr
##portun
challenge
particip
ine
sound
institution
##gu
emission
resilience
##cent
##uration
opportun
traject
pi
turb
but
##estic
determination
orth
advertising
##oling
transformation
reson
adj
fit
ion
ow
ts
solving
european
mu
veg
##oti
##etry
fri
ha
##aruh
##angan
secondary
multimodal
##oh
interactive
proceed
stage
mis
##aves
gap
elder
ensem
##eal
acute
differenti
##gin
##za
##rative
led
wall
##la
##wa
##erty
pc
##atal
camera
structured
ethical
##tile
brid
crisis
goog
dys
kim
less
##17
dop
stim
##aria
recent
recovery
yu
deb
finance
cycl
ethics
eeg
protection
productivity
ultras
curric
##ascular
indonesia
##itas
countries
has
##bs
##alam
##ico
white
mathematical
##lyc
om
tit
tis
##ira
mask
instruction
list
##electric
gast
##ala
agricultural
##udes
##ava
randomized
paul
17
phosph
nanoparticles
kern
independ
traum
employees
stere
chemistry
fertil
dry
ii
sports
examples
number
tumor
gar
diseases
deng
##50
methodology
##pir
##fe
christ
infection
adolescents
other
song
logic
african
technical
solid
comprehension
sentence
modular
spectral
conceptual
##play
contact
pengaruh
wel
##entic
exc
##ele
peter
scheme
cut
##osystem
2007
author
lee
encry
nur
improvement
fix
##oxid
##itis
discrimin
obes
wild
activ
hal
wide
private
learners
audio
##uls
modal
os
##iro
moham
youth
tissu
tol
##ns
radi
##ises
fra
##faces
ship
##tification
ultra
belief
coding
proceedings
##ball
look
bid
crop
sin
##ush
microbi
barri
##phone
absor
2006
routing
range
across
recep
##oo
repro
tens
park
sample
preserv
removal
##tions
ant
indic
workplace
##wave
present
edition
affecting
richard
##osa
parameters
##eline
literacy
ru
robots
probabil
found
reh
chat
detect
bond
##nam
alco
jun
##acement
measure
rom
##irectional
arm
##ori
##ado
cere
lid
mom
comprehensive
##ount
##los
exposure
fair
##ump
##ullying
##off
nigeria
description
best
##urb
glass
xxxx
conditional
box
particle
polymer
##read
toxic
james
voice
capacity
act
harm
##tt
##ander
latent
acoustic
mer
corpus
visualization
##nel
##ji
##struc
respir
##quality
##ground
accept
advances
intrusion
double
probabilistic
##ran
plastic
assisted
pakistan
eye
nas
##ges
##hyd
transl
secure
topic
exploration
##erated
firm
computation
pharmac
experiences
az
old
cho
##ora
injury
flexible
metabol
mri
##rating
invol
years
propos
martin
spectrum
interactions
connected
exchange
##let
sever
levels
conflict
decomposition
##ativity
professional
kore
childhood
##ved
sport
cle
##ochemical
filtering
elderly
matter
curriculum
fire
##ismic
preval
validation
animal
tor
##lab
requirements
##akes
cs
basic
accuracy
far
pars
pollution
lith
##ko
diffic
muscle
sympt
driver
alignment
##eph
##ube
vulner
##ford
##lear
##ops
finite
return
google
way
scen
civ
proced
##auss
##atives
prior
hypertension
generalized
threat
choice
assessing
observ
##iding
intra
finger
##rin
repor
prost
franc
ba
##ls
beam
consist
sv
##har
##30
100
bit
nlp
##bra
better
library
ca
##ama
difference
obesity
##ker
allocation
yield
responses
attitudes
cd
styl
income
foot
gi
wear
ontology
tab
##eli
neigh
2004
compan
kumar
##ova
shap
multic
pov
##mer
career
##ture
query
pel
ratio
robotic
measures
rac
restor
biology
##load
ecosystem
fluid
jos
mir
motiv
ath
binary
physics
essential
have
iron
ka
induction
biod
therap
total
cm
##rich
scalable
liver
may
speaking
objects
cluster
dense
sen
rock
##itz
compound
##yan
polar
##onia
##over
##va
rest
##ough
moral
diffusion
retail
explain
##ared
discrete
##oyal
volt
battery
authentic
alcohol
mah
machines
equations
achievement
raj
##ien
approxim
dependent
mort
cas
##ropy
##igen
variable
prevalence
experiment
determinants
lym
sea
who
statistics
projects
setting
pregnancy
midd
thr
ethn
ax
blu
satell
gal
hong
sand
side
antioxid
adoption
wood
##cal
chlor
root
##pled
histor
##iers
anat
equation
##ores
parameter
mit
##elines
component
past
##anol
concep
prin
2000
contextual
violence
river
##pe
input
shoul
sensors
nitrogen
chrom
##78
pricing
cooperative
propagation
##amp
synchron
2003
jus
indoor
abs
##iotic
kr
ken
neur
travel
relig
ast
##rian
pil
pip
clos
full
fraction
values
theoretical
xx
hep
pep
ra
##omic
spl
marine
cover
sav
ing
instr
inflam
annot
federated
alternative
##ooth
##bit
##kn
coord
mess
bacteria
##vide
subs
rapid
mr
mur
##ients
within
seismic
place
##astr
biomed
##come
##ique
delay
shopping
pac
##gl
pret
workers
twitter
articles
counter
constraints
##zym
antim
than
tasks
perspectives
occup
augmentation
brow
fung
fash
disaster
tissue
aid
##inking
##ami
radar
circuit
entrepreneurs
purchase
kernel
explan
concepts
##plas
invent
detector
vitamin
veget
rf
##band
reviews
emerging
rehabil
middle
##ench
##actic
story
##ota
jud
##uments
causes
lidar
##wan
resid
relational
##ogenic
gauss
##gi
coping
mixt
profit
survi
crypt
partial
##ulin
ampl
coc
pix
##iop
##aries
##idity
##ival
degrad
fashion
lymph
##den
blind
membr
##iance
##att
##oli
##ogram
##ateral
nurses
fron
##bu
##kan
transaction
enhancing
trajectory
dialogue
bone
##sa
independent
##get
invari
ban
wavel
phone
parad
photo
poverty
ranking
2001
damage
navigation
parents
##ishing
ensemble
ash
##encies
agents
monoc
variation
bidirectional
jac
##zation
death
programs
voltage
##ifer
##icro
bab
##ests
complexity
miss
##men
star
##igning
##anda
analys
toler
dalam
##ectivity
##ulus
credit
gest
hash
pair
##omb
modified
sources
deno
preserving
mes
fraud
call
md
see
universal
separation
enterprise
rank
##ists
theories
handbook
deriv
intens
insurance
sed
tag
##oders
defect
causal
quad
controller
sales
oste
unified
she
heav
wil
arg
synthetic
politics
ju
xia
##itivity
##acting
microwave
generalization
adolescent
fall
##iological
repl
bott
##itting
adh
landsc
satellite
communities
##yr
comple
classes
measurements
##oting
##otherapy
papers
encoder
isolation
five
pse
run
##cher
interp
generating
help
crystal
chap
##ourc
geor
bul
hr
##ez
signific
pem
fluor
luc
rain
##flow
##ercial
verification
inflamm
bh
interest
##aceu
upd
evolutionary
civil
##aka
constit
##heim
##copic
ele
mos
iv
##pc
##ocr
bad
196
sense
responsibility
major
exec
enzym
##sequ
biomedical
fp
nets
irr
distillation
expect
1016
america
vic
discourse
reinforced
pseud
if
##tioning
explo
vaccine
rehabilitation
##rement
anc
##rap
milk
due
rub
##sch
ecological
william
gaussian
pow
##estern
increase
##astruct
means
retention
loyal
ni
sor
ali
subject
maps
needs
##rick
imagery
contribution
fruit
recommender
anthrop
very
##ised
##urg
##iment
##ional
usa
screening
dog
east
kal
mad
sig
stabil
leaf
century
smartphone
words
##word
##anth
habit
bag
##the
commercial
questionna
older
symb
islamic
completion
mand
elements
##ras
dil
relev
criter
policies
regional
ict
cate
##cer
##odynam
asia
gran
##ct
##amine
##aching
mich
vocab
pm
sr
##plant
earthqu
21
cann
efl
unit
sequential
iter
rna
##agram
architectures
##fulness
ger
ner
transcri
##vely
firms
tensor
vel
linguistic
drop
roles
##iling
neut
users
lev
events
reliability
rates
##rens
cyt
##ria
encryption
ng
##olo
poss
oxy
creativity
russ
##ulary
##erson
usage
geometry
background
balance
opportunities
jan
hypoth
infrared
benchmark
companies
cour
##ycl
profile
ker
##rh
##22
asym
emergency
mainten
##34
correction
##ulations
##ception
enab
phyt
marc
##ila
communications
acceptance
##aceutical
categor
dar
inver
##ame
und
vitro
compress
je
wu
##ocial
##ading
migration
##eling
##ili
selective
##uits
##vent
mim
site
##uate
##rog
agile
objective
##onomy
slam
operation
regularization
symptoms
derm
##ss
alk
transformers
##olf
managing
##u0002
antioxidant
heavy
loyalty
banglad
maintenance
ef
eas
loop
organizations
consumers
male
##set
risks
radiation
codes
glyc
combined
infrastruct
##ylene
logistics
fields
entropy
silicon
components
burn
##ted
activation
markets
2002
##embly
trees
fundam
nurse
vocabulary
haz
jul
##ring
##osh
##rip
outcome
sulf
##by
##09
##alt
##aki
cereb
5g
ye
##ret
##mi
bacterial
mam
##isa
spir
output
own
dengan
aqu
manif
plate
synt
sd
##itary
this
exter
parsing
example
broad
denoising
osc
scan
hardware
lithium
cit
win
facebook
colon
cellular
embedded
inventory
dark
graphene
identifying
##icrobial
day
lap
combining
limit
casc
money
rules
##atch
array
conservation
expans
cul
happ
oce
pend
##cc
board
##38
##ritis
coh
guidelines
crime
avoid
hotel
bangladesh
ball
kid
##oe
##otics
gluc
sciences
europe
##otype
reducing
ip
##ni
##rot
suic
aging
##gence
##esti
markov
formal
addiction
bin
##ela
##ird
competence
restoration
pemb
rgb
arth
trading
mobility
groups
weakly
##tering
supervision
orientation
preparation
lock
chin
highly
carcin
##vant
##jection
maximum
kine
##tle
revis
composites
tak
##oon
##39
##eshold
reve
facil
force
track
domestic
competition
##utes
childrens
##awa
frame
webs
competitive
situ
adjust
hub
ms
##dis
hydrogen
tam
##ove
##atics
##umb
commit
behaviors
switch
banks
lact
##anch
areas
##u0000
##kin
vent
cong
##ials
inequality
ov
right
##ips
##ytes
ultrasound
respiratory
fundamental
trop
che
manipulation
transportation
plasma
hiv
son
sist
simult
fati
##entive
##agen
##occ
##aps
##ased
##ophy
balanc
antimicrobial
25
fm
##oz
2d
ci
mang
mak
##pal
##metric
##arb
electrom
legal
questionnaire
kom
##wor
diagnostic
living
christian
##omorph
##obacter
abuse
account
imagenet
macro
22
##adi
hall
##cs
##verage
boundary
following
ti
strain
spread
##ighting
##ortex
relax
landscape
oxygen
course
##ml
##eman
##ident
##raf
fis
##tik
train
reduce
weighted
##lan
##2o
##gg
##32
android
stack
div
iso
sensitive
buying
administration
24
socio
##ungan
robustness
barriers
don
los
table
##ehold
learned
external
cognition
cities
mid
##bot
##asa
forward
variability
operations
drugs
entrepreneurship
##udi
##udinal
emotions
##itig
equity
street
issue
designing
ide
ten
strong
instance
##ql
##iles
signals
examination
interventions
##craft
##uth
prefer
fresh
infrastructure
ocean
ability
australia
which
##agnetic
assembly
king
western
alz
atm
implicit
corona
constrained
gel
alumin
linking
##weight
andrew
christoph
make
##ormal
##therapy
musc
shared
##illus
registration
communic
##neum
##oids
##monary
wheel
neighbor
ek
ss
##rosion
simultaneous
kep
mesh
##ypt
##icity
##ulator
impair
coating
que
discrimination
ell
pig
##iy
##ua
rule
tac
perf
approximation
threshold
medium
##ariate
sensitivity
philos
advantage
length
consider
volati
decisions
analyzing
pharmaceutical
aggregation
cad
##anal
##usive
cold
wheat
meng
##02
##ament
microbial
questions
ceram
##36
unt
longit
classifier
concentration
should
##onomic
increment
fuel
##grad
genome
##print
important
receptor
expansion
##idae
##oto
participation
hair
som
##rit
##ster
##amb
pert
##porary
crowds
module
cause
property
femin
cardiac
smith
variables
intensity
consequ
moder
adsor
depart
employment
injection
hop
##35
reward
##oster
epidem
autoencoder
integrating
finding
cosm
##no
##organ
##ultural
sod
transplant
roman
degradation
mitig
##rium
mexic
cha
coff
mortality
membrane
longitudinal
cases
##des
##zil
##eries
robotics
##xxx
err
therapeu
attach
##ika
pixel
manual
flood
pyth
##encia
##ployment
##idden
nucle
bim
vulnerability
invariant
pin
##cn
pneum
compens
extreme
conversational
coupled
bib
bullying
##bre
anton
##ache
##ulty
various
hydrox
nuclear
historical
print
covid19
metabolism
west
##effic
regen
alzheim
healthy
##inding
aspects
incremental
rod
chi
opin
##ramid
panel
origin
bern
pv
rum
##rey
display
##ensis
commitment
tut
xu
##rate
##fol
span
avail
gall
parent
##iento
couns
grammar
kidney
ta
##asive
adam
many
##well
##odon
##vex
reform
flight
tests
magnet
##oral
##itors
moment
lower
genes
purpos
promotion
converter
laboratory
ce
rights
##sm
##qa
construc
##ayer
abstract
rail
##athan
viet
speaker
saliency
creative
egypt
##ourcing
earthquake
frag
##met
##eding
##illing
progress
##66
##hao
reth
swarm
calibration
encoding
mutual
porn
##rous
##ario
most
defic
pulse
housing
fractional
30
##pan
##una
kl
viv
##nia
next
##ewater
influencing
##house
##work
##orpor
##roc
rele
##clusion
collaboration
named
##ester
##asis
only
changing
jon
pra
panc
station
analisis
grained
records
ly
##ovascular
oxid
##gue
static
upper
lik
##21
##fa
##tial
start
##ream
modulation
##riction
smooth
proteins
criteria
han
grade
technological
innovative
bah
gain
hidden
sets
chick
shift
clean
##eem
extended
mediated
underwater
labeling
aerial
avi
##rone
immune
fake
ana
##elle
##ogical
elastic
intellect
advantages
relaxation
nic
##rase
##edia
crowd
brown
mm
##inf
trig
scaling
teen
##rosp
huang
trauma
oscill
ech
##40
##ima
##ologi
##oxide
factorization
cataly
pediatric
affects
reproduc
fpga
##inity
critic
styles
##ilib
spaces
co2
frank
geometric
nanoc
defense
standards
chapter
node
##wal
forens
##ulos
##atitis
prem
methyl
generator
quanti
pyramid
military
proposal
hd
ij
lag
cloth
surfaces
cris
derived
monocular
tang
##oking
implant
##lands
wastewater
survival
26
faster
every
presence
normalization
fixed
authentication
##acing
##char
cla
albert
coeffic
probability
metrics
##personal
jacob
hen
um
##yc
##ways
ecology
##ynth
house
nm
tet
ze
##graph
##ulated
great
##ho
##57
##oni
##aily
inspir
herit
##go
coast
break
spectros
precision
narrative
brazil
humans
love
japanese
sti
##opter
##ologic
traits
manager
turbine
##ematic
alph
##elli
formulation
cement
mun
persist
collection
##box
discuss
texture
calcium
consequences
therapeutic
vietnam
intellectual
automation
pedag
carcinoma
hi
kel
pict
##49
##ister
phyl
relative
movie
connection
conversion
citiz
dose
pad
##rid
##ometer
perm
coal
creation
copper
##eleton
anatomy
atmosph
##tain
##oly
check
cav
master
##etch
sensory
compliance
interpretable
principle
29
cand
##dm
##zan
##entang
##iler
uses
contem
amaz
breath
cardiovascular
printing
##akan
trained
phenom
utilization
rethinking
york
##sen
anne
##tica
##veraging
infant
esc
comparing
1999
blue
fog
tv
yout
patch
personalized
cath
mn
##obic
##erman
malware
spatio
fatigue
##bility
##yer
##itching
they
##rif
multiv
##lingual
turk
refr
microf
substr
additive
resonance
bec
rab
##dc
##aman
##ectors
office
lingual
girl
bol
lon
##sk
##vier
drive
pedest
stereo
rig
prosp
surgical
absorption
bear
##yg
##eta
##etal
##asp
prun
python
##ectomy
points
organis
metabolic
compounds
era
##ffer
##advant
##eller
diverse
pulmonary
linguistics
discriminative
##u0000u0000
cb
sab
##otive
##42
##jo
##otechn
arabic
cf
gate
clouds
recommendations
wavelet
##usc
fracture
hypothesis
cot
##xiv
##dy
matth
disclos
##inson
equilib
esteem
bridge
joseph
cin
eric
disadvant
carlo
salient
packaging
constitu
aes
ok
##ians
##zo
alge
contain
lex
##tives
daily
gis
##down
there
##ically
resta
aircraft
tele
george
##thers
modification
distr
mari
wei
boost
estimating
##rought
item
iran
fabric
cash
race
third
##omes
decent
films
confidence
exploiting
ven
##hua
coffee
bot
##sts
##cholar
##igu
##opath
multilingual
descent
##normal
##idi
recogn
simpl
influences
salt
ethiop
birth
preference
singh
documents
reporting
ku
six
tin
bip
rating
tod
##zi
##ensus
coher
publish
minimal
attribute
rout
##37
selected
insect
captioning
errors
oz
##emy
##ils
express
restaur
hind
mobil
iterative
attachment
contemporary
rat
##ei
##ona
##ito
prel
##ologia
healing
languages
pregnant
mixture
ko
our
##isy
theor
progressive
earning
justice
arom
vac
##opathy
pron
dispers
##ikasi
insights
silver
entrepreneur
cerebral
##60
##uption
##59
##ulate
disabilities
transpar
pathway
moving
indicators
fal
kes
pun
inverse
##chool
##utation
tea
tomography
powder
##cd
##tors
neon
shad
animals
hypers
denti
##ols
parental
##rained
taxonomy
interpretation
ty
vo
##iform
##ny
##ales
agency
explaining
handw
combination
batch
contract
fly
##activity
networking
domin
semanticscholar
fertilizer
tropical
ble
rational
##48
##atus
scler
incorpor
tomato
horm
elementary
##elihood
department
cast
mouse
##function
compact
schiz
##ether
household
sant
##isms
ambient
listening
occupational
relevance
##ulose
##board
connectivity
##ogenesis
books
dos
gps
attr
filters
positioning
athl
##ocracy
vib
yog
##rations
##nas
interpersonal
repair
extension
platforms
alexander
instrument
nik
sap
##ecti
##ulating
poor
stef
beliefs
involvement
svm
paradig
ancient
veloc
50
vl
##illa
corn
monte
##flo
switching
##pectral
stephen
dielectric
regard
portfol
sodium
00
dur
vibration
##fall
asian
obst
investigating
brief
bangla
suicide
youtube
gut
hip
ib
taking
##kat
##isi
##ifying
share
where
release
pancre
28
zinc
##win
##rik
mice
revolution
cannab
eating
convex
deform
spin
marri
address
answer
emissions
decentral
drought
fan
convergence
cv
ri
##ashi
samples
contras
palm
wound
abnormal
muse
1998
datasets
##cious
institutional
jean
kon
rog
basis
rece
maria
goal
##mo
##imb
suppor
fel
alb
##ifi
arxiv
##ontal
dietary
tolerance
bac
live
##iate
##47
##emporal
colum
mineral
minimum
morphology
kenya
prospective
cortex
##rication
##asion
stra
dependency
website
vivo
ay
ja
prag
tail
##penti
##ulties
score
automotive
complement
prospect
iner
isolated
wearable
warm
##itus
##ily
prod
weather
alloy
mindfulness
payment
korea
kong
##yte
##ratic
chip
##ifier
##iversity
biomass
multivariate
##ades
##iotics
increasing
initial
doped
manifold
vid
##ruit
##nd
controll
buildings
irrigation
fear
gab
##ux
##kh
##ermal
surveillance
telec
beta
electromagnetic
philosophy
pedestrian
beng
diction
##arth
##anger
##escence
sequences
tuning
tuberc
##so
##45
##entia
applying
##insic
angle
country
pier
##ues
##omics
prices
beh
germany
foundations
consistency
contrastive
binding
host
rc
para
##ulture
gaming
analytical
mell
tong
seas
apple
##version
neuros
views
lar
##ette
##based
christopher
##cor
##yb
##arin
##etary
leak
matlab
physic
renew
autoencoders
difficulties
heritage
##dp
##asan
##ikan
##operative
prelim
kam
ved
yan
##osting
phon
grass
directed
toxicity
spectroscopy
lens
ment
##46
nepal
biof
sliding
affective
1997
##opsis
opinion
rah
##eb
##onym
##emen
##otrop
charge
##olding
circular
amazon
eb
##chi
##earance
diam
caps
server
##media
northern
cerv
rnn
##kar
lean
##pres
##enda
adjustment
##pentier
##dd
##ares
store
##onald
passive
classifiers
principal
coordin
wet
##arma
benefit
lessons
bow
fur
late
##eet
##dom
acet
##ardi
evol
noisy
norm
attributes
museum
rol
was
heur
subst
customers
diagnos
degree
habitat
hazard
sistem
disclosure
##nostic
##aga
##ives
apps
hydrog
conversation
27
ring
##oj
##mm
placement
semicon
##tina
topology
channels
possible
ket
##26
##ilt
stan
proof
multis
distric
lightweight
stimulation
update
bis
any
nerve
regeneration
preliminary
get
jack
native
##wood
disability
diagram
soci
democracy
zhou
neurop
config
renal
adsorption
dh
tai
##ken
##ago
grav
##ahan
maternal
camp
prostate
untuk
##ococc
enhance
morphological
explanations
nd
nick
##nt
##teries
##ocal
sugar
calculation
let
##ember
prol
##luid
korean
annotation
rr
##80
##ortion
##esp
##ingual
forests
tooth
creating
experiments
coupling
dro
##uli
##idth
##ectal
##otox
peru
##ardo
lipid
institutions
pump
wash
##top
##25
thor
##ulosis
##ductor
medication
##ajaran
labour
1995
zhu
terms
precip
miller
chatbot
procedure
dor
jord
mood
tib
var
##iana
##olation
embry
safe
raw
tech
##2v
##ximate
##onics
offlo
reverse
##imm
mother
canada
dementia
gait
drying
##video
preferences
ethiopia
das
ey
##tia
##ovol
clay
consensus
##tination
hydra
summ
lou
merg
##99
##emes
arc
decoder
expert
costs
nutrient
pilot
portfolio
rib
##do
stev
interview
charpentier
layout
streaming
cmos
pseudo
glucose
##sn
dimensions
individuals
##yu
analog
developmental
worksh
charles
negoti
debt
ware
##hr
metam
filip
collective
operating
title
velocity
##rel
trace
mount
##aire
did
jer
##ptive
##fs
overl
refin
benchmar
fmri
drone
nec
preschool
ghana
enterprises
pruning
gans
his
scat
goals
forecast
exploratory
reduced
findings
32
sg
waves
##vin
spo
arr
parenting
predictions
##nover
cnns
severe
transcription
inspired
dram
hed
nad
##len
##itual
alg
##ensi
optimized
ahmed
transactions
##iar
##bar
##uran
refer
projection
##tish
significance
mexico
bed
hill
##opl
##urch
left
colour
meat
match
cyberb
##erior
##ecurity
metaph
least
consistent
chinas
compensation
offloading
lind
##enberg
##apor
metals
##ynchron
##ophys
equip
italy
turn
bilingual
##ski
edu
corruption
acids
distributions
vertical
complete
fairness
pacific
##edom
moist
horiz
##eletal
avoidance
equilibrium
apl
uv
unem
asset
note
southern
protocols
dy
jones
##adian
assign
visualizing
maize
lexical
pic
##rs
##rd
##jan
##ece
##ogl
##oscopic
alert
##rolysis
amino
works
##renia
growing
saudi
rats
wolf
##cy
antic
teams
cord
##aze
topological
regions
biodiversity
jenn
lines
ming
##field
##enth
flav
flows
diabetic
##eliness
##acchar
shah
visc
##argeting
identify
guidance
missing
gun
##ocytes
bioc
classical
insp
parametric
coverage
burnout
pembel
schizoph
neck
##aut
##ille
##rosis
esp
convolutions
##oxy
turnover
differentiation
forensic
kir
tay
##fare
recip
studying
collision
room
curve
drivers
##otypes
nutritional
francis
inflammatory
regarding
##ococcus
cob
draw
duration
mt
pav
##osity
limited
circuits
analyses
kur
lake
ple
sah
feas
smes
##manuel
supplement
annual
linked
marriage
##ovolta
citation
fak
ml
trib
##lim
##amination
signaling
mechanics
globalization
monitor
electricity
##rophic
saving
ji
lond
pid
##overing
shock
multipl
oxidation
medicinal
##ulsive
scenes
substrate
gated
sis
##fish
##55
eco
segment
situation
citizens
cotton
vag
##ius
##zh
edward
universities
validity
farming
microscopy
fatty
entrepreneurial
##lic
##28
##che
trend
##ayan
##arios
convention
singap
cohort
cervical
jin
##phen
##pted
aeros
farmers
paradigm
fig
had
ot
ole
wik
##cience
##isting
diver
whole
promoting
antibacter
cutting
explainable
aided
file
friction
##70
presc
conscious
nanof
domains
constra
walk
traumatic
java
staff
##ife
shu
flor
incidence
serum
1996
analytic
fabrication
habits
activated
jeff
##graduate
district
dend
khan
##sis
##ilm
depress
##ione
inters
metode
sha
shell
leveraging
variations
observation
susp
drag
fus
pt
page
pall
##ses
##dr
##emistry
##sten
##ello
boosting
capture
photovolta
gastric
synchronous
enzyme
eastern
cn
god
##part
##tz
##3d
##atum
##otemporal
displ
counting
resistant
precipitation
40
bod
zone
anch
##rof
aden
leaves
mary
accum
successful
##odynamic
##estinal
ovarian
shadow
hass
##rup
##gs
##itos
chest
suit
##aks
##iko
minimization
##being
alzheimers
loneliness
algebra
jordan
ari
fill
ice
rhe
##elf
##acle
arbit
quasi
carri
batteries
rfid
argument
kinetics
purpose
pub
disch
##tinc
physiological
direction
breathing
tuberculosis
kol
lack
wen
##fr
usability
interference
police
particles
##space
##owski
administ
workshop
##ril
##rus
##kins
revers
multit
soccer
optimizing
databases
partn
loading
phenomen
singapore
mp
tc
##eur
##ementing
##rak
##ript
export
shear
paras
coli
simulations
friend
front
happiness
london
l2
ug
##edy
##fore
careg
going
cooperation
coordination
message
##omorphic
nag
##oft
##utive
##mail
proxim
blended
womens
popular
profitability
1016j
cache
hay
zhao
##cion
##eed
##din
##iture
conj
emmanuel
minor
combin
ahmad
inhibition
##ih
##ipl
##ket
##53
touch
timing
inclusion
gastro
tutor
lig
##bn
##aro
##edic
##idine
##iving
multimedia
meh
##urrence
leaders
mutation
balancing
aluminum
##hard
inp
imper
##ador
neo
##ellular
rise
hospitality
alpha
##otechnology
sri
sud
wine
##29
##fo
stak
basin
influenc
demon
biomark
reflection
adhd
neighborhood
television
renewable
around
ein
lem
sites
##tur
##ustion
immig
tm
##oir
##rant
##hann
##anium
##enter
##actor
containing
##iano
obj
percept
pembelajaran
bub
kat
lect
targeting
##56
schm
meg
logistic
descript
institute
illness
simulated
returns
crowdsourcing
theorem
antibacterial
hus
jia
thick
stop
##chemical
##uma
visible
french
soils
##ennis
nanoparticle
rotation
reproductive
mik
put
section
vary
##88
cham
##dering
marg
##tiveness
grain
accident
explicit
##ethyl
interpre
aw
lateral
##zed
##wise
##iton
##idal
##leg
cheng
##bles
improves
twin
equival
movements
verbal
tunnel
budget
constraint
made
ut
##las
##door
##oreg
readiness
melan
ethnic
perturb
matthew
mellitus
perceptual
pit
##eri
##enia
##level
asynchron
cooling
##arities
##ernand
plane
spatiotemporal
quantization
decentralized
rd
##ault
##lity
##acial
chao
editing
integral
specification
potato
british
cyberbullying
bak
lor
tip
pooling
disturb
##tifying
families
religion
judg
banana
mimo
yeast
border
gpu
kan
##urement
##emat
##pler
##iah
##forest
addition
generic
viral
1994
chains
stabilization
berg
night
##ataly
##omon
cond
truth
disp
simon
charging
labels
leader
empower
spring
##analysis
mitigation
equipment
sad
##omp
stable
sug
prevent
musical
1992
1993
layers
intrinsic
wellbeing
regularized
racial
hashing
bell
##77
##ju
deformation
reserv
dependence
screen
girls
mohammad
observations
gesture
coefficient
neonatal
furn
##nes
though
##tered
reti
interfer
sociology
approximate
textual
##ajar
##ommun
##ochond
predictors
csr
##2vec
##pp
##jay
##tique
##inter
##eland
##ulic
sharma
island
infants
biometric
extrem
concern
1990
directions
think
##ontrol
anomal
##iasis
momentum
coastal
photovoltaic
gear
##metry
##onin
tow
##fort
appearance
cybers
nanos
defined
forms
freedom
contrast
cow
lew
now
tap
##isal
##emann
##plan
syl
locally
repe
pharmacy
reactions
mohamed
derivatives
compressed
pod
##nan
uniform
attentive
##pta
mont
operational
sympos
animation
mediating
amplifier
seasonal
must
##hma
##vic
##omatic
imbal
ord
skeleton
pepti
restaurant
dong
mission
ve
##du
thy
##idikan
##cha
exist
spinal
polyn
templ
erp
##head
penet
chicken
vr
##amiento
##ime
interc
##asser
both
integrity
hearing
williams
crops
actu
inertial
symposium
sak
wire
yam
seq
options
biop
feeding
electronics
ultrasonic
presentation
football
incorporating
dictionary
semiconductor
gon
nich
##eras
times
knee
slow
curv
expon
assistance
texts
seeking
facilit
earnings
hun
hans
just
pag
##ovic
profiles
faculty
catal
##cipl
players
crystall
senior
epidemiology
haw
oh
tend
##omial
##ilities
alf
indigen
adverse
lesion
reports
prospects
merc
##can
##fc
##79
stein
enrich
recruit
##ause
epil
oct
estab
mcc
harmonic
enabled
considerations
ross
##86
##uri
dee
##iber
insulin
volunt
tube
symbolic
scanning
pendidikan
bon
terap
deposition
##uda
arts
##rices
##estr
##oke
handling
pdfs
accelerating
##odynamics
ownership
heuristic
bp
##33
##elial
forces
shi
show
leon
volum
myth
aque
pestic
sectional
vas
vill
intermed
plug
multil
##illary
marker
german
fitness
closed
##worth
atmospheric
din
mouth
nil
nerv
##matic
recurs
controlling
physio
harv
colorectal
antibiotic
welding
##giene
bibli
##otes
same
introduc
procurement
porous
australian
phosphor
fungi
impairment
transplantation
jian
von
##200
##economic
##idering
##raining
union
detail
before
solub
estimates
movies
connections
fermentation
populations
cattle
package
dip
hur
iii
rare
##zen
##eld
units
agre
fred
faces
quantification
36
kem
lep
wise
##idopsis
##ours
intensive
##aving
isot
corrosion
preven
sequencing
##rospective
asynchronous
latin
##qi
##osocial
##ioni
alm
unkn
scott
##airy
##ochemistry
##uki
examining
fourier
centered
picture
refinement
benchmarking
indigenous
##zer
them
onc
phd
##health
trials
polarization
printed
feasibility
gur
kenn
pd
pear
##cr
##ride
##alah
option
generated
worker
##posit
fibers
focused
bottom
##ynthesis
establish
##lier
##yen
##54
##alg
##etti
reb
##imension
##obl
shif
##anced
##bling
extracting
outbre
lifest
photos
nearest
bearing
distress
deformable
demonstr
dairy
ting
##sl
##andra
leuk
blo
flash
decre
eds
signature
groundwater
waterm
bridging
victor
##uting
##ested
##0000
architectural
numbers
pcr
dropout
ceramic
unemployment
##tl
##national
##fig
##atur
##chair
##iaz
modality
##pert
metall
heating
hygiene
cellulose
implementing
coronary
estate
window
prepared
syntax
pts
##prop
##olith
systemic
##anne
##scale
offic
obser
increased
##point
download
defects
significant
kons
tro
venti
##76
##odic
##pher
margin
##oken
idea
salmon
limb
lattice
restric
adhes
enabling
jennifer
fid
lub
ways
yolo
##cut
##rec
##hz
##ritic
intel
desc
##iley
##anka
constant
tanzan
substit
stefan
complementary
filipino
assignment
sql
##cast
##via
##isc
##une
##atif
##eption
##ugg
whats
pathways
actions
limits
##ogenetic
##structure
##discipl
moisture
schizophrenia
unknown
bart
dm
anter
##olas
ster
##rie
##ady
phill
multilevel
biog
moh
extracts
inductive
keyword
reliable
instructional
aqueous
bou
last
pasc
##titis
##rod
thail
##izers
oxford
woman
purchasing
alkal
disadvantages
lic
pest
vert
##itude
##olym
##omer
##essel
asph
metast
##okine
malaria
empathy
##quiry
arabidopsis
execution
##ritten
cosmetic
hydroxy
athletes
buck
##oa
##olov
infections
##param
steam
epilep
thailand
##58
anis
anderson
##chlor
reas
party
##roll
directional
snow
informal
siam
birds
container
faktor
hoc
hir
pages
##bc
##uf
##ectic
proces
perme
##hai
sexy
barb
version
genetics
immunity
acceleration
mirror
dogs
supporting
nickel
##espond
varying
cpu
##him
##inform
##alian
ammon
monetary
chemotherapy
helic
waters
categorization
limitations
ale
dw
gil
lign
##aine
##rat
church
imitation
##ptake
correspond
terr
contracts
walking
treated
foundation
asthma
pneumonia
steven
inspection
pup
##atri
##ensen
imped
smoking
capability
adolescence
inhibitors
aggregate
mitochond
explanation
average
dut
tec
##role
dead
schol
considering
profiling
1991
deepl
gy
##map
##inear
##alan
##aled
anna
##atively
die
appar
meeting
pref
##anna
slot
determining
harves
angi
cascade
column
gri
jing
##kit
tracing
contamination
deeper
undergraduate
outs
synthes
combustion
raman
textile
chromat
aviation
organisational
scattering
cod
rao
vascular
wifi
##oys
##ku
##anes
##ided
##obia
interfaces
managers
subjective
links
searching
terminal
fibre
playing
informatics
intentions
regulatory
abdul
##gbt
racism
revisiting
jonathan
maritime
handwritten
cass
##mission
##ince
##enko
inquiry
##uld
cohen
invasive
matrices
cali
vehicular
laws
axis
clothing
summary
anterior
dol
kill
lie
laz
muc
nak
##nut
##oda
ideal
retrospective
ethanol
##cope
inhibitor
tanzania
mild
roy
take
##thal
cook
##afa
##evin
terti
johnson
##rophy
lapar
cannabis
consciousness
recruitment
fol
rid
tao
zak
##uz
##day
##gun
##hib
##inting
spain
artery
seaw
##title
variance
##manent
flux
dougl
syntactic
teenag
sclerosis
kle
zeal
##90
##rane
##usa
##essive
spot
##akis
##ante
urinary
topics
thermo
wavegu
targets
fractures
barrier
sediment
neutral
wheelchair
hydraulic
hole
nc
ns
stig
vectors
##uum
##mp
##phones
##reek
##till
preservation
authors
hemat
friends
phosphate
spiritual
oxidative
aerosol
bang
learner
result
##ques
contamin
##bridge
kinder
cuc
much
##24
##hed
##31
##thes
##force
acm
pla
commons
sketch
expend
descriptive
prosth
hubungan
available
taiwan
friendly
zealand
bill
cab
tion
##inder
retin
##iza
evaluate
peel
interpolation
discussion
##otropic
##imensional
lan
##ocard
interior
atlan
processor
organisation
branch
archae
periph
split
washing
citizenship
accumulation
interpreting
ig
lac
ses
##nis
##erts
##eda
##oline
conform
##iva
behavio
realistic
outdoor
radical
conditioning
rubber
bipolar
lifestyle
hid
kind
kaz
##kle
##jar
##emi
##plet
transist
##ards
##aceae
appra
##itted
procedures
bitco
inverter
trigger
microfluid
warehouse
ptsd
benz
kas
mening
##rill
##27
##plastic
##eping
queries
mothers
##ichi
##urring
philip
neurom
dysfunction
inflammation
spanish
conventional
discharge
io
kit
##pass
##ompos
##earning
compass
diode
indices
prototype
psychiatric
advertisement
residential
pick
ric
sul
##osing
##ovsk
multid
assem
polyp
##inton
geo
greg
clinic
statement
##wei
conductivity
mixtures
fundamentals
volatility
turkey
route
tertiary
douglas
cp
db
lum
##sky
stages
height
agro
autoreg
losses
##ogenous
promote
electrode
accelerator
informed
microsoft
cyclic
microbiota
21st
fun
vin
##rated
##isl
chec
##irm
##ires
##irect
spars
baseline
##geting
hex
organizing
month
incenti
journals
laur
understand
compositional
illum
utility
taylor
thickness
equal
gard
jose
tell
yun
##araj
##eto
attend
schedule
talent
##odontic
deficiency
published
multitask
gao
him
honey
rs
##rig
##mas
##amy
multiscale
crack
nanot
philippine
connect
oils
flexibility
fried
bacillus
60
ht
herm
sag
session
u000
uptake
##mic
spoken
recycl
arter
lexic
parts
decon
##othy
publication
transformational
attribution
name
rhiz
budgeting
welfare
##organic
likelihood
empowerment
fdi
pine
tian
yong
##pur
resnet
actor
cart
markers
incom
characteristic
delta
publishing
##ophil
caused
herbal
correlates
massive
##cepti
##borne
bonding
moderating
overlap
cele
tension
##uries
##mental
bases
scoring
teeth
isch
incentive
##itization
abstractive
fluorescence
persistent
yoga
bron
erosion
ira
sic
sos
##oint
uns
sme
planar
streams
springer
elev
##optera
##itosan
tutorial
ace
jar
jiang
lot
peg
pasi
tu
##ortic
##urable
##ominal
conserv
discipl
##2020
gamma
sweet
lymphocytes
bitcoin
curr
gad
##burg
forget
permanent
##tration
optimisation
inside
gupta
##escent
sentences
ecosystems
synchronization
pipe
managerial
ki
ll
##volution
##ente
##ograf
##umab
##imeter
##aterial
esl
glut
##ographical
associations
##ittle
religious
asymmetric
counseling
neuroscience
reservoir
37
##oter
##uary
##ycle
##itarian
##asia
compare
##ellow
unmann
scr
##io2
discre
characters
formula
histogram
trip
malaysian
lesions
atlantic
23
bug
jung
kw
narc
pec
rip
td
##auc
##ged
##orb
comment
##uman
patent
gradients
ocular
goods
bounds
squares
differentiable
balanced
multilayer
unmanned
eti
gib
jay
selling
##iri
##tio
##icum
##icate
##eced
##acin
##stan
##abeth
spine
tract
disru
seb
benj
stacked
candid
cra
fernand
ran
really
disentang
##phal
persu
##ophyl
posterior
ulcer
graduate
aggression
concentrations
transcript
impedance
lec
sut
yi
##east
##nik
##ubl
##idents
##aku
##rological
##trans
cyan
gamification
supported
wilson
cultiv
evolving
hung
ny
##jun
reactive
##uding
##ryst
distant
frameworks
myocard
microbiome
contextualized
ellip
gaze
hp
lighting
tar
##tition
##esium
##oscopy
##adder
##aper
emitting
agnostic
capabilities
epith
clusters
herb
abdel
replacement
kinetic
depressive
pasien
ngu
pom
ub
##oqu
##nm
##asts
##ancing
matters
suppression
microc
brun
demographic
operator
offline
reproduction
severity
tagging
phytochemical
typh
spoof
arbitr
recursive
fi
hil
hamil
jen
sir
##enes
##aged
sph
##romb
agenda
psycho
rough
hepat
juven
executive
rigid
pf
yar
##itten
##agh
clar
muslim
estimate
faced
photoc
olive
symmetric
complications
##aciones
obsessive
focal
talk
califor
kap
##itance
##ilation
##odi
reven
##osome
##ologie
##ifera
##asty
leading
strept
mixing
##paign
muham
settings
musculos
dentist
##disciplinary
incentives
eigen
fro
lane
nod
sob
tank
##pi
##keletal
construct
devi
modules
resol
compulsive
plann
gray
##aste
##xxxx
fruits
write
suitability
behavioural
illumination
dont
fes
hpl
voting
##bing
##44
##acet
starch
chan
chun
##ads
marco
beet
##ismo
##aterials
microg
serious
occlusion
immers
reconfig
latency
palsy
diamond
gym
mine
nir
pas
pie
##uter
##oshi
compressive
api
##timate
inflation
methane
accord
instagram
lux
vocational
encrypted
osteo
cybersecurity
peripheral
recycling
juan
naf
ras
uter
wing
##carb
##98
##ono
##olec
##ido
##opt
division
mush
geography
grand
expressions
##hyth
grounded
brian
1007
colonial
tactile
false
dendritic
harvesting
nguyen
lun
##ped
##tc
##kol
##db
##eno
inception
##iciency
##ogonal
phrase
transient
ecomm
physiology
singular
allen
computers
angel
odometry
inclusive
indicator
pretraining
cavity
curvature
dance
hart
kang
##lets
##van
##with
##icious
##olin
##ulators
##ims
##otomy
enti
spray
alan
dioxide
##ains
perovsk
cool
polys
##arium
##eva
pathology
jointly
hierarchy
neighb
krish
sdn
##auty
agreement
outbreak
waveguide
gift
mg
##light
##97
##ht
tox
##opor
cars
dynamical
##azole
auditing
triang
injuries
1989
sigma
chaos
availability
tongue
cub
cyl
fiction
kor
##iff
##kes
##alia
anak
##istive
beauty
england
automata
##berry
academy
belt
funds
periodic
suscepti
victim
contributions
kalman
000
beck
cro
date
gord
hors
xin
##rans
##arter
anonym
tekn
floor
patrick
loan
drinking
reputation
essay
targeted
titanium
detectors
antonio
chromatography
2nd
feng
kun
##born
##enger
microp
graphical
decoding
programm
liang
##oidal
antibody
burden
province
derivative
henry
asphalt
va
##ois
##ects
chitosan
##apse
spher
transduc
assurance
while
schw
brass
cultures
triple
arabia
libraries
criminal
opportunity
plateau
volatile
feminism
rrl
lgbt
pb
rose
uw
##43
resin
intake
france
extrac
industries
throughput
ern
terror
olig
seeds
wideband
revisited
reveals
3rd
hipp
za
##kel
##kov
##orrh
##aca
bean
schemes
flo
peace
lifel
campaign
##uchi
ontologies
lockdown
ecommerce
gig
jav
kath
lav
rach
roll
##col
disinf
dies
coup
elim
##unciation
malign
epist
valuation
cambridge
##aux
andrea
fingerpr
dye
##zy
##hs
##acer
##iders
trap
##erma
boy
gli
##tified
hydrop
financing
valve
angular
dispersion
thyroid
aur
dream
##td
##nets
##nosis
##ui
##ods
##agg
##iveness
##aryng
##egrad
developments
##arten
compared
outlier
peo
literary
encoders
spectrom
trajectories
scenarios
baby
appraisal
narciss
dent
daw
dnn
##rants
##network
##ston
##osom
##opoul
##oui
##tite
affected
assistant
bird
##olester
garlic
anteced
winter
pierre
##dh
##amide
shr
mediter
fever
carlos
##ategory
redund
cameras
quantifying
ferr
biomechan
egg
accelerated
auditory
neurons
bottlen
viscosity
equality
hos
say
##52
##51
##eria
##ored
##iao
click
metac
carl
##atorial
determine
extra
autonomy
square
theoretic
looking
transparency
autoregressive
kaw
pes
veter
##hal
anemia
stone
proj
##otor
##obile
graphics
consol
flat
psychosocial
swed
rendering
manipulator
origins
turbul
translating
cryptography
coherence
configuration
partnership
siamese
osteoarth
casting
dj
gang
##max
##ened
##roup
thai
##older
##ulant
##aded
##ands
##aint
destination
generate
workload
framing
facility
maximization
occurrence
dilem
vacuum
lyn
##rp
##deh
##width
##onn
##thetic
educacion
supercon
linn
cyc
aux
centric
zheng
randomised
doctor
potentials
physiotherapy
musculoskeletal
bic
category
dun
fetal
tah
semin
designs
protective
##matical
homes
dissert
##process
##ulsion
shapes
symbol
coherent
emmanuelle
benjamin
cum
dust
gc
tentang
v2
##oplas
deployment
exact
interv
eliz
aged
insider
create
##shore
polymorph
capacitor
achieving
khal
crispr
##ranean
bull
kab
xiang
##alk
##agation
##atern
##onomics
boot
complexes
hotels
cues
vegetable
railway
phylogenetic
##partum
carrier
##tinction
##atalytic
arbitrary
california
hat
kad
nv
obl
##uge
##anz
##opy
##opic
asper
indirect
optics
textbook
##2019
collagen
##ipped
susan
##ariants
neuron
compassion
checking
58
aj
cel
dots
jr
riz
yas
##cv
##py
##pson
##anan
thi
##aba
##aptic
##allow
atten
poison
final
##aje
businesses
##olds
treatments
notes
silica
##otyping
scales
andreas
storyt
sheet
facilities
hyperspectral
hydrogel
gravity
juvenile
brad
greek
##gent
##abi
clear
sho
##ricular
maturity
implants
gras
canadian
grey
backprop
calculus
orthogonal
paradox
siswa
revenue
tb
yolov
##omo
##vey
beams
controls
capt
integrative
##esco
smartphones
italian
transformations
intrac
emergence
pulp
polymers
bilateral
subjects
arthritis
stiff
chaotic
myocardial
peoples
bure
still
tick
##pri
##67
##osk
basket
transf
email
##iesel
myc
drift
##aphyl
magnesium
horizontal
schmid
kinderg
mall
sz
saw
vital
wasser
##fi
##essing
modes
shen
##ibular
infecti
##isme
##ocking
epis
laun
curc
harris
belajar
##label
difficulty
pairs
xiao
expectations
asympt
elliptic
##aa
##uates
##sr
##oric
debl
##iments
interval
been
schema
##ilding
editor
centers
operators
fourth
pipeline
pm2
aquatic
ceramics
warming
gabri
observer
expenditure
multidimensional
ery
foss
gor
tat
vein
wan
wis
yuan
##tu
##2d
##mc
##ered
client
##elly
sher
##assium
##rosoph
alloys
etz
erg
grading
accessibility
regulated
fungal
bulk
refriger
muhammad
hplc
gpt
hv
pent
##23
##fet
##oming
compati
atomic
trait
##ega
timothy
##ylic
useful
mini
valley
layered
descriptions
phosphorus
storytelling
38
euc
fint
##o4
##pet
##ener
once
comfort
recomb
electroc
sarah
russian
congestion
constituent
hindi
suspension
mediterranean
31
bov
little
nel
sang
##isch
##ulo
stri
##raz
chim
##ellar
plus
developed
curves
transitions
pedagogy
transparent
pancreatic
reasons
according
bach
gem
hend
qa
##mond
##dep
##icts
##rio
dex
##ansi
highway
produced
##othermal
fuzzing
##metics
including
choosing
courses
dermat
fiscal
nanocompos
hormone
##oglob
##informatics
commonsense
39
aids
kual
lc
rud
##bach
##arking
inversion
##isons
##uler
cher
##uta
respond
##ematics
irrad
pursu
anthony
constitution
describ
##ophyll
mushroom
pale
##wide
##73
##icip
tob
##ocene
computed
prison
clim
manage
paraph
insight
foods
increases
snap
partitioning
professionals
excitation
fingerprint
shaping
broadband
constructing
cinema
pronunciation
drama
objectives
susceptibility
gordon
diesel
osteoarthritis
infectious
aph
dl
ian
lob
rang
tp
##pen
##rea
resc
unp
such
##ainting
##ego
visibility
paths
entry
screw
pepper
cleaning
hate
kevin
qing
##itan
##idis
##agent
adher
along
apr
contex
coaching
##strual
discovering
##uke
competency
shoulder
freshwater
template
elizabeth
##o2
inn
##elo
##ampling
proph
sperm
diar
plac
autoc
electrol
distortion
guo
members
serial
postpartum
##videos
persistence
lewis
##olymer
gross
sale
##olia
##andro
alter
fluct
humanoid
secret
subspace
##eholder
buy
utilizing
abstraction
threats
bubble
exponential
lanka
ral
sativ
vessel
##cap
##low
##bell
##tise
##oria
##iran
orange
sham
ecg
##artz
caption
practition
salinity
labeled
##structured
cosmetics
reflective
gestational
substance
marginal
forgetting
kot
##2b
##ontin
##inus
chart
##obi
##vious
##akh
poetry
graphic
charger
greece
purification
sepsis
kerja
citrus
divor
retinal
assembl
##olesterol
vapor
##lines
##oning
##anum
antis
dehyd
##iral
optic
supervis
factory
crm
round
tourist
millenn
simulator
grammatical
negotiation
thought
penetration
bing
cc
canc
drain
naz
wi
##bb
##omas
marx
parking
biochemical
##integ
locom
worlds
exercises
lives
fixation
parkins
scenario
anthropology
russia
municip
obstacle
terapi
##dehy
etzioni
dennis
kah
lumb
makes
rear
rect
##ediation
##uncture
johann
concurrent
breeding
republ
##factual
uncon
investor
tolerant
manifest
watermarking
uwb
aus
bif
vinc
##yi
##enium
##edi
forc
##iman
envi
##ify
isra
coral
##tinct
workflow
forming
remove
laura
automatically
davis
distilling
mohammed
microbiology
torque
michel
communicative
tiny
ozone
prescrib
displacement
inpainting
epilepsy
parkinsons
bam
destr
mast
sara
##wr
##eds
requ
##ugal
guar
##coming
massage
puls
reflect
ambigu
neuronal
##building
cic
estr
htt
mend
sew
vine
zo
zn
##eor
##eros
stain
onset
##izes
trich
##ishment
caries
predictor
##azine
photonic
1985
plasm
lamb
##brahim
chloride
smoothing
metaphor
jeffrey
leukemia
tecn
eug
mans
qi
vik
##itiv
##2c
##100
##mt
##oro
stu
script
colony
subt
proficiency
democ
potassium
fibrosis
diversification
scienti
periodontal
coreference
relevant
efek
mamm
aluminium
cvpr
pragmatic
capsule
anchor
stakeholder
imbalanced
45
bos
mb
nin
rl
sib
##cale
##lip
##03
##hl
##vc
##anti
metod
##tivitas
ecu
newborn
doud
##gener
topical
jobs
peny
millimeter
foam
microserv
abdominal
rainfall
sulfur
salmonella
##cutaneous
fintech
contexts
nu
##car
##pea
##69
##inite
##omi
##amic
tran
adc
apopt
##acco
advance
mcg
precise
karl
instability
regulations
respiration
biodiesel
hrm
##yclop
catalyst
today
hassan
oncology
entities
34
fif
ging
tog
##agon
##ocyte
##unan
adul
scaff
##tron
geographic
logical
partially
requirement
##prof
initiative
proposed
observational
vegetation
running
vedio
volumetric
dentistry
ori
were
##rases
##kt
##orec
##ici
##econd
atlas
dimensionality
harness
nitride
windows
butter
fertility
ideas
behind
intermediate
##opoulos
ds
jew
ky
kids
##raction
##bage
##64
##75
##erning
orb
sebas
teori
appropri
skip
nanotechnology
powered
##acci
landmark
##lamps
luis
ghz
##basis
squee
daun
counterfactual
feminist
multispectral
arrang
einstein
correspondence
deconvolution
wasserstein
doudna
aa
gcn
nation
nap
yin
yao
##iet
##gers
##eses
##aram
##rays
comun
##ensor
##forming
could
whit
built
malicious
depriv
photography
1984
##iatry
electrochemical
interpretability
omn
delayed
everyday
brazilian
cfd
leakage
intercultural
piezo
poisoning
gm
hope
jak
kris
pill
sac
##eo
##ners
##uhan
##jee
reuse
chile
commod
colomb
blast
##tistic
digit
memb
##azz
characterizing
attentional
termin
myel
liberal
warning
milling
boundaries
personnel
lamp
sounds
cascaded
##worm
permeability
spoofing
cable
row
sik
til
##tiab
thal
##using
##uctive
##ovirus
spill
interf
amyl
applic
algorithmic
explos
defining
signs
lifetime
drives
hyperb
correlated
indonesian
conduct
resonant
independence
involved
enzymes
cultivation
accountability
bahasa
algae
hippoc
dissertation
dic
hao
##cence
##itives
##rence
##tier
thromb
straw
oren
recall
poult
virgin
programme
hands
tunable
packet
deterministic
weld
eleph
oscillator
telecommun
preventing
stigma
bootst
craw
kul
wage
##01
##inos
##eni
##emics
##osi
##abolic
enforc
spont
asd
##ensing
genomic
plag
cortical
##athi
meets
deficit
breaking
spectra
indexing
steps
definitions
heterogeneity
##conn
credibility
pretrained
vegetables
##2o3
menggun
caregiver
gastroint
divorce
poultry
kec
mec
nash
##rhe
##uo
##yar
##vo
##esthes
##urt
##tha
##uca
##plac
##enses
election
abund
##00m
##nett
carbonate
contrac
1980
1987
refuge
waveform
sinus
court
impaired
alzheimer
riemann
hamilton
stiffness
##lampsia
65
##life
##dl
##esa
##asional
ther
##ulse
##idential
##plete
acquir
interle
##anto
march
biases
assay
##awatan
repres
valid
silva
correlations
hierarchies
1988
bandwidth
radiotherapy
combinatorial
mitochondrial
teenagers
adherence
48
having
nig
tn
want
wong
##95
##onut
##usi
reef
propor
quatern
decline
nanom
##ophag
reported
pyr
priors
doppler
sulfate
existence
spontaneous
menggunakan
hs
koh
ore
sf
xvideo
##cation
##path
##uous
staphyl
alle
##astoma
##ichia
embod
signatures
samuel
##itian
##ullah
responsible
##regation
##structive
instruments
sheep
replication
cheese
claud
thorac
wikip
proximal
##dehyde
bootstrap
ded
dot
gestion
hiro
nom
tl
trim
##cnn
##rt
##rison
##etooth
##thy
acup
unf
scar
marie
evans
amir
microstructure
frames
encyclop
continual
brands
rotor
difficult
administrative
nervous
4th
duc
dating
mitch
roth
##ioc
##pin
##bed
##agai
provision
depos
##egan
automobile
buffer
encoun
innovations
##auf
audi
ferro
motors
extending
partner
nitrate
loaded
portable
halal
##learning
tablet
annealing
nilai
kindergarten
bog
bath
jor
lamin
rust
sax
##bur
##uy
ink
acl
aless
shin
mars
isa
mediation
mooc
decay
progression
salud
causality
federal
plasticity
nasal
motivational
bluetooth
coconut
constituents
ventilation
gastrointestinal
fen
gian
gdp
ryan
##wm
##elity
chal
##ados
string
intent
manaj
multinational
##awan
doing
solve
##tility
densely
homomorphic
translate
ivan
categories
##opathology
jes
joy
junction
rhyth
sov
sou
tamil
##mn
##amel
neph
extinction
genus
beverage
trad
##001
##ertz
##awi
mems
epig
offshore
maur
##structures
kiner
##hui
rhet
perfect
anaer
recognizing
conjug
lexicon
ischemic
eryth
70
bund
dub
filling
np
tik
wiley
##guna
##icle
antiv
##asm
##tick
##atient
meteor
atom
##ieu
##ptions
##pora
##ubes
##issa
publications
volley
norms
hospitals
berbasis
##inkler
regularity
##orphic
narrow
tibet
33
fle
garc
pitch
push
##alis
##urface
strip
##agan
reactor
##imming
existing
recre
transgen
opt
##titude
##inescence
##arta
##anner
crude
##ommod
irreg
##rophys
documentation
illust
antibiotics
alexand
boron
psic
dilated
ssd
hydrogels
perovskite
cycles
cz
jess
nob
pca
ying
##eer
##mitt
spike
sugg
seven
cooking
preec
insom
##hani
##omyces
kinase
vulnerabilities
necess
biomarker
sparsity
spherical
republic
wikipedia
cir
upl
vox
zno
##valu
congen
##adium
exhib
close
ads
deepf
weights
newton
grasp
hydrochlor
particulate
expand
tumors
livelihood
focusing
ensembles
osm
biodegrad
expectation
cucum
antecedents
kinerja
46
prad
qos
rash
##xy
##wer
##tist
inorganic
##rah
##rav
##raj
##imetric
dipl
shallow
cox
amin
##sey
weap
##nea
crash
speak
economies
##pose
campus
empire
connecting
responsive
emergent
holistic
inequal
shaped
placebo
glycol
iraq
backpropagation
apoptosis
dup
hone
hinton
jane
mish
nand
nike
##icz
##acles
##raine
rejection
##umi
reser
##phys
metas
scope
infarc
##orship
extractive
journey
##ethylene
opening
fitting
pharmacological
arterial
lifelong
superconduc
preeclampsia
55
caff
fox
iod
ibrahim
lars
##bf
##ems
##amm
como
spp
covari
##eger
carol
##oks
##ropol
##brity
peak
radial
hydrol
airport
toolkit
guideline
willing
##ogeneous
macroph
nitric
##iosity
hepatitis
surviv
communicate
produk
##tzmann
minority
##aryngeal
##osomal
encyclopedia
anaerobic
pure
soph
variants
zones
##lings
##racy
##bank
##key
##fast
##jud
stay
##athic
persons
vijay
visually
memories
define
##oringa
fibro
stories
keyp
fisher
##meas
investors
breastfe
##olingu
roger
reversible
volleyball
hm
pon
rt
rav
##rang
##bel
##tera
##imi
##imiento
distinct
suz
metad
percent
atrial
##ivity
##ively
coated
plain
##enced
##acea
whey
insulator
ethylene
centre
cream
sharp
player
viruses
axial
keseh
controllable
drawing
harvard
wid
##list
##93
##bean
##gy
##hm
##yo
##tional
##esi
##etta
##aco
##ilia
##odies
reposit
##uddin
pras
also
arn
strugg
trav
superior
brit
##ymal
servo
##matics
airborne
distributional
corpora
reflex
competencies
choices
quadratic
boltzmann
rheum
descriptors
disturbance
kenneth
pascal
##roleum
http
fd
gary
kand
kai
lup
packing
wol
##bes
##fly
##information
##icus
##opes
excess
true
coarse
graft
move
patric
posture
liquidity
sanitation
specialist
authority
messages
komun
aromath
mergers
sgd
uganda
descriptor
##omonas
furnace
incomplete
reconfigurable
grasping
harnessing
manajemen
56
arim
dd
gay
kos
nw
wax
width
yo
##dal
##wen
##tir
ofdm
##rov
##rade
chand
##forward
relay
accommod
invasion
softmax
artifacts
bark
august
manuel
bioinformatics
##acional
stephan
written
anatom
perturbations
pesticides
deprivation
##00mhz
kesehatan
01
caching
muk
pg
sick
triv
##08
##menting
##dynam
##je
##anet
chu
##phy
##enson
shang
##illo
meditation
cole
flipped
bright
##deep
afford
laplac
investigations
trafficking
1986
sunny
multicultural
osteopor
intersection
anomalies
ubiqu
##oskeleton
rescue
ecuador
aar
hold
jet
moringa
ron
##nat
##inant
cholesterol
ask
shield
##ryl
weighting
##axis
psychiatry
##escu
reduces
vulgar
conducting
participatory
##ocrine
mammal
coefficients
aromatic
addressing
supplementation
polynomial
actuator
brassica
consolidation
hyperbolic
cant
dal
mys
nl
zah
zirc
##iol
##iant
##ser
##izi
clark
##ifa
transc
multiview
##lying
assets
abilities
obstructive
adapting
xxxxx
##bound
reader
verb
penal
probe
biosynthesis
petroleum
##ijing
resilient
##puter
piec
masks
inputs
ingred
wavelength
sediments
echo
##otoxicity
concerns
demonstration
transistor
photocatalytic
##esthesia
insomnia
35
49
aortic
baker
larg
masc
nodes
##2p
##gang
##tium
##urus
##asy
forum
##iming
comport
club
als
alv
##ologist
phones
paran
amph
soyb
prognosis
##exual
zhong
mcd
expatri
walker
classrooms
classifying
livest
odor
orthodontic
occupancy
stationary
receiver
biomarkers
gifted
soybean
certain
rati
ward
##tw
##rys
##bin
##bil
##mesh
##igar
##umann
counc
islands
command
quick
escher
workforce
endomet
##ofem
blocks
ireland
##atherine
pelvic
##iliary
expressive
biofilm
deblurring
guarant
hack
ls
nos
others
raz
vae
##iative
##pn
##taining
##71
##inance
##stone
##strained
##osine
too
comments
##utan
##adic
energ
clock
shrim
##ancia
coil
##antes
lei
quarter
##ergic
blog
deception
edible
microst
microorgan
psychotherapy
##aja
antigen
epoxy
##arga
artem
telem
sept
bernard
turkish
##u0000u0000u0000u0000
dragon
repeat
peptide
shifting
restricted
barbara
planned
shrink
laplacian
bd
give
holog
len
xi
##pon
##west
##acillus
##idium
##amous
reach
##oso
##iae
enamel
unifying
phrases
##haw
bioch
linux
singing
grown
repeti
hydrocarb
1109
xnx
entertain
##appa
thompson
resonator
songs
discriminant
##plasia
dermatitis
easy
kingdom
mountain
anisotropic
celebrity
epithelial
breastfeeding
bm
gill
hai
kay
kant
##ck
##lie
##nx
##sim
##kl
##gmail
##group
##fram
conting
come
intestinal
genre
multiagent
##endra
amy
amorph
##velopment
bladder
##rones
##annel
accidents
localized
transforming
costa
neurological
greenhouse
behaviours
promotes
conflicts
##ceptions
phenomenon
luxury
irregular
inequalities
90
later
mw
mud
rape
sacc
##mel
##det
##vol
##atonin
##isia
##retion
##thermal
neil
bass
##aver
agar
subm
1982
naive
stimuli
nasa
closure
granite
romantic
produce
rolling
lubric
biogas
proceso
sosial
bottleneck
mitchell
garcia
80
aper
glu
sid
##wick
##onate
inner
##icion
##ulas
##agi
##agic
##chen
##thing
##umen
##ionic
enf
spam
sung
##alli
issn
feel
prev
suppress
challenging
entail
hydroph
##zzle
retriev
##erald
broiler
competitiveness
##baum
rocket
absol
##enchymal
sorting
catalytic
##going
gonz
scholars
##labeled
aprend
infarction
each
erik
fc
gol
lit
rut
##62
##uer
##hd
##72
##arrol
metropol
bee
quin
wein
surveys
urine
photon
zhen
multiplex
iris
inher
inhibit
dissol
teamwork
giant
frontal
georg
venture
ceo
##ycled
pedagogical
schmidt
abundance
escherichia
ions
##eas
##hon
##vs
##qing
##stra
##umping
##unk
##adeh
##apia
##eps
methodologies
regret
machin
##erapan
joints
overload
salic
valued
terrain
silk
americans
feedforward
pengguna
county
melatonin
egyp
roads
mutations
dissoci
##obacteria
##uscular
campbell
equivalent
auction
mangan
psor
##lar
##neg
##vest
##esion
##esting
##aris
antif
clut
recycled
graf
week
##uez
dimit
polyethylene
expanding
vocal
tsun
half
several
mandibular
sistema
rcnn
lecture
transducer
livestock
bry
cup
dyn
hit
nemat
pang
quran
send
tern
##oi
##1a
##68
##f2
##orm
##aten
##rocess
##acous
##empl
unique
seiz
emily
elite
abortion
register
newsp
consult
overcoming
roots
swot
facts
catast
penis
pyrolysis
##rophot
fisheries
pharmacology
motivations
pictures
punishment
sebagai
sphere
tobacco
stainless
colombia
aromatherapy
dow
lisa
ronald
##pat
##uro
##sal
##fd
##alo
##aru
##rotor
fort
##static
stom
##osomes
##tingu
adip
##quency
contour
season
##estrial
managment
sof
distancing
branding
prognostic
##inski
norway
canal
airline
analyze
summer
##ould
essays
##thetics
switched
atmosphere
aesthetic
flavon
##olithic
overlapping
nafld
israel
allevi
acupuncture
entertainment
cue
dre
gum
horn
save
##yang
##iltration
##ersen
##atile
##plication
unlabeled
arb
peril
researchers
performances
carib
##rivast
tempor
comparisons
buff
format
associative
critique
landsl
southeast
grounding
password
stereotypes
glasses
disadvantage
pragmatics
bengio
palliative
equivalence
bloom
klein
fasting
gent
hang
hollow
ionic
mhealth
oph
pond
pyl
xl
##loc
##rine
##bd
##yah
##onial
##icill
##aton
##iser
##acl
rek
##owing
supr
scand
##enders
amount
realism
reddy
miner
bread
combat
steering
oli
fluency
ordering
quantity
watson
pakist
hoff
tissues
absorber
citations
##osterone
counselling
microfluidic
himal
fingerprinting
fossil
willingness
metadata
vulgaris
aprendiz
og
sys
ya
##bee
##ription
##apa
spark
shelf
leave
##encias
assim
meal
robin
consomm
##raphy
functioning
##isson
deliver
##aired
correct
pathogenesis
##ethane
##coma
polyg
transmit
converters
informasi
determinant
differentially
pharmacokine
observed
muscles
constructiv
neuropsych
##usaha
couple
malignant
irradiation
pursuit
enviro
born
fang
gd
nested
pam
sae
yosh
##eve
##06
##tization
##inging
##road
##etz
##amoto
##than
##occo
##ably
##imen
##opo
shaw
beijing
amel
expertise
canon
##ittee
##holder
kernels
june
keper
##ectively
francisco
condens
uterine
bureauc
locomotion
arima
42
bour
donald
hull
lati
lut
luk
nico
wool
yellow
##gram
##ville
##asil
##igence
tough
##uns
algin
dias
transpor
plur
begin
performing
##rontal
##anni
crust
##2018
geology
calib
enhances
immed
lawrence
1983
farmer
watch
##rupt
choi
membranes
rodrig
fragmentation
criticism
fidelity
nanotubes
lunar
floating
bent
bci
ew
kil
lanc
xen
##cas
##05
##fu
##onation
##onacci
##arity
##rose
##elman
##oderma
##rition
chic
deal
exha
alt
rectif
ardu
manus
##onomi
predator
##onso
geoff
radiology
engineers
slope
##class
zhi
oliver
teleph
faith
calculations
biased
nutrients
germination
bonds
##rotein
purposes
premature
alberto
items
gregory
asperg
sebastian
##rhea
shrimp
##rivastava
cai
kitch
lok
lcd
##yd
these
##olet
theat
##ulatory
stew
##ratives
##ocyt
##atite
##izable
spik
aspir
appr
arrays
perin
emg
emitter
grating
predicts
evaluations
explore
journalism
patel
potenti
polyphen
telesc
karen
fractal
wright
stimulus
mesenchymal
pneumatic
##rification
athlete
eyes
louis
##forestation
metallic
cylind
municipal
democratic
representing
congenital
covariance
05
astr
dari
foll
hig
ik
kub
ld
lal
lud
maz
tables
##ll
##74
##tie
##strom
##ulative
##igan
deaf
pren
truck
networked
intermitt
contents
empres
plural
leone
socialization
##tru
wealth
weiss
producing
supers
bruce
##ichen
##anker
##arsh
canine
transferable
fermented
symmetry
painting
probing
taxi
molecules
gaps
debate
since
receptors
chlorophyll
proximity
sugarc
anomalous
voluntary
helicopter
triggered
staphylococcus
epigene
komunikasi
shrinkage
##arrollo
02
ara
dag
jag
jim
lak
noc
niv
naj
sized
tung
taste
##oic
##bots
chak
##imetry
orch
enroll
acne
disamb
effort
shel
arist
scores
prejud
##oked
gui
realtime
##issance
solv
endors
endoth
upon
spectrophot
penel
instant
linkage
dyslex
disasters
analyse
ideology
hunting
recombinant
unconstrained
piezoelectric
cucumber
amorphous
arduino
99
bun
cows
eh
hog
lad
lte
nn
tight
vortex
##tp
##mium
##xia
##anian
##icated
##entes
##stream
mart
##verbal
committee
agility
variety
implication
##other
airbn
keu
microscopic
maintain
certification
sanitiz
texas
splitting
criterion
ventricular
mango
mitigating
simplified
ratings
diagnostics
dilemma
auxiliary
unpaired
aperture
egyptian
airbnb
bes
cort
lis
riv
tg
ud
vene
xie
zi
##pes
##hat
##oglu
##imo
##utsch
##udge
##obacillus
interd
meter
metform
##illi
hymen
machining
##ahl
designed
idi
glove
##tify
monop
crise
philippe
supplier
catch
penerapan
belong
hetero
vitam
luo
rosen
pcb
hepatic
expected
##obacterium
mastering
mnist
acetyl
jackson
influencer
introducing
narcissism
basketball
entailment
ej
foster
lending
rans
sund
ung
wai
##eon
##bp
##idor
replay
##ried
##ucle
##plane
nex
biotechnology
asses
assum
##ugu
preprint
geop
personalization
offset
##link
contraction
anime
bounded
org10
crown
mindset
alternatives
cycling
garbage
beamforming
missile
##ourced
mandarin
##rhiz
revealed
breakdown
pavement
rebec
seawater
council
intermittent
sugarcane
cep
cao
danger
jp
nr
would
##cel
##jin
##atter
conduction
##imaging
##plasty
##apes
##opia
spending
ade
##anta
##ibilities
assistive
moon
pointer
underground
##awat
cruc
##ajo
grace
roof
fluids
magic
uncertainties
siw
providers
lesson
essentials
dosage
prolif
immigration
html
elephant
embodied
jesus
dissolved
keperawatan
64
978
aure
gly
gnn
lov
lett
lactic
sas
##oen
##flu
##array
##iga
##ocy
##oven
exoskeleton
disrup
alarm
##obil
unet
##actors
stretch
hein
##arya
infl
prey
flower
nonc
experts
serge
##abilidad
investing
politic
shortest
dependencies
strengthening
nigerian
##centric
hasan
happy
nucleus
startup
cbt
iranian
obstacles
manifolds
divergence
bodies
biometrics
ammonium
terrestrial
plaque
meningkat
discipline
360
cem
fav
gw
hess
iq
litter
mech
ou
vad
##83
##63
##wi
ankle
##rost
##elastic
forg
##idirectional
##ames
##iguation
##ogens
##thood
##under
restr
spac
aliment
##akter
peroxide
scop
margar
elic
cortic
abb
slav
measured
inferring
hypox
keeping
aerobic
passage
treating
manipulators
strains
prak
redundancy
##processing
ambiguity
caffe
penelitian
metformin
bible
cis
ding
dick
ful
jas
jason
sell
xing
xix
##uity
##enty
##olip
##odal
cone
actin
##vian
##akat
impulse
##rying
relief
infected
##uber
synerg
protect
econometric
lost
drink
morb
ready
carbox
steve
urbanization
##ksi
primer
added
##hiro
keith
conversations
##u0004
##ranial
coco
inverted
philosoph
microfinance
insects
mobilenet
handwriting
attraction
nicholas
##aturated
microgrid
elimination
projections
bovine
nelson
arrangement
ratios
hon
mail
moll
tt
tio2
wit
##cg
##rish
##bt
##bow
##ulting
##agin
##umer
spar
##achi
basal
shan
marsh
bior
selecting
carp
carn
internasional
crf
##ographs
barr
spatially
icu
colorization
provider
excell
##itzer
unders
cipher
clothes
##imbing
physicochemical
preparedness
ammonia
hpv
festiv
lumbar
enrollment
fec
fate
mong
qr
wake
##lass
##pot
##n1
##alism
chol
##ocent
##opa
##aches
##ensin
micron
smoke
##ribution
underlying
solvent
salv
drilling
affinity
##edding
estud
golden
centrality
reflections
meaningful
sprinkler
ruth
annotated
earthquakes
situational
nmr
hormones
vaginal
cnc
dutch
bambo
plasmonic
stuart
thoracic
britain
absolute
perinatal
keuangan
03
abl
cys
cip
hour
haj
nish
overs
raf
##sel
##mu
##vas
##abe
##izz
dispar
altru
##entina
##iani
soy
carbo
##okes
##inda
decou
optimize
memor
peels
delhi
leads
##ethanol
turning
circle
##embangan
legacy
hortic
prosocial
pso
mosqu
tensorflow
coatings
##olytic
telecom
##zhou
adhesion
scratch
neighbour
spectrometry
adulthood
commodity
rebecca
aim
dans
nether
punc
rus
tors
yus
##np
##dar
##3c
##ogel
##inea
##angi
actual
unstructured
##echt
impression
##alling
indica
amp
micror
##iki
##erner
brush
##bris
percep
##boost
facing
novelty
polyc
##ghz
standardization
capacitance
antennas
ahp
pollut
plasmon
separable
crystals
murray
russell
mexican
metamaterial
repeated
guru
polysacchar
turbulence
johannes
honeyp
repository
september
caribbean
pakistani
disambiguation
proliferation
bots
fold
kaj
lass
lah
mason
xue
##my
##feng
##inet
##anas
##acia
##ulates
##idin
##ager
##osexual
chess
chair
tok
##atika
compacting
alger
strand
##ista
emo
##entin
##timacy
agu
surrog
##arians
knn
##away
protected
discontin
##reatment
integer
gru
calidad
ups
##oides
auditor
angela
walter
antibodies
demands
navig
wrong
symptom
abscess
michelle
##olytica
coordinate
puberty
enrichment
laparoscopic
bruno
kualitas
plagiar
penggunaan
psoriasis
bamboo
5th
eight
hern
nations
##oin
##cp
##iances
##89
##eties
##psych
##bul
##inas
##enets
##enstein
##oran
##icin
##aculture
##strak
##ospor
##osecond
deutsch
##ovis
adams
##phere
efflu
studi
interconn
quaran
simil
nonverbal
##evolution
characterisation
temperatures
polyur
tradeoff
partition
annotations
##yrene
broadcast
websites
divid
further
##edicine
melanoma
pesticide
immersive
epistem
episodic
##ofemoral
meningkatkan
7th
dod
eis
eur
ign
kp
kri
lys
tier
##rass
##65
##gets
##feld
##ecraft
##osus
##uto
##apan
trick
distingu
phases
atrous
amid
roberts
nanow
worldwide
silic
mycor
circum
1111
helping
keb
hemorrh
required
alternating
tanah
scholarly
##otid
masked
1002
restriction
fluorescent
controllers
letters
aplikasi
soluble
##parametric
friendship
disentangled
##kolah
appropriate
accommodation
osteoporosis
quarterly
enferm
alginate
43
averaging
dock
gulf
jie
mist
mack
sacchar
u00
##local
##eets
##mia
##vd
##vasive
##erge
##etah
##etching
chron
##atia
##api
admission
meet
regime
blank
flour
varieties
patell
default
grids
##auge
audience
steady
paint
maxillary
syndrom
kinematics
magnitude
acquisitions
chatbots
##eholders
forensics
santos
perturbation
##oblastoma
decrease
prefrontal
together
microstrip
manganese
gf
hide
nail
rak
tone
xvideos
##pear
##fect
##atz
##atosis
##ecd
##rable
revision
##itha
ence
disab
asr
select
moore
robinson
discover
##oxacin
grant
##clr
##rows
word2vec
fibonacci
##auer
magne
aggressive
molecule
##anglement
payments
akunt
odont
miscon
shipping
mrna
amplification
amplitude
cadmium
rewards
aesthetics
stakeholders
watershed
cassava
asymptotic
kitchen
prejudice
75
hell
oy
penc
vor
##cery
##tiles
##oman
retic
##atial
syst
arithm
contro
seal
leverage
mario
parabolic
desk
obtain
researches
humor
supercap
brach
insulation
notification
assessments
slag
##pected
operative
grades
settl
latest
panor
normalized
ego
narratives
rosa
1979
countermeas
phenomena
embryonic
cobalt
isotope
craig
canonical
aspergillus
98
euler
gp
ginger
mate
nt
pus
pore
pension
sind
tect
##aug
##pace
##bir
##1b
##holic
offer
##enta
deha
debris
enough
##acher
##ipe
beat
abu
humidity
##ront
grocery
##anny
incident
subgraph
guy
##2016
skeletal
geographical
##ankar
ethere
typology
thermodynamics
vera
##factory
induces
##bias
copd
platelet
taxation
frequent
procras
recording
preparing
##rawal
##hydro
traveling
juice
mimic
##omorphism
##odontics
physician
dasar
traceability
aplic
polynom
practitioners
aprendizaje
assimilation
immediate
patellofemoral
kra
pwm
tari
##bus
##mat
##mus
revised
##ucks
orbit
##izacion
alone
##ellulose
##violet
##romy
##haus
##ermann
##blog
psychometric
##azi
defenses
drum
dressing
camb
thermodynamic
pedro
homeless
minimizing
saturation
aligned
provide
original
prioritization
retailing
ethnicity
pairwise
quadrotor
alkali
suicidal
critically
citizen
divergent
judgment
lignin
1007s
##networks
sweden
##oglobin
microservices
08
iz
jal
tennis
##rates
##base
##kumar
##ders
##far
##wall
##arum
##ately
sta
stars
##reen
##ocin
##imoto
trast
adren
##ensory
##ipation
##ellation
divide
rech
recession
paris
evapor
desarrollo
surfact
markus
##ieties
mats
cru
cracking
roh
slab
swimming
extensive
illusion
funding
periodon
specificity
phenolic
migrant
fertilization
ultraviolet
tensile
##osaic
mahm
socioeconomic
restaurants
linda
nanofib
almost
attendance
discrep
plagiarism
ethereum
250
zimb
##cz
##rr
##bm
##eres
##orf
##edo
##economics
##omod
##umental
phishing
mann
trab
weber
feeling
educators
twist
globally
copy
needle
ageing
bioactive
panels
rotating
regulating
footprint
residents
because
embryo
caregivers
village
alkaline
angiot
transcriptome
voxel
##acoustic
quarantine
afl
cec
dac
done
holl
jain
kob
mf
ost
##gas
##ghan
##hil
##wana
##ertion
##inge
##edes
##olum
##ilis
##ulti
##imer
##encephal
pran
asi
diri
deterior
commission
microm
productive
matem
guang
realization
twenty
slip
dirich
limitation
negl
mcm
stocks
snake
##berger
lipolytica
violent
1975
dengue
vibr
bengal
figure
chamber
alfred
archaeology
scientists
acquired
patricia
microorganisms
perilaku
angiotensin
eut
gos
kent
kelly
l1
nancy
pile
till
##bits
##mir
##ych
##atar
##elin
##activation
##ches
chung
comorb
##unting
##open
advis
alum
sekolah
datac
parag
amyg
##ahertz
##neider
monot
guest
howard
archive
industri
sludge
mapp
postoperative
pathological
fibrill
manufactur
million
roadmap
##market
providing
buddh
initiation
dopamine
nasoph
##yclic
moderate
stir
stefano
substitution
##islav
bronch
lecun
teknologi
tsunami
020
41
aki
gyn
hw
rend
rick
tilt
##uar
##atoid
proposition
##atid
exclusion
compiler
prest
disney
clo
##phase
##actory
perc
emph
teens
beef
elena
motif
pool
##ports
optimum
##raphic
archives
solanum
endocrine
##urrency
practic
##marks
swine
occl
hybridization
tourists
copyr
implemented
##spec
1981
keyph
compositionality
continuum
hui
parkinson
junior
tablets
savings
ancest
aquaculture
midw
coalition
filled
extremely
washington
yarrow
eigenvalu
schwartz
terrorism
mosquito
polynomials
bending
ces
dang
giving
lp
netw
pir
rw
u0000
ves
##lock
##peng
##hart
##estine
exempl
trat
diat
shim
cola
processed
protecting
##afe
employing
##taut
vaccines
advancement
aerosp
investments
bandit
accelerometer
##ucker
listed
fertilizers
wildlife
transactional
arthur
ekonomi
columns
shuff
crystalline
bibliometric
outsourcing
yolov3
antifung
olivier
theatre
prenatal
dirichlet
bob
cau
grip
jump
otitis
turing
##92
##nic
##don
##hel
##hop
##icular
thing
##rage
##used
##rees
##adores
##udy
una
metap
multiob
poland
eccentric
##stract
nonparametric
evaluative
##system
variant
harass
kinematic
weakness
porter
holly
doping
activism
francesco
geriatric
congress
opinions
tetra
attrac
ibm
tingkat
vincent
pulsed
refugee
rhetoric
excessive
dyslexia
belonging
emoji
polyurethane
yarrowia
bs
dp
func
giv
mum
tsu
vern
wrist
xyl
##ounc
##96
##bone
##kas
##dam
##tid
##acon
##oglyc
proactive
##abel
surf
surge
socially
methodological
##ioid
##ernet
optimizer
nonneg
locus
strategi
##ochrom
##uktur
morgan
##inalis
hypergraph
ocr
corporation
triplet
lingk
taxes
promoter
##modern
tomas
inhal
berry
simulating
maximizing
murphy
preterm
cryptoc
exploitation
regener
rogers
harvest
disinfection
drainage
anatomical
aureus
netherlands
arithmetic
500
dung
fon
hag
hak
ipo
qian
tld
xa
##cam
##tes
##tec
##bent
thread
##ocyan
disk
adrian
alice
##obot
##vies
interacting
shakes
arriv
leis
electrosp
diges
member
improvements
##ankton
delays
ethic
sla
morocco
##heets
supplements
olfactory
myan
compliant
homogeneous
wellness
passing
hemis
stereotype
procedural
invariance
granular
reveal
lactobacillus
ekstrak
elasticity
become
simplification
getting
##ayanan
bioge
wisdom
compatibility
fluctu
prescribed
##yarakat
salicylic
##usahaan
geoffrey
supercapac
06
47
ferm
lans
ping
wav
##etics
##uana
##dan
##vae
##jas
##jiang
##tious
##orous
##roach
thir
##agne
chrys
encl
##andon
##ateur
shak
sheng
atp
coch
##iba
else
##athering
##ished
known
secur
##floxacin
defence
##ausal
hyperparam
familiar
pengetah
females
confirm
statements
polymeric
microscope
phenol
watching
conductive
hasil
radius
shipbuilding
##plastics
enzymatic
subjected
macroeconomic
tutoring
rabbit
hedge
horizon
husk
mercury
pearson
phillips
rhythm
catastrophic
minerals
fibrillation
4d
brom
bao
dum
hours
leng
roc
sarc
srin
##lav
##rac
##inn
##alin
##iliation
sto
##atization
##otti
##ologists
##ewise
transit
plans
beau
bypass
previous
##alez
knowing
##ylation
locations
overf
outage
endoscopic
malay
lift
##ophobia
universe
papaya
statistic
futures
continental
loads
capitalism
farms
federic
strengths
##resolution
experiential
sexuality
instructions
involving
seeing
lucas
granul
haze
tracker
muscular
escape
becoming
coordinated
##ophysical
enriched
ncov
agroforest
histograms
etiology
fernando
persuasion
##olecular
squeeze
##ophagy
restruct
caffeine
carbohyd
nonnegative
pengetahuan
52
cigar
haptic
pab
pell
pms
tann
zhe
##itin
##tm
##body
##mes
##eron
anesthesia
##idental
choms
dealing
##abstract
##atik
perez
##ournal
multim
append
abor
##yne
1038
segregation
retard
digestion
serot
terahertz
##zzi
popul
constructions
belg
##ogeny
homo
paed
petri
masyarakat
##steine
consideration
coordinates
letter
solubility
adhesive
phillip
horse
capturing
##rosophila
estrateg
vinegar
mishra
masculin
biochar
##eastern
pylori
nexus
trastorn
copyright
harassment
cube
drosophila
haf
hough
kum
ln
tir
##85
##uv
##hong
##vm
##41
##jit
##icul
another
thym
##usal
entr
##ande
unex
april
perl
manure
atrophy
coag
plc
parasi
elabor
elmo
corne
schl
selenium
fei
engines
semiotic
##ypes
patri
locality
oxyt
##alypt
lands
backsc
ester
said
rena
##u0006
menop
simulink
migrants
roberta
uavs
choose
metabolites
priority
giov
multichann
bhatt
categorical
oscillation
dyes
vagina
##algia
metastatic
grief
##arajan
nanocomposites
##integration
antiviral
exhibition
percentage
##icillin
rodriguez
stewart
procrastination
multichannel
59
dap
dsm
drones
got
jaw
koch
utaut
vesti
yos
yad
##xin
##wear
##icas
##idia
##ears
chir
##umatic
##uci
##otec
##angu
##eptive
##ober
isbn
obese
undergoing
influential
insectic
crises
estimator
##bras
tweets
##generation
greedy
stores
migraine
principals
cyclone
subset
paced
##plasm
coca
pseudomonas
diagrams
jeremy
judgments
establishment
ventil
conservative
hvac
deposits
akuntansi
multiobjective
leisure
chomsky
09
arous
hf
hof
ibu
kre
nk
pull
ry
tale
urea
##lers
##rasi
##uasan
##gage
##4a
annal
##real
prok
##ineering
spor
alam
seam
##ancies
graham
abc
schneider
preprocessing
mono
guer
files
##ukin
helps
autoimm
perioperative
precurs
transmitter
##otypic
abdullah
hypertensive
wallace
##urgery
glycos
bibl
implantation
wolfgang
facilitating
pearl
fernandez
frozen
sobre
rectang
interfacial
##frame
gonzalez
landslide
spiking
ahead
cock
gust
kash
lived
psy
sour
##bic
##hous
then
##omen
##emination
confer
deploy
spelling
adm
dij
interdisciplinary
arsen
plot
multist
##ugging
generators
flip
boys
##2017
join
schooling
##echanical
swe
airplane
transforms
repell
##fficient
ordered
fishes
passenger
dissolution
christine
contribute
piper
haem
army
motives
rgbd
dominant
controllability
grassland
hazards
picking
tendon
vertex
##oquine
prophyl
destruction
fifth
pyrrol
trivia
newspaper
pharmacokinetics
attractiveness
myanmar
cg
dft
dash
fool
foli
hou
hann
kha
liz
nord
ton
##b2
##bon
##xi
##jian
##onium
##erk
##inate
##enic
##anu
##atology
##isha
##ische
##asure
##ulu
##ulis
stations
##agonal
proven
##rips
##owitz
2021
##estration
bike
weed
##ungs
##cler
postmodern
carbide
##archy
herz
intrigu
dcdc
radioactive
borne
1976
proposals
spiral
nanocryst
pedagog
pancreas
diameter
references
popularity
ligament
laparotomy
##titleabstract
currency
disruption
hepatoc
programmable
rachel
telecommunication
inhibitory
endothelial
nasopharyngeal
aerospace
tldr
fasc
hci
ist
jensen
kaf
mism
mint
sectors
tas
wars
##lenet
##87
##nar
##sson
##mos
intimate
##elia
##aser
##ilin
##odia
##ogan
enable
envelop
##formance
diana
analogy
##ayo
sek
intu
genomics
imputation
multidisciplinary
eva
##avan
whist
aber
##pture
gland
protest
edmod
guard
geomet
malt
adversarially
engineered
posts
pathogen
created
combine
causing
circulation
motions
paolo
##venous
names
neuroimaging
psik
turbines
##structing
falls
mosfet
epidemiological
nicolas
vlog
vlsi
initialization
disturbances
crystallization
establishing
microfluidics
roughness
kadar
eucalypt
enforcement
ferroelectric
transgender
iodine
disabled
mappings
shakespear
edmodo
53
802
bj
bind
bhar
doll
fant
hugh
hmm
kop
lai
naus
oly
sage
stit
tf
vign
zeng
##cov
##61
##tible
##ede
theology
rew
##essler
##rique
depres
##ocon
##iones
##uded
modulus
efforts
suff
shame
##asses
beer
elm
abiotic
attending
##essional
##ungen
##oxin
ulrich
conditioned
magazine
storm
nitro
colleges
portra
miguel
roberto
conductor
rocks
chromosome
neutron
queue
physicians
diagnosing
algebraic
furniture
podcast
imbalance
preventive
alkaloids
victims
rheumatoid
keyphrase
given
duct
eks
fuk
father
gha
rdf
sie
sne
yue
##oag
##tan
##04
##3n
##ald
anhyd
##educ
##edness
tobias
##adas
##ewski
interplay
scorec
stres
societies
##iller
infinite
schult
moz
poisson
newly
diffraction
humanities
##annon
retrof
respect
##flix
##agner
##torch
profess
pandemia
forecasts
ramesh
bridges
fluoride
ifrs
kepuasan
claims
kelu
catheter
vlad
##otoxic
florida
officinalis
pupils
disinfect
gabriel
arnold
mammalian
similarities
docker
restructuring
04
44
67
bf
folding
lda
ltd
mike
noma
sift
ties
uc
zig
##81
##hole
##h2o
##human
##ww
##inin
##atos
onion
##ococ
##imus
##overs
modulated
resting
clas
adalah
alve
aloe
##akov
metah
metagen
perk
scrum
##alline
corner
amit
##ognitive
##sex
prep
electrolysis
##eek
superp
edit
##sung
overall
##iedad
##ometh
##itively
morris
greater
encaps
testosterone
##ascript
##ativo
adding
##shot
accounts
bandura
nationalism
##entification
attributed
achieve
pollen
plastics
talking
1974
##ariah
stylistic
gius
historia
chromium
judith
iteration
gains
avian
nicola
organisations
boosted
straight
stanford
metastasis
zakhar
transistors
##zyk
veterinary
paraphrase
tibetan
survivors
coleoptera
aristot
altruism
zimbab
antifungal
intriguing
hepatocellular
nausea
6th
ae
craft
gangl
hiding
iclr
nah
serg
vqa
##ais
##rint
##var
##wh
##jie
##itous
##eder
##emediation
##odial
chond
##ocar
##ovich
nep
exogenous
##eppe
diseng
##ourism
##anco
multibox
leo
opioid
##iks
sms
##ieh
flora
proton
finn
solids
redes
endurance
barley
pathophys
backward
##ativa
helen
biomim
##u0003
ghost
achiev
dissection
closer
rumah
rumination
dentin
nikola
matched
catalog
frederic
polyprop
krishna
attenuation
eugene
toughness
datacenter
digestive
scorecard
07
aver
jab
mpc
tad
wmt
##pts
##run
##wu
##ulia
##uts
##otation
tryp
uniqu
##quin
php
scans
scada
##ouri
atari
martine
elast
surpr
semeval
dox
afghan
formed
collections
allium
poster
ultimate
offs
offenders
##onica
harry
dried
reconc
netflix
homosexual
hotsp
melting
passion
capacitive
informative
phenyl
exposed
1978
anthropogenic
levy
compressing
locked
congru
somatic
roller
edwards
town
license
seaweed
teknik
electrocardi
lambda
orbital
aaai
membership
perceptron
countermeasures
51
ather
cyp
lm
oecd
rasp
sidd
ui
vann
##kinson
##yam
##vy
##inated
##itar
##olysis
construal
##ocl
##abo
excl
##anges
trem
perusahaan
marij
induce
##idea
ish
##arez
medie
##ondo
##2015
usefulness
signalling
volcan
ethyl
correcting
##uka
hydrolysis
barc
photod
taxonomic
##osphere
##model
goodf
electrodes
bounding
routine
directly
regulates
##iropr
joshua
levine
##tikel
communicating
mnem
cbd
households
lorenz
gyros
apparatus
synthesized
synthesizing
sulph
suggestion
speakers
machinery
surrogate
corneal
##clerosis
metaheur
77
bile
ftir
hod
krist
lope
sanc
srivastava
tid
tesis
wagner
##iu
##avi
##etion
##mans
##fusion
##hou
##orption
insu
##atas
##ague
##usan
##igo
##thi
##udin
##oten
##andi
uso
scanner
genital
ever
methanol
sociales
##engineering
autophagy
blade
knot
##oka
noncon
prototyping
insertion
subc
##atism
antidep
noam
typical
encour
additives
probiotic
pytorch
intrusive
versatile
broken
##arcin
1972
initiatives
omega
presented
toxicology
lymphoma
expectancy
cytometry
july
stronger
inertia
prolong
drosten
candidate
triangle
javascript
biomechanics
constitutional
piecewise
comportement
eucalyptus
keluarga
medieval
96
curing
eri
ff
gong
h2
mold
oak
rp
sint
sink
tand
uh
vow
##lc
##lich
##ever
##dle
##zel
##hold
##tiers
##uru
those
##activ
stegan
##oge
##rien
deposit
##abl
##imes
##adh
##aden
competing
dispos
shale
armed
heg
above
socialism
robb
##ikh
caring
graphite
##oko
qualities
accent
discount
insecurity
##ughter
##azo
buch
powerful
##ostasis
worth
backbone
immobil
myers
polyph
nutr
manufacture
##hypert
failures
hemp
sieg
bilinear
removing
aggregated
baseball
##otide
intravenous
authenticity
prince
analysing
halluc
gallium
zebra
connectionist
todd
dominance
receiving
wetlands
museums
stanislav
displays
imperfect
steiner
details
konsep
folk
sesame
pectin
typhoid
##acetam
diplom
chicago
telephone
amygd
goodfellow
diaz
fas
gith
iw
mk
nb
nud
ott
prab
pink
ride
rome
sizing
tic
##iec
##pol
##text
##enh
##arcoma
##ecycle
##uria
##aci
##ulous
neol
basics
##former
ars
perfor
even
##rolog
infusion
methylene
##blast
schul
surround
meyer
flame
glauc
##iques
frust
dof
digitalization
labelling
complet
sentinel
chemicals
immunotherapy
cardiomy
jama
waq
regulator
tubes
cui
1973
##0002
davies
garment
excav
harmful
aster
argentina
bulle
updates
efect
klaus
teenage
substrates
substances
configur
tatto
efektivitas
biodegradable
transporter
sriniv
arousal
57
62
dors
epr
h1
hud
null
sif
vil
wah
wrap
##bour
##07
##glyc
##fre
##hir
##jab
##onit
##analy
anand
stones
##ameth
chandra
chiropr
##iak
spent
climbing
contag
transnational
places
##pred
beg
elections
##ryn
##avir
infan
polish
autop
##ocket
finland
microblog
guill
##ehe
joel
solomon
labview
internationalization
norman
autistic
centrif
##abilitas
computerized
photometric
##fficiency
virtualization
##spe
bankrupt
##modular
warping
propulsion
dialysis
costing
alexnet
##itized
harmony
closing
residue
starting
julie
##amento
claim
cathode
bowel
merger
merging
mounted
parasit
##legal
disentangling
dehydrogen
gingival
nanomaterials
lupus
spectrophotometric
##ovisual
fluctuations
lansia
lopez
bulletin
88
bc
cation
df
huk
pour
tack
wsn
xg
zer
##pre
##tory
##techn
##ship
##fire
##western
##rocal
##etri
##olite
##ampus
retina
token
##thus
##apping
##apatite
resistive
##anga
alp
##ainment
contacts
##ibil
paral
##aceous
agua
franz
bringing
subsequ
101
cyst
identities
overd
##flower
outp
geological
nanor
collins
mathematic
turner
prime
##comb
probiotics
keyboard
peters
##u0005
##u0007
legi
wafer
masking
exchanger
acoustics
participants
##olingual
justin
landscapes
neutrosoph
bleeding
phonological
rahman
neuropathy
prescription
parasite
influenced
detailed
mitochondria
ioann
friedman
unsaturated
elevated
beetles
extracellular
ernest
metacognition
ticket
nanocomposite
necessary
retrieved
inheritance
vestib
olymp
diplomacy
github
neutrosophic
catherine
jh
kav
kend
uji
zou
zamb
##iod
##power
##sd
##vili
##journal
##orov
##uling
##ulmonary
##leen
rever
deple
##oco
compost
trin
##pha
##alla
byzan
##vert
biob
##block
convection
optimism
##rime
filtration
##ophen
affair
equine
photonics
curiosity
grouping
silico
##regulation
mutant
converting
##traumatic
separate
rhod
muj
polarized
lactose
spreading
lagrang
cinnam
mobilization
dispersal
durability
pancreatitis
multiplication
lectures
tower
griff
thermoelectric
##jarah
tilapia
exhaust
rectifier
telescope
epigenetic
honeypot
discrepancy
##oluminescence
elsevier
agroforestry
antidepress
54
72
cun
dab
days
duck
sided
yous
yann
##benz
##sol
##zone
##hub
##hara
##tide
##inis
##ectin
##elium
##standing
##raham
##usual
##americ
toy
##uttering
##ader
##otrans
neumann
adel
asp
seat
##uster
##iberal
##encer
marina
paru
selectivity
##roscopic
distal
subg
bush
males
##insky
##ophage
##heet
official
hydrodynam
belie
portal
electroencephal
walks
liquids
miy
maintaining
ghosh
resonators
taboo
updated
cohesion
##works
methylation
checklist
acetate
droplet
immigrants
peptides
deeplab
##stantin
##professional
ubiquitous
consommateur
interdepend
margaret
dividend
obtained
oxytocin
cac
ficus
hari
kip
lakes
rm
rug
tz
##lett
##2se
##mund
##fen
##fan
##onas
##onian
##enk
##itax
##acs
##acies
##emaking
##idio
reper
chocol
comic
truss
##ifiers
unse
unusual
##acted
cough
biochemistry
amr
abroad
##ishi
blend
carto
##ronics
marking
smell
conven
persian
##ubation
##ierung
temporary
histology
notch
barry
employability
pathogens
determined
held
wastes
femoral
standardized
experienced
antagon
merch
motivasi
luca
mangro
hipert
refractory
venous
felix
sociolingu
dhaka
##oplastic
fusing
lemon
intelig
launch
request
sewage
superconducting
vitamins
festival
1000
crab
dich
fuc
jah
lion
mav
yet
yah
##nad
##fin
##onucle
##org
##olu
##olis
##aming
##igs
chyl
deforestation
##abad
##opal
##optic
claus
suk
arun
plates
evid
semiotics
carrying
organized
##yler
extrusion
guan
door
##posing
plank
redox
salary
advent
canopy
graduates
verbs
doctors
viewpoint
penins
##look
announc
medicines
trustworth
continuity
linkages
hua
tumour
classify
maximal
1970
omni
absorb
receptive
multicenter
pixels
##ograms
pemer
powers
##anthus
wuhan
##rafting
donor
ideation
pigs
vietnamese
permit
algebras
hypersonic
flying
sapi
transcriptional
anticoag
oleifera
fused
sudan
gyro
outside
coded
contaminated
streptococcus
gymn
anonymous
editorial
terminology
hippocampus
virginia
ddos
gdpr
spacecraft
disparity
mycorrhiz
controvers
dehazing
overfitting
foliar
mismatch
whistle
giuseppe
neoliberal
buc
bai
fam
fight
hij
mh
pant
qiang
tie
wien
##iph
##tok
##beck
##ws
##estin
##itable
##ilic
##obium
interoper
arid
multif
marital
evoked
developer
processors
december
##uba
synaptic
factual
sky
solver
##azar
patter
geodes
loud
twins
saline
##ographics
collector
crossing
##tebr
freud
fibres
battle
implementations
ics
genetically
faults
aerodynamic
portugal
peterson
accelerators
satur
advertisements
northeast
transitional
sunflower
ships
approximations
antioxidants
paired
quadrup
boarding
everything
phonology
fusarium
shifts
##pheres
alej
apparel
diarrhea
ninete
riemannian
bundle
ingredients
metropolitan
hypoxia
arrival
rectangular
zimbabwe
disengagement
martinez
bore
eat
ehr
hut
mia
ning
oman
rings
ritual
sach
wo
zam
##oints
##cu
##94
##hak
##v3
##alc
##alent
##arus
##icide
##rox
##eca
##elt
##elon
##olor
theod
##ocardi
trump
cloning
asean
##elled
unity
recurrence
percutaneous
indo
elli
evasion
hyster
humic
##ietic
##titution
##ropping
nonin
matt
imagination
cran
##aza
endogenous
##brush
pean
delph
lifecycle
etching
typing
barn
barg
logs
illegal
cryop
penn
##computer
complication
telework
extent
##article
minds
predicted
seedlings
##reduce
sanch
squamous
christensen
conceptualization
aziz
subsid
bottle
asymmetry
##falls
leaky
immigrant
victoria
teenager
kasus
persuasive
veterans
polymorphism
curcuma
electrolyte
metasurface
bureaucracy
disruptive
morbidity
lingkungan
serotonin
triviaqa
300
95
dai
gin
gior
holding
ia
jong
kear
rn
vom
vend
won
##sil
##mill
##zyn
##yuan
##vr
##tip
##enne
##esian
##aring
##asic
##asone
ford
##stand
stam
stern
reyn
reza
##ocele
##imir
ory
acts
spons
suite
shannon
struktur
muller
platin
mej
appliance
autobi
organiz
nonlocal
securing
##outs
editors
viability
microalg
108
planetary
geom
collapse
remediation
##eyer
airlines
##aeus
transferring
logging
irish
hydrothermal
lima
##ospatial
circulating
responsiveness
massively
##ussion
warfare
hemoglobin
rotary
##ettes
walls
microbiological
polymerization
therapies
residues
michal
julian
bangladeshi
christianity
echin
refractive
routledge
multiplier
conjunction
mikro
putting
disparities
facilitate
billion
bugs
nodule
gigi
tahun
jewish
hydrochloride
weapon
hydrocarbons
parasitic
renaissance
alveolar
polypropylene
steganography
dq
dah
gg
gerald
hacking
lst
mens
nh
nathan
pis
sort
tig
vgg
youn
##lot
##bury
##das
##dman
##hand
##elor
##aced
##omed
##idone
##image
trach
distinc
clients
ascor
interests
scent
marta
pareto
##aved
sociological
desert
classic
quoti
appe
reviewed
engaging
##eeism
algorit
brack
dress
corridor
posttraumatic
##aea
##rowing
terence
repai
entom
freezing
inductor
molar
pengembangan
needed
homology
homework
trusted
hardness
certif
##points
crimin
##ampal
michele
julia
manga
nucleic
deficits
catalysts
vibrations
yogurt
instrumentation
vidio
heuristics
tibial
ligand
ordinary
introductory
isotopic
deeply
disrupt
soviet
struggle
aaron
settlement
xavier
masculinity
##ripsi
atheros
##arcinoma
68
ati
dok
kary
mash
nf
pbl
yuk
##iq
##sing
##more
##high
##hist
##wich
##js
##tively
ank
##istik
##rofloxacin
##stock
##amura
reid
reactivity
chel
##iong
##udh
##eper
disag
disposition
##ologous
unter
subl
##quer
shut
sejarah
bever
covariate
grape
##avail
medial
##luor
humanitarian
segmenting
##aji
delin
formulations
allan
noun
identified
advoc
canvas
##heit
academics
sustained
##ativeness
copolymer
icp
femt
willis
richness
aerodynamics
petr
vanet
modernism
bilayer
misinformation
antarc
rui
galax
##ampuan
pember
##school
cytok
formaldehyde
hydroxide
##panic
##opathological
cannabin
espec
figures
specifications
dispute
thoughts
extremity
myths
restrictions
helicobacter
##ophilic
hilbert
horses
biomechanical
partnerships
oriental
recreation
shanghai
mysql
penalty
contingency
assesment
##ocentric
ablation
algeria
hyperparameter
giovanni
bankruptcy
nineteenth
1st
61
b2b
here
huss
kek
mosaic
nj
pah
pocket
tear
tae
verm
##kw
##hans
##v2
##vascular
##onet
thematic
foreg
##iden
##teri
##oses
chong
##abra
##adan
##otta
##opulmonary
##ysm
syariah
##ensitive
studio
emma
##orse
poem
consor
##into
booth
organisms
secretion
matte
##olean
servant
url
handle
pathogenic
##scs
fuj
##ascul
particular
indexes
##ecker
##u000b
install
mutagen
##ristor
predictability
laborator
propaganda
##fei
restorations
motivating
mahasis
xxnx
instrumental
civilization
1960
marcus
spirit
fragment
fabrics
publishers
saharan
kemampuan
##ografi
hydropower
turbulent
sativa
millennials
audiovisual
alessandro
sanitizer
horticulture
punct
backscatter
autoimmune
byzantine
sanchez
120
ges
gsm
mund
mao
rivers
sizes
zip
##iya
##tel
##gate
##gio
##f1
##zio
##hot
##wat
##wah
##jing
##qiang
##iner
anova
##itational
anders
theme
##actin
##osc
proxy
##pless
##iona
##andom
##yse
adler
unr
interact
##rice
##ivore
reluct
agr
febr
##tisol
monolingual
bran
skripsi
physico
malnut
allergy
artifact
globalisation
offender
landmarks
silvia
benign
mck
bioethanol
##ospheric
fauci
refined
propeller
##ghum
melissa
tune
antenatal
rotational
rosem
gastr
absent
ravi
cryptographic
rubin
cytokine
oscar
trainable
magneto
lycop
reversal
retirement
nanosheets
photosynthesis
authorship
jenis
becker
seminar
reserve
expatriates
guarantees
cylindrical
excellence
superpix
aristotle
pathophysiology
zebrafish
hukum
lagrangian
cryopres
85
bok
beth
bival
hers
hav
hick
jitter
keral
kauf
mond
nest
nips
qin
rag
sip
vida
vyg
zu
##casting
##aution
##lod
##lay
##rite
##bird
##self
##dad
##onen
##erin
##arks
inoc
##roch
##etanol
##stw
##ulina
strom
revi
##osin
dew
##oca
##ucci
acs
##phosph
effectively
unw
diego
ard
artistic
coach
##encion
parks
evac
boolean
##eev
##neural
##ype
##onsist
representative
endodontic
gambling
salam
antidi
##ereus
##marine
histological
switzer
##u001
pandemics
##critical
wells
melt
compositions
immunos
##liament
cosine
origami
propagating
modalities
aztec
runtime
sorghum
neutroph
colonization
avoiding
pediatrics
candida
distraction
mentoring
stanley
negotiating
recipients
reciprocal
shocks
combinations
nanoscale
hunter
zakat
prosthetic
months
elevation
immersion
glioma
swedish
manifestations
reflectance
contraception
illustration
ternary
sergey
bioremediation
cystic
neighbourhood
periodontitis
matematika
provenance
zakharenko
chiropractic
depletion
chocolate
platinum
bish
dell
dere
fading
hob
km
kg
kov
kyle
kota
nis
rct
siv
tort
vig
##tas
##mers
##meric
##dec
##onite
##environ
##anil
##aras
instruct
##ilo
##stad
##idou
##cea
##user
##ushi
ong
tof
##ffy
##imia
##apple
oracle
##tingham
modulator
alonso
diane
shao
peran
sean
##istribution
##estone
managed
ages
mons
##plex
microgl
extrinsic
submodular
skew
temple
cysteine
loess
etch
samsung
mapreduce
handover
generalizing
valer
guiding
molasses
corporations
culturally
##ija
hemodial
siri
degrees
goldberg
fabio
ultrason
excel
harmon
vulnerable
frontiers
deaths
##rickson
takah
tamar
meshes
perfusion
thresholding
kelas
patches
matthias
extensions
suitable
partners
kennedy
ridge
retinex
garden
clarke
sibling
comunic
deepfake
keypoint
endometrial
botswana
pablo
yadav
repairable
femtosecond
mahasiswa
019
6d
bere
cron
dob
fet
gases
hib
hug
ked
mainst
royal
sau
sark
sio2
stick
tips
wak
werner
xanth
zen
##aan
##aque
##82
##pec
##nick
##sin
##km
##gia
##yard
##joy
statin
##child
##unov
##ither
##utz
##izen
##ysh
acta
asc
##ifolia
##elles
shoo
##gev
##asse
scav
transpos
mull
##oufl
##sein
##oki
##tini
boston
crane
automating
##2012
geothermal
semantically
centred
##ukan
erd
inducing
hero
##iji
denis
intentional
forestry
requires
kinect
##ayaan
raymond
neurobi
proteome
moments
civic
companion
##buhan
sedent
1967
compressor
arthrop
situations
spreads
lossy
makeup
cleaner
cristina
##ynthetic
permission
bearings
argumentation
borderline
volunteer
gilbert
celeb
hunger
resolving
cylinder
redundant
compatible
sf6
alexandre
pradesh
enviroment
lancet
tratamiento
marijuana
amygdala
kerala
66
benth
dra
dif
fow
fah
lv
leth
lora
omar
rer
roch
##300
##jet
##ertian
##orum
inm
##icio
##entation
##amal
chop
champ
##umps
##ocular
##otr
##oprotein
spond
ald
aligning
altered
##vio
##vik
emil
emoc
##aryotic
##acks
pole
abandon
carr
cartil
supermarket
crfs
retro
overweight
puzzle
speckle
##ochrome
efficientnet
hydration
novo
nottingham
entre
silicate
doctr
advancing
bioavail
fishing
bandits
snp
microspheres
seedling
masa
centralized
contributing
textil
tsing
debugging
##nss
kaplan
galvan
paste
ingg
wavelets
phylogeny
cavitation
roland
spoil
##phenyl
imperial
cowpea
ordinal
volumes
intermedi
buckling
hematopo
lottery
neighbors
anonymity
interleukin
quaternion
conjugate
travelling
dimitri
beginning
pollutants
hernia
nanofibers
buddhism
achievements
outpatient
mycorrhizal
bars
dad
docking
fost
p2p
rit
taj
vap
vand
verg
##91
##pak
##rn
##rf
##rets
##bat
##bab
##sar
##zt
##zak
##hor
anil
aneur
##itone
thorn
##idade
##osarcoma
chord
##imp
##imal
spi
alien
##iflor
analges
##encl
##tiva
cores
desi
amar
mof
prototyp
microplastic
subtr
submission
10th
outlook
geos
localisation
collected
slum
##ometers
remed
laplace
worm
silence
priming
estrogen
ansiedad
complain
shortage
bioplastic
frequencies
berlin
lipids
provided
rosenberg
pilates
fractions
pemas
possibilities
ipv
pigment
chickpea
hiper
overlay
palladium
phenomenological
october
whatsapp
dolph
contaminants
retinopathy
fluctuation
hippocampal
claudio
keypoints
##rocessor
seizure
pluriling
saturated
peanut
fcn
gosp
hunt
kram
paj
rif
rays
ws
wals
##rm
##kong
##deg
##3b
##icos
##ationary
##elos
##asin
##asian
thous
##olism
##ilan
##ilinear
##oden
##igi
ones
##rier
chou
##ocell
##imilar
##adap
##otrophic
##perm
##achim
##dermal
pll
teh
marin
hevc
##estation
corals
desire
medis
##athe
columb
idiop
gloss
retain
functionality
##azol
geospatial
peers
formul
alliance
slave
swiss
papill
oxal
cards
lasers
precaution
regulators
porc
revital
chapman
1968
anthropometric
darah
revealing
kuz
hedonic
aerosols
actuators
lept
prosthesis
nanotube
currents
cyanobacteria
resolved
intervensi
textbooks
transfusion
curcumin
austin
##lipid
proportion
uplink
prasad
xlnet
ciprofloxacin
epistemology
yoshua
uniqueness
quotient
8th
brag
cave
h2o
ich
jy
kus
kou
kings
nose
piano
sons
sections
uber
vm
##cm
##lide
##ebr
##mut
##match
##onte
##inations
##orax
##anos
##isasi
##rotic
##eccion
##omotor
##stro
##ulent
##igl
degeneration
##ploid
##opulation
resis
alters
shows
peric
contra
genotypes
multiphase
marz
bees
heath
relating
##oung
aba
again
convnets
escal
incidents
saliva
allow
##ukh
camoufl
dana
openness
fuels
euph
polyst
icd
pengertian
reconstructing
##omycin
liber
confusion
homeostasis
illumin
violation
dissemination
proses
aktivitas
revol
activations
sandra
occupation
##urgical
sulfide
binder
sonar
tiem
ellis
cosmic
quantized
bleu
##functional
nikol
amazonian
toothbrush
biocontrol
influencers
niche
hurric
hydroxyapatite
gibbs
sativum
##generational
recreational
telemedicine
assumptions
adequ
synergistic
effluent
zigbee
configurations
##frequency
xgboost
zambia
unseen
82
ais
ez
jit
nab
niel
ries
rafa
saus
tthe
ua
##lement
##ben
##nu
##nya
##mix
##faction
##infl
##inosa
anast
##isu
##acryl
##olid
##emer
##idas
sten
standing
stokes
conclusion
##ithec
imu
withd
##urea
moderation
syed
apa
apt
diets
arqu
scot
scarc
##antan
opc
querc
hyg
##seed
researcher
##ylated
submarine
##nai
##2014
efficiently
##def
##esca
##anaan
turmeric
empow
cognitiv
pointnet
shark
ferre
limiting
euro
harrison
infertility
bioetanol
heteroj
minimally
portray
booking
##u000f
##prot
1977
adopting
franco
kaur
irrig
arthro
##rocyte
jacobson
hiros
modifications
bleaching
rationale
larvae
gravitational
rawat
benchmarks
anticancer
hansen
mccull
volunte
substituted
conformity
gadgets
toxin
ralph
destructive
tnf
claudia
expanded
scholarship
dissociation
slavery
deterioration
paragraph
prophylaxis
raspberry
dehydrogenase
whistlebl
switzerland
inggris
c4
cure
csp
ceph
dus
della
daya
fb
fath
gav
gauge
gnss
hes
hernand
js
lca
nai
nyer
pater
rg
rita
rather
sight
sister
teng
uae
vish
##p2
##rath
##dong
##jj
##artite
inject
##icios
##itab
##eterm
storing
stunting
##ticism
##ige
##places
##izumab
##ifan
##akit
artist
coevolution
elearning
##tivo
##very
abe
agree
##erto
decade
structuring
nons
microbes
guinea
segments
planting
overhead
##icher
geol
embar
allerg
calves
##ippines
readability
blocking
valor
valence
presidential
shariah
myof
contrasting
beneficial
younger
summaries
flexural
sleeping
positions
sitting
inhibits
protease
butler
adjac
phosphory
cutaneous
radiograph
alcoholic
translational
intraoperative
svd
derivation
peman
darwin
binar
##rocytes
premium
rabbits
equilibria
wetland
warehous
metaphors
nanofluid
shaft
steril
candidates
kathryn
climatic
innate
kotler
zoom
jorge
holographic
repetitive
polygon
idioms
waiting
panoramic
cambodia
recharge
gynec
inhalation
landsat
annals
shakespeare
vladimir
##ehealth
mainstream
idiopathic
1d
91
away
berm
cif
dul
doy
hoch
keh
kost
koz
mx
mv
mati
mai
nem
nile
sai
tk
ttt
##aid
##lem
##ead
##rene
##bia
##bian
##nos
##from
##zes
##hab
##450
##ingk
##etto
##ilateral
##idan
stacking
##agle
##amas
##leigh
##through
##epsi
traction
trunc
always
##obe
##duct
interl
interprofessional
recons
genesis
genotype
##rico
league
assam
sche
registry
knaps
##porn
distances
decoy
##ondition
monol
microt
subword
overcome
pea
drill
morality
##oiditis
photogram
freeman
thermally
hypericum
##atisfaction
##factor
herbs
burg
hypertrophy
nanostructures
##uela
differentiated
wallet
listen
richards
richardson
acceptability
cas9
casual
historic
parameterized
ivf
burns
mmwave
bipartite
tyros
kurt
maryam
angiography
killer
conformal
deviation
epistemic
doctoral
yolov4
describe
practitioner
joyce
macrophage
adipose
buffalo
diaspora
solvents
saccharomyces
trabajo
volcanic
affairs
walsh
heterojunction
nyeri
89
bite
crick
dv
dak
dest
gul
gou
jae
kish
kines
lichen
nal
rent
rox
ragh
tape
vu
##oan
##rl
##rina
##riter
##bol
##nf
##fil
##orus
##anov
ante
##oler
##chin
##iginal
reaching
##ogon
defl
comes
##irs
##adel
arte
seo
sey
els
##aseg
hyloc
appliances
##sea
visitor
carotid
knock
accom
accult
##flav
##otherm
histopathology
oxides
topography
offensive
sharon
freeze
lime
adaptability
maxwell
##omyc
mixup
macrom
karakter
eggs
##u000e
waals
regulate
separating
##owska
textiles
excit
caes
joshi
printer
antimal
baner
sorption
gerard
january
glycine
pharmaceuticals
crowdsourced
oscillations
heritability
hormonal
vido
biofil
rahul
berger
mustard
spirituality
neuromorphic
pineapple
microcontrol
psychoanalysis
cubic
programmes
fingerprints
dilemmas
ergonomics
describing
penyakit
explosive
telecommunications
stephanie
nicotin
cruise
emphasis
u0000u0000u0000u0000u0000
cryptocurrency
dijk
prolonged
vestibular
permittivity
vygots
hematopoietic
knapsack
hylocereus
92
cens
fist
gathering
keller
landing
lava
mog
molding
oth
ode
rsa
rolf
tire
v4
##a1
##84
##eira
##but
##uti
##zon
##hoff
##inale
##aning
##anical
##olon
##iday
##tico
##essels
##aban
modify
prism
basalt
une
##ewicz
##rics
19th
parliament
beans
opto
ismail
##illes
attem
blending
synergy
##onda
microarray
brig
psychosis
endoc
##mani
salem
deliber
##expression
hydrological
naturally
advice
morrison
photodi
sequestration
##ethical
worst
marketplace
combating
toolbox
icon
estuary
articulos
computations
mccl
pyrid
succession
petro
##behavi
skinner
##structural
extracted
owl
dysph
paulo
activate
absence
williamson
boards
strongly
queer
spectroscopic
capsicum
sgx
dyst
discharg
phenomenology
additional
blooms
apparent
##transfer
intracellular
sikap
spillover
bootstrapping
encountered
isaac
czech
weapons
paranoid
chakrab
philosophical
bhattach
professor
waqf
##ophageal
evacuation
bt
fiona
gout
gizi
hado
lil
npc
paw
p53
toll
##o3
##like
##bah
##mart
##gap
##zia
##5c
##jal
##qm
##enna
##arp
invis
##ecks
reed
##riam
energe
tric
baselines
studied
##akur
shal
recover
##ayam
manning
maneu
##ivan
detected
leop
eli
elis
##hah
median
abraham
##arias
carter
consent
decor
ids
##oyd
synonym
##riving
skull
##ught
problematic
buku
saliv
collecting
signed
affine
airway
transferability
##keeping
primates
promise
##ometrics
injured
blockchains
keep
kebi
saad
berkel
electroch
hemip
dialogues
leslie
porosity
squad
piet
pcos
omer
discriminatively
ultrafast
chatter
torres
arguments
stabilizing
julien
somalia
inspiration
mobilenets
vacant
abnormalities
louise
husband
pitfalls
sakit
mohd
meningitis
sutton
cumulative
shoot
ranging
assembled
thalass
jessica
duplex
agarwal
feelings
ophthal
cruciate
nanowires
rwanda
enclos
unexpected
##education
hotspot
h1n1
microglia
sedentary
009
97
aversion
d2d
drows
fern
ix
ios
nun
nood
rene
rumin
tall
uml
wim
zr
##lon
##tail
##uj
##f3
##itron
##elberg
##sta
##stud
##stable
##chus
chad
##openia
univ
##akarta
recovering
artis
genomes
beach
elt
relapse
##ouch
##hail
agri
##alui
regimes
blends
##aleal
##iev
##tino
inconsist
captions
automl
changed
buss
joachim
##azione
estimated
buah
maloc
##ophosph
histories
slicing
##development
camero
entanglement
graded
pandemi
constan
promising
##quez
125
aggl
dialect
persona
organs
naval
masalah
youths
translations
##know
resident
gestures
questionnaires
phytopl
##rograph
accountants
rumor
##metrical
brownian
##walk
escolar
paradigms
interviews
##related
administr
theorems
templates
lepid
demonstrations
officers
verteb
commentary
cultivars
glioblastoma
spectrometer
trichoderma
scaffold
amyloid
brightness
amphib
hacker
constructivism
kajian
misconceptions
monotonic
federico
aboriginal
repellent
electrocardiogram
nonconvex
glaucoma
subgaleal
wiener
consortium
rafael
scarcity
banerjee
drowsiness
79
aeg
dns
font
fama
holes
jc
mab
moss
nim
rath
rup
sq
sop
ux
witch
##cano
##978
##pel
##bro
##ned
##d4
##arina
##atra
##islation
##eton
##olone
##olumab
##omers
stent
##usz
degener
##platin
##iale
exerg
##ando
##epine
recru
arv
seek
transce
impulsive
leaching
elisa
classific
agon
obat
newman
##ropical
monica
monkey
microplastics
##posed
##iche
loans
##management
##othiaz
lifes
concerning
barang
flowering
tesla
viewing
pandey
auger
##comp
111
telehealth
wwwxxx
pharma
hospitalized
melalui
karim
sno2
residuals
cyclegan
##po4
rayleigh
proteomics
inequ
ca2
jacques
updating
##umbel
lactation
permutation
expressed
punjab
##ifiable
pubmed
bubbles
##ompati
procesos
oliveira
denture
laundering
aphasia
mammals
mcgraw
shielding
zirconia
hydrophobic
rutledge
hoffman
manuscri
nivolumab
jpeg
enfermed
aflat
eigenvalue
sergio
subsequent
microalgae
ascorbic
bioavailability
tsinghua
fostering
pemasaran
antimalarial
hadoop
salivary
ats
bomb
dg
ferg
fulf
gull
kv
mour
mcle
nay
sj
saint
verma
wick
yaw
zur
##iper
##aids
##pd
##tem
##rell
##b3
##kowski
##fit
##tien
##energy
##estim
##arna
intimacy
anode
##aty
##ecia
##etcher
##ulence
prohib
##uni
orph
spacing
spacer
spencer
clip
apnea
modelo
transverse
plays
##orton
grazing
biol
politi
amine
colors
megan
fe3
##ledger
##erta
soap
flap
declar
organism
secrets
accred
cellul
##onscious
subram
memristor
outward
allergic
##opharm
universit
engineer
stresses
encod
termination
presenting
bennett
southwest
polyester
herbert
drip
telep
answers
accessible
##otted
isolates
phenotypic
mediate
mediator
braun
brake
christina
##ohist
##piration
authoritarian
cropping
mirna
athle
pipel
##rapping
nitin
locking
domestica
##ozoic
tactics
organisasi
javier
dictionaries
leaning
semiconduc
eduardo
drawings
##rofen
parasites
sylvia
glutath
streptomyces
beetle
cancers
kahn
mastoiditis
macrophages
grafting
kubern
ldpc
desktop
alumina
exemplar
pmsm
pyrroliz
envelope
hughes
afghanistan
mangrove
atherosclerosis
cartilage
cameroon
cyn
cros
hsp
kans
kanker
lund
pew
rin
sven
vessels
xml
zing
##lag
##now
##nlp
##wash
##jana
##orth
##orad
##arat
##eles
##olus
##odel
rey
chips
resulting
syd
altitude
unethical
##tsch
##quan
diaph
shir
perb
stretching
intrad
embr
##allic
leuc
parties
##orski
biore
medio
medica
apply
attainment
highl
cargo
##oya
##upaten
monolithic
rising
guil
psychopathology
musa
deletion
collocation
##ereign
nozzle
natal
ether
urs
eruption
postural
photographs
territ
topsis
augment
augmenting
miles
extens
cyberc
groundnut
damping
provably
christi
neurodeg
concentric
rupture
cerevis
thrust
browser
fungus
cannot
cytotoxicity
preferred
gateway
##idiol
minimalism
routes
001
rnns
normative
hazardous
socioc
societal
metaphys
tunneling
microprocessor
lavender
seminarians
polymorphisms
kabupaten
paraphr
jakarta
psicologia
repetition
constructivist
elicitation
corticoster
prakash
lasso
evaporation
biomimetic
malnutrition
rosemary
hemodialysis
spoilage
biofilms
phytoplankton
400
94
cen
cater
dave
dss
ft
garg
ikan
jumping
kb
lights
mou
mau
sari
sole
v3
wnt
##law
##page
##pene
##uin
##ktur
##fel
##zar
##hp
##hin
##wani
##urfaces
##eted
##etting
##asant
##acil
##amatan
##osal
churn
##apunov
enlight
syring
spon
pride
prone
traces
##performance
clearance
##akrish
phy
arrow
##ayashi
sevent
amd
mead
mega
timber
caroline
##iotherapy
undergrad
childs
superf
eddy
discurs
106
##ieri
digesti
##flows
formative
ethan
xxxxxx
november
##ostatic
operasi
ocd
silent
factorial
pressures
cats
catfish
nutric
minimax
panic
electrostatic
legislation
accelerate
summarizing
doug
menu
##apped
onto
phenotype
##iii
utilitarian
dupl
caso
ethnography
pretreatment
counterfe
cocoa
owned
electromy
##organization
##panz
lyapunov
##faatan
##ulosic
gaba
metamorphic
##cycle
anticip
flavor
filler
rheological
mehta
tipos
bibliotec
hiring
archaeological
ricardo
equalization
asymptomatic
antisocial
butterfly
applicability
moocs
tiktok
empresa
estudio
yusuf
hemorrhage
beautif
lncr
arsenic
portrait
autopsy
trinidad
cartoon
interoperability
quadruped
bargaining
lstms
distinctive
cannabinoid
prototypical
gospel
resistivity
74
fighting
gates
gbs
kann
kont
kamp
kessler
lite
msc
ntr
nie
pk
tyler
##lat
##lov
##eff
##tance
##tles
##data
##f4
##whe
##inating
anf
##etamine
##asaki
##odend
##oside
##osacchar
ch4
##ocaine
##ffman
##utable
##adju
spss
trec
adri
alat
##ifery
##obs
suffer
diodes
##aksh
##akumar
arms
##echat
seen
##ourt
##ivari
impuls
parity
paracetam
##arean
infiltration
cortisol
biot
queen
highschool
pointing
carc
flax
flick
edges
cypr
##ichannel
representational
geof
redef
postgraduate
generalize
academia
repurch
valle
recommended
adapted
icml
bald
millen
normalizing
governments
menur
mediates
tanaka
ambide
titles
##ranate
##hydroph
restorative
mayer
satellites
sandwich
rapidly
anthropomorphic
lactate
fischer
gelatin
bahan
echocardi
zeolite
kamal
diagnosed
##hardt
##foot
mustafa
terapia
kinds
hydroponics
mycobacterium
##oglobulin
forced
subtypes
omnidirectional
proportional
deductive
hydrolys
flavonoid
flavonoids
arbuscular
apprec
oyster
adrenal
surfactant
vibrational
regenerative
paediatric
##holders
##stroke
empowering
malocclusion
glutathione
kubernetes
cerevisiae
bb
bina
cus
cess
cah
cns
goss
jang
keg
kode
kala
lh
mcl
nac
pist
piv
suction
tony
trophic
witten
##aud
##log
##lies
##tar
##kind
##orical
##arn
intitle
##isk
##roy
##ecu
##asw
##asha
##embr
forage
##odo
##odeling
toe
##otropy
##otopy
exception
modulates
resins
dish
cliff
alain
asking
##oba
##ako
phant
arti
##aye
emulation
##ricks
pari
heid
heater
##oub
##ende
desulf
quest
agencies
mica
microl
weigh
blur
caracter
##iotis
impacto
eda
subcutaneous
102
risky
colloidal
artifical
sexism
composting
##aei
readings
transformative
clinics
goat
curse
##u0010
recommending
learnin
cryo
peningk
investigate
estudi
herr
helical
calculating
assistants
##otto
directors
isolate
burning
principled
specialized
137
##publ
yourself
adju
mueller
vegf
dysplasia
##kerja
explained
vegetarian
##attention
1964
exploit
invertebr
takashi
tropics
ciph
kompet
flooding
nucleation
constructive
##wald
cashless
obstetric
supports
metamaterials
hispanic
referral
bilingualism
neoadju
utter
bakteri
interferometer
existential
officinale
hirsch
territor
jenkins
bifur
scaffolds
hamiltonian
servoing
alvarez
glue
nematodes
consultation
temporally
distinguishing
weaknesses
fantasy
gyroscope
##amethasone
dqn
foreground
february
cryopreservation
monsoon
doctrine
arquitect
pyrrolizidine
digestibility
paracetamol
peningkatan
71
aval
burs
ck
duk
dini
draft
difer
fum
fad
fot
gaz
hps
iec
jimm
kd
lies
ladder
ned
nath
rental
sb
xai
##oad
##lik
##eep
##rino
##gis
##fication
##erol
##edge
##rou
##emens
theft
##idge
onboard
proximate
dean
coming
##apac
spider
alop
alba
20th
ary
argin
perry
scann
intestine
multipath
##ibo
teoria
grains
relu
pola
amor
amaran
amanda
managem
abel
developers
##erte
soon
loci
##virus
franch
dynamically
subj
risiko
##inae
capillary
##beration
geochemistry
endoscopy
##aska
##even
##othorax
noah
lifting
novice
brew
papad
governing
bened
limestone
gendered
correlational
maha
orientations
failed
earths
initio
holy
conceptualizing
francesca
mortar
chromatin
justification
raft
raising
##glass
##saan
invariances
falling
1966
kalim
ballast
pembang
domestication
thresholds
likely
nicol
ijc
recognize
attract
arctic
nadu
recipe
florian
lgbtq
campaigns
trapping
khalid
transfers
dexter
lobe
alterations
meteorological
##rophysiological
cirrh
suzanne
lubricant
seizures
hessian
##olipid
micronut
zhejiang
##anguage
geometrical
sifat
alejandro
autobiographical
##inflamm
212
bold
cage
ea
hb
hap
hew
jm
jum
kats
ler
nist
rong
seth
sull
sourcing
tess
tomm
tiger
vascul
##oit
##ostr
##lund
##rual
##rank
##rano
##non
##new
##fusc
##hh
##yon
##wig
##erus
##aler
##orp
##orie
##anus
anore
##ecs
##emotion
##step
##ulan
##igital
chai
tot
##ucion
##plets
##opausal
##ovan
##owa
exit
acting
spaw
##ept
##eptic
##ifikasi
dix
##akul
##actyl
##aina
arena
atoms
coul
leh
##orty
beads
relativity
desal
bien
polit
so2
smile
##visor
esg
flies
retr
mechanistic
ministry
##acca
amongst
employer
webb
readers
randomization
herpes
septic
macd
functionalized
brooks
##inkle
legged
##beat
lips
tunn
ontological
tubular
##diagn
##idades
adopted
owen
cuts
##harvest
polarity
woody
pipes
subsurface
##antha
ngo
hypotheses
cours
reproducibility
##ologicas
shareholder
mineralization
larry
bowman
inpatient
stopping
biopsy
hawking
anisotropy
aleks
pupil
spotting
gibson
ferrite
symbolism
chimpanz
dehydration
supervisor
binge
artemisia
hydrocarbon
alleviation
saeed
condensation
polysaccharides
##birth
comorbid
midwifery
menopause
biblical
contagion
plankton
complaints
columbia
quercus
hiroshi
berkeley
sociocultural
neoadjuvant
arginine
ao
aks
fs
gumbel
het
istan
lord
luck
might
overse
pter
pets
qtl
vp
xbox
yol
zel
##itif
##location
##rent
##burn
##inase
##esive
inactivation
##itol
##ented
##etre
themes
proy
chet
##abd
##abetic
##aping
##oves
resusc
alon
unic
unstable
recycle
perawat
##ayers
struc
sev
intram
eman
leach
##rolimus
generations
colin
hyal
##lux
##luids
econ
moth
langevin
semen
carla
flag
brasil
crc
##2010
cyb
serving
comparator
ending
concise
materi
questionaire
wordnet
quantile
irre
##auth
hyperledger
vertic
##partic
myopia
110
complicated
biostim
latch
fauna
keyn
immunology
hardening
instances
regularizing
cardiology
tunisia
vulva
bilstm
paying
followed
hamid
biologically
googles
sintering
metabolite
parser
cmip
spline
frontier
1969
stabilized
baggage
mandatory
##amei
laporan
pertum
voices
konstantin
rogue
tailings
mountains
reciproc
tribal
integrals
latino
##hedral
connectome
tdcs
dermatology
prescribing
omnichannel
transcranial
ingredient
lokal
polyphenol
decoupling
masonry
eutectic
elaboration
kashmir
postmodernism
depresi
##aboost
tandem
vowel
delinquency
pemberian
matteo
hernandez
pemanfaatan
cifar
fergus
beautiful
overseas
002
4g
73
86
award
ajay
cw
eph
euk
frog
gle
hl
hsu
haus
habilidad
kass
kok
kdd
katherine
lump
nol
nsa
outer
rb
sous
tender
wer
zoo
##eks
##b6
##uya
##fp
##food
##oresis
##arily
##uras
##etha
##ilers
##stor
conifer
##usting
toc
##apers
exports
##epatan
##ologica
##ensors
##ipot
apar
apex
##ductive
interg
interru
interesting
shiv
arbe
arora
pervasive
intang
deter
tek
parv
bei
mei
##lung
preb
preoperative
caroten
marks
##uble
##tifications
planet
adversary
antipsych
slang
xxxxxxx
lau
flowers
teresa
govind
potter
dimin
testbed
##ificacion
importancia
molars
articular
11th
anger
avatar
##modium
fishery
trustzone
berts
vanishing
legisl
tuna
habib
payload
boris
1971
orthop
tsai
##wait
dysp
contactless
parker
senescence
axi
synchronized
messaging
phonetic
invertible
compensated
klas
biped
##arthy
serverless
bisnis
##otoxin
didier
walkability
yamag
luminescence
monthly
frost
toxoplas
nvidia
vikings
transgenic
livelihoods
##natural
saccadic
##detection
twisted
stoichi
belgium
precursor
reconciliation
cardiomyopathy
hipertensi
peninsula
disagre
advocacy
emocional
##itoneal
ferreira
cephal
##itabine
microcontroller
istanbul
resuscitation
63
9th
b12
cym
d2
dess
fg
hg
hj
harsh
ips
lt
mites
mds
maker
nip
nox
pich
pai
tch
tata
vat
##itic
##rem
##rna
##rids
##uatan
##san
##meth
##xiang
##hari
##yper
##jakan
##erd
##itons
##atem
##rote
##ecimiento
##omide
##state
staining
##agar
debi
##imin
##opol
enables
enrico
##ango
trench
asam
unbal
scul
strict
emir
deterg
##ardt
teg
eval
##acker
iss
relacion
##endo
destin
##uginosa
appoint
whale
##unding
##egranate
ecot
engage
carmen
diffuse
sensemaking
boul
segmented
endophy
filament
positively
nost
slice
profes
matern
##rowth
logo
curved
clinically
##architect
verifiable
harvey
setup
triage
biosensor
pulses
warren
disordered
123
meanings
aeruginosa
egocentric
##minth
liquef
ramp
burke
tales
couples
conducted
hammer
radiography
preserved
farah
lithography
bailey
experimentation
lucy
1961
1963
spirulina
##apsed
ssve
tactical
chaudh
reforms
fragmented
frankenstein
simplifying
hindu
castro
doses
kirk
intersections
rheology
tcp
mehmet
imperative
nervosa
cookies
ischemia
epithelium
typhoon
euclide
snapshot
quaternary
sovereign
osmosis
rashid
fdtd
##aruhi
tungsten
electrospun
schultz
photodet
disposal
inteligencia
anticoagulant
hussain
hurricane
withdrawal
lifespan
euclidean
87
bum
cynth
census
e1a
fent
fans
famous
hary
hund
jazz
kod
mention
nach
nave
ostr
rim
trol
xv
xian
##iad
##8d
##tag
##uang
##dit
##gado
##fets
##fred
##zano
##tika
##oras
##antia
##acity
##emp
conception
##lege
##ogh
##ograft
chau
##ocus
ort
spro
pruss
dislocation
##vitis
shunt
recom
perpet
emuls
emulsion
##ibert
parap
grab
##esty
##lyn
medications
appear
whether
schiff
selig
timm
##erton
poth
knitted
##ribe
nonprof
superresolution
invention
matematic
##awati
##axial
visualisation
cret
##afar
##yme
progester
digits
joanna
geograph
endow
tweet
##otherap
embank
remot
remaja
uranium
calend
postcol
handic
breach
photore
director
laying
circadian
##ounting
cope
uncovering
1103
ansys
maxill
integrin
homotopy
kej
128
successive
bands
tuned
predictable
parallelism
dissatisfaction
##electronic
sanjay
austria
radioactivity
gramm
hamlet
ruiz
cereal
boxes
multiclass
pelajar
retailers
religiosity
splicing
phonetics
salesman
madh
symbols
pendek
christophe
ellen
perfection
considered
deficient
chickens
jacobs
##otechnical
kuwait
neonates
tailed
scatter
##ophysics
tipo
interferon
yamamoto
duty
lazy
laurent
hermann
##oquin
uterus
bottlenecks
assemblages
microservice
expatriate
energies
ransom
##uguese
scopus
discontinuous
mahmoud
carbohydrate
trustworthiness
pemerik
vomiting
cytokines
oxalic
camouflage
##ithecus
kebijakan
estudiantes
arquitectura
pertumbuhan
habilidades
cynthia
69
93
aero
cited
dale
hah
hail
igor
iphone
kiss
lumin
mq
paz
rham
sult
tions
void
wages
##oce
##lad
##0c
##110
##ska
##mand
##mach
##multi
##xing
##kova
##fb
##full
##hex
##alco
##anism
##anza
##itro
##iso
##asthan
thro
##acid
##acio
##illy
##channel
rez
rebound
reengineering
chern
##ocortic
##imens
##plain
never
##akers
intergroup
##assembly
scrip
emi
##rica
##encial
covering
grap
relati
desa
##athin
assault
abou
coloring
methode
##unders
##strateg
##ertal
##ientos
##inde
##ubs
##uprofen
##ylobacter
maturation
subd
subsp
cruz
guava
1021
##afi
mempeng
outline
outli
loh
##itsch
##ofen
calf
calab
greene
postn
equivari
composing
potent
customized
##scan
##u0011
diagnose
##ativas
purple
hered
inferior
hospitalization
confin
mills
immunoglobulin
##ijk
ramos
northwest
positional
interpretations
##initis
burst
tuber
provides
tanaman
prosody
maslow
neurot
##140
proteomic
distill
pss
orthodontics
ruang
bonded
actors
professionalism
cleav
##rinting
##eliac
explanatory
middleware
crypto
jacqu
starter
##heimer
anthropomorphism
pm10
darpa
carcinogenic
facilitation
tenure
cosmology
erratum
pinus
fragments
premen
ethiopian
ibuprofen
decentralization
biofuel
campylobacter
##relation
nadia
algal
orders
leonard
solubil
agreements
##iscus
reservoirs
pomegranate
reconfiguration
gymnas
oblig
dexamethasone
##burgh
##physical
carolina
sophie
neglect
shufflenet
cigarette
trastornos
psikologi
retrofitting
ganglia
vannamei
##hypertensive
griffith
neoliberalism
noninvasive
superpixel
benthic
portrayal
cricket
photodiode
metaphysics
undergraduates
hyalur
hundred
outliers
aq
bord
bates
bamb
dict
fom
hin
kac
kate
mers
miz
mays
mhz
nass
ratt
sail
tach
uz
uri
vall
vote
witt
yoon
zach
zoon
##cia
##iable
##lining
##eus
##bek
##side
##making
##die
##wc
##tized
##ineral
inov
##icine
##elis
##elets
##eley
thre
##omum
##ularities
##igong
replace
##ogging
##reated
##rive
chance
chew
dea
debor
##therm
##imotor
##utor
##andibular
##yson
residence
compe
adi
##ensity
apart
##eway
phobia
metro
##ayas
strat
coex
multig
lea
bek
##ugl
##rams
abbas
scho
genera
generational
colitis
##egal
##trust
ect
bloch
fletcher
glac
##oye
synch
supercritical
superhydroph
imager
##orea
bru
patents
geochemical
loops
estimators
buyer
waterfall
synthase
facile
topologies
mathew
logar
##enzie
hyperactivity
##keit
analyst
president
euv
catar
bats
helm
##ontology
derech
##ogeneity
reflux
tomer
confined
brother
##ittal
duality
sunil
occurring
dissipation
plasmodium
##electro
ultrathin
scheduler
budaya
ctc
radiographic
reprogram
polymerase
firmware
yields
cdc
chlorine
lymphatic
laptop
taken
##disi
ovary
hivaids
##2o4
wheeled
nicole
checkpoint
masters
mastery
stratig
interviewing
arrest
unemploy
nanofiber
sudden
penetrating
##healthy
vertebr
##olymers
mucosa
v2x
intervals
placenta
deposited
affordances
microrna
tradeoffs
diatom
hollywood
supercapacitors
metagenomic
frederick
metaheuristic
immobilization
tackling
reynolds
especial
immunosup
scaveng
spondyl
dimitrios
thousand
precautions
polystyrene
sausage
invisible
adjuvant
alopecia
anorexia
ssvep
017
boss
bones
cet
cafe
dsp
gaw
hock
hpc
hcv
mous
myl
nour
nominal
och
rul
rio
ted
tional
wend
##ction
##e9
##eing
##pedia
##sum
##kata
##gam
##gins
##zadeh
##yst
##yak
##jah
##enas
##orr
##itures
##eco
##amis
react
reactors
choud
neoc
enjoy
rese
comprom
acqu
disagg
basel
##elligence
intergenerational
shig
shake
artikel
pereira
##istence
##anca
##anton
ply
##entice
##entitious
bez
elaine
gratitude
trail
infinity
amend
queu
able
##arious
timeline
approval
sensation
decades
booster
qualification
edwin
cape
##2013
archit
reduct
defensive
deleg
formulas
antihypertensive
alloc
ethos
slide
affirm
urdu
policing
postharvest
laund
cameron
ulc
projected
maths
sensorimotor
##coal
vaccin
learnable
adaptations
pengen
##ogenes
sucrose
bioactivity
warn
saunders
12th
##109
palae
denial
crowdf
akad
cuis
daniele
hamming
modularity
fixing
##leton
wayne
baum
cavities
mahar
raja
mississ
bulb
pendulum
chinensis
cheating
romania
floods
nuclei
paddy
rationality
incorporated
cannabidiol
mentha
ketogenic
##vinyl
adenoc
hurt
decreases
victimization
transductive
miniature
liberalization
contraceptive
encounters
fleet
paranormal
favor
sindrome
tariff
manufacturer
##3n4
##ococcal
arthroplasty
artisanal
paraphrasing
repurchase
territorial
pembangunan
mempengaruhi
bism
cx
cing
cite
dn
dia
ease
fos
fuck
gyp
heng
jat
jers
jans
kak
kru
lich
mines
piz
tos
vander
zw
zea
##iologic
##lis
##9000
##sha
##follow
##ytic
##vf
##wari
##ania
##itated
##itaire
##isp
##istique
##ectile
##urunan
##asz
##olition
##raying
##chat
##earm
reus
##ogi
##unen
##ffe
##oping
neotrop
enl
modulating
resection
resampling
trash
disent
asa
dieter
##akk
phased
rectification
rectified
scap
intoler
marrow
isab
technol
abys
abusive
obtaining
##strong
feb
fees
visco
soul
simone
senses
##upan
##ylase
incontin
microd
guitar
109
environmentally
temp
##unga
endemic
specimen
##ophora
universals
##ochlor
volcano
throughout
norbert
##abilitation
gregor
fibromy
graduation
##u0012
below
helminth
biomaterial
##uitary
##etida
massimo
##arkan
hypnosis
hypoglyc
warf
calculate
portland
portuguese
berdas
mutants
jurid
##ijn
liposome
crowding
##represent
mena
menstrual
packed
violet
##gaard
utilisation
manipulating
##proceed
coupler
borides
hook
holm
opportunistic
muti
activating
motivated
seni
rajasthan
castil
chromatic
amplifiers
starb
reply
bags
possibility
easily
binomial
crowdsensing
epidemics
anaemia
nanocellulose
containers
dominic
albumin
phoneme
bowen
multisensory
nanofluids
##foil
schmitt
margins
judgement
interferometry
sylv
catalysis
ohio
tendin
mythology
outbreaks
dwelling
cultivated
##rystalline
ernie
metacognitive
pesant
responding
subtropical
metodo
myeloma
explosion
interleaved
fibroblast
himalaya
empresas
laksh
hwang
dangers
##ocyanin
##agnetism
confirmation
gustav
rewriting
nepali
suggestions
robbins
convenience
adventure
inoculation
desalination
postcolonial
pemeriksaan
rhamn
postnatal
5d
ain
bia
bard
bump
dz
gj
gat
gome
hinge
ily
jens
lenti
lady
mock
mung
nao
ppt
purity
porph
saj
tau
tucker
vet
vive
zar
##oea
##cock
##iary
##a9
##tf
##rator
##bio
##bral
##nr
##nb
##2s
##2f
##uels
##mr
##mog
##fic
##fill
##finite
##vet
##erve
##arov
##ingan
inap
##icles
anto
##edur
##robi
##emas
forex
##idu
##rev
##essment
chiral
##umes
##abric
##adal
##opus
exotic
clause
ada
admm
adaboost
##ells
perox
##assic
##assum
scoli
empt
manila
192
##ibia
leib
evang
hee
oppon
trag
##rolith
##esta
asser
agrawal
visit
##enez
blow
humerus
##ikov
carroll
flaw
##ylon
videog
supram
brenda
inspect
subh
##azaki
endoplas
gamb
patil
grig
granger
remaining
##escens
sampled
demographics
employed
##ectiveness
papua
freight
examine
verifying
neurology
ferrous
guido
southeastern
negara
probabilities
annih
reconstruct
steph
precast
saur
minima
houses
petrol
xnxxx
convergent
arabica
wheeler
cerem
recorded
ineff
solidification
harmonics
kaiming
princess
judicial
ashraf
##pcr
phytochemistry
makanan
isoiec
fragile
##rock
publisher
jerry
necrosis
arrhyth
collisions
shells
adenosine
isotopes
ns1
colonialism
extraversion
attenuates
bureau
ralf
millennial
thaliana
thrombocyt
suzuki
mcdonald
artemis
sysml
polyphenols
tectonic
holland
stitching
vigna
tattoo
centrifugal
legitimacy
interdependence
##aniline
subtraction
nielsen
irrigated
phosphorylation
enclosure
transceiver
accreditation
semiconductors
phantom
emirates
seligman
logarithm
pengenalan
berdasarkan
##proceedings
84
bess
bust
bae
barium
ebook
fft
gels
kell
kew
laf
luke
niss
notion
pard
rectal
wechat
yl
yes
yogy
##a5
##ease
##bh
##1c
##yder
##vari
##wo
##tiques
##erank
##enching
##ingement
often
##itri
##atha
##robot
##urized
##idate
stur
stuttering
##agasc
##chai
conject
convey
##ogo
##oski
##atients
##plement
enum
syrup
ack
clad
clone
al2o3
unidirectional
unilateral
##ainan
shab
shep
artical
seism
##istas
mantle
1957
elias
elbow
cov2
heal
##illar
abo
schwar
hyun
hyacin
eccv
##yna
##ioter
##indust
produccion
superhard
##ypical
frida
economia
##yman
problemas
archival
solder
musik
##oxic
positiv
delving
virulence
former
roi
miniat
##clin
remarks
swab
morf
morale
facenet
##linger
reparam
familial
americas
illin
primitives
pender
implementasi
esters
bali
plato
resistor
precoding
keys
accessing
minimize
goodwin
millet
continuing
##1234
nanopar
periods
wait
laboral
130
lama
reflecting
walled
dysmen
halide
sinensis
absorbing
armstrong
giri
therapist
##iferative
babies
bhat
##imento
madagasc
cytochrome
dermal
dermis
aquifer
cientific
##arbox
##obacterial
forwarding
bernstein
jonas
oxidase
catalyzed
franklin
discussions
expressing
feldman
##immers
##oplast
mpeg
dispatch
pagerank
##rodinger
lignocell
hematoma
sesam
funnel
cracks
##ophilia
microgrids
refrigeration
##wright
pillar
kulit
unfolding
necessity
largest
telemetry
yoshida
distinguish
##augment
metapopulation
biogeography
supercapacitor
populism
insecticide
homosexuality
takahashi
whistleblowing
monolayer
zingiber
lncrna
ntrk
nonprofit
pendekatan
cleavage
superhydrophobic
crowdfunding
mississipp
jersey
fibromyalgia
pesantren
scoliosis
yogyakarta
hyacinth
76
700mhz
arif
dt
gn
gand
gond
goth
iam
jelly
kron
lug
lenn
miel
nus
nine
nice
pde
rj
seng
t5
tep
tsp
takes
zha
zyg
##oil
##irosis
##bet
##n2
##uated
##uhiro
##mor
##mine
##fir
##fruit
##4c
##wind
##onan
##icia
##icides
antit
##asome
thier
##emark
starc
##essa
##essen
##rians
chil
##therap
##pls
##adis
##adir
##optim
usia
##ystis
asma
unbi
##duced
interrog
transdermal
intonation
##ivia
cointegration
plaus
marian
traine
##avement
##astatin
##oux
polyl
ami
quint
abras
scha
##undo
##arie
educating
sok
smok
persalin
##vistic
boiler
##unctive
nonsm
##tising
##ylate
fringe
1093
cultured
##ashvili
roz
corrections
identifies
stressors
canines
concret
enhancer
publicly
camel
novels
turismo
freebase
primate
caten
biomaterials
counts
motorcycle
extrap
hypot
refining
##backs
##uantit
immunohist
karnat
doub
simplex
scalability
violencia
certified
18th
recordings
##iosa
lambert
crimes
orthopa
ensembling
kimia
##pired
discriminator
tabu
rajesh
pairing
tags
symbiotic
owners
##arbon
donation
pertanian
moderators
soda
mitigate
fabricated
falc
rationalism
multisensor
clayton
hedging
suspended
adenovirus
carriers
kolmog
pituitary
decreased
expenditures
polyps
gardner
disciplinary
##ografia
gibber
distantly
lynn
captcha
henderson
cancellation
refugees
metropolis
dreams
neuropsychology
latihan
nicotine
calibrated
manusia
nrf2
mechat
forgery
mollus
marshall
navigating
##romycin
surfactants
wavenet
##iculata
multistage
nikolaos
surrounding
criminology
antarctic
neutrophil
shooting
pajak
adjacent
seventh
echocardiography
cirrhosis
stoichiometry
embankment
equivariant
gymnastics
enumeration
madagascar
persalinan
bmi
benson
cim
cram
cake
eaves
hif
igg
klin
khad
nhs
rbf
sati
sarg
tts
xiong
zain
##long
##pic
##t1
##tons
##mant
##kg
##dt
##held
##wang
##jad
##tiy
##inia
##alap
##enal
##icidal
andor
##elors
##idian
stance
stub
##chao
reject
chuan
##utter
##aporn
##oted
##oprot
orang
entor
reservation
restra
disapp
clique
shade
##itions
perp
sexx
multilabel
marek
traps
##ouz
infom
##uga
obfusc
weeds
fee
humid
soi
designers
electroph
workflows
mona
finfet
improvis
gujar
105
##iteracy
sold
##flies
implic
##ashtra
ended
malik
##inspired
salience
virt
servers
allison
allograft
##odext
valuable
urb
crossover
demo
greens
liability
longer
transformed
thermoplastic
analyzer
shares
##zzles
ilmu
penicillin
circles
esther
johns
milan
129
achilles
continuance
industrialization
wales
heartbeat
northeastern
japonica
scalar
dissimilar
dct
##proof
electrically
hamburg
##atalysis
##oxidase
mered
metabolomics
explainability
lymphocyte
fpgas
sigm
keras
infrastructures
congo
hopkins
containment
botnet
##opathic
todays
aroma
album
behav
latex
ketamine
pumpkin
kurd
please
supplementary
##atalyst
saddle
bpmn
bibliography
yolo9000
hydroxychlor
epileptic
raoult
suture
##nikov
pomdp
##kesmas
hydroponic
intracranial
saleh
buyers
rhetorical
larson
struggles
pluripot
noctur
dangerous
##ocytic
polycyclic
tricks
silicone
hemorrhagic
encephal
kobayashi
coagulation
##2seq
sociolinguistics
patterning
unwrapping
ultrasonography
neurobiology
dolphin
bragg
##acrylate
embarazo
maneuver
noodles
recruiting
##othiazide
aflatoxin
sydney
irrevers
progesterone
cataract
intolerance
starbucks
illinois
unbiased
010
csi
dk
hens
kis
kee
lpc
liao
m2
maya
pork
pach
pumping
rai
sans
sato
tul
vy
vie
wig
wedding
yag
yap
zimm
##rul
##rach
##nxx
##gd
##gens
##gren
##f8
##zberg
##inth
##orrhea
##anica
##anova
##ington
anita
##uric
##uridad
##urved
staging
conceptions
##earing
projective
ches
comsol
##ithi
##plus
##oped
compilation
aco
disson
ala
apache
intert
shankar
##rombo
atypical
multifunctional
levi
##orta
elk
medias
abm
##xton
obstruction
mohan
predation
predators
carab
consulting
knight
boat
boud
secara
evaluasi
fruct
103
surveying
digitization
overflow
framenet
endanger
pekerja
no2
##urship
corrective
minute
swimmers
upgrad
breed
clinico
physically
sensorless
irene
hyperglyc
##ollo
suppliers
olga
factores
harold
penurunan
116
smaller
bala
continue
paid
palmer
melon
bandgap
juris
denit
denmark
fundus
phenology
burton
fabian
##rogenic
traditions
fats
cu2
cuestion
talents
##alitis
holmes
juncea
merah
multicriter
mitra
pipelines
degrading
degraded
tolerability
rainbow
mandible
cytotoxic
marcel
citra
colonoscopy
tracks
##emantic
moderator
adsorbent
magnetost
supportive
stratification
##karni
sistemas
eyew
jerome
nadine
feasible
melanie
nighttime
diptera
photosynthetic
decreasing
ricc
scrub
ripple
triangular
bicycle
khalifa
refrigerator
amylase
chalmers
zahra
himalayan
aspirin
astronomy
endorsement
##izzard
torsion
reticulum
nanocrystals
exclusive
hegem
dorsal
overdent
nanorods
theodore
laboratories
absenteeism
bishop
bereavement
##iflora
porcine
ttttt
acculturation
leopard
intraday
jimmy
biostimulant
intangible
ostrac
grammars
ransomware
laundry
adenocarcinoma
disentanglement
empty
reparameter
kolmogorov
aav
cern
cane
cuck
d3
fda
git
gob
gating
gabor
huan
hla
hatch
iit
iber
jel
jigs
kaly
oint
pess
sog
sain
sina
sony
tind
vdo
wc
wass
yaz
yemen
##ihan
##lonal
##pour
##uis
##3a
##jen
##qr
##erom
##alistic
##esia
##arro
##arts
anj
##atu
##atore
##omir
##emism
cholec
dext
##ithyper
##oprol
##ovsky
enz
adnan
##phalitis
##ensitivity
##ifeng
##ellin
uni
unhealthy
##assi
emnlp
atopic
parth
elig
covalent
hebre
##ouk
biotechn
##iannis
agrib
##tress
##ervice
feet
carval
convective
##inescent
iden
glomer
##ynamic
microphone
textures
segnet
##ymethyl
tempr
joan
geotechnical
defending
##evic
mald
salah
reinforce
specif
##ophan
slov
slack
demod
mori
morning
postmen
ultim
opera
causation
plantation
temperate
steer
numeric
densities
molyb
estuar
inferences
phaseolus
taxonom
avoc
stored
proprio
confocal
##mea
##meier
occur
modernization
separator
alternate
##redit
ensuring
##conv
magnification
alexandra
downstream
##puting
proteases
orthosis
haar
antara
judge
##olitical
monoclonal
wilt
runners
mos2
irrational
stabilizer
bagging
kerat
switchable
ventures
##world
##rafts
oceanic
therapeutics
nucleotide
deficithyper
cristian
zeeman
constitutive
sixth
ambiental
wounds
biomassa
proofs
bisw
toothp
hydraz
preschoolers
depressed
arbitrage
sugges
intercropping
enriching
bangsa
glutam
muslims
nvm
brady
efektif
napus
myeloid
crawling
nigel
trimester
hoffmann
polysaccharide
kpop
puskesmas
gripper
estrategias
trastorno
patriarchy
suffering
mnemonic
olympic
antidepressant
hysteresis
escalation
chakraborty
athletic
extensible
cessation
gossip
##embrane
cybern
cretaceous
maxillof
deborah
queuing
warfarin
conjecture
deficithyperactivity
3xxx
azz
biss
gs
gog
gif
golf
heck
ibs
jw
jacc
kund
lf
pn
pint
psi
rica
rpa
sot
vpn
wand
zub
##iw
##lib
##etine
##pread
##bak
##2a
##matism
##f6
##fur
##yong
##weg
##tizing
##alore
##ethe
##omatosis
theater
fores
reich
##ogr
chit
##thesis
##irk
##plat
##otroph
##opos
orn
##ovo
##ineal
spur
spind
spraying
##eprint
trunk
adder
effec
asim
##anson
##obate
suj
apical
interactivity
shading
##rometer
scia
strang
##rictive
atr
##ivation
##ancangan
##enci
evidential
##este
##ramine
methan
surpass
autof
developement
eclip
##ync
fek
##ikit
esr
electoral
##ftus
accrual
charts
charged
superint
protests
locating
crp
loftus
filipp
##aii
salad
domination
servi
notify
perceive
histopathological
minh
##escale
swap
barnes
acidity
dimethyl
curtis
exams
ferrom
114
helmet
masses
milton
bioinspired
retrieve
##arketing
lattices
tomographic
richter
immuno
vanity
egfr
dampak
microscop
mediators
heads
##kyo
nearly
specialization
168
writer
stimulated
iiot
excited
radiological
visualizations
csf
piles
murder
calling
sheets
interpol
bulimia
lucia
commercials
marcos
culinary
pembuatan
hopfield
##metries
liku
reproducible
crisp
tangent
claude
tetracy
checker
cbct
received
neurosurgery
ebola
capsules
##enberger
towns
leonardo
victorian
trouble
permeation
correspondences
kazakh
neuromuscular
##tio3
##onoi
perovskites
ernst
rounding
forcing
ambiguous
qiu
##orecep
sacred
thrombosis
hydrochlorothiazide
larsen
larger
clutter
##ocytosis
tillage
clostr
motifs
##specific
mumford
granularity
seamless
psyc
dashboard
##covid
lorenzo
nutraceutical
merchant
elliot
delphi
##environment
kramer
formulasi
##lipidemia
photogrammetry
vertebral
inequity
mclean
diaphrag
cybercrime
sponge
spawning
tunnels
maternity
endowment
maharashtra
gomez
schwarz
nonsmooth
karnataka
restraint
hydroxychloroquine
jigsaw
estuarine
015
018
235
81
astm
baz
bose
fay
garch
kut
kappa
lara
noth
nsp
pou
pico
sier
sich
sonic
tym
tsh
utt
vq
yves
##cell
##czyk
##e0
##eaux
##pain
##rc
##uos
##uper
##mask
##drop
##front
##yun
##yuki
##4d
##7b
##orc
##orub
anas
##atable
##edt
##urat
##urate
##asio
theta
##omavirus
##stat
##term
reforestation
##ogels
##rein
prox
##abh
##utors
##otron
##opithecus
modis
##andar
##andran
resort
alison
##phia
##elland
unsc
sue
sufficient
dihyd
diagonal
shor
shum
sherman
##assay
##ayu
##ayama
scikit
##ouracil
mane
##ustaka
imposs
plating
##ibi
##entine
marble
elders
##rylic
amer
##rama
##blin
abus
schrodinger
##tras
timed
##ikawa
##fera
sma
smote
flare
sensed
decont
##ups
studentstiab
guilla
1039
##afety
##205
planing
memo
assessed
##azone
##oxetine
salman
deli
doming
antid
##aires
epi
##ofrenia
##cliff
etn
photothermal
questioning
openai
logics
creep
studentstw
empath
backup
olson
penj
articulated
helix
##onto
probes
integrators
##ogenetics
blackwell
stepper
faisal
saha
confidential
panoptic
gasoline
bacterioc
##itto
berk
foil
documentary
hardy
##orphism
##ercetin
morphine
resiliency
resilien
##holm
burger
goldstein
dissip
librarian
ambulatory
initiated
writ
sprint
muth
misuse
ultraf
romero
firewall
francois
cd4
pelvis
clustered
ethnom
sandy
chloro
##giou
niobate
##rhiza
outputs
winning
fmcg
keput
hopper
oxidized
hdr
##joint
disclosures
pronoun
portfolios
dorm
assignments
gods
taping
keywords
dbpedia
yunnan
lloyd
glutamine
phytochemicals
constructed
planner
microparticle
lifelog
boyd
narcissistic
recombination
hendrik
screws
millennium
mcgrath
scaffolding
whitening
nosql
follower
hourglass
decoupled
percolation
thirty
securities
anhydride
uhf
unrest
antidiabetic
sarkar
leptosp
paternal
warehousing
doyle
deliberate
unbalanced
remotely
disaggregation
abyssal
339
bers
bech
benc
baking
ced
cag
cory
dying
ee
iid
jill
lod
nils
naga
puc
pim
pud
rpl
stic
taw
vick
wes
yak
##pit
##range
##uplication
##mun
##d1
##zhi
##hom
##yers
##3k
##titial
##arak
inex
##itating
andy
thumb
##ilance
foraging
##stack
##idos
##idazole
steg
##rae
##ticum
##terase
reass
##ograd
##review
##riosis
chik
chien
##ocument
##uture
##uds
##andan
compr
clon
claire
alerts
effusion
##forme
unim
unint
##ainen
phas
ley
deepwalk
marl
marvel
##pring
##endas
amster
quas
quiz
quenching
whales
ober
educator
blake
poon
convnet
humanity
deck
underp
prototypes
disconn
104
##207
adaption
archet
soliton
puffy
##oxicity
domen
publik
alliances
##ophot
##ophene
slic
xxxvideo
##develop
auv
##cloud
##uksi
concert
##itio
morocc
facade
##ectivism
dirk
##ressin
moves
marketplaces
analysts
testim
silage
##u0014
steff
myst
streets
##ullary
penye
davide
polyvinyl
estrad
correlate
triad
integrate
annuity
##rehension
collaborations
faec
brocas
legend
damaged
liposomes
luigi
speeding
scaled
priy
simulate
viola
morphometric
stylegan
1800
sarcoma
contributes
piag
owner
hapl
indicum
symptomatic
pelayanan
retailer
parameterization
seismicity
browning
##denum
blindness
quadr
pmma
nervi
janet
aquap
revisit
##anche
fisica
impairments
pigeon
feminine
##design
chiara
ceiling
triggers
pedestrians
voic
addressed
felipe
##dpg
##onymy
embryos
biocompati
staffing
minorities
gastroenter
mehdi
aws
bakery
cyberspace
##chaft
actuated
curvilinear
mercado
cucurb
kitti
acetic
hvdc
cherry
mushrooms
scientist
jakob
strawberry
maurice
biodegradation
##rahman
kandungan
pieces
nematode
rekam
crustal
venez
abbott
carnivore
fecal
upsampling
nanowire
voronoi
pranayam
comorbidity
intuitive
##ocarpus
punctuation
fowler
nairobi
encoded
highlights
parietal
dukungan
kalimantan
appointment
confinement
bismuth
cingulate
neotropical
enlarg
supramolecular
meredith
endangered
carvalho
postmenopausal
keputusan
213
78
bist
bare
borders
curs
dsc
fao
gop
gow
gros
gins
gomes
hc
kins
kraft
lus
lop
lister
nog
oj
pys
rush
t1
tant
tsy
tosh
uf
vass
wad
yeh
zeh
##ofer
##iencies
##bate
##6a
##dem
##hana
##yrin
##inum
invers
##atr
##atura
##urnal
##etr
theses
##omeration
##omandibular
##stere
stm
stol
##odin
##oderm
##amen
##lef
##osen
proving
ching
deh
tokyo
##ply
##udo
learing
##oprop
spastic
tru
trucks
alo
basil
basins
sugi
##qui
diary
phyc
datta
##allah
teat
martial
covert
heather
##ryption
isomorphism
relate
##ouf
infancy
##ugan
abh
attrition
moul
semisu
prednis
predicate
flotation
decolon
##gorithm
secrec
##oyl
acces
charcoal
##onde
##yland
suppur
edgar
subp
cres
crist
##201
puerto
geophysical
positron
##ajima
radios
corrug
hydrology
swing
philadel
moreno
photoluminescence
terry
##ostom
##irez
##enzyme
##ascial
stealth
steels
hydrostatic
hybrids
primitive
catech
daven
ica
adolec
##etik
pedicle
extend
autonomic
saff
##108
depthwise
berhub
sleeve
legs
ramirez
cooperatives
satoshi
northwestern
mindful
horv
islamophobia
tuberos
##atinib
rhin
auditors
hamza
16s
spruce
haas
sportswear
excip
authorities
reception
giac
rajan
kenji
messenger
cryptospor
cocaine
babu
meso
mesopor
##anthin
courts
marcelo
##rogram
kepem
##gradient
parenteral
promotional
crowded
ijsr
analogue
##oxygen
pleasure
interstitial
##drug
anchors
interferometric
rossi
fredrickson
lubrication
inteligence
cookie
hidup
benzo
vinyl
friedrich
dawn
obli
rizal
ergonomic
suspensions
##ischen
##razole
kahlo
manifestation
spillovers
reefs
provisioning
superconductivity
forums
clubs
gentrification
assumption
geopolymer
syndromes
##atidyl
ancestry
encapsulation
barcode
nudging
hydrodynamic
karyawan
galaxy
stromal
celebri
alienation
remedies
nikolay
geolocation
truncated
bifurcation
debiasing
sultan
competit
choudh
incontinence
ineffective
lignocellulosic
doubly
toothpaste
leptospirosis
secrecy
philadelphia
800
9001
bap
bain
cuda
danny
erad
fmea
gb
ged
gok
hood
hale
hoss
jant
kese
kara
lall
nx
s2
sds
tidal
tqm
vc
zaman
##lah
##9c
##pdf
##rze
##math
##mah
##gal
##fm
##finding
##zn
##5d
##onos
##align
##orh
##anyl
##esophageal
##arah
anaph
##itta
##atase
##urd
##elm
##elev
##acular
##actile
##idus
stal
stav
##odor
##odium
conoc
##amer
##amines
reim
##rez
chia
chow
chill
##atine
##owicz
modul
compaction
compute
prentice
tras
clot
##ellers
unre
##vie
suther
##actable
shib
shrin
peritoneal
##romic
scin
seif
manch
atl
##ivos
detox
indium
##idefinite
evil
evap
isothermal
relaciones
##vern
biome
##ermo
whis
##atera
surv
surya
##egh
attacking
##ahi
carrot
##visual
decoders
impacted
##oley
edited
vivi
incub
finishing
extremes
##2011
functionals
servqual
solvers
patellar
malcol
salim
reinhard
colloc
epitax
natalia
lowering
rooms
identifikasi
valuing
##bo3
moran
laughter
handheld
##tenberg
brains
braincomputer
##au0002
##keys
gradual
sumber
fluent
euthan
densenet
sett
copula
unconscious
articulo
119
lossless
plata
angios
animated
depends
pavel
paula
bacteri
palestine
brook
governmental
snail
huffman
cardiopulmonary
tread
suspected
prosedur
fewer
##affer
khaled
nanostructured
reflector
revista
gaut
haemat
phosphatidyl
wildfire
osse
##nelle
pharmacist
farid
priorities
multicore
athan
approximating
mitral
kras
juj
bagasse
neutrino
cascades
situated
adjustable
ciencias
makers
externalities
##356
bernd
bernhard
tangible
jacobi
umbil
catholic
longev
dominated
tailored
complementarity
lenses
##ocalization
referring
visceral
schizophren
oleh
ariz
ariel
hayes
alfonso
bonn
dipole
##oblastic
deeplearning
fluxes
taiwanese
ace2
disciplines
discretization
riparian
craving
pfas
nodules
##olecules
malignancy
lynch
episode
autocor
supervisory
mansour
acquiring
osmotic
##tista
holdings
silkworm
shawn
##fuzz
endorsements
cementitious
excellent
interconnected
circumst
slabs
gossy
##openaeus
occlusal
ancestral
eigenvalues
ioannis
cunning
believe
geodesic
barnard
kaufman
vygotsky
censorship
syringae
counterfeit
artists
macdonald
relativistic
hyaluronic
scavenging
tendinopathy
antoine
##clinical
plausible
pluripotent
dissonance
guillaume
semisupervised
mesoporous
oblivious
malcolm
longevity
3g
83
creat
crafting
celiac
danc
drog
fry
geh
gta
gpus
jj
jared
kick
lipp
mj
mite
mlp
pj
pci
pests
pisa
p450
rana
s1
satis
sonia
someth
tj
tash
vice
vogel
zika
##oum
##lt
##lla
##e6
##p1
##tech
##rile
##sion
##mb
##maps
##gow
##gety
##hang
##inism
##induced
##eners
##anter
##ingu
##rob
##etra
##olens
##stre
##idt
##idase
stall
stamp
##choline
##aments
##leak
##esson
##osition
##rients
##unal
##abet
##adhy
##apt
##opis
##overn
exergy
enrique
##ystic
##eptide
clement
##phus
##pheric
effectivity
unions
##quar
##quist
phras
scient
streng
seung
##ighth
manoj
manfred
##ricing
atkinson
##arding
coumar
leung
indications
beha
##tividad
opens
##ongan
biogenic
classfication
quartz
schir
schist
##seismic
researching
##ynet
langer
semim
poems
designer
##hips
##axanthin
##emicarb
imagined
fins
microstructural
brent
subsc
subgroup
##sychology
ski
##onalds
joe
industrie
radon
##forcement
embed
##ophytes
corrid
histone
minat
slaves
profil
erin
##hei
photores
danish
directive
goes
randall
##science
landau
familia
backdoor
augus
##ulla
polyd
112
helpless
expense
pedot
##aminase
hype
macroscopic
confuc
palestin
metalorganic
mutu
router
personas
lipoprotein
institutes
reasoned
jamming
classifcation
nonlinearity
antibakter
150
masl
##roidism
##ulfide
downs
##itizing
aggregates
abstracts
165
psa
duplication
gastrop
tolu
radiomics
merit
translator
baud
shapiro
kaizen
senam
polarimetric
restoring
mahesh
raul
##olitics
intensification
runoff
##schitz
anthropological
src
ngos
##rington
ventric
cheung
fatima
##iyi
pythag
rumen
spanning
construccion
lyrics
phyll
stratified
larval
droplets
sugars
peptid
facilitates
observe
fidgety
licensing
nakamura
prostheses
##plasticity
laurence
u0001
iraqi
gadget
##volutional
discretion
typhi
toxins
lynda
municipality
bifida
estres
crawler
erythemat
antivacc
##rophysiology
metasurfaces
sickle
multiplexing
cluttered
consommation
catchment
lysine
mistakes
encephalitis
homelessness
##species
familiarity
multimode
rugby
sapiens
gymnema
algoritma
entomology
lethal
volunteers
fistula
barangay
fe3o4
pipelined
nitinol
mauro
vallejo
appreciation
clifford
disagreement
liquefaction
reductase
penderita
gothic
starcraft
multicriteria
eligibility
molybdenum
avocado
umbilical
something
0000
210
230
bann
c2
cpr
cps
eq
evel
fn
fou
gag
houd
hana
hscs
killing
lance
lax
lets
mard
pong
sear
sram
sander
tav
tics
ubi
vt
went
wider
zon
##oot
##oidea
##lh
##lusion
##tree
##rance
##nation
##say
##gp
##gra
##gos
##zys
##hinal
##yin
##vor
##watch
##erer
##enos
##esan
##icative
anac
##itant
##itatif
##isierung
##urative
##entry
##elearning
##iloc
stear
stake
##odb
##ref
##oscope
chlam
chander
##izability
##izatio
spong
spots
disput
disassembly
##acho
2030
##phrine
studie
shil
arna
perancangan
##ancang
1930
multibody
parc
elf
hek
tramad
commands
##unde
eck
mok
preview
soh
##iof
sims
electros
workspace
nonst
childbirth
internship
invariants
matsu
##olev
subun
subtitle
##iere
##ternational
##isser
##flora
puzzles
##evsky
radish
collect
specimens
eps
epic
##iedades
grit
grac
etanol
remember
firing
dani
mathieu
materialism
##olla
myr
southwestern
triz
mckin
angles
taxus
biotic
##ektif
##raga
warp
saito
foetida
liquor
illicit
packages
ppp
priya
violations
horror
goldrick
susanne
##atio3
provinc
rapd
fatal
braking
brazz
mastitis
borrowing
wrinkle
dublin
australopithecus
cyclodext
##alamic
ultrahigh
josh
murine
##kanen
mesos
mosfets
##urgy
sigir
levin
alkyl
glycemic
ballet
##oeba
adjusted
ciud
losing
everyone
breakfast
venk
bleph
incorporation
cvd
##ybin
keto
pumped
doris
didactic
multipliers
arbitration
katz
gears
sylvest
bioprinting
mccarthy
barton
licens
mildew
branched
incompress
kiw
yarn
chunk
triangulation
strike
supervisors
adulter
pillars
crawford
dubai
npk
illustrated
zirconium
comportamiento
alvaro
enviromental
epigenetics
startups
mobilenetv2
barrett
cesarean
sporting
##bourne
announcements
cranial
kearifan
##lotte
derek
burgess
##akrishnan
bibliotecas
dexterous
##alcoholic
gujarat
magnetostrictive
clostridium
moroccan
celebrities
shrinking
corridors
tramadol
234
ahn
bans
baj
bitter
eve
fing
fals
gats
gmail
hacc
jaff
lk
lia
lill
mocking
nina
nau
oocyte
qt
rani
tle
tup
varg
wort
waj
yuri
zol
##cline
##cont
##iated
##lus
##litz
##pool
##tze
##bard
##xial
##gare
##gung
##gcn
##grade
##famil
##hik
##jak
##inasi
##enment
##oru
##anat
##esch
ingu
##icha
anes
anod
anwar
andres
##acti
##idong
##agus
##chy
##cheng
##ucault
##abu
##absor
neal
compart
##achal
alim
##phos
##obal
##object
dik
##akar
shore
##assp
scrib
##antz
1956
1958
leap
##entially
martha
##prints
indus
indole
##aryotes
oppos
##arev
##verat
corel
coleman
mein
ectop
blades
carpal
conspir
estil
##ocks
distor
boiling
##arte
glow
glabra
charlotte
edent
edema
vij
viable
incis
##such
brca
brux
107
##afing
##afari
tempo
johan
joanne
solved
patron
industria
##ausch
serra
hydrate
concussion
##incare
generalised
encode
gover
robustly
customs
repatri
##sci
lightning
##enzo
myo
tournam
inductance
feeds
constellation
negatively
##ounts
polycarb
promises
tomor
saft
accessed
confir
##ropha
##icted
##101
bacterium
immunomod
karst
informacion
isolating
tumours
meny
ontario
maximize
phenotyping
rotate
radiofrequency
##iosemicarb
centralization
rhodes
conductors
daniela
psiloc
fractured
omics
preservice
nasional
firefly
stylistics
wearing
povidone
##calc
krug
callus
madrid
inverters
dermoscopy
cerebrov
ipil
huber
switches
consequence
departments
hopping
romanian
pinn
porno
sabine
botany
ayurved
jaund
biofuels
evolved
viscous
##party
neighborhoods
lectur
logistica
jiawei
##atalysts
cowork
watermelon
phillippines
hematological
sketches
neuromarketing
##amycin
u0004
rhizosphere
rhizobium
##ophilus
gluten
psychoanaly
kathleen
dyeing
refrigerant
democra
widely
nlg
dynasty
stomach
temporomandibular
amelior
ameloblastoma
luka
bentonite
shelter
ungu
glycop
lettuce
scoping
actinid
amidst
hakim
hemisphere
sarcasm
carbohydrates
hofst
conferences
intuition
surprising
tremor
completely
jamaica
srinivas
electroencephalography
giorgio
reluctance
ipv6
glossary
unequal
parliamentary
ophthalm
prohibited
haryana
griffiths
pizza
opponent
spindle
delirium
euthanasia
gossyp
cunningham
antibakteri
erythematosus
disputes
aal
ait
ail
bong
cine
caj
dion
duch
eep
fencing
gott
hts
iga
ipc
igbt
klu
kathy
lomb
mile
mere
naw
n2o
oto
pray
rov
rye
rcs
s4
t2
tare
uric
vd
viz
wed
wife
##cw
##cid
##aion
##lane
##ej
##pack
##mul
##mate
##d9
##zad
##zenet
##zhen
##hep
##hetic
##yal
##vist
##witch
##jn
##erb
##inks
##enbaum
##anj
anos
##itness
##atell
##isol
##root
##urin
thur
##oment
##emnt
##uly
##ulacion
styrene
##rax
##odem
##cho
##ched
conce
##usch
##tero
reposition
ongoing
##rion
##rizio
devel
dever
##abia
##imura
##ionics
##uder
##apar
spa
disinformation
clt
alber
alias
##quest
dihydro
##akin
##aksi
##actone
sheh
arising
##ayah
##ivo
##ivility
imprint
coin
coat
##prac
##ideo
##aval
isometric
##endi
##illas
infra
infill
cornel
desease
medina
managemen
##ismus
quim
appeal
techno
technic
agus
suresh
visu
sox
##fertil
##oku
communis
floss
##indus
##tins
idf
##artan
nond
classifications
edn
eduk
incarc
##inaz
##armacy
caputo
doh
cyto
memes
johans
psychol
overc
##ashto
redistribution
poses
##brach
pei
malawi
speciation
##ommuting
labs
##tilis
grat
grinding
rojas
corru
remodeling
profits
##eye
employers
encroach
topographic
quantify
monitors
##u0015
neurolog
learnig
harper
primaria
negeri
118
responsibilities
anglic
expir
succes
davidson
standar
propensity
##hyper
immunological
berb
foucault
definicion
render
##123
lego
convert
thomson
155
separated
##ceptive
lesbian
rosal
borer
followers
gaur
gaas
holt
include
majors
muff
##ohar
##lycer
gastritis
christos
##player
shipyard
antrop
momord
decompositions
prostat
svp
racing
mortgage
casp
pacl
baba
called
rankine
taguchi
habitats
kerr
glucos
##rotus
tamper
ventral
mangement
constructs
lyons
oscillating
escala
cathodic
rigorous
sabah
botanical
dentition
santri
durable
ibn
abnormality
##imbangan
acetone
anticipation
pleu
cuttings
frictional
chambers
interpretive
##oblast
steroid
pestel
metastases
dutta
stigm
hexagonal
cartesian
tensions
jarak
clarity
eliminating
aurora
##osomiasis
homeschool
gemc
kualitatif
rearrang
requests
siblings
##dynamics
endometriosis
litopenaeus
georgia
bryan
supraseg
##classification
torsional
pollutant
rakesh
systolic
neglected
networ
fermi
appendix
phillipines
admitted
hannah
herzberg
bharat
dollar
perkembangan
prepare
##speech
atiyah
waktu
statins
spreadsheet
revitalization
fathers
sterilization
manuscript
redefining
##liest
##aswamy
##emotional
sousa
prussian
premenstrual
reprogramming
jatropha
vivek
miniaturized
upgrading
reparameterization
cuckoo
amsterdam
penyebab
davenport
sutherland
evapotrans
##leakage
helplessness
psilocybin
jaundice
encroachment
330
aro
aims
b6
bom
cach
ctr
cte
ccd
dign
dota
dahl
eun
eust
fts
faw
gase
hik
hsi
ipa
kro
kast
kush
lr
lute
mug
mating
mhd
nou
olu
rv
rnas
sst
siti
taf
vast
vries
yon
zong
##cool
##iability
##lofen
##eiro
##eksi
##tun
##rust
##bite
##nec
##mons
##mnet
##mont
##gr
##hem
##yth
##yama
##vac
##willi
##tib
##tiz
##inka
##alid
##aldehyde
##enol
##ortical
##aric
anem
##isel
##edema
andrograph
##elic
##etts
##asking
##olio
##ileg
##star
##stalk
##agy
##aginal
##agawa
##chs
##chem
##amaz
chuk
tou
comet
##unle
##plankton
##nings
##adia
##opoly
nev
resverat
try
alban
##phon
modelos
interpr
shru
shrivastava
arteries
perawatan
peroxidase
##asso
contest
##ighter
emerald
mani
impurity
imports
1950
multifactor
leb
maroc
indication
indias
##times
##ousness
opposition
dataflow
info
bij
commuting
qubit
##ultur
agn
surab
##seg
weaning
##eney
motive
popl
simd
simons
flush
##inders
decid
##ropathy
##arty
optimality
##oyi
mata
matting
##aware
locate
economical
capable
##202
joining
implied
reddit
singularities
##alsam
speculation
##ursement
minnes
consuming
stressed
demys
fires
baron
composed
campan
##ostat
##tao
examinations
africas
##arger
ols
guides
##ativos
linearization
estado
##eseed
##shi
##shell
biosensors
pedersen
diabetics
macaque
broude
inhom
immunization
karth
walmart
##ictions
chennai
hemt
hemts
lipschitz
ramadan
burk
alignments
sanj
santi
brah
porters
competences
neuroend
neuroticism
concentrated
navier
electrons
fitz
vegan
curricular
rehab
lidocaine
mirr
cmc
subsidence
photoacoustic
hashimoto
calls
quadcop
fluorouracil
elekt
majority
commercialization
michigan
darts
glycyr
glycerol
julio
embeddedness
happens
cohesive
markovian
simultaneously
##iyu
rodent
reforming
##hoot
vo2
santa
attractive
spinning
palmprint
neurosci
leaks
vedios
varic
motherhood
stevens
negotiations
algangan
cobit
jordanian
kolkata
mppt
ugly
awak
syllab
hawkins
leptin
mohsen
pasca
aceh
llc
clarification
krishnan
##hsan
clearing
prisoners
sacrif
conductance
sickness
ubiquitin
guaranteed
stomatal
neuropsychological
calibrating
iqbal
carboxylic
oversampling
eisen
1111j
mfcc
occluded
lizard
aberration
doxorub
frustration
infantil
##itaxel
chylothorax
subsidy
geomagnetic
beverages
installation
gastrectomy
##children
aneurysm
##adaptive
papillomavirus
##anosoma
rechargeable
bhattacharya
energetic
constantin
##knowledge
enfermedades
enlightenment
superficial
discursive
cyprus
millenials
pivot
exceptional
detergent
profesional
timmerman
photorealistic
cuisine
##abricated
videogames
gambaran
arrhythmia
logarithmic
thierry
orthopaedic
improvisation
eyewitness
kalyan
corrugated
tuberosum
##adhyay
gatsby
216
239
911
a1
aac
bk
bem
brick
bricks
cog
cables
ddr
eich
fong
fumar
gim
heme
ie
jd
ks
lying
mature
nid
nard
oat
plex
ports
ria
ried
raff
rover
seller
tug
tinc
tanner
vanc
xuan
yen
yee
##a6
##lysis
##tation
##b4
##nap
##016
##micro
##xiety
##xuan
##kk
##kul
##fah
##zek
##hos
##hof
##hiko
##yao
##writing
##inar
##alp
##enian
##enheit
inade
inproceedings
##icacion
##atsu
##ecology
##acology
##emory
##emaker
##iland
stator
##ticia
##ticular
##chang
##eart
##esse
##rift
dey
##umo
##abin
##irj
##imide
imid
orp
expor
exacer
envelopment
enalap
##tinger
##tingia
modulate
resear
prp
prere
tril
alps
##phot
asuhan
##forms
apost
shira
##assar
strings
##iste
##ivision
impacting
##arden
multin
multiplayer
##prud
parse
beb
beban
beacon
travers
##endor
##endation
pollin
##ianism
amos
whose
##sek
autor
obrien
##egu
weis
ecc
langauge
carry
##iox
convolu
persis
flem
##indo
##indic
##ilee
##tinib
distancia
##ropri
nonalcoholic
glas
##oyu
charantia
monkeys
incivility
frans
microbe
microeconomics
bring
bras
brett
##iera
lincol
##isex
memris
psycholingu
overexpression
geost
##bred
##inska
sala
deline
delgado
nato
natasha
slices
##deo
centres
remains
typography
samir
concaten
concurrency
searchable
dirac
innovativeness
logit
determines
octop
##ventional
plantarum
virtuales
devil
factories
relatedness
futur
constants
molten
##biosis
investigacion
##compar
ic50
iccv
driessen
advancements
##kii
trif
magdal
colored
##etium
taxp
sucking
preced
partum
propiedades
124
##idding
bertr
##129
bandpass
snyder
hemodynamic
explorations
ppo
##115
rotations
headache
namibia
anthrac
braille
##proving
##135
participate
butyl
tumorigen
nurture
halogen
radiative
actuation
companys
multicast
mirzak
raise
fungsi
ashish
sheath
eleg
1965
execu
1016s
##words
phyto
##mixt
fisik
divine
ssr
swarms
node2vec
henri
ozonation
vacancy
voter
cornell
deformations
telecommuting
bengali
renewal
vedeo
ketepatan
florence
anchoring
multitasking
budgetary
utara
tendency
nerves
##ufried
sedimentary
clinicians
transcriptomic
cyanide
hungarian
deviations
oligosacchar
ranges
kristina
kulkarni
bogdan
newtonian
weekly
registered
scandina
pamela
latit
lutz
ewom
potentilla
memorization
brachy
vernacular
retardant
precursors
piperita
finnish
congruence
insufficiency
polypharmacy
microblogs
factuality
appetite
##hotra
reluctant
lycopers
abandoned
mccullough
binarized
thalassemia
wimax
agglomeration
territory
duplicate
kampung
impulsivity
biotech
##inflammatory
politeness
proyect
endophytic
nostalgia
ortega
kejadian
jacqueline
obligations
derecho
hockey
reseach
cuestionario
jaccard
unscented
impossible
berhubungan
venkates
distortions
paclitaxel
resveratrol
inadequ
enalapril
prerequis
lincoln
memristive
##ufriedenheit
013
214
238
a2
aub
bant
bari
baw
boll
btc
cinc
cef
dx
eosin
faz
feline
gour
grim
gaj
gives
hcl
moc
norton
oro
pace
pee
pitt
ration
rop
rack
rok
rams
sx
sine
sow
somm
ssc
tation
tent
tyr
toni
vault
wag
weng
yav
yoshi
zim
ziel
##ook
##cing
##ivitis
##pf
##ptic
##b1
##bok
##brain
##nement
##kok
##dha
##gel
##f0
##fac
##vit
##7a
##jam
##qin
##anya
##itat
##isco
##roduction
##elen
##elson
thrombo
##omance
##omechanical
##emon
##ulants
##idiv
##agl
##change
##amia
reem
##ositis
##oslav
chell
dei
##umor
##plate
##utuhan
imo
##opre
##ovid
usual
syz
acro
spod
spend
spleen
trp
distinction
clitor
aloud
##obility
##obiology
##iping
##qua
pham
shams
recidiv
argu
systematics
sealing
##anck
##iban
leather
marion
indi
tradisi
isotropic
##area
infestation
assoc
assays
polishing
amput
##bler
schwe
##aluation
##egos
weib
weyl
##ynch
educativa
moun
performanc
engl
engle
preem
prehist
##ferro
carica
##inesterase
flesh
invitro
##awesi
discapac
microenvironment
microleakage
risc
realized
retaining
memper
comparision
however
geiger
lozano
##askan
##askar
twel
malhotra
specified
laba
allows
slender
xxxv
affiliation
##odef
erl
crosslink
demolition
##itik
baru
upaya
##ercio
breg
campo
photograph
ult
##tening
cured
irina
connective
landfill
##u0013
temperament
##zzo
benif
bender
##linical
panda
metaanalysis
penrose
##ouni
herd
smallholder
inferred
anglo
nuts
wiring
brandon
homography
propri
##rophication
aeronet
brock
normality
karol
roadway
legends
reductions
informational
competitions
##117
sunlight
##liff
vulgare
##conf
prosper
pores
rhinos
##157
budgets
orthod
vega
differentiating
cyclones
dryer
mohamad
reprod
presentations
fairy
toronto
cd73
multicent
galer
woods
chloroquine
krzys
heparin
browsing
##ogenicity
gestalt
quadric
adolescentes
cerebellar
maml
sdr
adjustments
fisioter
midas
freshness
perfomance
untreated
##no2
fragility
oscillatory
mariam
simplicity
flyback
districts
ribosomal
##relations
hills
jenny
##enthal
espina
missions
biopsych
villages
steroids
folkl
sulawesi
clinician
conserved
kwon
terrorist
consolid
wanita
##ophyllum
shaming
marxism
arrangements
kecamatan
unfair
encounter
tamilnad
stripping
##physics
yoav
affordance
multiculturalism
saccades
scandal
hymenoptera
heterostructures
honor
kebutuhan
akira
trypanosoma
mnemonics
metaheuristics
hallucination
antidepressants
fucking
vendor
mutagenic
arthropod
##ztof
adequacy
stenosis
lepidoptera
fulfill
perbanding
nutricion
##odendron
subjectivity
ferguson
toxoplasma
destinations
ecotourism
photodetector
pothole
perfectionism
subspaces
castillo
ilya
endoplasmic
obfuscation
biswas
dormancy
estradiol
piaget
kinship
jujube
arizona
kiwif
haccp
cerebrovascular
momordica
gemcitabine
minnesota
krzysztof
folklore
tamilnadu
bend
bauer
crom
dill
dwell
ehealth
fug
gom
jf
jug
kj
kag
karm
kato
lank
mub
nug
nair
sank
stil
tx
telling
vial
wings
wides
zag
##ced
##card
##control
##lm
##lop
##rar
##bec
##md
##mis
##kah
##dia
##dine
##dust
##gression
##f5
##fried
##zal
##zers
##yas
##7c
##onent
##erch
##inition
##enix
inund
##rok
##roth
##ecom
##ecki
##urban
##entos
##etter
##asila
thiosemicarb
##olate
##omal
##omeric
##emum
##ulat
##iditas
reu
##ospora
chari
##tham
##unet
##abah
##atique
##impin
##imientos
##plore
##udan
##opamine
ornam
##izadeh
exopl
compris
disulfide
##ualan
alib
##ologico
##ipine
unesco
undef
##query
dibor
diaper
phoen
shedding
reck
arro
perenc
perbank
scoo
seaf
intox
##iston
emf
emper
mant
detec
##antas
plum
multiband
martian
##prec
effector
##rylam
gratification
##athon
##blasts
##isman
apprehension
weaving
weeks
##rosy
moor
blasting
humph
diffr
protects
incid
subord
guilt
##iero
##ymes
linbo3
##issi
trainings
##ashing
casein
characterize
malus
epstein
rost
auf
##ometri
##esharing
ers
demography
democr
##eya
ito
transferred
upgrade
cambi
photographic
zhan
fibrous
complexities
sustaining
skilled
##ulli
catcher
icc
##kiewicz
maxilla
trips
##fully
mcwilli
annular
liberia
macular
macmill
##ennial
nitrous
propell
propylene
##102
renato
##web
treebank
capacitors
##ouli
##ijs
mainland
##aranja
morphable
screens
vulcan
biliary
##resp
goldman
fabry
narayanan
##electronics
strokes
naming
anthel
131
multimodel
hoang
140
duties
##ohex
pcm
absorptive
romance
boxing
meri
##gestive
stylization
giul
querying
irony
raju
rajiv
ethnographic
pasteur
astaxanthin
browne
elek
sril
courier
cerebrosp
sdm
darknet
hydrogenation
fmcw
tenant
communicable
tacit
gallic
pornography
pancasila
mmc
muntingia
##amanan
recognising
##iformes
yogh
receive
tailoring
ebv
neuropathic
moistur
multiplicative
shuang
##rusor
pitts
gearbox
introduced
konsum
bucket
deadline
deadlock
luminescent
gardening
attributions
etika
dnns
kawasaki
alteration
##ktomi
deconvolutional
plague
validating
scarab
batholith
reserach
intersectionality
reachability
roadside
##patrick
landslides
ponds
plurality
witness
horticultural
ignition
offerings
eutrophication
encapsulated
surprise
siegel
reperc
mejor
galaxies
rubinstein
tiempo
scotland
optoelectronic
endocrin
renee
crosstalk
pewarna
carcass
menurut
##electrochemical
enjoyment
reusable
juridique
annihil
thrombocytopenia
conveyor
extrapolation
irreversible
hebrew
eclipse
aquaponics
suppurative
jantung
incompressible
edentulous
actinidiae
anglicisms
pleurotus
evapotranspiration
mirzakhani
executives
perbandingan
kiwifruit
undefined
cerebrospinal
4v
bax
bola
cds
croc
dma
eocene
fell
gpr
gaus
ih
jl
jody
kuk
lw
lbp
nz
pays
pumps
rico
riy
soss
tls
tien
taint
v1
vole
wies
wlan
wester
wisc
zan
zul
##oza
##lable
##e2
##tage
##nell
##uw
##mind
##kal
##kop
##fg
##zin
##hit
##erra
##inic
##alization
ingen
##atti
##atric
##isian
##ecy
##urine
##acute
##ilicate
##sters
##stones
##idhar
##ravel
##amba
##ampled
##terity
prover
##riax
chief
toh
comedy
##uclear
##uno
##unity
##iring
##iris
##irani
##utative
imam
##apha
##opogon
orland
clays
adr
alaska
efferv
asm
##ipt
##ipel
phthal
##eche
perd
intense
##istor
##usto
##ivac
detention
1951
lehr
##orte
deeps
##tivos
opencl
socket
relapsed
desain
amal
amines
quercetin
wholes
agil
##enges
colostr
##erved
##enetic
regist
regress
blum
##iken
conson
flores
boh
boon
bout
organize
##oyama
##tificial
incubation
fraser
brin
brut
1017
textural
capping
skopos
overt
adaptively
##oxane
##urred
speculative
serbia
serrano
internationalisation
literasi
slc
slit
##cl2
etude
erasure
crosslin
facets
photodynamic
personalities
##ethics
goats
patterned
##screen
curl
curation
steatosis
nursery
benoit
primal
negro
pengel
115
magma
baltic
platoon
maas
milking
extro
121
127
palmar
melody
melbourne
definite
passer
##oticus
mutational
rouge
damper
##ijun
dennett
lipo
##118
morphing
liveness
andrei
andrey
manipul
##differ
raphael
scheduled
sexually
yangtze
exposing
adultos
borges
boredom
multimodality
hamm
autoencoding
texting
majid
##laim
##piratory
radiometer
translated
cleft
##opsies
tabular
pelati
senegal
pastoral
religions
astrocytes
profitabilitas
cryptosystem
##sche
citric
oceans
balloon
msds
cheap
##gggg
divided
andrews
pigments
counselors
reformulation
cemento
marius
voip
flywhe
vibrio
seasons
zhuang
ribo
lindsay
tribological
##aksanaan
mikolov
awake
rdma
gonad
exponent
physiotherap
##00000000
pestle
harvester
lauren
jaringan
##phalus
herbicides
angeles
microprop
spheres
superconductor
bradley
gabriela
electrocatalytic
bachelor
described
innoc
diarization
gingivitis
jewel
squeezenet
comunication
chalc
noble
suggested
sharpness
##asyon
contingent
sungai
dissociative
auctions
newspapers
aspiration
cepa
noncoding
econometrics
brushless
bronchopulmonary
dummy
barcoding
schulz
srinivasan
##american
hydrodynamics
evidences
controversy
hutch
vendors
appeals
disruptors
euphemism
mxene
tyrosine
anfis
sufferage
fumig
amaranthus
retracted
lipstick
calabura
solubilizing
unemployed
affirmative
isabelle
morfologi
nocturnal
riccardo
likuiditas
kazakhstan
diaphragm
sierra
##cliffe
dissipative
unintended
manchester
surabaya
quadcopter
scandinavian
widespread
perbankan
macmillan
yoghurt
##riaxone
016
012
215
6g
ation
aod
auc
bn
bati
bacc
cumin
cct
dud
dhan
dune
drafting
fomo
jt
kale
kail
kham
kali
kuantit
loy
mae
mba
mazz
none
nabil
pik
pnp
rie
torn
tense
ust
v5
wiz
woo
yok
yaman
zare
zeta
##commun
##iensis
##a2
##lak
##liness
##lstm
##8c
##etin
##eenth
##pting
##pong
##toc
##bang
##uisme
##mil
##kb
##fri
##zewski
##has
##hay
##heng
##huber
##won
##wara
##tiroid
##alog
##enburg
##icans
##isse
##asim
##asub
thakur
##olv
forearm
sts
##odiaz
##chol
conve
constr
##usiness
##iging
##ogic
##osist
##thon
##ocom
##irub
##imation
##imumab
##ithromycin
##apur
##apati
##opressin
neem
moderated
modulators
usenix
aci
##achy
alth
alme
##ifting
##obis
univer
apri
diurnal
shing
shaf
shuk
arach
contoh
##utional
stron
seab
transduction
intact
##ivores
##ancial
detrusor
##arda
coerc
193
maril
openc
graves
##esto
infin
##hawar
##orsky
##athematics
technetium
agv
##enga
##002
##005
selatan
obsc
weathering
feyn
moj
semidefinite
robo
poker
##ikar
##iksi
smt
simpson
secular
accidental
frp
brenn
insulating
##naz
progen
psychologist
intelligibility
##ixing
##flik
cultur
defend
peaks
distributive
deleu
drinks
##isional
architects
##eyan
airspace
facs
barnett
##hetics
readmission
terra
ull
customization
movi
##rada
randomly
randomness
octa
valv
neurol
temperatur
epiderm
futsal
cryogenic
negation
esthetic
##valence
colorful
expensive
##omyosarcoma
intrins
libro
manufactured
##books
warcraft
refine
refuse
saif
doesnt
failing
vanets
liposomal
siemens
##rically
arabian
scalp
professions
phenotypes
fabrizio
186
##rogenesis
fatma
133
prosopis
##poo
porcel
##idado
squat
inclination
ortho
adjusting
stimulate
titan
stereot
oss
junk
cereals
merge
acceptable
pharmacogn
azo
observable
caul
motivate
kaolin
theraphy
morales
saver
mdd
xiaof
nih
ballistic
##rotactile
accountant
macrobrach
tiab
donors
antony
pvt
counsell
likert
lagoon
lagrange
cinematic
koen
dispersed
contractors
shareholders
married
albino
rcts
configurable
ribeiro
##oplasty
pavements
wiki
accumulated
pitaya
##planes
montreal
veil
seq2seq
hawaii
rebell
adhesives
angiogenesis
ulcerative
vaugh
stripe
placed
eugen
kyung
souza
conjugated
##volatile
frontalization
pharmacokinetic
bureaucratic
beginners
ludwig
morbid
sparql
mongodb
lahore
eurasian
cecilia
advisor
cochlear
entrance
prokaryotic
depresion
disinfectant
##ococci
##onitrile
##blockchain
mindsets
oryza
agronomic
transposable
intermediaries
plurilinguisme
deflection
accompan
dijkstra
elisabeth
ambidex
herrera
avalanche
micronutrients
chimpanzee
reciprocity
eukaryotic
arbeits
klasifikasi
naveen
coexistence
delegation
viscoelastic
nanopartikel
entorhinal
maxillofacial
surpassing
superintelligence
nothing
penjualan
steffen
anaphora
phrasal
palestinian
mesoscale
inguinal
goverment
gratton
homeschooling
syllabus
multinomial
bertrand
discapacidad
galerkin
phoenix
3x
bpr
bock
batio3
cair
cush
c3n4
dand
dunc
dawa
foun
hul
hild
hanna
ike
kogn
kart
krim
kull
kwan
lom
lasting
mage
mga
mda
nif
nacl
pangan
pva
p300
qigong
r2
riding
rasa
sers
sard
sss
ture
vaz
welling
wett
xer
xvi
xception
##oher
##comm
##iencia
##aiton
##leman
##e7
##priv
##b0
##bj
##bents
##bacter
##bub
##nce
##112
##uating
##sic
##social
##shaw
##mg
##may
##kine
##dropping
##gc
##fus
##hid
##hum
##yel
##yros
##vial
##jm
##jid
##jung
##jau
##qs
##tige
##onov
##inent
##alm
##alus
##atech
##elyn
##etron
theano
##ilops
##sthe
##stander
##aghi
##chia
congestive
##uso
##ogra
##ogly
##ogaster
##rex
chr
##ired
##atie
##apine
##opod
##ovir
exosomes
modi
##angas
syrian
sput
##epar
admixt
alem
alif
##pharm
##ologis
##obenz
apis
diare
phis
phage
pherom
metron
shall
reclos
aryl
perineal
##assa
##assan
contours
##ayat
seid
genres
detr
195
1953
1952
##ibrill
covers
gravel
trailing
##avia
isabel
bystander
relie
##estar
##009
apples
##tridge
researchgate
##ynd
feather
timely
regimen
blume
blanco
poetic
soz
soaking
predatory
carm
##gankov
markedness
knots
##titative
approaching
dece
nonvolatile
synapse
##eeb
supra
##viral
finish
insulated
subtilis
##2021
##nessee
liner
servic
intelligences
solo
soldi
##azawa
puffer
afect
##evan
singer
radion
collectors
allost
noor
##tillation
##exam
##married
##ofa
centroid
rememb
swan
##abilty
calvin
postm
chemorad
longa
pathologic
##oidosis
camell
personalised
potency
##tigo
freed
##rado
interactional
irwin
oconn
verlag
sums
preserve
urbanisation
differently
introvert
inducible
addis
belcher
linearity
iceland
1186
helium
integrator
mci
mcquar
libs
stepping
medicare
refram
##enny
winding
interventional
enteric
acharya
immunodef
definisi
karin
##hadi
instal
snack
snakes
roux
essence
menj
individualized
transitioning
morphogenesis
modernity
##research
headphone
birk
anthology
##contin
alexa
akbar
masashi
rhinitis
neurotrans
ukraine
ambass
adopt
girard
holoth
##ystems
piotr
adjoint
ionization
ionizing
titration
##feed
##irov
accepted
observing
kaiser
abstin
piping
ingestion
pretrain
lymphoblastic
fallacy
helpfulness
fpn
dilat
gerhard
jeong
darkness
##389
glucocortic
mangost
fisika
stackelberg
freshmen
bimodal
pinter
chih
magnetron
trigg
umum
##ygium
cfrp
multilingualism
vibrating
vibrotactile
konflik
ebg
diagnoses
jerzy
refinery
kiran
kirch
pleural
neoplas
lemma
##planar
themsel
hematology
dbscan
josef
cartel
ripening
antecedent
theoretically
dunn
asperger
##razine
##depression
prophet
marginalized
applicable
sinusitis
tlx
ductile
alessandra
nwabia
appren
potentially
paintings
nivel
instantaneous
tgf
festivals
cholang
robertson
pencil
propositions
diatoms
eccentricity
chrysanth
utaut2
subculture
encouraging
tattoos
hudson
reverberation
rituals
elliott
oryz
sponsorship
certificate
instructors
vapour
tehran
pericard
briggs
pietro
aegilops
arvind
atsushi
orphan
kansei
bioreactor
ijcai
emanuel
govindarajan
orthopedic
pichler
calendar
##machine
zoonotic
hypoglycemia
positivism
eavesdropping
empathetic
writers
ventricle
glycoprotein
##ileged
exacerb
syzygium
twelve
##rylamide
anthelmin
pelatihan
##asubram
macrobrachium
soldiers
mcquarrie
217
5s
bail
bits
dao
dams
dtc
e2
eig
fok
fenn
gale
gopal
gizzard
hk
h7
hutan
ilex
jem
kers
krom
kano
lian
lone
mpa
mika
nter
oler
pum
pda
pause
qam
qsar
qirj
rms
rival
tauss
ucl
weg
woj
xrf
yer
yor
ybar
zil
##oes
##ohn
##ozzi
##paper
##rong
##rata
##1e
##xis
##f9
##zema
##vv
##waves
##tides
##onc
##onau
##inning
##algorithm
##eneration
##inga
##icry
ants
##iten
##atta
##ecvf
##uron
##asti
thio
##access
##acios
##omat
##omann
##emik
theori
##idata
std
stalk
striving
##odong
##agem
##chel
##chenko
##veen
##amo
##igold
##leaf
refact
ons
##essori
##osel
defer
##thor
comercio
##umm
##umers
##uning
##plications
##ionine
ench
modifying
##angled
acryl
prat
tris
##uality
unmarried
apollo
##quet
##eware
interim
shoe
analis
strut
transvers
##uston
datos
coop
coils
##anted
##alloy
plut
multiword
multiresolution
##ibat
marching
elective
everg
evening
##tima
##oua
cori
cornea
biologi
quo
quasil
agius
autologous
weil
##erges
feat
##ishman
timer
bland
blender
performed
seminary
##ikation
cara
carne
groove
newcom
##erna
deceptive
decryption
boar
organoids
nont
seclusion
synaps
##wards
edin
##tifolia
##supervised
discounting
sketching
##eena
repress
arche
solitary
redactable
posting
##otho
delle
formats
antip
serve
epigen
programa
programmer
slur
slotted
affection
##torial
remitt
erm
smartwatch
##itize
calm
calam
calder
notation
airflow
barber
longformer
##ethnic
pott
repar
creatin
turtles
fasttext
##ounding
##nette
silhou
planta
docentes
ferment
factored
artemia
##pss
tourette
catt
cryptic
##ospital
polyaniline
icassp
1126
cardior
##omatics
promoted
##rability
preclinical
partur
paola
goodman
brocc
foams
petra
petersen
electrodep
walton
snr
miami
ppe
##111
rotavirus
ieeecvf
delivering
enso
ensure
experiencing
rhino
rhabd
germplasm
##130
decomposing
misunder
##wavel
kimber
authorization
##ushima
indicate
presenteeism
pharmaco
martina
faroo
parsons
pelagic
mayores
rajeev
kenyan
judges
cryptanalysis
deriving
wilkins
bhag
executable
stabilize
##plantation
dermoscopic
locke
kompres
ideological
ellips
pigmented
tacotron
cadcam
rewarding
##wells
308
pradeep
##faat
oscillators
rigging
punica
vidal
piero
##domain
prolactin
moodle
analogies
inspire
segmental
##ilmaz
suspicious
hussein
bergman
sadism
nowcasting
montessori
bibliographic
watermark
significantly
konsent
trout
substitute
prefabricated
naked
bangun
contaminacion
cabbage
branches
benzene
benzodiaz
pickering
gardens
rhizoc
tanks
##aceted
cubes
gliomas
peshawar
polymorphic
obligation
##enerative
chimeric
unpacking
marginalization
forcasting
ciclo
skipping
nationwide
diclofen
